#version: 0.2
ä ¸
Ġ ,
ä º
Ġ å
ç ļ
çļ Ħ
â Ģ
ã Ģ
Ġ ãĢ
ĠãĢ Ĥ
ä »
Ġ æ
è ¿
č Ċ
å ¤
äº Ĩ
ä¸ Ģ
æ ĺ
ä ¹
æĺ ¯
ä ½
ä¸ į
å ı
æ ľ
å ľ
âĢ Ŀ
âĢ ľ
å °
. .
Ġ è
å Ĳ
Ġ ç
å Ī
è¿ Ļ
å ħ
æ Ŀ
å ®
Ī ĳ
äº º
æ ī
è ¯
é ģ
Ġ é
æ Ĺ
ä» ĸ
éģ ĵ
æľ ī
å ĩ
ç ľ
å ¾
ä½ ł
å į
æĿ ¥
ä¸ ª
ĥ ½
å Ń
Ġ :
å ¥
ä ¼
ç Ŀ
åľ ¨
ç »
å ·
Ġ: âĢľ
å Ĭ
åľ °
é ĩ
ä¸ Ĭ
å¤ §
å ¿
Ġ âĢľ
çĿ Ģ
Ĥ £
æ ĥ
å ¼
ä¹ Ł
Ġå ı
Ġ ?
è µ
Ġ !
å Ĩ
æ Ģ
åĪ °
å İ
åŃ Ĳ
Ġæ Īĳ
ä» ¬
ä¹ Ī
ĠãĢĤ âĢĿ
æ Ń
ç Ķ
æ Īĳ
é Ĺ
æ ĸ
.. ..
å° ±
Ħ ¶
è¯ ´
ä¸ ĭ
æ ŀ
æ ²
è Ģ
ç Ħ¶
Ġ è¿Ļ
è §
åĩ º
å Ľ
é Ľ
¦ ģ
é Ŀ
ä¸ Ń
è¿ ĩ
å ¸
å £
æ Ĭ
Ġ ä½ł
è ®
å¤ ©
è¿ ĺ
å ¯
è ĩ
æ °
å Ĵ
é ĥ½
å ¹
è ¦ģ
çľ ĭ
å ī
å ĳ
å¾ Ĺ
æ Ī
ç ¬
Ġå °
ç İ
åİ »
éĩ Į
ç Ľ
æ Ħ
æĹ ¶
æ ł
æ ķ
Ġ ä»ĸ
å¤ ´
è º
é Ĥ£
é Ģ
å ¦
Ġ? âĢĿ
å º
ä¹ ĭ
è ¡
é ĺ
æ² ¡
æ ĭ
å° ı
è ĥ½
èµ ·
ç Ł
æī ĭ
Ġ čĊ
èº «
å ĵ
å¿ ĥ
æ ¸
ç Ĥ
ä¸ º
å ±
ä¼ ļ
Ġ! âĢĿ
éĽ ·
å£ °
ç ¥
åĴ Į
Ġ ä¸į
ç §
åĲ İ
å¥ ½
èĩ ª
ç º
æ İ
è ¾
è ½
ç¬ ĳ
ç «
æ ³
å ½
Ġé Ĥ£
ä» ¥
Ġæ ŀ
è Ħ
äº Ľ
ç ī
éĿ ¢
.... ..
åı ¯
æ Ļ
ä» Ģ
è ·
ä»Ģ ä¹Ī
ä ¿
æĥ ³
Ġæŀ Ĺ
æ ¯
å Ģ
Ġ ......
è ´
å¯ ¹
ä¸Ģ ä¸ª
Ļ ½
ç¥ ŀ
äº ĭ
å® ¶
çľ ¼
Ġå ¤
å §
çĤ ¹
å¤ ļ
ä ¾
æ° Ķ
çŁ ¥
æ Į
åĬ Ľ
ç ģ
è ¢
ä¸ ī
äºĨ ä¸Ģ
é £
æł ·
ä¸ ¤
è į
åī į
Ġ ä¸Ģ
æĹ ł
æĸ ¹
ç» ı
å· ±
æ Ķ
æ ¬
ç Ī
æ ģ
é ķ
å¼ Ģ
æŀ Ĺ
å· ²
Ġ âĢ
è§ ģ
Ġå ¥
è¯ Ŀ
æ¸ ħ
èĢ ģ
å¦ Ĥ
æ µ
æĥ ħ
å ģ
é Ļ
Ġ ä½
Ġæ ľ
Ġå į
æĦ ı
ĠãĢ ģ
çĶ Ł
Ġå° ±
Ġè Ģ
å¾ Ī
ç ®
åį ģ
å ĸ
é ¢
åĩ ł
é ļ
èĩª å·±
æ²¡ æľī
åı ĳ
æ³ ķ
æ ´
è ī
Ġåı ¯
å ķ
æī į
å Į
Ġç ľ
é »
ç Ń
å¹ ´
é Ń
çŁ¥ éģĵ
æĪ Ĳ
è °
åĬ ¨
ç ´
è Ĥ
éķ ¿
éĹ ´
ä» İ
Ġåı ª
Ġå ħ
ç ĭ
è¢ «
åı £
åı ª
ç ©
è ĭ
« ĺ
çİ °
çľ Ł
Ġæ ĺ
å Ŀ
æĺ İ
éĹ ¨
åĽ ŀ
æĬ Ĭ
è ĥ
Ġå Ĳ
å¥ ¹
æ ·
é ¡
åĨ Ľ
ä½ ı
å± ±
å Ħ
ä½ į
åħ ī
Ġä½ Ĩ
è Ī
æī ĵ
é ľ
Ġ ä¹Ł
çĶ ¨
äº İ
ç Ļ½
èī ²
åĦ ¿
æŃ »
è ¶
Ġå ľ
ç» Ļ
Ġæ ī
é «ĺ
åĲ §
æĹ ı
Ġè ¯
Ĥ ħ
ä¸į æĺ¯
æľ ¬
å·² ç»ı
æī ¬
ç ¾
èµ °
å ¨
åĢ Ļ
èĢ Į
äº Į
ä¸ »
è Ĭ
ĠæŀĹ éĽ·
æ ĳ
å¥ ³
Ġå¤ §
å° Ĩ
æĻ ļ
åı Ī
å® ļ
æŃ £
é Ķ
è¿ Ľ
å Ł
è¾ ¹
İ ä¹Ī
è Ĳ
ç ½
å§ Ĳ
åį ´
éĹ ®
ç ķ
è¡ Į
ä¾ ¿
è® ©
è§ ī
èĦ ¸
ç§ į
æ ±
Ġå Ī
å® ŀ
æ¬ ¡
æĹ¶ åĢĻ
Ġå° ı
åĲ ¬
å° ĳ
ä¸ ľ
ä»ĸ ä»¬
ç ĥ
å ĺ
èµ· æĿ¥
æ¸ħ æī¬
Ĥħ æ¸ħæī¬
Ġ, âĢľ
æ »
é£ İ
åī ĳ
å½ ĵ
Ġåı ¶
åĲ ĳ
æŃ ¤
Ľ ´
å¼ º
èį £
Ġ è¿ĺ
ç ¼
è½ »
å°± æĺ¯
ĠèĢ Į
é ª
æ Ĥ
åķ Ĭ
å ĥ
Ġåľ ¨
è¿ ŀ
Ġå ¦
âĢ Ķ
å¤ ĸ
æŀ ľ
åĪ Ĩ
éĩ į
è¿ ľ
é ©
ç Ļ
Ł ³
ä½ ĵ
Ġç ¬
æĪ ĺ
Ġå ¿
é ĥ
Ġæ Ń
Ġæĺ ¯
Ġæ Ŀ
æĦ Ł
åģ ļ
æ° ´
æĻļ èį£
å¤ Ħ
ä» Ļ
ç ª
åĨ į
éĺ ³
åĲ į
Ġæ Ĺ
Ġæ ²
Ġå ®
å¸ Ī
åı ¶
æŀ «
éŃ Ķ
¾ Ļ
Ġ .
äº ĳ
æ¯ Ķ
ç® Ĺ
Ġæ Ģ
é Ĵ
çģ µ
çĻ ¾
Ġå ¾
éĩ ĳ
è Ļ
ä¸ ĩ
æĿ Ģ
åħ ¥
åĥ ı
çĽ ´
æ ¶
çĽ ¸
è¿Ļ ä¸ª
æĪĳ ä»¬
å· Ŀ
Ġç İ
å¤ ª
Ġåı¯ æĺ¯
æī Ģ
ç Ĳ
å¾ ®
Ġå¥ ¹
åĪ° äºĨ
èĢ ħ
ç© º
Ġ...... âĢĿ
åĲ Į
å ¢
çŃ ī
æĥ Ĭ
ç ł
ä¹ Ĳ
¥ ¿
åħ ¬
åĽ Ľ
æľ Ģ
åħ Ī
æ ı
ä¿ ®
Ġçľ ĭ
Ġå ĵ
æľ Ľ
åħ ¨
ĠæĪĳ ä»¬
æİ ¥
ç ¦
Ġå¦ Ĥ
äº Ķ
åĨ ħ
æĢ İä¹Ī
é» ĳ
Ġæ ĸ
åĩº æĿ¥
Ġåį ´
è¡ Ģ
åĳ ¢
åı ĺ
ç ĸ
ĠæŀĹ æĻļèį£
åĵ ¥
æ ļ
æľī äºĽ
å¼ Ł
é ¾Ļ
åħ µ
Ġç¬ ¬
ä» Ĭ
åĪ »
ç ²
æĢ ķ
Ġä¸į è¿ĩ
æ Ł
æĸ ¯
Ġå ½
Ġæľ ī
åŁ İ
é Ł³
é© ¬
å¿ «
è¿Ļ ä¹Ī
æ ħ
Ġè ĩ
Ġå ¯
Ġè¯ ´
è İ
é ĵ
çī ¹
è· Ł
å£ «
çļĦ äºº
äº ²
éĺ µ
æķ °
ä¹Ł ä¸į
åº Ķ
è ¥¿
æĶ ¾
ä½ ķ
çģ «
åı «
çİ ĭ
åĪ «
Ġå Ĩ
ä¼ ł
äºĭ æĥħ
ĠâĢ Ķ
åį ĥ
Ġç »
æ į
éĢ ļ
å ĭ
åħ ¶
æ ®
Ġ âĢĿ
éļ ¾
ĠâĢĶ âĢĶ
Ġå Ľ
Ļ½ çĦ¶
Ġè ®
éĥ ¨
è ħ
å¸ ¦
è¿ĺ æĺ¯
åĳ ½
ĠãĢ ı
çĪ ·
ç Į
é£ ŀ
åĪ ļ
å® Į
åĲ Ĺ
èĪ ¬
« å·Ŀ
Ġç ´
ä¿ ¡
Ġå ĩ
åĽ ½
ä¸ İ
æŃ ¥
Ġé ļ
åľ º
ĠãĢ İ
çĽ ®
æĹ ¥
æī ¾
æŀĹ éĽ·
é ħ
çº ¢
Ġå½ ĵ
Ġå¯ ¹
Ġä»ĸ ä»¬
çļĦ ä¸Ģ
ç ŀ
Ġå¥ ½
èĲ ½
Ġå ¸
è £
åį Ĭ
è´ Ŀ
çļĦ æĹ¶åĢĻ
éĥ½ æĺ¯
åĢ Ĵ
æĢ ª
Ġä½Ĩ æĺ¯
Ġç Ķ
æ» ¡
ä½ ľ
é ¦
ä¼ ¼
å® ī
Ġæ ĥ
è· ¯
çŁ ³
ç§ Ģ
å ²
å¸ ¸
ä¸ Ŀ
æĢ Ŀ
éĿ ŀ
Ġç «
åĨ ·
è ģ
Ġæ² ¡
åĩ »
èĬ ±
æĳ ĩ
Ġæ ¯
ç« ł
åį ³
ĠèĢ ģ
ç ¿
çī ©
æ Ľ´
ç« ĭ
æĮ ĩ
çĲ Ĩ
éĿ Ĵ
ç Ĺ
éĩ ı
Ġé Ļ
å°ı å§Ĳ
ç¦ »
è ±
ĠâĢ Ļ
ä¹ İ
åı¯ ä»¥
Ġæ ¸
ä»ĸ çļĦ
äºº çļĦ
æľ Ī
çª ģ
çİ ī
ç« Ł
éĺ Ł
åº ¦
æģ ¯
è Ľ
æŀ ģ
Ġåı¶ æŀ«
ä¼ ¤
ç ¢
Ġå ·
ç ³
æĢ ¥
å¹ ³
çİ° åľ¨
æ ¥
ç¬ĳ éģĵ
ç¬ ¬
ä¹Ł æĺ¯
æľ º
åº ķ
è¯´ éģĵ
å¼ ł
å Ĥħæ¸ħæī¬
é¢ Ĩ
æŃ ¦
Ġå Ĥħæ¸ħæī¬
ä¸Ģ æł·
åħ ³
ç ħ
ç ¨
æķ ¢
è½ ¬
åĸ ľ
Ġèĩ ª
ĠâĢ ĺ
Ġå Ĵ
Ġå¦Ĥ æŀľ
åħ «
å¿ Ļ
åĬ Ł
å¤§ çļĦ
è¯ ¥
Ġé ĥ½
åį İ
åĮ ĸ
æĿ ¡
çļ ĩ
© ä¹Ĳ
ç ±
æ· ±
ä½ ¿
åĲ ĥ
ä¸ ĸ
å¾ Ģ
çī ĩ
©ä¹Ĳ éĺ³
åŃ Ĺ
åĬ ł
ł ä¸º
ä¸ ĥ
æµ ģ
Ġæī Ģ
æĢ »
Ġç º
å½ ±
å® ¹
å¥ ĩ
åı Ĺ
æĸ ĩ
ç» Ŀ
åĨ ²
å Ķ
æ ¢
å® ģ
è¿ĩ æĿ¥
Ġè ½
Ġæĸ ¹
Ġåı Ī
ä¼ Ĺ
è¿Ļ æł·
ä¸¤ ä¸ª
è§ £
ä» ¶
è¿Ļ éĩĮ
Ġè ¦ģ
ĠæŃ £
ä¹ ŀ
è¿ ĳ
çĤ¹ å¤´
å ł
Ġè ĭ
ç ¡
åı ¥
å¹ ²
å¦ ĸ
è¡ ¨
¿ ä¹ŀ
è½ ¦
åħ ĥ
æł ¹
è§ī å¾Ĺ
å® «
å Ļ
Ġè ´
Ġå ¹
çļĦ è¯Ŀ
æ Ĵ
ĠæĿ İ
æ ¡
Ġå¤ ©
ä¹ĭ åĲİ
Ġå İ
åŃ ¦
å ©
ä¹ Ŀ
é ²
Ġè µ
å¾ ·
ä¸ĭ æĿ¥
åĲ Ī
åĬ ¿
Ġæ Ĭ
å¤ ±
éĶ Ļ
æİ Į
åħ Ħ
ç´ §
æ ¼
åĩº äºĨ
èĩ ³
ä¸Ģ å£°
æ Ľ
å¸ Ŀ
Ġçİ °
ä¸ Ķ
æļ Ĺ
ç² ¾
è® ¸
ä» »
åħ Ń
Ġè¿Ļ ä¸ª
æĹ ©
¨ Ģ
æľ į
Ġåħ ¶
åĵ į
ç« Ļ
åĪ Ģ
æĺ¯ ä¸Ģ
æ £
è¶ Ĭ
ä¸į ä¼ļ
å¤ «
«å·Ŀ ç§Ģ
çĶ ±
æĭ ī
ä¸Ĭ çļĦ
ä½ Ľ
è® ¤
Ġæĥ ³
ä½ł ä»¬
è ¨Ģ
å® Ŀ
Ġä½ł ä»¬
å¸ ®
Ġåıª æĺ¯
æ· ¡
çľĭ çĿĢ
æµ ·
åĵ ª
ä¸į èĥ½
åı ¹
æĸ Ń
åĿ Ĳ
ä¹ ±
åĪ ©
çł ´
ç¼ ĵ
äº ļ
äº ¤
Ġå ¼
å¹ ¶
å¤ Ł
è¡ £
åı ¤
å¤§ äºº
éĤ£ ä¸ª
èĭ ¦
åİ Ł
åħ ½
è¶ ³
Ġæ ķ
ç ¤
åı Į
Ġå¿ ĥ
Ġè °
ç ı
Ġå°ı éĽ·
å½ ¢
çķ Į
ç¾ İ
å ¡
é¡ ¿
çĶ ·
æ² ³
ä¸ľ è¥¿
ä¸Ń çļĦ
çĿ Ľ
æĢ Ĵ
åĸ Ŀ
æ´ »
åı¯ èĥ½
è ı
æĭ ¿
åĪ Ļ
è¯ Ĩ
å »
åĬ ŀ
éĢ Ł
å£° éŁ³
Ġæ Ī
æľ Ŀ
ç Ĭ
èĦ ļ
æ² ī
æĶ ¶
å§ ĭ
çĤ ¼
èĩªå·± çļĦ
Ġå ĳ
Ġ ä»¥
æĺ Ł
åĳ ¼
åĵ Ī
æĹ¶ éĹ´
çº §
ä¸į çŁ¥éģĵ
åĽ ´
Ġé »
ä» ¤
åĳ ¨
ä¸ ¹
è® °
æķ Ļ
è¿Ļ ä¸Ģ
è¿Ļ äºĽ
åĩł ä¸ª
Ġçİ° åľ¨
ç® ¡
éĿ Ļ
å¿ ħ
åı į
ä¿ Ŀ
* *
æ´ ¾
Ġ ä¾¿
æ Ĳ
éģ ¥
æĢ §
åĺ ´
Ġè® ©
æ¶ Ī
ä¸Ģ ä¸ĭ
è¿ĩ åİ»
å® ³
Ġè ī
Ġé ¡
èĭ ¥
é ¥
äºĨ èµ·æĿ¥
ä½ İ
éļ ı
éŃ Ĥ
æı Ĳ
Ġ [
ĠæīĢ ä»¥
Ġçľ ¼
éĴ ±
ä¸Ģ çľ¼
Ġ ä»İ
ĠåĨ į
Ġé Ŀ
å® ĺ
ĠæĹ ł
éĽ ª
çķ Ļ
å¿ĥ ä¸Ń
éļ Ĳ
æ ¨
è° ģ
ĠæĢ İä¹Ī
å¦Ĥ æŃ¤
éĹ ª
ä» £
Ġæ ģ
æľī ä¸Ģ
è Į
åı¶ æŀ«
Ġç Ľ
æĺİ çĻ½
æĦŁ è§ī
çĶ µ
Ġè Ħ
Ġ ä¸¤
åħ °
çľŁ çļĦ
çľ¼ çĿĽ
åĻ ¨
éľ ĩ
èº« ä½ĵ
Ġé ĩ
é ¼
çĪ ¶
æľ ¯
Ġ ä¸ī
Ġè Ļ½çĦ¶
æ¯ Ĵ
æ¬ ¢
å· ¨
Ġé Ľ
ä¹ ħ
è Ļ½çĦ¶
å¼ Ĥ
åº ľ
ç³ »
Ġè §
æĹ ģ
è ¸
çªģ çĦ¶
å· ´
ç» ĵ
éħ Ĵ
½ çĦ¶
Ġæ ĭ
æķ ´
å° Ķ
è ĸ
Ġ ä¸Ģä¸ª
Ġç §
çľ ī
ĠèĢĮ ä¸Ķ
åį ķ
å¸ ĥ
è¯ Ń
æĪ ¿
åĪ ¶
ä½ı äºĨ
æĳĩ å¤´
åĽ ¢
è· ĳ
çľĭ åĪ°
å° ½
é Ĥ
åľ £
æł ¼
æĭ Ľ
ä¾ Ŀ
æĺ ¾
æĿ İ
å®¶ æĹı
ç» Ī
çĸ ĳ
Ġå°± æĺ¯
Ġ ]
éľ ²
åħ ĭ
Ġæ Ļ
æĿ¥ çļĦ
èĦ ĳ
è¾ ¾
æĺ ĵ
Ġè º
æĸ °
åı£ æ°Ķ
å Ĥ
åħ ´
èº« ä¸Ĭ
Ġè´ Ŀ
Ġé ĺ
ç¾ ¤
æİ ī
æĶ »
çļĦ å¤§
åĪ ĩ
å¨ ĺ
æĿ¥ äºĨ
å¨ ģ
é² ģ
ä¸Ģ èµ·
æĥ³ åĪ°
Ġè¿Ļ æĺ¯
äº ®
Ġèī ²
çŃ Ķ
ç Ĩ
å¤ ĩ
Ġå° Ĩ
åĨ °
æķ £
į éģ¥
æĭ ³
æĪĳ çļĦ
Ġ ä¸º
ç» Ĩ
åıª æĺ¯
åĳ Ĭ
è¿ĺ æľī
ä¸į è¿ĩ
ç¡ ®
å· ®
å® Ĺ
å ³
èĤ ¡
æĭ į
ä¹ ¦
ä¸Ģ æ¬¡
æĸ Ĺ
ç© ¿
è¿Ļ ç§į
çļĦ æĺ¯
é ¬
åľ° æĸ¹
Ġç Ħ¶
é ¸
äºĨä¸Ģ ä¸ĭ
æ¥ ļ
Ġå ĭ
ä¸į ä½ı
å± Ĥ
Ġæĸ¹ äºĳ
çĭ ł
ä½ł çļĦ
Ġæľ Ģ
å¤ ľ
Ġç Ń
åİ» äºĨ
åİ ī
ç½ Ĺ
è® º
ç´ «
ä»Ĭ å¤©
èĻ İ
ª å®ģ
è§ Ĩ
èĥ Į
åĩ Ĩ
Ġçľ Ł
Ġåı¶ å¤©
åı¶ å¤©
Ġèº «
å¢ ĥ
æľ ª
åĮ ħ
è Ĩ
åĿ Ĺ
Ġéļ ¾
éĤ£ äºĽ
æĮ ģ
æĬ ¥
éĢ ģ
è ĵ
å¤ į
éĢ įéģ¥
åı ĭ
Ġå¾ Ī
åĲ Ħ
Ġ è¿ŀ
åŃ ©
è® ¡
é Ĩ
éĤ£ ä¹Ī
æĬ ¤
å¿ĥ éĩĮ
è ĳ
å «
é¢ ĺ
æ¸ ©
ä» ¿
ä» ½
è· ³
Ġèĭ ¥
Ġæ¸ ©ä¹Ĳéĺ³
äºĨä¸Ģ å£°
ç» Ń
ç» Ł
è¯ ·
ä¸į å¾Ĺ
ĠæŃ ¤
è Ĵ
å Ĺ
åı Ĭ
è§ Ĵ
Ġå Ķ
åıĳ çİ°
çļĦ äºĭæĥħ
éĢ Ģ
ç«Ł çĦ¶
å¿ į
Ġéļ ı
ĠçŃ ī
ä¸į åĪ°
é º
é¡ ¶
åį´ æĺ¯
Ġç´ «å·Ŀç§Ģ
é¬ ¼
æĮ ¥
ä¸Ģ èĪ¬
æĢ Ģ
å® ¢
ĠåĲ ¬
çĿĢ ä¸Ģ
æľī äºº
æ º
çħ §
è¯´ è¯Ŀ
çĭ Ĥ
åĩº åİ»
æľī çĤ¹
ĠçĦ¶ åĲİ
åº §
Ġ äºº
éĽ Ĩ
èĭ ±
å¯¹ æĸ¹
ç± »
è± ¡
æĪĲ äºĨ
ãĢ Ĥ
æľ Ł
æĤ ¨
åĩº ä¸Ģ
Ġæ İ
éĹ® éģĵ
Ġé Ģ
çļ ®
Ġæ Ĥ
Ġ çļĦ
ĠåĽ łä¸º
åħĪ çĶŁ
æ¯ «
åģ ľ
ä»¿ ä½Ľ
ç¬ĳ çĿĢ
Ġå ±
æľ ¨
Ġåĩ ł
åį «
æ° ĳ
åľ¨ äºĨ
éĿ¢ åīį
æķ Į
ĠåĪ °
æ± Ĥ
çĹ Ľ
æİ ¨
å¼Ģ å§ĭ
è Ĺ
å· §
è° ¢
Ġèĩª å·±
Ġåİ Ł
Ġåĭ ¿ä¹ŀ
é¦ Ļ
èĦ ī
èį ī
èµ ¶
Ġ è¿
å¾ ħ
æħ ¢
åĨ µ
åİ ĭ
æģ ¶
çľĭ äºĨ
ä¼ Ļ
ħ çĦ¶
æľ Ĺ
èĤ ¯
åĵ ģ
ä¸Ģ ç¬ĳ
ç ĵ
åħĦ å¼Ł
åĽ łä¸º
ä¼¼ ä¹İ
åĬ ²
Ġå ģ
åĨ ³
¿ Ģ
âĢĶ âĢĶ
è§ Ĥ
å£° éģĵ
Ġç« Ł
ĠâĢĶâĢĶ âĢĿ
ç Ĵ
Ī çļĦ
åĩ Ŀ
çİ ©
Ġè¿Ļ äºĽ
æĬ ĵ
åį Ĺ
çĪ ±
ä¸ ½
Ġå Į
ç ¦ģ
å¦ ¹
Ġæ ´
å¯ Ĩ
Ġè¿ĺ æĺ¯
æ ¹
ĠåĴ Į
å® ĥ
æĦı æĢĿ
çĥ Ń
çĽ® åħī
ĠèĦ ¸
åºĶ è¯¥
Ġç ª
é» ĺ
éĺ ´
ç§ ¦
é ½
ä¼Ĺ äºº
Ġå Ĺ
äºĨ åĩł
æ® µ
Ġå ī
æ ĵ
Ġè´Ŀ è´Ŀ
éŃĶ æĹı
Ġè§ ģ
Ĳ æĢķ
éĥ½ ä¸į
é¦ ĸ
å± ķ
Ġç ¥
é¡ ¾
Ġè ·
Ġé» ĳ
å°ı éĽ·
æ ĩ
Ġç Ľ´
åĲ ¸
æ· ·
ä¸» ç¥ŀ
éĵ ģ
ĠåĪ «
Ġå §
çī Ļ
èĥ ¡
Ġè¿ĺ æľī
èĦ¸ ä¸Ĭ
Ġæ Į
æ¸ ©ä¹Ĳéĺ³
è¯´ çļĦ
Ġè° ģ
èį ¯
è´ µ
éĩĮ çļĦ
æ ¿Ģ
åı ĸ
Ġç§ ¦
ä¸Ģ çĤ¹
æ® ¿
éª ¨
æĬ ±
ä» ħ
Ġå ĺ
æĿ ¾
å¿ µ
ĠåĪ ļ
éĿŀ å¸¸
éĽ ¨
Ġ ä¼
éĢ ĥ
å¥ ¥
ç´ ¢
èĻ ļ
Ġå· ²
ķ Ĭ
åŃĲ çļĦ
çĮ Ľ
Ġ éģĵ
åı Ķ
ç¾ ½
èĬ Ĥ
å· ¥
çº ¿
æ£ ®
è¿ ½
Ġ ä»Ģä¹Ī
ĠæĬ Ĭ
Ġ äºĮ
å¼Ģ äºĨ
çı ł
Ġ ä¸Ĭ
å ŀ
Ġæī į
èĴ Ļ
å³ °
éĿ ł
ç» ´
ĠéĻ Ī
ä¾ ¯
çĽ´ æİ¥
è£ ħ
Ġæ²¡ æľī
åĭ ¿ä¹ŀ
Ġå¾ Ĳ
Ġå Ĭ
Ń ¦
å¢ ¨
èĤ ī
éĨ Ĵ
åı¯ æĺ¯
Ġç Ļ½
å¦ Ļ
éº »
Ġçª ģ
ä¸ĭ åİ»
ç¤ ¼
æ¸ħ æ¥ļ
æ¥ ¼
åı ¸
æ¯ į
å¾® å¾®
èĢ ³
æĭ ħ
è¿ľ ä¸ľ
Ġå Ģ
Ġè ¡
ä¸ ¾
çĦ¶ æĺ¯
ç¿ »
Ġè ĥ
ä¸Ģ çĽ´
èµ° äºĨ
ç® Ģ
åľ° ä¸Ĭ
åı °
åĪ º
èµ· äºĨ
å¥½ åĥı
æ¸ Ĳ
ä¸ª äºº
å¯ Ł
å¦Ĥ ä½ķ
ç ĳ
å¼ ķ
ĠéĽ ·
Ġåħ¶ å®ŀ
¢ äºĨ
æł· åŃĲ
æł ĳ
èĸ ĩ
æķ ĳ
æ± ī
Ġæ Ľ´
åŁ Ł
ä¸į è¦ģ
åĲ Ľ
æĶ ¯
ç¬¬ ä¸Ģ
åĪ Ŀ
çº ±
ä¸ ¥
å® Ī
Ġè ĥ½
ç½ ®
èĲ ¥
åľ Ł
æ¯ Ľ
ä¸Ģ å®ļ
åĳ ³
æ¢ ¦
å¤ļ å°ĳ
Ġå ĸ
è¿ Ĳ
ä¸ĭ çļĦ
Ġå º
ä¸į äºĨ
æ² Ļ
å¥³ äºº
éĿ¢ çļĦ
éľ Ģ
! âĢĿ
ç± ³
ä¿® çĤ¼
Ġæ Ķ
æ³ ¨
åĸľ æ¬¢
ä¸º äºĨ
åģ ·
ç§ ĺ
Ġæ °
ç¢ İ
éĹ® é¢ĺ
èº« è¾¹
ç» §
æ¨ ¡
åĸ Ĭ
ä¹ ī
ä»¥ ä¸º
åĺ ¿
èĹ ı
ĠæĤ ¨
å®ŀ åĬĽ
Ġé Ĺ
Ġé ķ
çļĦ æīĭ
çļ ±
è¯ ī
è¾ Ī
éģ ĩ
æĳ Ĩ
å¸¦ çĿĢ
æł¹ æľ¬
å½ Ĵ
èĽ ĩ
æĦ ¿
æģ ©
çļĦ å£°éŁ³
ç» ĥ
Ġæ µ
ļ èĩ³
¢ çĦ¶
èĪ Ĵ
è¿ĩ äºĨ
æ± Ĺ
çĶ ²
åĳ Ĩ
äº ī
åĩº çİ°
å¼Ł åŃĲ
åĽ ¾
éĻ ©
ç Ħ
å¥½ äºĨ
æĹł æ³ķ
Ġéļ¾ éģĵ
Ġè ¢
ä» ·
éª ĳ
å¿ ½çĦ¶
å¼º èĢħ
èĦ¸ èī²
æĻ ¶
Ġ Ġ
ĠåĲ Į
è´ ¥
åĵª éĩĮ
çļĦ å°ı
Ġ, âĢĿ
é» Ħ
å± ŀ
Ġé «ĺ
çľŁ æĺ¯
å®Į åħ¨
èı ²
æĻ ®
äºĮ åįģ
ä¹ĭ ä¸Ń
åıª æľī
Ġé Ń
éķ ĩ
Ġåıª è¦ģ
Ġ. âĢĿ
Ġå·² ç»ı
Ġè½ »
è¢ ĭ
Ġçº ªå®ģ
è´ ¹
æī ¿
± çº±
ä¸Ĭ äºĨ
éĺ ²
åı ·
ä¸ĭ äºĨ
åĬ ¡
æľĽ çĿĢ
åĳ ĺ
ç®Ĺ æĺ¯
Ġè Ĳ
å¨ ĩ
¤ äºĨ
Ġç¥ ŀ
æĸ ½
Ġæľ ¬
ä¸į æķ¢
Ġé £
å¯ Ĵ
æ´ ŀ
éķ¿ èĢģ
ä¸Ģ éĺµ
å¼ ±
èĥ½ å¤Ł
è´ ¨
èĥ ¸
èĥ ľ
æķ ¬
Ġ ä¹
çĽ ĺ
åŃ ĺ
ķ ç«Ł
å° ļ
¬ éĹ´
åī ¯
éĵ ¶
Ġéĺ ¿
ç¿ ¼
è° ĥ
åĪļ æīį
èĩª çĦ¶
Ġåĵ ª
éĻ ¢
ĠåĽ Ľ
ç¥ ĸ
æĢ ģ
é½ Ĳ
è¢ į
Ġèĩ ³
ç« ¹
åħ¬ åŃĲ
æŀ ª
çİ Ħ
Ġæī ĭ
ç½ ĳ
å°Ĩ åĨĽ
æĻ ¯
Ġå® ŀ
éĻ Ī
è£ Ĥ
æ¯ ı
éĻ Ĩ
ä» ĺ
æĺ¯ ä¸ª
Ġç« ĭ
å¸ Į
å¤§ åĵ¥
Ġè¿Ļ ä¸Ģ
åĮ º
0 0
åı ³
è¯´ äºĨ
åĮ Ĺ
åİ Ĩ
ä¹ĭ åīį
ĠéĤ£ ä¸ª
åĬĽ éĩı
æľī ä»Ģä¹Ī
ĸ åŃĲ
åı¥ è¯Ŀ
æķ ħ
Ġç¬ ĳ
çº ª
Ġå½ĵ çĦ¶
è´ Ł
è½» è½»
åľ Ĩ
åį ·
æĦ £
ĠæĿİ éĢįéģ¥
æı ¡
æŃ ¢
çľĭ çľĭ
Ġéķ ¿
æİ Ĵ
Ġæ¯ ı
Ġè Ĥ
Ġæ ł
- -
Ġè¯ ·
åĽŀ æĿ¥
ä¹ĭ éĹ´
å§ ĳ
èĤ ©
å¸ Ĥ
å¾Ī å¤ļ
é¢ ¤
å° Ħ
å° Ĭ
Ġå¹ ¶
å¼ Ħ
Ġä¸į æĺ¯
å§Ĳ å§Ĳ
éĢ ł
ä¹Ł æ²¡
æĳ ¸
åıª èĥ½
åĲ ¼
ç§ °
åĲĮ æĹ¶
å° ¸
æĥ³ è¦ģ
æĿ ¿
Ġåı į
Ġæ Ħ
è ľ
Ġåıª è§ģ
æ± Ł
Ġæ¸ ©
å² ģ
æ³ ¢
è Ń¦
ä»¥ åĲİ
éĴ Ł
å° ģ
Ġé ©
Ġç ®
åĩĨ å¤ĩ
éĢ ī
å®¶ çļĦ
åĶ Ĳ
Ġé ľ
äºĨ ä¸ª
çĨ Ł
æŁ ¥
æĸ Ļ
åĬŀ æ³ķ
è® ®
éĩĮ éĿ¢
èİ ī
ĠæĿ ¥
Ġè¢ «
ä¸Ģ äºĽ
çļĦ éĤ£
çĥ ¦
å°± ä¸į
å· ¦
Ġç ģ
å® ¤
åĳĬ è¯ī
è¿Ľ åħ¥
ä¸Ĭ åİ»
å®¶ ä¼Ļ
å° ¼
ç«ĭ åį³
éľĢ è¦ģ
éĢ ı
è° Ī
èĩ £
æĺ¯ ä»Ģä¹Ī
Ġå¤© æ²³
åĿ ļ
åĵ ¼
Ġç Ī
ä¸į çŁ¥
Ġæ¯ Ķ
åı Ĥ
åł Ĥ
Ġçªģ çĦ¶
è ¹
èģ ļ
ç´ «å·Ŀç§Ģ
äºĮ äºº
è¯ ķ
Ġå¿ «
æĥ ¨
äºĨä¸Ģ çľ¼
Ġ (
é¡ º
å¡ Ķ
ç ĩ
ç»Ī äºİ
ç¨ ĭ
çĶ »
Ġçİ ī
ä½į ç¥ŀ
åĴ ¬
Ġä»ĸ çļĦ
æĽ ¾
åį ĩ
åħ³ ç³»
ĠçĶ ¨
æĶ» åĩ»
Ġéĩ ĳ
ä¸ ļ
çĿ ¡
ĭ åıĭ
æĬ ¬
æĺ¯ ä¸į
å®ŀ åľ¨
å¥³ åŃĲ
Ġçİ ĭ
æļ ´
åĿ ı
ĠæĪ ĸ
æ ½
ç¦» å¼Ģ
é¥ Ń
ä¸Ģä¸ª äºº
ç £
ä½ Ļ
åİī å®³
ä¼ ¯
èº« åĲİ
å¾ Ĵ
å ´
çī¹ æŀĹ
çħ Į
çģ Ń
å¡ ŀ
æŃ» äºĨ
Ġæ ³
Ġæģ ĲæĢķ
åĩº æīĭ
æĬ ķ
èī² çļĦ
Ġ ä¸ĭ
èĬ Ĵ
ä¸ľ æĸ¹
åķ Ĩ
çº ¦
åĲ ĵ
åķ ¦
ĠåĲ İ
ä¼ ¸
äºĨ åı£æ°Ķ
åŃ© åŃĲ
Ġç«Ł çĦ¶
è¶ ħ
èı² äºļ
ä¹ °
å» ·
ĠéŃ Ķ
è¯ º
ä¹ĭ åĬĽ
Ġå Ń
åĳ µ
åİ ħ
çº ·
æŀĹ æĻļèį£
åĬ ©
å¥½ çļĦ
ç»Ļ æĪĳ
ç«ĭ åĪ»
Ġæ ·
çľĭ è§ģ
é» Ľ
åħ¶ ä»ĸ
åį ±
åİ ļ
éĢŁ åº¦
ä»» ä½ķ
± ä»¬
çļĦ ç¥ŀ
åĪ° åºķ
æľ ĭåıĭ
Ġè¿Ļ æł·
è¿ľ å¤Ħ
Ġç ī
Ġæĺ İ
èĤ¯ å®ļ
æĹ §
Ġæ² Ī
èħ ¿
ç¬ĳ äºĨ
ç¥ ¨
æŁ Ķ
æ¸ ¸
åĽ ł
Ġå¸ Ŀ
Ġåı Į
ä¸į å°ĳ
é«ĺ æīĭ
ĠæĢ »
è¡¨ æĥħ
æģ ¨
Ġç Ł
çİ ¯
Ġä¹Ł æĺ¯
åĳ Ģ
åľ¨ è¿ĻéĩĮ
Ġç´ «
èĲ §
Ġçľĭ åĪ°
åĺ Ľ
Ġåĩ º
äºĨ ä¸ĭæĿ¥
äº ¡
åį ĸ
é¢ Ĺ
è¯ ģ
Ġåį ³
ä¸į å¥½
å¨ ħ
Ġé© ¬
Ġåį Ĺ
ä¼ļ åĦ¿
è§ Ħ
æīĢ æľī
åĵ Ń
ç½ ª
çķ ª
æĪĺ å£«
éĺ ¿
æ ¦
èį ¡
ĠåĢ Ĵ
å°ı åŃĲ
æĿ ĥ
å¥¹ çļĦ
åĽŀ åİ»
Ġè ı
æ» ļ
èģ Ķ
å¿ ĺ
è½ ¯
Ġåį ģ
é£ ĺ
äºº éĥ½
Ġé¡ ¿
åħ ħ
å¥ Ķ
å» º
èµ Ħ
æī ĳ
éĽ ķ
æľº ä¼ļ
åĪ Ĵ
ä¸ĸ çķĮ
Ġåħ ī
Ġæķ ´
éĩ İ
Ġ )
å° ĸ
ĠéĤ£ æĺ¯
æ³ ª
çĬ ¹
å ļ
Ġè Ĭ
æ´ ª
Ġå¤§ äºº
Ġä½ł æĺ¯
ç¬ĳ å®¹
ª èİī
ªèİī å¨ħ
çĪ Ĩ
æŀ ¶
å¼ ı
ı èĸĩ
çĽ¸ ä¿¡
çŀ ¬éĹ´
Ġè ¶
å¹ ½
èĦ ±
Ġåħ Ī
æĮ ¡
Ġé ¾Ļ
ä¸ī ä¸ª
æĹģ è¾¹
ĠåİŁ æĿ¥
ç»§ ç»Ń
åľ° è¯´
åĲ¬ åĪ°
å¾ Ĳ
é¡¿ æĹ¶
çĥ Ī
æ° ı
éĹ »
Ġç ½
Ġæ ±
åį °
åĵĪ åĵĪ
Ġè® ¸
ä¹ĭ ä¸ĭ
Ġæī ĵ
æ¹ ĸ
è¿ĺ æ²¡
è¾ ĥ
éª Ĥ
ç¼ĵ ç¼ĵ
Ġè¿Ļ ç§į
çģµ éŃĤ
ç»Ŀ å¯¹
çĭ ¬
ĠåĹ ¯
ä» ĩ
è¿Ļæł· çļĦ
å®« çħĮ
ç«Ļ åľ¨
ä¸į åĩº
ä¸į åı¯
çŃ ł
¦ å¤ĸ
æľĢ åĲİ
Ġåħ ¨
åĺ »
èĢ ĥ
Ġèµ °
Ġå°± ç®Ĺ
æ² »
ä¸Ģ ä¸Ŀ
çľ¼ åīį
¹ ç¾½
çľ¼ ä¸Ń
Ġéĥ½ æĺ¯
ç® Ń
åĪ« äºº
Ġç ĭ
å°± è¦ģ
çŀ ª
é Ł
äº §
Ġè¿Ļ æīį
ä»Ļ åĦ¿
æģ Ĳ
å¯ »
æĩ Ĥ
Ġ ä»Ĭå¤©
è ŀ
ç»Ļ ä½ł
Ġåĵ ¦
Ġ? !âĢĿ
æĥħ åĨµ
çĭ ¸
åħ »
æİ ¢
ĠæĹ ¢çĦ¶
ç»Ł é¢Ĩ
å± Ģ
ä¸Ģ çīĩ
èĪ ŀ
æĹ ĭ
çŁ Ń
Ġç ©
é¡ »
éĩ Ĭ
ä¸¤ äºº
å¢ Ļ
Ġç¬¬ ä¸Ģ
çļĦ èº«
å¥ ĭ
Ġå¿ ½çĦ¶
æ¨ ª
ĠèĢĮ æĺ¯
Ġå¿ĥ ä¸Ń
è¿Ľ äºĨ
æĬ ĸ
å¤ļ äºĨ
åį ¡
Ġåľ °
æĪ ĸ
Ġ ä»Ĭ
è¿Ľ åİ»
Ġåĳ ¨
åİ ¥
Ġåĵ Ī
ä¸Ŀ æ¯«
Ġ ;
ç©º éĹ´
æĻ ĥ
éľ ľ
åĤ »
ç´ «å·Ŀ
ç¦ ı
ç®Ģ åįķ
æī İ
éĹ ¹
å¿į ä¸įä½ı
Ġæł ¹
Ġå ķĬ
Ġåį´ æĺ¯
è· Ŀ
ä¸ī åįģ
åĨ Ĵ
èĭ Ĺ
Ġèĭ¥ æĺ¯
èĩ Ĥ
æµ ®
¯ çĿĢ
å« £
ç¡ ¬
æĬ ½
Ġè· Ł
æĿ Ĥ
å¼ ¹
åĢĴ æĺ¯
çĴ ĥ
Ġåı ĳ
æĭħ å¿ĥ
ä¸ «
å± ĭ
ĠåĲĮ æĹ¶
éĶ ¥
è¿ĺ è¦ģ
èº ²
ä¸ī äºº
å© Ĩ
ä¿® ä¸º
èĽ ĭ
åĲ ŀ
ĠèĦ¸ ä¸Ĭ
æ² Ī
èĵ Ŀ
çĭ ¼
ç© ¶
Ġå¥ ¥
èĢĮ å·²
çĪ¶ äº²
æ´ Ľ
èİ ²
Ġ 3
Ġè¿Ļ ä¹Ī
å¦Ĥ æŀľ
Ġå¤ ļ
åľ¨ ä»ĸ
å£« åħµ
äºĨ ä»ĸ
åıĺ å¾Ĺ
ä¼ł æĿ¥
æĹ Ĺ
å¥ Ĺ
å¥ĩ æĢª
çĶ· äºº
ä¸į çĶ±
ç¨ ³
Ġèı ±çº±
ĠåĪ ĺ
æĴ ŀ
Ġå® ī
è® ²
å± ħçĦ¶
Ġçľĭ çĿĢ
çļĦ åľ°æĸ¹
æį ¢
çī Ľ
å¾Ĺ åĪ°
ä¸ ´
çŃī äºº
ä¸į éĶĻ
çĥ Ł
éĽ ¾
Ġå¤§ å®¶
ĠåĽ ŀ
ä¸į èµ·
æĤ Ł
èħ ¾
æĥ ľ
çĽ ĸ
å£ ®
åľ Ī
æŁ Ħ
æ´ ĭ
è§ģ åĪ°
Ġæİ ¥
åŃĲ éĩĮ
ĠéĤ£ äºĽ
éŃĶ æ³ķ
Ġåī į
éģ į
éĥ½ æ²¡æľī
ĠåĪļ æīį
å¾ ¡
èİ ±
åĢ ¼
åĨĽ éĺŁ
ç¤ º
æĭ ľ
çĶ· åŃĲ
çĬ ¶
ä¸ ģ
åıĳ çĶŁ
çļĦ æł·åŃĲ
åĩ ¶
çĸ ¯
è¿Ľ æĿ¥
åĲį åŃĹ
æĬ Ĺ
è¿ ·
èĩ ´
æĮ ī
æİ §
è§ģ è¿ĩ
Ġä½ł è¯´
Ġç» Ī
w w
æ¶Ī æģ¯
ä¹Ł æ²¡æľī
æĦ ¤
Ġå Ŀ
Ġ ä»¿ä½Ľ
Ġä½ł è¿Ļ
æĹ© å°±
åĩł ä¹İ
çķ ¥
ç¢ °
ç«¹ çŃł
Ġå £
åĭ Ĵ
Ġå¥½ åĥı
Ġåį ĥ
Ġè° ¢
Ġæľ Ī
è¿ İ
æĮ ĳ
è®© ä»ĸ
å¹ ¸
Ġé¡¿ æĹ¶
å¹¶ ä¸į
è´ £
æĶ ¹
åģ ĩ
åľ¨ è¿Ļ
Ġåĵ ¼
ĠéĿ Ĵ
èİ «
ĠçĶ ļèĩ³
ĠæĪĳ å°±
é ŀ
è®© äºº
çĹ ħ
Ġæ ¢
åĴĮ å°ļ
ä» Ķ
åı¯ æĢķ
å¼Ģ åı£
Ġé Ķ
æ¶ Į
Ġ ä¸ĩ
Ġæ »
çł ¸
æ¡ Į
ä¸º ä»Ģä¹Ī
äºĨ ä¸Ģä¸ª
çľī å¤´
ç ĺ
çĥ §
Ġåı¯ ä»¥
è½ °
æĭ ¥
Ġåħ ¬
å¤© åľ°
èĥ Ĩ
èħ °
åĬŁ å¤«
Ġä¸¤ äºº
ĠèĬ ±
ĠæĿ Ģ
éĹ ·
å°ı å¿ĥ
Ġå¼ ł
ĠåįĹ å®«çħĮ
é² ľ
Ġ ä¸İ
ä¼ ĳ
çĭ ±
ä¸į åĲĮ
ä¹Ł æľī
åĸ Ħ
ä¸į è§ģ
ç³ Ĭ
Ġå¸ Ī
å¥ Ī
Ġç» Ļ
** **
æī «
è¶ £
ĠæĢ ¥
éĻ į
æŃ£ åľ¨
æĹł æķ°
Ġè½ ¬
æķ´ ä¸ª
ä¸į æĸŃ
çĤ¹ çĤ¹å¤´
è®¤ è¯Ĩ
æĸ¹ äºĳ
è± «
åĨ Ļ
å¤§ å®¶
æĢ Ķ
Ġå¤§ å°ıå§Ĳ
Ġ ä¼¼ä¹İ
åį ł
éĤ£ éĩĮ
åĲ «
Ġæ´ Ľ
ĠèĲ §
Ġå¼ Ģ
ç» ¿
ĠæĪĳ æĺ¯
åħ¬ ä¸»
Ġç¬¬ äºĮ
æĹł æ¯Ķ
éĩį è¦ģ
èī ¯
è¢ Ń
ĠæŃ£ æĸĩ
Ġèµ µ
çĶ °
æ® ĭ
ä¸ ĵ
Ġèĩª çĦ¶
åĳ¨ åĽ´
åĪ ĺ
ç´ ł
åĩł åĪĨ
Ġç Į
å¹´ çļĦ
æĻ® éĢļ
çľ ģ
Ġè¿Ļ æ¬¡
èį Ĵ
Ġåº Ķ
éĥ¨ éĺŁ
ĠçĽ ®
çī Į
é²ģ çī¹
åĲ Ĳ
æĿ ĳ
Ġåıª æľī
è¿ ¹
å® ĭ
èĨ Ģ
Ġä¸į çŁ¥éģĵ
ĠæĶ ¾
Ġåıª ä¸įè¿ĩ
Ġçľĭ æĿ¥
åģ ı
åĢ Ł
¦ åĪĻ
Ġèĩ³ äºİ
Ġæ¯ ķç«Ł
å®¹ æĺĵ
Ġæŀ ľ
æĶ¾ å¿ĥ
åĵį èµ·
æ·¡ æ·¡
ĠçĽ´ æİ¥
ä¹ ł
è·Ł çĿĢ
äºĨ åĩºæĿ¥
åł ¡
èĦĳ è¢ĭ
Ġè¿Ļ éĩĮ
çļĦ å¿ĥ
çĶµ è¯Ŀ
å¸Į æľĽ
Ġä¸į è¦ģ
éĤ ª
Ġ äºİ
Ġæľ Ľ
æľ¬ æĿ¥
éĻ ħ
åıĳ åĩº
å¯ Į
æľī äºĨ
æ Ł³
Ġå ĥ
Ġèĥ ¡
Ġå ¨
ĠåĲ ¦åĪĻ
å¹´ è½»
æĿ ¯
ĠæĪĳ ä¹Ł
è ļ
éĽ Ħ
éĶ ĭ
å¤© ä¸ĭ
çĤ¹ äºĨ
ĠçĽ ¸
æ» ´
å² Ľ
Ġå¿ĥ éĩĮ
æł ¡
éŃ Ħ
æĥ ĳ
éĥ½ æ²¡
åĽŀ çŃĶ
è° ĵ
ä½ĵ åĨħ
ĠéĻ ¤äºĨ
Ġéļı åį³
å°± èĥ½
æĺ ¥
å¿ Ĩ
èŀ į
ä» °
ä½¿ çĶ¨
æĮ º
æµ ħ
çļĩ å¸Ŀ
æĺ¯ åľ¨
ä¸Ĭ æĿ¥
ä¸Ģ éģĵ
åĩ Ń
è´Ŀ è´Ŀ
ä¸į æĥ³
Ġæ ĳ
éĹ Ń
å§ ļ
çĮ ľ
ĠâĢĻ ,
Ġ ä¼Ĺäºº
è·Ŀ ç¦»
ĠæĪĳ æĥ³
ĠåĲ ĳ
å¯ ¼
é£ Ł
åľ£ åŁŁ
èĢģ å¤´
æĬ ¢
ç¬ Ķ
å¤§ éĻĨ
åĲ Ł
å¤§ å°ıå§Ĳ
è®© æĪĳ
æĤ ²
Ġå Ł
åħ ·
å¤« äºº
æĹ ¦
æĦŁ åĪ°
åĬ «
åŁ º
å½ĵ çĦ¶
çŃĶ åºĶ
é ¹
ĠæĻ ıèĸĩ
åħī æĺİ
åĭ ĩ
åŀ ĭ
Ġç» Ŀ
ä¸Ģ çľĭ
ä½į éĿ¢
åº Ĭ
çº ªå®ģ
ä¸ Ī
åĪļ åĪļ
çĭ Ĺ
Ġ ä¸Ń
æĭ ¼
åĿĲ åľ¨
æĢ İ
æį ®
é¼ »
ç« ¯
åĲ ¯
éķ ľ
å© ·
åĩ ¡
Ġæĺ ¾
èµ µ
Ġåĥ ı
åĪ° è¿ĻéĩĮ
å£ ģ
Ġé£ İ
ä»ĸä»¬ çļĦ
ç©º ä¸Ń
ä¿® å£«
ĠéĤ£ å°±
Ġ ~
åº Ĺ
è®¸ å¤ļ
çİ ĩ
ħ åŃĲ
å¹ ķ
åĽŀ äºĭ
Ġ 2
ç¼ ĺ
å ª
äºº å®¶
åĩºæĿ¥ çļĦ
Ġå± ħçĦ¶
Ľ ä¸ĭ
Ġ ..
å± ģ
çĪ ¹
Ġ T
Į çĭ¸
çĿ ģ
çľŁ æŃ£
çİī åħ°
è¯´ è¿ĩ
éĽ ħ
å± ħ
æµ ĳ
ä¾Ŀ æĹ§
çľ¼ ç¥ŀ
æĮ Ĥ
çº ³
èĮ ¶
æµ ª
¥ éģĵ
çĽ ĳ
Ġè¿Ļ ä½į
ĠæĹ ©
çĸ ¼
Ġå¸Ŀ æŀĹ
çļĦ äºĭ
åħ¨ éĥ¨
åĦ¿ åŃĲ
è¿ ħ
è¡£ æľį
çĬ¹ è±«
åĸ ·
è¿Ļ æīį
åį ¿
Ġ x
Ġ 1
åķ ¸
Ġè¯´ éģĵ
çº ¯
éķ¿ çļĦ
Ġæł¹ æľ¬
æ¬ º
Ġæĸ ¯
ĠéĿ ¢
ç¾ ŀ
èĻ ĳ
æ¦ Ĥ
ä»¥ åīį
ĠåºĶ è¯¥
æĸ¹ åĲĳ
åī §
å§ĳ å¨ĺ
¢ å¤į
ç¬ ¦
çĵ ¶
è· ĥ
ä»Ķ ç»Ĩ
åĢ į
Ġ äºĶ
äºº ç±»
æĬ µ
Ġè İ
å° ¾
è¿Ļ æ¬¡
çģ ¯
æĺ¯ æĪĳ
ä¼¼ çļĦ
äºĨ è¿ĩæĿ¥
Ġç ¼
ä¸Ĭ ä¸Ģ
æģ Ń
å® °
æł ĩ
Ġç ł
é©¬ ä¸Ĭ
è¯ ļ
å¹² ä»Ģä¹Ī
è¾ ķ
æ³¨ æĦı
çĽ Ľ
Ġä¹Ł ä¸į
æħ §
çĳ ¶
Ġç Ĥ
Ġ ä¸¤ä¸ª
çº ¸
æĻ ķ
æ¬ ²
èº« åŃĲ
éĤ£ ç§į
ä¸Ģ è¾¹
èµ ŀ
æŃ¤ åĪ»
Ġä¸º ä»Ģä¹Ī
ç¾ Ĭ
åħ į
ä¿ Ĭ
åħ¥ äºĨ
å¤ º
èĦ Ĩ
æ¯Ķ è¾ĥ
å¤§ äºĨ
ä¸« å¤´
Ġ ä»Ļ
èį Ĳ
æĪ ı
å¯¹ ä»ĺ
äºĨ è¿ĩåİ»
è¯´ ä»Ģä¹Ī
Ġåİ »
© è¾ķ
ç² ī
Ġå¸ ¦
åĲ ¦
Ġå¤ ª
è ²
ĠçĶ Ł
çľĭ åĲĳ
æ¼ Ķ
æĿ Ĳ
çģ °
éŃĶ åħ½
æ¢ ħ
ĠéĤ£ ä¹Ī
éĹ¨ åı£
ĠæŃ »
ç² Ĺ
è¯ ¯
åĲ¬ è§ģ
èĪĴ å©·
æ¨¡ æł·
äºĨ åĲ§
Ġè į
åĲ¬ å¾Ĺ
åĩ Į
Ġä½ł æĢİä¹Ī
æĬ ĺ
å°ı çļĦ
éľ² åĩº
Ġä½ İ
åĸĿ éģĵ
çĦ °
Ġ äºĳ
åŃ Ļ
ç» Ħ
åĸ ĥ
çļĦ å¾Ī
åŃ Ķ
å² ©
å¹¶ æ²¡æľī
Ġä¸į çĶ±
ä¸ ¢
æľī çĿĢ
åı ²
è´ ¢
è¡ Ĺ
æ ¤
ĠæĪĳ çļĦ
åī ©
æī ĺ
æĪ Ĵ
åıį åºĶ
ĠæĹł è®º
å¤© çļĦ
äº ¬
± ¼
Ġç»Ī äºİ
ĠæľĢ åĲİ
åľ¨ ä¸Ģèµ·
èµ Ľ
å½ ©
çĩ ķ
æ¶Ī å¤±
Ġ c
Ġé ¢
Ġå® ĥ
æ°Ķ çļĦ
æĿ Ł
å§ ĵ
æī¾ åĪ°
æŁ Ĳ
æĿ¥ è¶Ĭ
å¤ĸ éĿ¢
©è¾ķ é£İ
èĪ į
éģ ¿
Ġéĩ į
ä¹ ĺ
æ°Ķ æģ¯
æĸ½ å±ķ
Ġ ä¼ļ
çĤ¹äºĨ çĤ¹å¤´
åľ° éĿ¢
è¯ ¸
è¿ĺ ä¸į
è½ ®
çļĦä¸Ģ å£°
æ ¾
éĺ »
çº ¹
ĠåĶ Ĳ
è§£ éĩĬ
æģ ¢å¤į
Ġé ĵ
åĮ »
çªģ åİ¥
ç¨ į
ĠæŃ¤ åĪ»
ä¹Ł å°±
Ġä½ł è¦ģ
åį± éĻ©
ĠæĪĳ è¯´
Ġåį³ ä½¿
åĬĽ çļĦ
éº» çĥ¦
Ġæĸ¯ çī¹æŀĹ
Ġç§¦ æľĹ
ĠãĢ ĭ
è ķĬ
å°± ä¼ļ
ç´¢ èı²äºļ
è¿ĺ åľ¨
Ġè¯´ çĿĢ
ç ¯
æĢ¥ å¿Ļ
Ġç ¾
åĬ¨ æīĭ
éĤ ¦
åı¹ äºĨåı£æ°Ķ
å¼ ĥ
éĤ£ ä¸Ģ
ĠçŁ ¥éģĵ
è® ¨
ĠæŃ£ æĺ¯
ä¸į å®ļ
è¾¾ åĪ°
å¿ Ĺ
Ġå¾ ·
åº ŀ
è¾ ĵ
ĠéĻĪ å¢¨
ä½ Ĩ
Ġå¥ ³
æĺ¯ è°ģ
å¢ĥ çķĮ
ä¹ĭ äºº
èĪ ¹
å© ļ
æĿĢ äºĨ
Ġè¯´ å®Į
ĠåİŁ æľ¬
è° ĭ
Ġåı «
è¿ Ł
ä¸į ä¸Ĭ
åįģ åĪĨ
ä¸Ģ æĿ¡
å½ »
æķ Ī
åĨį æ¬¡
Ġå¾ ®
Ġæ į
åĲİ éĿ¢
æīĭ ä¸Ń
èĭ į
çĭł çĭł
æħ ķ
å¯¹ æīĭ
Ġå§ ļ
æĦ¿ æĦı
é ±¼
æĥ §
æ»¡ äºĨ
Ġä½ ķ
æĸ ľ
éĢ ¼
éĩį çļĦ
ĠæĻ ¯
å¤§ åįİ
çº µ
Ġå¤§ åĵ¥
åħ¬ åı¸
åĩ Ģ
éĻ Ĳ
ĠæĦ Ł
æĪ¿ éĹ´
ĠåĲ¬ åĪ°
ĠåĵĪ åĵĪ
Ġé ª
èº« ä»½
ç§ »
åı Ľ
çĤ ¸
ĠåĲ Ħ
æĺ¯ ä¸Ģä¸ª
æīį èĥ½
Ġç ŀ
Ġ **
çļĦ ä¸ľè¥¿
èĽ ®
Ġè¿ ªèİīå¨ħ
è¿Ļ ä½į
ä¹ĭ å¤ĸ
Ġæĥ³ è¦ģ
å Ĥħ
ä¾ §
âĢĶâĢĶ âĢĶâĢĶ
åĬ Ī
æīĭ éĩĮ
ç²¾ ç¥ŀ
Ġæ Ł
è¾ °
æĻ ´
Ġ.. .
ä¸Ģ æĬĬ
å¤§ åľ°
æĢ ¨
Ġæľī äºĽ
çļ Ĩ
åħ¶ ä¸Ń
æĺ¾ çĦ¶
Ġç«ĭ åį³
æĸ ©
çĽ ¯çĿĢ
è¿ľ è¿ľ
èĻ «
ä¹ Į
ç£ ¨
å· ŀ
å¦ ®
æĪĲ ä¸º
éª Ĺ
æĿ¥ è¯´
Ġå¸ Į
ä¸į çĶ¨
ç» ķ
æĽ ¼
äº ı
ä¸į åıĬ
è¸ ı
æį Ł
éħ į
çľĭ æĿ¥
Ġå¯¹ äºİ
ä¼ ı
çĶŁ åĳ½
æŀĹ ä¸ī
ĥ æĺ¯
æµ ĭ
éĴ »
æĶ ¿
ĠæĹ ¶
éĻ ª
æŀģ ä¸º
æī Ń
ĠæĮ ī
ä½į ç½®
Ġå®ŀ åľ¨
Ġç½ Ĺ
ä» ĭ
åħ ±
æ¼ ł
ä» Ĺ
åĪ Ĺ
éģĵ çĲĨ
èĤ© èĨĢ
æĭ ©
Ġç¬¬ ä¸ī
å¤§ ç¬ĳ
éª Į
å°ĳ çĪ·
æĦŁè§ī åĪ°
Ġ ä¿
èı ľ
æĻ º
Ġç» ĵ
æĦı çļĦ
é¼ ĵ
ç§¦ æľĹ
åŃ Ŀ
ç¥ Ń
åįģ äºĮ
çł ģ
è° ·
åħ¨ èº«
° è®¡
ä¸» å®°
åħ´ å¥ĭ
å° ĺ
æ¯į äº²
è§ ¦
æĽ´ æĺ¯
åĩº çļĦ
į çĦ¶
ä¸Ģ æŃ¥
çļĦ èĢģ
ĠåĴ ±ä»¬
æĺ Ĩ
è¿Ļä¹Ī å¤ļ
é«ĺ åħ´
ĠéŃĶ æĹı
åº Ł
äºĨä¸Ģ åı¥
Ġç´ «å·Ŀ
èĻ ŀ
æİ¨ èįĲ
çĪ µ
æľ µ
é¸ £
çº ł
å¢ ŀ
Ġæ° ´
æĽ´ åĬł
æİĮ éĹ¨
èµ· èº«
å·¨ å¤§çļĦ
Ġæ ¬
ä¸į å½Ĵ
å¸ Ĳ
éĺ ¶
éĴ Ī
èģ Į
ä¼ ½
çļĦ åľ°
æµ ©
Ġåĺ ¿
åįģ ä¸ĩ
æ³ķ å®Ŀ
éĿĴ å¹´
Ġ 5
çĤ İ
åı¹ æģ¯
è® ¶
æĺ¯ ä¸įæĺ¯
æģ ¼
ç´ ¯
äºĨ ä¸¤
åĽ °
æģ¶ éŃĶ
å¹ ¿
æķĮ äºº
è² Į
èģ ª
ĠåĨ ·
Ġæľ¬ æĿ¥
Ġåĩł ä¹İ
ĠæĪĳ ä¸į
æ¯ ģ
Ġåıª èĥ½
è¶Ĭ æĿ¥è¶Ĭ
åŃ ¤
Ġæ Ł³
ä¸į å¤ļ
ç§ ¯
æĬ ¹
è± ª
ä»İ æĿ¥
ä¾¿ æĺ¯
æĤ Ħ
å¹ »
Ġä¸į çŁ¥
åĨ ¥
çļĦ æĦŁè§ī
é¢ Ħ
å· «
ä¸Ĭ åīį
æ´ Ĺ
å¾ ģ
æľ¬ äºĭ
å¸ ħ
éĶ ģ
èĢ Ĺ
æĭ Ķ
å¥½ å¥½
çĨ Ĭ
ĠæĻ¯ å¤©
éĻ ·
é¢ ľ
ĠåĬ ł
è®¤ ä¸º
ä¾ į
ä¸Ģ äºº
åıĮ æīĭ
Ġå°± åľ¨
ç»Ļ ä»ĸ
ç¬¬ äºĮ
æģ ĲæĢķ
Ġæµ ģ
ĠæĪĳ çŁ¥éģĵ
åĩł å¤©
æĵ ¦
æĿ ¨
èµ ¤
è® Ń
è®© ä½ł
èĪ¬ çļĦ
èĳ Ĺ
çĿĢ ä»ĸ
Ġæŀľ çĦ¶
ĠæĪĳ è¦ģ
èĸ Ħ
Ġåģ ·
å¦ Ī
å¥ ´
Ġå£ °
æĺ ı
åĲ ¹
åĩ ī
ç¼ ł
ĠåĲ ´
æ¬ £
éģĩ åĪ°
èĢģ éģĵ
é¦ Ĩ
æľī çļĦ
é» İ
ĠãĢ Ĭ
éģ Ĺ
å¹´ åīį
å°ĳ å¥³
çĪ· çĪ·
Ġåħ¶ ä¸Ń
Ġå ķ
çļĦ çĽ®åħī
è¾¹ çļĦ
Ġæķ´ ä¸ª
éĩ ĩ
éĢ Ĥ
å¦ ĩ
åĩº äºĨä¸Ģ
ĠâĢĿ ,
è¾ ī
æĪĺ æĸĹ
è¸ ª
ç¬ ¼
çĻ »
Ġç¼ ĵ
è¿ĺ èĥ½
æĪĲ çļĦ
Ġä»¥ åĲİ
Ġä¸º äºĨ
ä»ħ ä»ħ
åĥı æĺ¯
èģ Ĭ
æ¼ «
æĽ¾ ç»ı
Ġ3 3
æ¡ Ī
èµ ı
éĥ½ åľ¨
æĽ ²
çĴ ĩ
æĪ ·
ä¸Ģ åĬ¨
ä¿ ©
äº² èĩª
ä¿Ŀ æĬ¤
è®° å¾Ĺ
å¿ §
ĠéĹ ®
å¸Ŀ æŀĹ
æŃ» çļĦ
ç»´ äºļ
åĪ© ç»´äºļ
éĶ Ĳ
çħ ŀ
çĬ ¯
å¿ĥ åºķ
éĥ½ æľī
åĤħæ¸ħæī¬ çļĦ
æº Ĳ
ĠåĶ ī
çľ ¨
åĮ Ĩ
æŀ ļ
Ġæ ®
éģ Ń
Ġçľ¼ ä¸Ń
éļ¾ ä»¥
åĽ Ń
éĽ ¶
å¸Ī åħĦ
åį ¢
åİŁ æľ¬
è¿Ľ è¡Į
åĴĮ ä½ł
Ġæ¢ ¦
å¯¹ çĿĢ
è¯ »
Ġæ° Ķ
çĲ ĥ
æĺİçĻ½ äºĨ
æ Ĩ
è Ķ
æĿ¥ åĪ°
èĥ½ åĬĽ
Ġè ¾
æĥ ¹
è¢« äºº
åĨĽ å®ĺ
è´ ¼
å¾® ç¬ĳ
Ġæ ļ
Ġå¦ Ļ
Ġå¦Ĥ ä»Ĭ
æĲ ŀ
ç¢ §
Ġä½ł çļĦ
æµ ĵ
æİ ©
åĽŀ å¤´
ç¨ Ģ
è¿ ª
è Ļ½
ä¼ ĺ
å°± åľ¨
Ġç´ ¢
çľ ¸
Ġå¹ ³
Ġæķ °
éĤ£ æł·
åĨ³ å®ļ
äº Ĵ
å¥³ åĦ¿
Ġç´« èĭ±
ä¸Ĭ ä½įç¥ŀ
åĲ ķ
çĶ ļèĩ³
Ġæ» ¡
åĪĨ èº«
Ġæ ħ
éĺ ģ
æĬ Ģ
ç§ ĭ
ç«ł èĬĤ
é¼ ł
Ġç ¦
åľ¨ åľ°ä¸Ĭ
è¯´ å®Į
èµ Į
Ġä¸Ģ å®ļ
åĶ ĩ
Ġäºİ æĺ¯
å¨ ľ
Ġé¡ ¹ç¾½
è¡ ¥
æı Ĵ
å¿ĥ çļĦ
å¤© æ²³
æĤ ī
å¯ º
åı¹ éģĵ
æħ Į
åı ¦å¤ĸ
è Ŀ
å°ĳ å¹´
æŃ¦ èĢħ
éļĲ éļĲ
è® ¾
æĹł å¥Ī
Ġå° ĳ
èĢģ å¤§
Ġè½ °
ç½ ©
Ġå· ´
åĴĮ æĪĳ
ä¸į åľ¨
åĲ ´
ä¼ļ æľī
åĢ ©
Ġä¸Ģ éģĵ
éªĳ åħµ
æİī äºĨ
æĢ ľ
åħī èĬĴ
çļĦ å¥½
ç§ ģ
¯ ä¸Ģ
æ² ĥ
è·Ł æĪĳ
å¦ »
æ²¡ æĥ³åĪ°
é¼ İ
èģª æĺİ
å¿ ł
éĻ µ
Ġçģ µ
ä»¶ äºĭ
Ġè¯ Ŀ
Ġå°ı è¯´
éĽª å¨ĩ
Ġä¸į ç®¡
Ġæĸ¹ ç«¹çŃł
ä¹ĭ ä¸Ĭ
æĥĬ è®¶
Ġåģ ļ
èµ° åĪ°
åĤ ²
éĥ½ è¦ģ
çĶŁ çļĦ
Ġå® ĭ
ĠæĪ Ĳ
æį ı
èĢ Ĳ
åıĪ æĺ¯
ä¸Ģä¸ĭ åŃĲ
ĠçĽ® åħī
æ° ¸
Ġç«ĭ åĪ»
æİ§ åĪ¶
äºĨ æĪĳ
æĪ ª
å°± ç®Ĺ
ç½ ¢äºĨ
è£ ¹
çľĭ äºĨä¸Ģçľ¼
Ġè¦ģ æĺ¯
åĪ ¤
åĳ½ ä»¤
è ķ
æĭ ¦
ĠèĢģ å¤§
ä¸į å¦Ĥ
å® ½
å½ĵ ä¸Ń
Ġ~ ~
ä¸į è¯´
Ġç« Ļ
çīĩ åĪ»
éĻ Ħ
åıĺ æĪĲäºĨ
åł ª
æĢİä¹Ī æł·
æĶ¾ åľ¨
åĪ« çļĦ
çļĦ èº«ä½ĵ
æĦ §
æľĪ å¦Ĥ
å¸Ŀ éĥ½
çĥ Ĥ
å·¥ ä½ľ
æĥ ¯
ä¹Ł ä¸įæĺ¯
çŁ ¿
æĤ ł
åħĪ å¤©
ĠãĢĤ âĢľ
Ġå°± è¿ŀ
ĠæĿ ¨
Ġåĺ ´
Ġçº ª
çļĦ é»ĳ
çĥ ĪçļĦ
æĢĢ éĩĮ
Ġè Ļ
Ġå ²
åľ° æĹ¶åĢĻ
ä¸Ń å¹´
Ġçº ¢
Ġç¼ĵ ç¼ĵ
éļ Ĩ
ç¥ŀ éĢļ
åįĥ ä¸ĩ
ä»¶ äºĭæĥħ
äºĨ æĳĩå¤´
æī ¹
æ¸Ĳ æ¸Ĳ
è¾Ī åŃĲ
äºĨ è¿Ļ
ç¼ º
çł į
Ġè¡ Ģ
æĪ ´
åīį éĿ¢
èĳ £
æĹ© å·²
ī å¼º
æĪĳä»¬ çļĦ
æĳĩ æĳĩå¤´
åľ° ä¸Ģ
éĥ½ è¢«
æ¼ Ĥ
Ġè½» è½»
åº Ń
Ġæ¸ ħ
éĺ² å¾¡
Ġæĭ ī
æ² ¹
ĠéĤ£ æĪĳ
ç¼ ©
åĴ Ĳ
è· ª
é¢¤ æĬĸ
åį Ī
çľĭ èµ·æĿ¥
ä¼ ¦
è½ ½
ä¼ į
æľīäºĽ ä¸į
çª Ĺ
éĢī æĭ©
Ġç® Ĺ
Ġåį Ĭ
åįģ ä¸ī
åģļ ä»Ģä¹Ī
é¸ Ł
éĢ Ĵ
é ¾
å¦Ĥ ä»Ĭ
èħ ¹
Ġè´Ŀ é²ģçī¹
¦ Ĩ
èĢ Ģ
å¤´ ä¸Ĭ
çĮ ´
åł Ĩ
å°ı èĻİ
ä»» åĬ¡
è¿Ļ æĺ¯
éħ ĭ
è¾ Ĩ
æī ¯
æĥ³ æ³ķ
åħ¶ å®ŀ
èĤ ļ
Ġå® ¶
Ġ ä¸ĥ
ä¸Ģ æĥĬ
Ġè ĳ
çĶ ļ
çª ľ
Ġåĵ ¥
åĬ¨ äºĨ
æ¯ ķç«Ł
Ġå® ģ
åĪĻ æĺ¯
ĠåĪ Ĩ
ä½ ©
éĻ ¤
åĬ² æľŁ
é¢ ĩ
æī §
æ³ °
éļ Ķ
Ġåħ¶ ä»ĸ
çĦ ¦
å¸Ŀ åĽ½
æĲ Ń
Ġåıį æŃ£
· æĻ´
åĴĮ ä»ĸ
å¥¹ ä»¬
èĭ¦ ç¬ĳ
éĥ½ ä¼ļ
èĤ ĥ
èĥ ĸåŃĲ
åıĺ æĪĲ
åĬ ³
é¸ ¡
åĬ¨ ä½ľ
å¼ ¥
è¿ħ éĢŁ
ä½ł äºĨ
æ¸ Ń
ĠéĤ£ ä½ł
æĢª çī©
Ġä¸Ģ è¾¹
Ġè® °
å¨ģ åĬĽ
ĠæĪĸ èĢħ
çĸ¯ çĭĤ
ä¹ĺ é£İ
ĠæĪĳ çľĭ
è¯ ¡
ĠæŃ¤ æĹ¶
Ġé Ł
ĠåĨ Ľ
çļĦ å¤©
ä¸Ģ åıª
æī Ķ
åıĺ åĮĸ
æĹ¥ åŃĲ
æķ° åįģ
Ġå¸ ĥ
åĨ· ç¬ĳ
åı« éģĵ
ç¬¬ ä¸Ģæ¬¡
å¸Ī çĪ¶
Ġçº µ
å¤ ı
Ġè £
Ġè ĵ
åįģ åħ«
Ġé ²
èĮ ĥ
å¼º å¤§
çģµ åŃĲ
å® ľ
è´ ´
å¾Ī æľī
åª ļ
éĥ¨ åĪĨ
ä¸Ģ ç§į
çģµ åĦ¿
çı į
åŃĺ åľ¨
ä¸į æĪĲ
Ġéĩ Į
ä¹ ĸ
äºĨ åįĬ
Ġå¾ Ĺ
Ġç» ı
æĹı çļĦ
çĻ¾ ä¸ĩ
è¿ «
è¦ģ æĺ¯
éĵ ľ
å¨ ĥ
çķĻ ä¸ĭ
-- --
Ġæ²¡ æĥ³åĪ°
æĿ °
Ġå¼ º
äºĨ åĩºåİ»
å¾Ī å¿«
åĮĸ ä¸º
é²ľ è¡Ģ
Ġèİ «
Ġä½ł å°±
æĤ ¬
æĺ ¨
ä¸» äºº
çĹ ķ
æĳĩ äºĨæĳĩå¤´
Ġc o
Ġç»ĵ æŀľ
ä¼ĳ æģ¯
Ġ! !
åĴ ±ä»¬
åĺ¿ åĺ¿
å¸ Ń
æ³ķ æľ¯
å¿ħ é¡»
ä¹Łä¸į çŁ¥éģĵ
æĸ¹ éĿ¢
ĠéĿ ŀ
ä¸Ģæł· çļĦ
ĠçĮ Ľ
çĤ ®
å¯¹ äºİ
Ġéľ ²
ĠæĪĸ è®¸
çī ¢
Ġèº« ä½ĵ
è¾ £
å¥³ åŃ©
åıĹ åĪ°
Ġ ä¾Ŀ
æľī æīĢ
æīĭ ä¸ĭ
éĻ Ľä¸ĭ
åĭ ¾
çļĦ åĬĽéĩı
ä¸į åģľ
å°¸ ä½ĵ
ä¹Ł è¦ģ
æ²¡æľī ä»Ģä¹Ī
çĶŁ æ´»
æŃ£ æĺ¯
äº ¿
åĬ ª
åľ° çļĦ
æīĭ ä¸Ģ
åĽŀ åĪ°
æĽ ¿
å®¶æĹı çļĦ
åĩºæĿ¥ äºĨ
å¤§ åĨĽ
Ġç ¨
Ġåį ¡
ä¸į åı¯èĥ½
éĻ ¶
Ġä¸į çĶ¨
çĪ ª
çľŁ äºº
ĠæĹ ģ
Ġ? !
çĶ ĺ
æĺİ æĺ¾
Ġå° ¤
çĶŁ æŃ»
è ¦Ĩ
èĢĮ åİ»
çĪ ¬
å½ĵ åĪĿ
ĠçĻ½ å·Ŀ
Ġå¿ į
éĥ İ
éĶ ħ
æĺ Ĭ
åĥ §
æ¿Ģ åĬ¨
çļĦ è¯´éģĵ
éĿ¢ èī²
çļĦ è¯´
èĬ ·æĻ´
æĦ ķ
ä»Ļ äºº
ç¥ŀ èī²
éª ¤
åŃĿ å¤©
é¢ Ŀ
æĸ¯ çī¹æŀĹ
æķĻ å»·
ä»£ è¡¨
æī ¶
ä¹Łä¸į ä¼ļ
å¹³ éĿĻ
åľ° äºº
æ± ł
ç« ¥
çİĭ åĽ½
èĦļ æŃ¥
æĢ§ åĳ½
Ġè ¥¿
è¿ĺ æ²¡æľī
æĩ Ĵ
åħ Ķ
æĸ¹ çļĦ
èĢĮ åĩº
åı ¦
Ġç ķ
æĺ Ĥ
çľ ¯
æĢĢ çĸĳ
Ġå± ±
Ġæ ı
ç¬ĳ äºĨèµ·æĿ¥
¶ é²ģ
åı¤ æĢª
ĠçľŁ æĺ¯
å¾Ĺ å¾Ī
éĹ¨ çļĦ
å½ĵ å¹´
åħ´ è¶£
çĨŁ æĤī
Ġ ä¹±
å¤´ æĿ¥
æ³ ¥
Ġçī ¹
æĪĸ èĢħ
èĢĮ è¨Ģ
Ġco m
ä¸į åĬ¨
çĶ ľ
éĹ ²
æĵ į
ç»Ļ äºĨ
éŁ ©
Ġè®¸ èĪĴå©·
ĠæĪ ĺ
çļĦ ä¸Ģä¸ª
Ġåħ¬ åŃĲ
¼ æŃ¤
æĿĢ æŃ»
åĬ¿ åĬĽ
åħ½ äºº
Ġåı ¦å¤ĸ
å±± èĦī
Ġç´ §
åĶ ¤
Ġåį ¢
æ³ķ åĬĽ
é¡ ¹ç¾½
èī º
èĮ «
æĦı è¯Ĩ
éľ Ħ
æĻļ ä¸Ĭ
éĹª è¿ĩ
èĥĮ åĲİ
ä¸¤ ä½į
ĠæŃ ¦
Ġåī ĳ
çļĦ ç¡®
ĠçĶ ±
å®ī æİĴ
Ġæģ ©
éŃĶ ç¥ŀ
åĲĦ ç§į
æ²ī é»ĺ
Ġé¡ ¾
çļ± çľī
Ġèĳ £
éĢ Ķ
é¢ Ĭ
çŀ §
åĲ ī
Ġå® Į
Ġç¬¬ åĽĽ
æīį æĺ¯
å®¢ æ°Ķ
åľ° çľĭçĿĢ
Ľ å¦Ĥ
äºĨ ä¸ĭ
åĮ ¹
çĮ ª
Ġåĵª éĩĮ
Ġ ww
çŀ ³
Ġä¼ ¸
åį ļ
æĦı å¤ĸ
æĪĺ åľº
Ġå¦Ĥ æŃ¤
ĠæĢ¥ å¿Ļ
åº ·
æ³ķ åĪĻ
ç¬ĳäºĨ ç¬ĳ
äºĨ è§£
ĠèĦ¸ èī²
Ġçģ «
æĥ³ èµ·
æĳ ©
æĿİ éĢįéģ¥
æĹ ¢çĦ¶
çĸ ¾
ä¸Ģ åĿĹ
ĠæŀĹ ä¸ī
æĮ £
æĶ¯ æĮģ
ç»ı è¿ĩ
Ġæ Ľ
ĠéŁ ©
ä¹Ł ä¼ļ
äºĨ åĲĹ
ç» į
æµĳ èº«
éĥ½ èĥ½
æµħ éĽª
ä¸ °
åľ° è¯´éģĵ
è¯´ çĿĢ
Ġç¬ĳ éģĵ
æĦ¤ æĢĴ
Ġç ²
å¥ ķ
è·¯ ä¸Ĭ
æº ľ
æħ¢ æħ¢
æīĭ æĮĩ
åĶĲ é»Ľ
å¯ Ĥ
Ġä¸Ģ å£°
å¦ĸ æĢª
Ġè°¢ è°¢
çĺ ¦
ĠæľĽ çĿĢ
è¯ Ģ
Ġww w
åĽĽ ä¸ª
ä» ĳ
äºĨ ä¸ĭåİ»
éĢ Ĩ
èĢģ èĢħ
æ» ĳ
ĠæĿ ľ
æľī ä¸ª
ĠæŀĹ å¤§äºº
å¼ ©
æĳ Ķ
éĥ ģ
Ġå¤ ĸ
Ġåı ¤
Ġä½ł åı¯
å¤ ®
Ġåĵ İ
è¸ ¢
å·¦ åı³
Ġæ² ī
èĵ ī
çĪ ¸
åĨĽ çļĦ
Ġå¦Ļ å«£
åıª è¦ģ
å¸Ī å¸Ī
h t
åįģ äºĶ
å±± çļĦ
Ġæĺ¯ ä¸įæĺ¯
Ġé£ ŀ
Ġæİ¥ çĿĢ
Ġåĺ¿ åĺ¿
Ġç´¢ èı²äºļ
è¿ŀ å¿Ļ
èĤ ¤
ç¥ ¸
ä¸» æĦı
çļĦ æĹ¶éĹ´
æ®¿ ä¸ĭ
åīį çļĦ
åĲĮ æł·
ä¸ ĺ
ä¼ Ĭ
èº ¯
ĠèĤ ĸ
è ª
Ġå§ Ĳ
æĥ³ çĿĢ
èİ ·
èĦ ı
åģļ çļĦ
ĠåĮ ħåŃĲ
å¯¹ æĪĳ
çĪ ½
è½» æĿ¾
æĢİä¹Ī åĬŀ
éĹ ¯
èı ±çº±
ãĢĤ ãĢĤ
çĽ Ī
ç¤ ¾
æĬ¬ å¤´
åľ¨ åľ°
æģŃ æķ¬
¤ Ĳ
åĴ ¯
ç© ´
Ġå½ĵ åĪĿ
Ġè Ĵ
Ġä¸ī äºº
èĭ ı
ĠéĽ ª
Ġåı ²
Ġåįĥ åįĥ
å¹´ çºª
å¼º å¤§çļĦ
æŃ¦ åĬŁ
åİŁ åĽł
Ġæ¢¦ çĴĥ
èº º
å¦Ĥ åĲĮ
åĨĽ åĽ¢
æµģ é£İ
å®ļ äºĨ
å¯¹ ä»ĸ
æŃ¤ æĹ¶
ç´§ å¼ł
âĢ ĺ
èĲ ¨
¡ çĦ¶
å½ ķ
æĪĺ äºī
å¤§ éĩı
æĺ Ķ
Ġé ĥ
åĽ º
çĥ ģ
å¿ ½
å¯ ¸
éĵ º
åĴ Ĵ
ĠçľŁ çļĦ
Ġä¸Ģ çĽ´
ç´§ ç´§
å®Ŀ è´Ŀ
çĵ ¦
Ġè½ ©è¾ķé£İ
Ġç© º
ĠçĤ ¹
Ġé Ĥ
æĮ¥ æīĭ
ĠéĶ ¥
ä¸į å¯¹
Ġä½ł ä¹Ł
åĺ» åĺ»
ĠèĢģ åŃĲ
åĴ¬ çīĻ
Ġå° ½
åĬĽ æ°Ķ
æİ¥ çĿĢ
å¿« çļĦ
çĹĽ èĭ¦
å· ħ
ä¸Ĭ éĿ¢
Ġåı £
Ġåľ £
èĢĮ æĿ¥
Ġåĳ ¼
ä¹ ¡
äºº äºĨ
çĭ Ĳ
è¯´ æĺ¯
èµ° åİ»
åĽĽ åĳ¨
ĠæĪĳ è¿Ļ
çľĭ åİ»
è¡¨ çİ°
Ġåħī æĺİ
æĬĬ ä»ĸ
Ġ ä¹Ŀ
Ġç Ļ
å¿ Į
åľĨ æ»¡
åĩ ĳ
å¾Ĺ äºĨ
çĿĢ çļĦ
æĤ į
å´ ©
éĻ ¤äºĨ
Ġéļ Ĳ
Ġä»Ĭ æĹ¥
ä¸Ģ åĲ¬
æĭ ¾
Ġåħ ³
è¡Į äºĨ
Ġå¹ ¸
å½» åºķ
èĢĥ èĻĳ
æĮ ¤
åįģ ä¸Ģ
åĪ Ľ
æĪ Ī
å°ı è¯´
è¿ŀ è¿ŀ
çĿ £
æ¢ ģ
è´ §
é ³
çº· çº·
ä»ĭ ç»į
çļĦ èĦ¸
å¾Ĺ æĦı
ç¾İ å¥³
æķħ æĦı
è¿ĺ çľŁ
èĲ§ å®¶
æħ °
å¤ļ å¹´
ä¹Ł èĥ½
éĺµ æ³ķ
èĽ Ł
Ġåģ· å¤©
æīĭ ä¸Ĭ
ç¥ŀ åħ½
èĭ Įçĭ¸
åĵ¥ åĵ¥
èµ ¢
å¿ĥ æĢĿ
æĪĲ åĬŁ
Ġå· ¦
ä¸ §
ä¸Ģ åı¥
Ġå¤ ´
åŁİ åł¡
ĠçĪ ¶
è½¬ å¤´
Ġæĭ ¿
Ġ è¿ĩ
å§ Ķ
å·® çĤ¹
è Ł
æŃ ī
Ġè¿Ļ æĹ¶
åĭ īå¼º
èĢģ çĪ·
çĸĳ æĥĳ
Ġå°¤ åħ¶
Ġä¸į èĥ½
ä»Ģä¹Ī æĹ¶åĢĻ
æĤ Ķ
æĢİä¹Ī åĽŀäºĭ
Ġå£° éŁ³
© åĴĲ
æİ ł
ä¾ Ľ
ĠæĹł æķ°
ä¹ĭ èī²
ä¼ł è¯´
å¦¹ å¦¹
Ġç»Ŀ å¯¹
é Ħ
ç§ ĳ
æĮĩ æĮ¥
æ·± æ·±
èµ ĭ
åįģ ä¹Ŀ
çĶ¨ çļĦ
çļĦ è¡¨æĥħ
æĿ ľ
æİ ı
éľ ¸
å¢ ĵ
éĥ¨ èĲ½
ĠåĪ° åºķ
æ²¡ ä»Ģä¹Ī
åĨ· åĨ·
Ġ -
çľ¼ éĩĮ
åĲĳ äºĨ
ç¼ ķ
æ½ ľ
ĠéĻ ¶
Ġå· §
æ®µ æĹ¶éĹ´
æīĭ æ®µ
åĵ Ģ
åıĤ åĬł
Ģ å±±
åĵ¼ äºĨä¸Ģå£°
å° Ŀ
Ġä½ ¿
çļĩ ä¸Ĭ
èĢĮ èµ·
å¼ ¯
åİ ®
æīĵ ç®Ĺ
æĹł å£°
ä»Ļ åŃĲ
ä¸Ģå®ļ è¦ģ
Ġä»ĸ æĺ¯
ä¹ĭ ä¸Ģ
Ġå¹ ´
ĠäºĮ äºº
Ġç® Ģ
çļĦ éģĵ
å¾ ĭ
éĢ Ĳ
Ġä¸Ģ æĹ¦
æīĵ éĩı
ç¼ Ŀ
Ġä¸į ä¼ļ
Ġæī ¾
î Ģ
µ ®
æĭ³ å¤´
Ġå¿į ä¸įä½ı
å½± åĵį
è¯ §
çľĭ å¾Ĺ
èĥ ģ
åĺ´ å·´
æ·· ä¹±
Ġæľ Ŀ
çľĭäºĨ çľĭ
ĠåĮ Ĺ
åĬŁ æ³ķ
ĠæĮī çħ§
Ġæľ ª
èĪ Į
çŁ³ å¤´
îĢ Ħ
æ¸ ¯
è¿Ļä¹Ī ä¸Ģ
çľĭ åĪ°äºĨ
éĿ¢ ä¸Ĭ
Ġå¯¹ äºĨ
è½¬ èº«
å·§ å·§
ĠåŁ İ
è´ º
æ¸ħ æĻ
è¾ ±
ä¸Ģä¸ª å°ı
Ġå¥½ äºĨ
äºĨ å£°
Ġè¦ģ ä¸į
ĠæĮ ĩ
ä¸Ģ åĪĩ
ç© ·
Ġè¡ Į
Ġ äºĭ
æĻ ĵ
Ġåį ķ
ĠçŃī åĪ°
åŃĲ ä¸Ĭ
ĠåĲ ĥ
è¯ į
ä»ĸ ä¸Ģçľ¼
çŁ ©
è¾ ŀ
çĿĢ æĢ¥
é»ĳ æļĹ
å¼ ĵ
ä¼¸ æīĭ
Ġæĺ¾ çĦ¶
çĻ¾ å¹´
Ġé» Ħ
çľŁ æ°Ķ
é½ ¿
æ¼Ĥ äº®
ĠèĴ Ļ
ä¹Ł å¾Ī
å» ¶
çļĦ è¡Ģ
æĺ¯ ä½ł
åľ¨ ä¸Ģ
è¿ĩ çļĦ
ĠéĤ£ å°±æĺ¯
äºº çī©
å¤§ å¸Ī
å½ĵ æĹ¶
äºĳ é£İ
è¯Ń æ°Ķ
åĮħ åŃĲ
è¿ ªèİīå¨ħ
åĩº çİ°åľ¨
å± Ī
æ»¡ æĺ¯
ç¾İ ä¸½
ĠåĪ° äºĨ
ĠåĲİ æĿ¥
æŃ£ å¸¸
æŁ ±
Ġç» §
Ġå Ļ
é¡ ¹
Ġåĩł ä¸ª
Ġåħ «
å®ī åħ¨
Ġåıį èĢĮ
é£ŀ åīĳ
ä¸» åĬ¨
Ġåħ Ń
çģµ æ°Ķ
æļ Ĥ
å¦Ļ å«£
å°± æľī
æĦ Ī
æ´ ģ
éķ¿ åīĳ
Ġå¹ ²
æ¯« ä¸į
Ġè¡ ¨
èŀį åĲĪ
æĭ ĸ
åŁ ĭ
æĴ Ĵ
Ġæ· ±
Ġè¶ Ĭ
æŀľ çĦ¶
æĬ¤ åį«
æķ ı
éĥ ¡
çļĦ æ°Ķ
æļ ĸ
çļĦ çľĭçĿĢ
åħ ¸
èķ ´
å¼Ģ æĿ¥
æĳĨ æīĭ
Ġç Ŀ
å¼ ĺ
Ġç¬¬ äºĶ
æĿ¡ ä»¶
æľ «
ä¸Ĭ ä¼ł
Ġçİĭ å°ıèĻİ
ä¸į å¤ª
åŃ ½
åĬ Ŀ
Ġæľī äºº
ä¸Ģ éĹª
è¯ ¢
åĲİ éĢĢ
ä½İ å£°
Ġè¿Ļ ä¸Ģæ¬¡
åĲ¯ èĩ£
æī °
Ġçİ Ħ
ĠçĽ´ åĪ°
èĤ ²
æ¶ Ĥ
è¯¡ å¼Ĥ
æĸ ¥
Ġåı¯ æĥľ
ĠåĲ ķ
ĠæĢ §
éĹª çĥģ
åįģ åĩł
å° º
Ġè¿Ļ å°±æĺ¯
èĥ İ
ĠæĢ ķ
åľ¨ æĪĳ
æ® Ĭ
Ġæ´Ľ åĩĿ
åº ĵ
èİ İ
ä¸Ģ åı£æ°Ķ
å®¶ éĩĮ
æīĢ è°ĵ
ä¸ĥ åħ«
éª¤ çĦ¶
æĢİ æł·
æł ¸
åħĥ ç¥ŀ
éľĩ æĥĬ
ĠåĮ ĸ
Ġåĸ Ŀ
è¯ Ĺ
çŁ¥éģĵ äºĨ
æ¡ ¥
æħ ¨
é ¤Ĳ
å® £
é«ĺ çļĦ
è½» æĺĵ
æ¶ ©
ä»Ĭ æĹ¥
Ġè§ģ åĪ°
Ġå¨ ģ
Ġå·§ å·§
ä¸Ģ èĤ¡
å± ĳ
ä¸Ģ çķª
Ġåħ ĥ
é©¬ è½¦
åįĥ å¹´
æĸ¯ å¡Ķ
Ġè¶ ³
Ġæ ¶
æŀĹéĽ· çļĦ
éĺŁ ä¼į
æ£ į
èĵ ¬
éģĵ äºº
Ġä¸į éĶĻ
åĽŀ æĿ¥äºĨ
Ġå°± åĥı
æīį åŃĲ
éĩĳ å±ŀ
ĠâĢĻ ãĢĤ
Ġç ĸ
çĽ Ĺ
ä¸Ģ å¤©
Ġé ħ
Ġä½ł ä¸į
èĤ Į
ä¼ł éŁ³
è§£ åĨ³
æĴ ķ
Ġå§Ĳ å§Ĳ
çļĦ æĦıæĢĿ
èĢ »
æĭ ĵ
ä¾ ĭ
å°Ĩ é¢Ĩ
éĥ ĳ
æ»¡ èĦ¸
æŃ¦ åĻ¨
Ġå¾ Ģ
çģ« çĦ°
ä»Ļ éŁ³
å¿ĺ è®°
åįģ åħŃ
çł Ķ
èº« ä¸ĬçļĦ
çĿĢ èĦ¸
çĽ ¾
å¼º çļĦ
Ġå½ĵ æĹ¶
åİ» æī¾
å¤ª å¤ļ
Ġ2 00
åĴ ³
çŀ Ĵ
ĠĠ Ġ
æ¬º è´Ł
ç¥ŀ ç§ĺ
éĿĴ æĹĭ
Ġ è¿ľä¸ľ
çªģ çł´
å®³ æĢķ
Ġç ĥ
éª ĩ
å§ļ èķĬ
åĲ ©åĴĲ
å¤į æĿĤ
Ġçİī ä¼½
Ġä½ł çľĭ
ĠèĤ ¯
Ġå Ĥħ
Ġä¸Ģ èĪ¬
å·ħ å³°
å¥½ å¥ĩ
åĨį è¯´
ä» Ĩ
æĺ¯ æľī
çĽ Ł
Ġé¡ º
çĩ ĥ
æ½ ®
æħ Ī
ĠéĻ ¤
Ġåĳ¨ åĽ´
èĦ ĸåŃĲ
åĤ ¬
ç¡® å®ŀ
èĳ µ
å¸® å¿Ļ
éŀ Ń
Ġ C
åľ° çĭ±
äºĨä¸Ģ äºĽ
æı ´
ç¢ Ĺ
æĴ ĩ
çļĦ å°±æĺ¯
åĸ ĺ
ç©¿ çĿĢ
æķ ²
å¿ĥ å¤´
Ġä¹Ł ä¸įçŁ¥éģĵ
Ġé ¦
è¡Į çľģ
ç¦» å¼ĢäºĨ
åī© ä¸ĭ
Ġå¸¦ çĿĢ
æīĢ ä»¥
éĢļ è¿ĩ
çĹ ´
ä¸ĭ éĿ¢
å§ ¬
Ġè¯ ¸
éĿł è¿ĳ
å¤§ å£°
é¥ °
ĠåĶĲ é»Ľ
æĺ¯ è¦ģ
æĪĳ å°±
æŀ Ŀ
Ġå¿ ħ
ä¹ ĥæĺ¯
æ³ Ľ
æĭ¥ æľī
æŁ ĵ
æĴ ĳ
è¦ģ æ±Ĥ
åĶ ±
æĭī ä½ı
Ġèº« åŃĲ
ĠåĿ Ĳ
å¥ ī
æĭ Ĵ
èĥ¸ åı£
åĴ §
èĨ Ĭ
ä¹ĭ æŀģ
æ²¡ äºĭ
Ġè¯ ¥
å°± è¢«
ä¸Ń å¤®
éľ ŀ
Ġåĩ Ŀ
ç» ĩ
åĢ ¾
æĸŃ äºĨ
ä¸¹ çĳ¶
ä½ł æĺ¯
ç½ ¢
é²ģ åħĭ
Ġæ¸© æħ§
ĠèĤ¯ å®ļ
åŀ Ĥ
ä¸Ģ ç¾¤
ä¸į è¡Į
å¤© é¾Ļ
Ġæĥ Ĭ
çĶŁ æĦı
èī ³
éļı çĿĢ
Ġå¾Ĳ å°ıå§Ĳ
æīĭ ä¸ŃçļĦ
ä¸ľ å¹³
Ġæİ Į
Ġä¼ °è®¡
éĩį æĸ°
ç² ®
ä¸į æĺİçĻ½
ç§ Ĵ
è¾ Ľ
æĬĬ æı¡
éĶĻ äºĨ
Ġè§ ī
ĠåĢĴ æĺ¯
ä¸Ģ è·¯
å°± åĥı
è§ģ ä»ĸ
æ¶ ²
ä¸į æ¸ħ
çĶ¨ åĬĽ
è§Ħ çŁ©
Ġä¹Ł å°±æĺ¯
Ġæ´ ª
æĭ ¬
ä¸º éļ¾
åĲ¬ äºĨ
å°ı æĹ¶
æ³ Ħ
çķ ı
èĢģ å©Ĩ
è¿Ļ è¯Ŀ
çī µ
Ġè®© ä»ĸ
åıĭ ä¸Ĭä¼ł
h u
ĠæĪĳ åĴĮ
åı¯ å°±
Ġé» İ
é «
è¿Ļ èĪ¬
å¨ģ èĥģ
æ¯« æĹł
æĢģ åº¦
åİĨ åı²
æĬ ļ
Ġå¤ «
æĮĩ çĿĢ
éŃĶæ³ķ å¸Ī
åĩ Ħ
è± ¹
æ¢¦ çĴĥ
å±ģ èĤ¡
åĹ ¤
Ġç§¦ ä»ĻåĦ¿
èº« æĹģ
å¿ĥ æĥħ
å·® ä¸įå¤ļ
æĬĵ ä½ı
ç®Ģ çĽ´
è´Ł è´£
æŁ ¯
³ èĨĬ
çļĦ æĥħ
Ġç ¡
Ġæ± Ĥ
åĳ³ éģĵ
äº§ çĶŁ
¾ æ°Ķ
ä¼ ´
æīĵ äºĨä¸ª
çİĦ å¥¥
Ġå ¡
ä¸į åģļ
äºĨ ä½ł
ä¸Ģ çĻ¾
åħĥ ç´ł
ä¸»ç¥ŀ ä¹ĭåĬĽ
ä¸º ä½ķ
**** ****
éĢļ éģĵ
æĬ¬ èµ·
éĽ Ģ
èįī åİŁ
åĵ Ĺ
Ġèĥ¡ ä¸įå½Ĵ
èĢģ å¸Ī
Ġä½ ľ
æ·± å¤Ħ
Ġx i
è¢ ĸ
çĽ¸ å½ĵ
æ°¸ è¿ľ
åŁİ çļĦ
ĠæĪĳ ä¼ļ
åº Ļ
Ġæĺ ¥
ĠåĨ ²
çĽ® çļĦ
æľĢ è¿ĳ
Ġæ³ ķ
Ġé«ĺ éħĭ
Ġå®Į åħ¨
åıĭä¸Ĭä¼ł ç«łèĬĤ
æ³ ī
ä¾¿ å®ľ
Ġå½ĵ å¹´
ĠåĴ ¦
Ġèĭ Įçĭ¸
åı ¬
å±± ä¸Ĭ
ç¿¼ ç¿¼
å¹´è½» äºº
æ´ Ĵ
æĶ¹ åıĺ
çİī èĭ¥
ç»ĵ æŀľ
åħµ ä»¬
Ġç¬¬ åħŃ
è´µ æĹı
ä¹ĭ å¤Ħ
æĲ ľ
Ġçľ¼ çľĭ
éļı ä¾¿
è ł
ĠåĽ ł
äºĨ ä»Ģä¹Ī
çª Ŀ
Ġå¯¹ æĸ¹
å§ Ĺ
Ġè§ī å¾Ĺ
ç¥ŀ è¯Ĩ
åįģ å¹´
æĭ¼ åĳ½
ä¸Ģ ä»¶
ä¹Łä¸į æķ¢
å¿µ å¤´
ä¼ļ çļĦ
ä¸Ģä¸ª ä¸ª
å£ ¶
è¶ Ł
ĠéĶ¥ åŃĲ
ç µ®
Ġå°± ç®Ĺæĺ¯
æĹı éķ¿
åĥ µ
ĠæĬ ±
æĺĨ ä»ĳ
Ġåı¯æĺ¯ ä»ĸ
åĨħ çļĦ
åıĹ ä¼¤
æĭĽ åĳ¼
ä» ª
èº« çļĦ
äºĨä¸Ģ éĺµ
èĢģ æĿ¿
æĦŁ æĥħ
ĠçļĦ ç¡®
è¿ Ķ
æĬ Ľ
éĿ¢ åŃĲ
Ġæĥ ĳ
Ġå· ®
ä¸¤ä¸ª äºº
Ġåĳ µ
Ġèĥ½ å¤Ł
è¢« ä»ĸ
æĥĬ åĳ¼
Ġæ· ¡
æ¸ħæĻ °
ç» µ
å®Į äºĨ
ç´« èĭ±
ç¨ĭ åº¦
Ġç ĩ
æīĵ å¼Ģ
ä¸į åĨį
ĠæŀĹ æľĪå¦Ĥ
Ġå¹¶ ä¸Ķ
è¶³ å¤Ł
çľĭ çļĦ
çĮ´ åŃĲ
çļĦ å®ŀåĬĽ
å¹ ħ
å¤´ çļĦ
çŃ ĸ
æĺ¾ å¾Ĺ
èĭ± éĽĦ
ĠåĪ° æĹ¶åĢĻ
Ġ ä¸ľæĸ¹
èĥ ³èĨĬ
ç¿ ł
ä¿Ŀ è¯ģ
æº ĥ
Ġå¾Ĳ æ¸Ń
å¾®å¾® ä¸Ģç¬ĳ
Ġåı ĺ
æĢ ĸ
ä¸Ń éĹ´
å¤© ä½¿
éĤ£ è¾¹
Ġæĺ ¨
æĥĬ åĸľ
ç§ĺ å¯Ĩ
åĩ ı
æŃ£ æĸĩ
å¸ ģ
åº Ħ
ä¿ Ĺ
Ġå¾ ħ
é»ĳ çĻ½
åįĬ åħ½äºº
ä¹Ł çŁ¥éģĵ
è·Ł ä½ł
éĩį ä¼¤
çŃī çĿĢ
Ġèµ ·
æĪĴ æĮĩ
å° ¬
Ġç ħ
åĴ ķ
éĤ£ä¹Ī å¤ļ
æ¸ Ĭ
Ġå· ¨
ä» į
åĿ Ģ
é© ¾
åĳµ åĳµ
çļĦ åīĳ
ä»ĸ æĺ¯
åįģ ä¸ĥ
éĶ ®
å°ĳ çĤİ
èħ ķ
ĠåĪļ åĪļ
åİ Į
´ å°¬
äºĭ åĦ¿
åĲ¬ è¯´
å·²ç»ı æĺ¯
çģµ çŀ³
Ġæľī ä»Ģä¹Ī
Ġè¿ŀ å¿Ļ
ĠåĶ ¯
èľ Ģå±±
åĩ Ľ
å¸® åĬ©
åį ¦
Ġ: âĢĿ
ĠæĪĳ è¿ĺ
æĬĬ æĪĳ
åĩłä¸ª äºº
é¥ ¶
çļĦ é«ĺ
ä¸į æĩĤ
åľ° éģĵ
¹ ģ
æĻ Į
æ¬ ł
æľ¨ åħ°
æĥ¨ åı«
Ġå¥¥ åĪ©ç»´äºļ
ä¸Ģ æĦ£
å¥ ¶
æĥ³ äºĨ
Ġå°ı å¿ĥ
çļĦäºº çī©
èĨ Ŀ
æ» ĭ
æĸ¯ é»İ
æĶ¶ æĭ¾
ç»ı åİĨ
è´Ŀ é²ģçī¹
Ġ ä»¤
èĢ³ è¾¹
é³ ŀ
çº§ çļĦ
æĿ¥ å¾Ĺ
æĭ ¨
æĮ ¯
é¾Ļ è¡Ģ
çı Ń
åĩº å£°
è§ģ äºĨ
è®© å¥¹
Ġåį´ åıĪ
çĦ¶ éģĵ
åīį è¿Ľ
æĸ¹ ç«¹çŃł
åħ¨ åĬĽ
éªĳ å£«
èİ± å¾·
Ġæ ¡
åĿ Ĭ
åĻ ¬
å¼Ĥ å¸¸
äºĨ äºĽ
ä¸Ģ èĦ¸
çĤ¹å¤´ éģĵ
èĩ³ é«ĺ
èĦĳ æµ·
èº ¬
èĩª å·²
éĶ ¤
é© »
Ġçľĭ èµ·æĿ¥
æ¡ ĥ
Ġèµ ¶
èĥ¡ äºº
ä»· åĢ¼
èĮĥ åĽ´
Ġæĺ Ł
Ġæ® ¿
å¤´ åıĳ
åĪ ĥ
Ġé Ĵ
ç¬ĳ ç¬ĳ
å·²ç»ı è¢«
åĲį çļĦ
è½¬ è¿ĩ
åĺ´ è§Ĵ
Ġ ä¼Ĺ
å¤´ é¡¶
ĠåĨ ħ
éĶ¥ åŃĲ
ä¹ĭ äºĭ
å¥½ å¤Ħ
Ġä½ ĵ
çĶŁ æ°Ķ
å½ ¼æŃ¤
äºĨä¸Ģ ä¸Ŀ
åĩºä¸Ģ ä¸Ŀ
· çļĦ
äº «
åĩ ¤
æŃ Į
é¼» åŃĲ
Ġåħ ĭ
ç´«å·Ŀ å®¶
ä¸Ń ä½įç¥ŀ
æĳ Ĭ
å² ¸
è¶³ æľī
Ġç© ¿
æ³ ½
ä¾ µ
å¤ª è¿ĩ
å¤Ħ çĲĨ
Ġè®° ä½ı
ä¸Ģ åº§
å¤§ æ¦Ĥ
çĲĨ è§£
Ġä¹ Į
ĠåıĪ æĺ¯
å¹¶ ä¸įæĺ¯
è¸ ©
ĠéĢ ļ
èĢģ ä¸ī
å¾Ī éļ¾
åĺ ¶
æĤ ¦
çĲ ¼
Ġçľ¼ çĿĽ
ĠæĻ ®
çľŁæŃ£ çļĦ
Ġä¸į çĦ¶
æķ° çĻ¾
Ġå¾Ī å¤ļ
ä¸Ģ åĲį
éģ ®
Ġè¯´ ä¸įå®ļ
åĲĥ æĥĬ
éĽĨ åĽ¢
èĢģ åŃĲ
è¿Ļä¹Ī è¯´
åŃ¦ æł¡
åıĮ çľ¼
æĬ «
å¤´ åİ»
èº« å½¢
åĵ ĳ
çī¹ æ®Ĭ
å§ ¿
2 00
æľī æ²¡æľī
æĪ ®
è®° å¿Ĩ
æ¯Ľ çºł
æľī ä¸Ģä¸ª
Ġæ²Ī éĺ³
çĽ Ĵ
ĠåĪ Ļ
å¼Ł å¼Ł
èº« å½±
æĻ ¨
æĥ³ è±¡
çĻ½ çļĦ
Ġè¿Ļ æĹ¶åĢĻ
å°ĳ åį¿
è¯§ å¼Ĥ
æĵ ħ
åģļ åĪ°
Ġæ² ĥ
å¹² åĩĢ
ä¸Ńå¹´ äºº
ä¼ Ł
é»ĳ èī²
åĳĬè¯ī ä½ł
åĲĵ å¾Ĺ
© æ¯Ľçºł
æĸ ¤
åİ» çļĦ
ä¸Ģ åı£
æĢ» éķ¿
åĶ ¯ä¸Ģ
ä¿ ĥ
ĠèĢ ¶é²ģ
åıĹ äºĨ
ç»ĵ æĿŁ
Ġæĳ ĩ
åı£ ä¸Ń
çļĦ ä¸į
Ġä½ł æĥ³
èµ·æĿ¥ äºĨ
Ġæµ ĳ
éĩį éĩį
ĠæĹ ¥
æĿĢ æīĭ
ŀ å°ĳåį¿
ä¸į ç¦ģ
ç»ı éªĮ
æĬĬ è¿Ļ
Ġåľ¨ ä»ĸ
Ġå¯¹ çĿĢ
åĳ¼ åĲ¸
Ġéļı åĲİ
Ġç¾ İ
æµ İ
åĬª åĬĽ
Ġåį İ
ç¼ ĸ
è¿Ļä¸ª äºº
éĨ ī
Ġç Ĭ
å¤§ éĺµ
ä¾Ŀ çĦ¶
Ġä½ł è¿ĺ
éĤ£ ä½į
çİ© ç¬ĳ
åĮ ª
ĠæĢ İ
çĮĽ çĦ¶
Ġå¾Ĳ èĬ·æĻ´
ĠåıĮ æīĭ
Ġè ģ
ä¸Ĭ ç¬¬ä¸Ģ
æ± ĩ
åı¶æŀ« çļĦ
å±ŀ äºİ
éħ ¸
ĠçĽ ĸ
å°± åı¯ä»¥
æ¶ ¦
ç± į
èĭ¥ æĺ¯
èĤ ĸ
Ġå¦ ĸ
æĴ ¤
å¯» æī¾
æ·¡æ·¡ çļĦ
Ġåħ Ħ
çľŁ åľ°
éĵ ĥ
è§Ĩ çĿĢ
åģ· åģ·
Ġæ²ĥ é¡¿
å¤ļ ä¹ħ
ç½ ļ
èĢ³ æľµ
æľĽ äºĨ
ä¸ĢèĪ¬ çļĦ
ç ¹ģ
Ġ I
çº§ å¼ºèĢħ
ĠéĿ ł
åĩºçİ° äºĨ
Ġ _
Ġ äºĨ
ä¸Ģ ä¼ļåĦ¿
æĪĳ æĺ¯
éĴ ¢
èª ĵ
ä¸Ģ åľº
æł· çļĦ
æĹł è®º
ĠèĦ ļ
è§Ĥ å¯Ł
ä¹ł æĥ¯
Ġä»ĸ ä¹Ł
Ġä¸į æķ¢
ç¥ŀ æĥħ
å®¶ äºº
ĠæĹ ĭ
èĦļ ä¸ĭ
å¥ ¸
çĶ ©
å¦ ŀ
èį Ĩ
æľª å¿ħ
æĬ± çĿĢ
Ġåı ³
åīį æĸ¹
Ġä¸Ģ èĤ¡
æŃ» äº¡
Ĩ åĵ
ä¸Ģ å¤´
ä¸Ģ æĢĶ
å¤ĸ çļĦ
è®¡ åĪĴ
Ġéļı çĿĢ
éĺ ħ
å¥½ åĩł
è¡Į åĬ¨
Ġåıĳ çİ°
ç¬¼ ç½©
åįĬ ä¸ª
å¿ħ è¦ģ
æĺ¯ ä»ĸ
åĲĥ é¥Ń
æĭ¿ çĿĢ
Ġç¬¬ äºĮåįģ
è¡ «
Ġå¿ ½
åįĥ åįĥ
ç¬¬ ä¸ī
Ġè¦ģ çŁ¥éģĵ
ĠåįĹå®«çħĮ éģĵ
Ġåı² ä¸Ĭç¬¬ä¸Ģ
å¤§ åĸľ
äºĨä¸Ģ ä¼ļåĦ¿
Ġ ä¼¼
ĠæĪĳ æĢİä¹Ī
åĿ ĳ
ä¹Łä¸į èĥ½
Ġæµģ é£İ
éĿ¢ å¯¹
Ġæĺ¯ æĪĳ
æĶ¾ å¼ĥ
æĭī çĿĢ
æīĢæľī çļĦ
ä¸Ģ å¼ł
çĥŃ éĹ¹
Ġæ¯Ķ å¦Ĥ
å° ´å°¬
åħ Ģ
çģ ¾
è®© ä»ĸä»¬
èĲ½ åľ¨
ĠæīĢ æľī
Ġçł °
Ġç»§ ç»Ń
çļĦ éĤ£ä¸ª
çļĦ æĥħåĨµ
åģ ¶
Ġä»¥ åīį
ä¿Ŀ æĮģ
åļ İ
äº¬ åŁİ
Ġæļ Ĺ
èĥ½ éĩı
åı¯ ä¸įæĺ¯
å² Ĥ
æĺŁ æģ¶éŃĶ
Ġçºµ çĦ¶
è¯ ±
Ġå° Ħ
æļĹ æļĹ
Ġå® Ŀ
ç©º æ°Ķ
ç´« åºľ
Ġä»Ļ éŁ³
æŃ ĩ
äºĭ çļĦ
æīĢ æľīäºº
ä½ľ çĶ¨
ç«Ļ äºĨèµ·æĿ¥
çļĦ éĩĳ
çĮ İ
å¡ Į
ĠéĢ Ł
Ġæīį èĥ½
éĻĪ å¢¨
Ġå¼Ģ å§ĭ
æķ Ľ
Ġä¾¿ æĺ¯
ä¸įè¿ĩ æĺ¯
äºĨåĩł åĪĨ
Ġè Ļ½
çł´ äºĨ
å¾Ĺ ä¸Ĭ
Ġæŀ ģ
æĢ» æĺ¯
å¾Ī å¥½
ĠçĪ¶ äº²
n c
Ġåı ¦
æĪĳ äºĨ
å¯¹ ä½ł
çĲ ®
èģļ éĽĨ
Ġçŀ ¬éĹ´
åľ¨ åĵªéĩĮ
ĠæĪĳ åıª
çĽ Ĭ
çŃ ĭ
èģĶ ç³»
r i
Ġæ Ĳ
ç¬ĳ æĦı
åĽŀ äºĨ
ĠéĩĮ éĿ¢
èĩª ä¿¡
åĬł ä¸Ĭ
ĠĠ ĠĠĠ
å¿ĺ äºĨ
çĬ¶ æĢģ
è´ ª
ĠC o
åįģ åĽĽ
å« ģ
æĮ£ æīİ
Ġå°¤åħ¶ æĺ¯
200 8
åĲ »
åį Ĵ
åĽ Ĭ
æ»¡ æĦı
ä¸¥ èĤĥ
Ġèĩ³ å°ĳ
ä½ ³
å® Ľå¦Ĥ
g ht
ä¸Ģ äº®
èº« åīį
æ³ ¡
å¤ļ çļĦ
èĹ ¤
åĸĬ éģĵ
ä¸ ²
å¤ ¹
åı ī
Ġä¸Ģ åĪĩ
æģ ĭ
æ¹ ¿
çĽĳ å¯Ł
Ġx s
Ġåĳµ åĳµ
p y
çļĦ æ°´
è¯ ¦
åĽĽ äºº
æľĽ åĲĳ
Ġåı¯ èĥ½
Ġå°ıè¯´ æİ¨èįĲ
Ġ200 2
ĠI nc
ri ght
ĠĠĠĠĠ ĠčĊ
ĠCo py
ĠCopy right
ä¸Ģ æĹ¶
çĿĢ å¤´
Ġæĺ¯ åķĬ
å¾· æ£®
Ġæ Ĵ
è§ģ è¯Ĩ
å¾Ī æĺ¯
Ġ çļĦä¸Ģå£°
èµ ĸ
å§ļ éĽªå¨ĩ
ç¯ ·
ĠçĻ ¾
æ¬ ¾
è¶ ģ
çŀ ¥
èĭ¥ é¦Ļ
åı¯æĢķ çļĦ
çİīåħ° å¤§éĻĨ
è° ¦
å² ³
æ±Ł æ¹ĸ
æĺ ķ
åı¯ ä¸į
æ¼ Ĩ
é»Ħ éĩĳ
¾ ä¸½
Ġä½ł çŁ¥éģĵ
äºĨä¸Ģ åı£æ°Ķ
å§ĭ çļĩ
Ġç¬¬ä¸Ģ çĻ¾
Ġç®Ģ çĽ´
åıĳ çļĦ
åĿ ¦
Ġåľ¨ è¿Ļ
Ġç« ¥
å¯¹æĸ¹ çļĦ
æī¿ è®¤
Ġçī ĩ
Ġå¾Ī å¿«
Ġå² Ĥ
èĻ ¹
Ġç ¿
ĠåŁ º
å®ī éĿĻ
ä»İæĿ¥ æ²¡æľī
éĻĦ è¿ĳ
ä¸Ĭ ä¸ĭ
çŃ ¾
æĪĲ äºĨä¸Ģ
ç³ Ł
ä¸ĵ éĹ¨
¾ä¸½ æĸ¯
ä»¥ åıĬ
éĻħ ä¸Ĭ
å¾ Ħ
æĹ¶ ä¾¯
ä¿® è¡Į
ĠæĹĭ åį³
a o
è¿ °
æ¯ ķ
æĸ¹ æīį
Ġåİ ī
å·¨ å¤§
ç¢§ å¦Ĥ
å¯ ¿
å¦ ¨
Ġå¦Ĥæŀľ ä½ł
ĠéĹ ¨
çłĶ ç©¶
© ¹
åĿ ł
å®ŀ è¯Ŀ
æĦŁ æħ¨
æ£ Ģ
åķĨ éĩı
æľ ±
å® ¿
åĸ ĩ
ä¸ĭ åŃĲ
çľĭ åĩº
å¼Ģ å¿ĥ
èĬ Ļ
Ġå¿ Ļ
åĵª ä¸ª
èµ ļ
Ġæĸ ĩ
Ġè½ ¦
æĳĩå¤´ éģĵ
ĠæĽ´ æĺ¯
ĠåĤħ åħĪçĶŁ
åĵ ¦
Ġè®© äºº
çļĦ éĿ¢
è¯´ åĩº
å¤© æīį
çĮ «
ĠæĻ ļ
å®ĥ ä»¬
çĮĽ åľ°
è¿Ļ åı¥è¯Ŀ
åĨ ł
è± Ĩ
å¸® ä½ł
éĹª çĶµ
Ġæħ ¢
ç» ª
çĭ ŀ
èĥ ĸ
Ġæķ ħ
è¿Ļ è¾¹
ä¸Ń äºĨ
éĶ Ģ
èĢ ¸
ĠèĢĮ åĲİ
åħµ é©¬
ĠåĮ ħ
ä¹ĭ åĨħ
æ¶ ¨
åĲĥ äºĨ
çļĦ ç¬ĳå®¹
çºª æ°ı
åĩł äºº
å¸® æĪĳ
Ĩåĵ ®
ä¸į å·²
ĠæĬ ¬
Ġæĥ³ ä¸įåĪ°
æĮī çħ§
ĠåħĦ å¼Ł
éģĵ çļĦ
ä¹ĭ æīĢä»¥
è´ Ń
åģļ äºĨ
å© ī
åĨ° åĨ·
Ġäºĳ æµħéĽª
å¹ ¼
çŃ ¹
Ġæ²Ī åŃĿå¤©
Ġç² ¾
Ġç Ł³
ĠæĿİ äºĳé£İ
åıĶ åıĶ
æ´» çĿĢ
çļĦ çľ¼ç¥ŀ
ĠéĤ£ äºº
ç® ±
Ġèĭ ı
Ġå ¢
çŁ Ľ
åĲİ æĿ¥
ä¹Ĳ åħ¬ä¸»
ĠçĶ ·
æıĲ éĨĴ
äºº é©¬
æľĽ åİ»
ĠåĲ¬ è¯´
æĭĴ ç»Ŀ
å¤§ åľĨæ»¡
åĴ ½
ä¿ ı
æĮ ĸ
åĬ¨ çļĦ
æĲ ¬
s hu
åľ¨ å¥¹
å°± æ²¡
Ġåı¯æĺ¯ æĪĳ
æį ķ
ç¦ģ åĪ¶
åĲĵ äºĨä¸Ģ
å¤© ç©º
åĩł ä½į
çļĦ äºĨ
Ġ y
å· ¡
æľĢ å¤§çļĦ
æĹ ¢
åľ¨ éĤ£
åĦ Ĵ
éĤ ¸
ä¸Ģå®ļ ä¼ļ
Ġé©¬ ä¸Ĭ
çļĦ éķ¿
çī¹ åĪ«
åĭ ¤
èĽ Ĭ
Ġäºº å®¶
éĺģ ä¸ĭ
åī ²
ç¥ŀ æł¼
æľĪ åįİ
å¤± æľĽ
Ġå¸Į æľĽ
Ġ ä»»
èµ «
åĲĳ çĿĢ
ĠæĹ ¢
Ġåĩ Ĩ
çĤ¼ åĮĸ
èĨ Ľ
ç °
ä» ĵ
ç» ³
èĥ½ ä¸įèĥ½
Ġè¿Ļ äºº
è¿ĺ çľŁæĺ¯
èĢģ ç¥ĸ
çĸ ²
é¢Ĩ æĤŁ
æ¢ ¯
Ġä¸Ģä¸ª ä¸ª
ĠæĪĳ çİ°åľ¨
æĹ¶ åĪ»
ä¹ĭ æĹ¶
åĦ ¡
èĪĴ æľį
ĠæľĪ åįİ
ĠåĬł ä¸Ĭ
çļĦ çľ¼çĿĽ
ä¸į è¶³
åľ° ä¸ĭ
è® ¿
å¸Ī å¼Ł
Ġé»İ åĲ¯èĩ£
ãĢ ģ
æī £
è¯´ æĪĳ
éļ¾ éģĵ
âĢĶâĢĶâĢĶâĢĶ âĢĶâĢĶâĢĶâĢĶ
Ġ~~ âĢĿ
ä¿¡ å¿ĥ
Ġä¸įçĶ± å¾Ĺ
çļĦ é£İ
æĹ¶ è¾°
åį¢ ä¹ĺé£İ
± éŃ
ç« ĸ
Ġç¬ĳ çĿĢ
åħħ æ»¡äºĨ
çļĦèº« ä»½
ä¸ ĳ
åĩº ä¸Ģä¸ª
è½ ©è¾ķé£İ
è§ģ éĿ¢
Ġçł ´
ç¥Ń åı¸
Ġ è¿ĩäºĨ
Ġç Ĳ
å® ´
æĹł è¯Ń
ä¹Ĳ ç¾Ĭ
ĠåĪĺ éĤ¦
èł ¢
ä¼ °è®¡
åĩº åıĳ
å¢ ħ
ä¸į ç®¡
éķ ĸ
å®ļ çļĦ
æģĲ æĢĸ
Ġ ä»ĻåĦ¿
äºĨ è®¸å¤ļ
æĿ¥ åĪ°äºĨ
å¦ ¥
çª Ł
åı° ä¸Ĭ
æ´¾ çļĦ
ĠèĲ ½
Ġ s
éģĵ å£«
éĻ ¡çĦ¶
ä¼¤ åı£
Ġèĩª ä»İ
Ġçī¹ åĪ«
é ¥¿
Ġæ ¼
ĠçĶ °
ĠâĢĿ ãĢĤ
Ġçĭ ł
åĪ ·
è¯´ åľ°
Ġç§ Ģ
çļĦ çĻ½
Ġçķ Ļ
±éŃ ĥ
¨ ç»
æĹł çĸĳ
éĽ¨ æĺĶ
Ġç¬¬ä¸ī çĻ¾
åįģ å¤ļ
Ġå§ļ èķĬ
è¯´ ä¸įåĩº
è´Ŀ å®«
¨ç» Ķ
ä¹ ĥ
æĿ¥ çľĭ
å°± è¿Ļä¹Ī
è¯´ ä¸į
åĺ ±
åı« åģļ
éĢļ çº¢
æłĳ æŀĹ
ĠæĶ ¶
Ġç¦ »
ä¹ĭ æ°Ķ
æĸ¹ æ³ķ
ĠéĻ Ĩ
å¤§ æĥĬ
Ġæľ ¨
Ġå¾® å¾®
çĿĢ ä¸Ģä¸ª
åīį è¾Ī
Ġè¿ĺ è¦ģ
æĦŁ æ¿Ģ
è¶ħ è¿ĩ
éĤ£ æĺ¯
åĪĨ éĴŁ
éľ² åĩºäºĨ
çĪĨ åıĳ
èµ Ĳ
Ġä¹Ł è®¸
ĠæŃ£ åľ¨
éģ ģ
æŃ ª
æĹ¶ ä»£
ä¼¤ åĬ¿
ĠéĽª è§ģ
Ġåı ¹
ç¥ ¥
ĠæĹģ è¾¹
Ġxi ao
é» ¯
åĪ© çļĦ
Ġ ä¸»
æĥ ¶
åĨ² åĩ»
Ģ åĦ¡
çļĦ éŃĶæĹı
Ġéļ¾ æĢª
Ġ ä¸ª
ĠãĢı ,
Ġå¸Ī çĪ¶
äºĨ ä¸įå°ĳ
ä½ľ ä¸º
ç¢ į
æĹ ħ
é£ŀ è¡Į
åĿĲ ä¸ĭ
Ġçľ¼ åīį
éĦ Ļ
æ° Ľ
Ġä¹Ł å°±
æİ¥ åıĹ
ç¬¬ ä¸Ģä¸ª
æĢĴ åĲ¼
éļı é£İ
ä¸į å¤§
åĪ° è¿Ļ
åı¯ æĢľ
Ġåı¶ æĢ»
æį ī
èµ¶ ç´§
åºĶè¯¥ æĺ¯
Ĥ åĦ¿
èĩ Ń
æīĭ æİĮ
æĻ ıèĸĩ
éĹ® ä½ł
åĬŀ åħ¬
åĴ Ĩåĵ®
ĠæĢ Ĵ
è¿Ļä¸ª æĹ¶åĢĻ
ĠæĢİä¹Ī ä¼ļ
ç³Ĭ æ¶Ĥ
ä¹Ł æľīäºĽ
æĹı äºº
Ġå¸ ¸
Ġæµ ·
åļ £
ä¸Ģ ä½į
æĶ¾ ä¸ĭ
ĠåĽ ½
äºĨåįĬ å¤©
æļĤ æĹ¶
ä¸į èĤ¯
åĲ¸ å¼ķ
ç§° åĳ¼
Ġçĩ ķ
å ¬
å¾Ī ä¹ħ
èĲ Ŀ
è§ ĳ
éĺ Ķ
ä»¥ æĿ¥
Ġæ¯ «
çĪ¶ æ¯į
èĽ® äºº
éĥ½ å·²ç»ı
æİ Ī
ä¸» çļĦ
åĪ« å¢ħ
ĠæĦŁ è§ī
ä¹Ł å¥½
ç¥ŀ ä»Ļ
åħµ åĻ¨
åŃ¦ éĻ¢
ä¸ĭæĿ¥ çļĦ
Ġåĸ Ĥ
åĢ© åĢ©
Ġä¼¸ æīĭ
ä¸į çĿĢ
èµ· çļĦ
æĸ¯ æĻ¶
æıĲ åįĩ
çħ§ é¡¾
Ġå¦Ĥæŀľ ä¸įæĺ¯
Ġå¤© ä¸ĭ
æľīä¸Ģ ç§į
ä¸į èĩª
ç¬ĳ å£°
éŃ ı
åĬ¨ éĿĻ
éĺ³ åŃĲ
Ġç¬¬ ä¸ĥ
ç¦» åİ»
çĵ ľ
åİ® æĿĢ
æĬ ĳ
Ġä¹ ĥæĺ¯
æ² ¿
éĥ½ çŁ¥éģĵ
çĭ ¡
Ġè®© æĪĳ
å¤ Ń
æľī ç§į
å± ł
å°Ĩ è¿Ļ
ĠåĽł æŃ¤
å¤ ¸
æĺ¯ åĽłä¸º
æī ®
æİ¥ è¿ĩ
è·Ł ä»ĸ
è¶³ ä»¥
åĸĥ åĸĥ
åĲĵäºĨä¸Ģ è·³
ä¸Ń åĽ½
Ġä½ł ä¸įæĺ¯
æĹł äºº
æĢ» çĿ£
èµĦ æł¼
åºĬ ä¸Ĭ
æģ¢å¤į äºĨ
ä½© æľį
Ġæ·¡ æ·¡
çļĦèº« å½±
Ġè Ī
è¦ģ åİ»
éĩĳ åħī
å¹¶ éĿŀ
èµ Ķ
ĠæŀĹéĽ· å¿ĥä¸Ń
çĮ ®
Ġä»ĸä»¬ çļĦ
æĦ£ äºĨä¸Ģä¸ĭ
ä¸Ģ åīĳ
äºº åĳĺ
ä¹ĭ åľ°
èĢģ åħŃ
çĶ¨ äºĨ
çĸ Ĺ
éĵ¶ åŃĲ
ä»ĸ åľ°
åĲİ çļĦ
ä¾ ł
æ± ¤
æĪĺ çļĦ
æį Ĥ
åľº çļĦ
åĩĿ èģļ
ä¸į å¤Ł
å£° è¯´éģĵ
éĩĳ åĪļ
çİī éľľ
æ¸© æŁĶ
Ġèµµ çģµåĦ¿
Ġå§ļ éĽªå¨ĩ
Ġçīĩ åĪ»
ä¸Ģ æĹ¦
å± ı
æİ ª
æĪĲ ä¸Ģ
è° ¨
ä½İ å¤´
åıĤ æĺŁ
Ĳ å°ĳçĪ·
åį ı
å°ı éĿĴ
æĿĢ äºº
ä¸į æŃ»
åľ¨ èĩªå·±
Ġä¸įè¿ĩ ä»ĸ
åĺ´ éĩĮ
5 5
Ġè ħ
Ġè Ľ
å°± å·²ç»ı
åº Ĩ
è¡ į
ĠéĻ Ľä¸ĭ
Ġé ¥
Ġå°± å¥½åĥı
åĤ ĢåĦ¡
èŃ¦ å¯Ł
åĿļ æĮģ
ç» ĳ
å¤§ åİħ
Ġç´«å·Ŀ å®ģ
shu o
çļĦ è¿Ļ
çļĦ æľĽçĿĢ
ä¸į åİ»
Ġé º
ä½ł è¿Ļ
åľ° ä½į
å¾Ĺ ç½ª
è®¸ èĪĴå©·
é¥ ®
ç´« æĻ¶
ä¸»ç¥ŀ åĻ¨
èĥ¡ åŃĲ
å® ĩ
åħ¬ æĺİ
å®Ŀ åĦ¿
Ġè·Ł çĿĢ
èĵ¬ çµ®
æĺ¯ åĲ¦
ä¸į ä¸ĭ
Ġåĩ Ń
çŀ ¬
æ±ī åŃĲ
æ°Ķ åĬ¿
ĠæŀĹéĽ· ä¹Ł
Ġå¤§ åľ°
åı¤ æĸ¯å¡Ķ
è¿Ļä¸Ģ æ¬¡
æ¬¢ åĳ¼
çļĦ çģµ
èī °
çĲĨ ä¼ļ
Ġåķ ª
çĦ¦ æĢ¥
çľ¼ çļĦ
çĽ ¯
æ³ķ åĻ¨
å¥¥ åĪ©ç»´äºļ
çļĦç¥ŀ èī²
æ²Ī çĪ·
å¸ ĺ
åİ» åĲ§
Ġé»ĳ æļĹ
åĪĺ éĤ¦
çļĦ æľºä¼ļ
çļĦ æ¨¡æł·
äºĽ ä»Ģä¹Ī
å¯¹ éĿ¢
çļĦä¸Ģ åĪĩ
å¿Ĩ å¦Ĥ
ä¸Ģ èĦļ
å°Ĩ éĤ£
æķ´ ä¸ªäºº
é¦ĸ é¢Ĩ
Ġå£ «
åıª è§īå¾Ĺ
ĠåĲ į
Ġçªģ åİ¥
åĳĬè¯ī æĪĳ
æķĪ æŀľ
å¤§ å°ı
äºĭ äºĨ
åĨį ä¹Ł
åĨħ éĥ¨
Ġåĩ ¡
å¹² èĦĨ
äº¤ ç»Ļ
è¿ĻäºĽ äºº
ç´«å·Ŀ å®ģ
èİ« åĲį
å¹³ æĹ¶
åĹ ¦
Ġéľ į
ĠåĻ Ĺ
Ġå Ĥ
ä¸į ç®Ĺ
è¯´ å¾Ĺ
æĢİä¹Ī ä¼ļ
å°Ķ åħĭ
è¦Ĩ çĽĸ
äºĨä¸Ģ ä¼ļ
äºĨä¸Ģ éģį
èĤ Ĩ
Ġè¯ Ń
æľĢ å¥½
åĽ½ å®¶
åİŁ åľ°
Ġä¸Ĭ éĿ¢
åħ¶ä»ĸ äºº
è¯¯ ä¼ļ
èĬĻ å¦®
ī ´
çº ½
è¿ĩåİ» äºĨ
éļı æĦı
Ġçľ¼ ç¥ŀ
ä¸Ģ çļ±
ä¸Ģ åı¥è¯Ŀ
æ· ĭ
æİ¥ è§¦
å®Ĺ çļĦ
Ġ /
ä¸Ģ å·Ŀ
åı¯ æ±Ĺ
è· Į
æ¯Ķ èµĽ
ĠèĦ ĳ
å¦» åŃĲ
Ġåı£ ä¸Ń
ä¹Ł åľ¨
éĤ£ äºº
åĿ Ľ
æĢĴ éģĵ
ĠåİŁæĿ¥ æĺ¯
ä¸Ģ æĸ¹
æİ Ģ
åĬ¨ çĿĢ
ä¸ľ åįĹ
Ġæĸ °
çīĻ åĦ¿
ĠéĢŁ åº¦
æĿ¥ æī¾
ĠæīĢ æľīäºº
è·ĳ äºĨ
ç¡® å®ļ
åıĳçİ° äºĨ
æ´ ²
åĽĽ å¤Ħ
çŁ³ éĽķ
ä¼¤ å®³
æĬ¥ ä»ĩ
èĭį çĻ½
æ²ĥ çī¹
Ġç ¢
ä¹Ł éĥ½
æŀĹ æŁ¯
é© ±
èħ Ĭ
ĠæĹłè®º æĺ¯
Ġéĵ ģ
Ġxiao shuo
æŀĹæŁ¯ æ²ĥçī¹
ä¸ Ľ
Ġ!âĢĿ âĢľ
è½ ©
ä¸¤ å¤©
Ġè¿ĺ æ²¡
Ġèĭ ¦
çļ® èĤ¤
èµ·èº« æĿ¥
Ġæ®¿ ä¸ĭ
= =
æīĵ äºĨ
å®ī æħ°
Ġç¬¬äºĮ çĻ¾
åĪ ¹
ĠæŀĹæĻļèį£ å¿ĥéĩĮ
æĹģè¾¹ çļĦ
ä½ Ĳ
ç¬ ¨
æļĹ èĩª
ĠéĽ· è¯º
å« ©
Ġçĭł çĭł
æī ĩ
å¤© èµĭ
æģ įçĦ¶
åıĳ å±ķ
çĽ® æłĩ
ä¸¹ èį¯
ä¿Ŀ éķĸ
Ġ *
Ġåı ¸
è¯´ æĺİ
å®¶ ä¸ģ
ç© Ĩ
å°Ĩ ä»ĸ
ĠçĶ µ
æ¶Ī èĢĹ
æ²¡æľī äºº
æİ¥ è¿ĳ
åĨħ äºļ
é»ĳ è¡£
æŁ ľ
Ġæĥ ħ
ä¸Ģ æł¹
å°± æĬĬ
å¾Ī å¤§
éľĩ åĬ¨
Ġä¸ī äºĶ
çĵ ·
æĹĹ æľ¬
éŃĶç¥ŀ çļĩ
ä¸Ģ åıĺ
äºº éĹ´
Ġä¸Ģ æĬĬ
éĩĳ éĻµ
éļ¾ å¾Ĺ
ç¾İ äºº
æĺ ł
åľ° äºĭæĥħ
æ² ¾
Ġå°± èĥ½
Ġå¤§ æ¦Ĥ
ä¸ľ æµ·
å¯Ł è§ī
äºĨ æĭį
åĵ Ħ
éĹ¨ å¤ĸ
éħĴ åºĹ
Ġå ©
çļĦ éĢŁåº¦
Ġè¿Ļ å°±
æīĭ èĩĤ
æĮ ¨
èī² éģĵ
åĺ ²
éĿĴ çĴĩ
Ġè¿ ·
å´ ĩ
Ġåı²ä¸Ĭç¬¬ä¸Ģ æ··ä¹±
æľ Ķ
çĤ ¯
éĿ¢ çĽ¸
Ġä¸įè¿ĩ æĪĳ
æľĪ ç¥¨
æĴ ¼
å°ıè¯´ ç½ĳ
æīĭ æľº
å§ĭ ç»Ī
æĢ§ åŃĲ
å±Ĥ æ¬¡
çĳ Ł
ãĢ İ
è¿Ļ æĹ¶åĢĻ
è¯ Ħ
Ġä»ĸ å°±
æ¸ħ éĨĴ
è¹ Ħ
ä¸Ŀæ¯« ä¸į
æĦķ çĦ¶
è¿ĩ ç¨ĭ
è¿Ľ æĶ»
èķ´ åĲ«
çļĦ ä¸ĭ
å¥ ĸ
åĨ Į
é«ĺ ä¸½
æŀģ éĢŁ
éģĵ ä¸Ĭ
çĻ½ èİ²
åĲĳ åīį
ĠæĿİéĢįéģ¥ éģĵ
åİīå®³ çļĦ
ä¸ĸçķĮ ä¸Ĭ
çĹ Ĵ
çĲ¼ åįİ
ä¸Ģ åĪ»
ä¸Ģ é¡¿
åİ ¢
è¾ ¨
åĽŀ å®¶
ç¿ ¡
å© ´
åĮħ è£¹
Ġèĥ Į
ç½ĳ åĿĢ
Ł å¿ĥ
äº ¦
å® ¾
äº¤ ä»£
èĸĩ åħ°
Ġç® ¡
è® ¢
æĦ ģ
ĠåĪ Ģ
åıĺ äºĨ
åİĭ åĬĽ
åĮº åŁŁ
çŁ ®
èĩª è¯Ń
äºĨä¸Ģ åı£
åıĳ åĬ¨
å¤± åİ»äºĨ
Ġæķ ¢
ä¸į æĢķ
å¤§ å¤ļ
åįĬ ç©º
ç» ½
æĥĬ äºº
Ġæĸ¹ æīį
Ġå®ŀ åĬĽ
åĮĨ åĮĨ
èĤļ åŃĲ
âĢ »
åį §
æĸ¯ åĭĴ
éĵ ¾
ä¸¹ åĬ²æľŁ
Ġä¸¤ ä½į
åºľ éĤ¸
Ġç Ĺ
æĿ¥ ä¸įåıĬ
è´ ŀ
ĠæŀĹéĽ· å¿ĥåºķ
åŁİ å¸Ĥ
æľį äºĨ
æķĻ è®Ń
ç¨į å¾®
ä»¬ éĥ½
ä½ı ä»ĸ
ä½¿ èĢħ
éŃĤ éŃĦ
Ġæ· ·
æŁ³ æ¢ħ
Ġå¤« äºº
çļĦ å¥³äºº
è¿ Ŀ
è¿Ļ å°ıåŃĲ
ç¥ Ŀ
åı¯ æĥľ
èĢģ å®ŀ
Ġåģ ı
å´ ĸ
æ¬ §
çĻ½ å·Ŀ
å¾Ĵ å¼Ł
° çĭŀ
åĲ µ
æ¶ Ľ
Ġä¼ Ĭ
ĠåĬ ¨
æĬµ æĮ¡
äº ķ
Ġçľ ī
åĽ½ çļĦ
ä½łä»¬ çļĦ
é¥ ±
Ġéĺ ´
åĵĪåĵĪ å¤§ç¬ĳ
åºŁ è¯Ŀ
çļĦ èĦ¸èī²
Ġä¹Ł æľī
å°¼ æĸ¯
å¦ Ħ
ä¾ ĥ
é¢ ħ
å¼º æ¨ª
åľ£åŁŁ å¼ºèĢħ
Ġæľ ±
æ²¡æľī æĥ³åĪ°
ç»Ħ ç»ĩ
Ġ 4
ä¸į åłª
ĠæĪĳ åıªæĺ¯
çİ ĳ
è½ ²
Ġå°± è¦ģ
Ġä¹ Ķ
Ġæķ´ ä¸ªäºº
çĿģ å¼Ģ
Ġå¤ ±
Ġåıª åĲ¬
Ġæ± Ł
æįŁ å¤±
è®Ń ç»ĥ
ä¸Ģ æĿ¥
åĨ ¤
Ġçľĭ çľĭ
äº² çİĭ
å¤§ æ±ī
æ²¡ äºº
è¡Į äºº
èĲ½ ä¸ĭ
æ»¡ éĿ¢
æĢĢ ä¸Ń
è¾Ľ èĭ¦
ä¸į å±ĳ
èĦ ¾æ°Ķ
å¨ ¶
è£ ¤
ĠæĪ ´
æľŁ å¾ħ
ç¬ĳçĿĢ è¯´éģĵ
Ġè¿ ħ
Ġ ä¸ĸ
å¯¹ èĩªå·±
æħ İ
ĠæĿİ å¸Īå¸Ī
åĸĿ ä¸Ģå£°
Ġæģ Ń
é»ĺ é»ĺ
ä¹ĭéĹ´ çļĦ
ĠåŃ Ļ
èĢ į
åĭ ĥ
ä»¤ äºº
äºĨ å¤§
Ġä¸į è¡Į
Ġä¸Ģ æĹ¶éĹ´
æį §
ĠåĨį è¯´
ĠæĪĳ å·²ç»ı
Ġå¥ ĩ
å¹´ æĿ¥
çķĻ åľ¨
åĹ ½
ç²ī ç¢İ
Ġ5 55
Ġä½ľ ä¸º
æ³ £
æŃ£ ç»ı
éŃĶæĹı çļĦ
æľī å¤ļ
Ġ! !âĢĿ
éľ ī
Ġå½ĵ åį³
æ°ĳ è¾ī
åħīæĺİ æķĻå»·
Ġé¦ ĸ
ç Ģ
Ġå ´
çļĦ å±±
ä¸į å®ī
åĪ ĳ
å¤§ åı«
å¤© ä»Ļ
çĤ ī
åĲİ æĤĶ
æĺİ æµ·
æīĵ å¾Ĺ
åº¦ å°¼æĸ¯
åĵ¼ ä¸Ģå£°
Ġé¾Ļ åĵ¥
Ġ äºĭæĥħ
Ġ è¿ľè¿ľ
åģ ¥
æĺİ çļĦ
åĳ½ çļĦ
çĲĨ çĶ±
äºļ åº¦å°¼æĸ¯
Ġæĺİ å¤©
åºŀ å¤§çļĦ
ĠæŁ Ķ
ä¸Ģ æĹģ
å°± è¡ĮäºĨ
çŁ¥éģĵ çļĦ
åĨ² å¤©
åĺ´ åĶĩ
Ġæĭ ľ
Ġå°½ ç®¡
é¢ Ī
Ġåį´ è§ģ
èħ Ĳ
èº«è¾¹ çļĦ
æ´ª éĹ¨
Ġ è¿ĳ
æŀ ¯
è¿ĺ ä¼ļ
çĿĢ éĤ£
ĠæĢ ª
Ġèµ Ľ
ĠæľĢ ç»Ī
Ġéħ Ĵ
ä¸į è§£
ä¸¤ åĲį
å®Ĺ æ´¾
çŃ ĳ
ç¦ Ģ
æĶ¾ è¿ĩ
è¡ ¡
Ġä½Ĩ ä»ĸ
èİ ¹
åĨ· æ¼ł
æĺŁ è¾°
Ġæīĭ ä¸Ń
æ¯ı å¤©
éĹªè¿ĩ ä¸Ģä¸Ŀ
Ġè®°ä½ı ç½ĳåĿĢ
Ġä¸īäºĶ å°ıè¯´ç½ĳ
Ġå® ļ
æķħ äºĭ
å¢Ļ å£ģ
å¸Ĳ ç¯·
Ġç»ı è¿ĩ
¨ç»Ķ æīįåŃĲ
n g
åĪ° ä»ĸ
æĥ³ æĥ³
Ġä¸Ģ åĲį
åŃ¦ çĶŁ
æ¨¡ ç³Ĭ
æĸ ĳ
çļĦä¸Ģ äºĽ
Ġæĥ³ åĪ°è¿ĻéĩĮ
éĤ Ģ
ĠèĲ§ çİīèĭ¥
è¯¸ ä½į
Ġ çļĩå¸Ŀ
æīį è¡Į
Ġå½ĵ ä¸ĭ
å½± åŃĲ
æĺ¯ä¸Ģ ç§į
Ġåĵª æĢķ
Ġå®ŀ éĻħä¸Ĭ
Ġæ³ ¢
èĩ³é«ĺ ç¥ŀ
åĩ ¯
åĨ ľ
è· ¨
éħ ·
èı ©
åıįåºĶ è¿ĩæĿ¥
ĠæĹ¶ éĹ´
æĿ¥å¾Ĺ åıĬ
æĿ¥ èĩª
çı ĤåĦ¿
åĹ ĵ
å£® æ±ī
Ġçħ §
é ī´
ä¸į ç¾¤
æŃ£ å¥½
æĿĢ æ°Ķ
åľ°éĿ¢ ä¸Ĭ
Ġå¾· æĸ¯é»İ
ĠæĿ¨ å¼ĺ
ä¸Ģ ç¬ĳéģĵ
åį ľ
å¤§ æ®¿
éĢ ¸
éª Ħ
æīĢ åľ¨
Ġå¥¹ çļĦ
è¡Ģ æĹı
åħ³ éĶ®
åħĥ æ°Ķ
åı¶å¤© çļĦ
½ éĿŀ
äºĨ å¾Īå¤ļ
å¤§ éĹ¨
å°± æ²¡æľī
å¾Ģ åīį
ĠäºĮ å°ıå§Ĳ
ĠæĶ¾ å¿ĥ
ä½ł åľ°
ä¸ĭ å±±
ä¹ĭ ç±»
å°Ĩ å£«
èĥ¸ åīį
æĺ¯ å¾Ī
å¼ Ĺ
æĪĳ ä¹Ł
å§Ĳ å¦¹
Ġå¥¹ ä»¬
çŀ İ
Ġåĳ ½
çķ¥ å¾®
Łå¿ĥ å®¶
äºĨ ä¸ī
Ġåħ °
å¤± è´¥
ä¼ Ĳ
Ġä¸Ģ è·¯
åı£ åĳĨ
æ¯Ķ æĪĳ
è·Ł åīį
çº¢ èī²
éļĲ èĹı
æķ£ åıĳ
åģ· è¢Ń
çĭłçĭł çļĦ
Ġ:âĢľ ......
ĠæĪĳ åı¯
ĠæĪĳ æĬĬ
éĥ½ å¾Ī
åĵ ¨
çĽ¸ æ¯Ķ
æı ı
Ġå¥½ åĲ§
è£ ģ
æ¸© å®¶
èĥ¸ èĨĽ
åħ ģ
æľ¬ èº«
å¸Ī åĤħ
Ġè¦ģ ä¸įæĺ¯
ĠçĦ¶ èĢĮ
åĿı äºĨ
Ġçĭ ¬
æ¡Į åŃĲ
è¿Ļ äºº
ĠæĪĳ åľ¨
çĲ ¢
å¸ĥ éĩĮ
æĪ¿ åŃĲ
ç» ľ
å¸ ķ
çľĭ ä¸Ĭåİ»
ç¥ŀ åĪĨèº«
åĽŀ è¿ĩ
åį´ æ²¡æľī
Ġè¯´ è¯Ŀ
ä¼Ĺ å¤ļ
ĠçĪ ¹
æģĲ æĥ§
èĤĮ èĤī
æĺ¯ æĢİä¹Ī
ĠæĪĳ è§īå¾Ĺ
è§ģ çļĦ
åįģ ä¸ª
è¡Į çļĦ
æ± ¹
ä¼ł æī¿
åĩ» è´¥
çİ°åľ¨ çļĦ
ĠåĪ« äºº
Ġå¹¶ æ²¡æľī
ĠæĦ ı
Ġåį¢ ä¹ĺé£İ
çļĦ çģ«
ĠãĢĤ (
çİĭ çĪ·
åĳ¼ åķ¸
è¿Ĳ æ°Ķ
Ġè½¬ èº«
Ġç¡ ®
ĠçĬ ¹
è¿ĺ æľīä¸Ģ
åķ ª
çŀª åı£åĳĨ
Ġå®ī ç¢§å¦Ĥ
åİ ¿
è´ ¯
åīĳ ä»Ļ
Ġç» Ł
Ġæĥ³ å¿ħ
Ġäºº ç±»
Ġè¯¸ ä½į
éĥ½ ä¸įçŁ¥éģĵ
ä¸¤ å£°
ç»ı å¸¸
ç»ı çĲĨ
åĨį åº¦
å¿ĥä¸Ń ä¸Ģ
æĵ Ĵ
Ġä½ķ åĨµ
ĠéļĲ éļĲ
æĪĳ åľ°
èĩª çĦ¶æĺ¯
çĥ Ľ
ä¿¡ ä»»
æ´ĭ æ´ĭ
åĽ° éļ¾
ĠãĢĤ îĢĦ
Ġä½ł åĪ«
Ġå¦ ĪçļĦ
çº¢ è¡£
æŀģ åħ¶
Ġçº ¨ç»ĶæīįåŃĲ
Ġåħ¨ éĥ¨
ä¸Ģ åĩº
ä¸į åĩºæĿ¥
å° ī
éĻ Ģ
åĲ¬ çĿĢ
åĲĪ ä½ľ
èļ ©æ¯Ľçºł
äºĴ çĽ¸
£ ä¹Ĳåħ¬ä¸»
è¿ Ī
Ġä¸į å¥½
å¥½ æ±ī
Ġåıª æĢķ
éĶ ¦
ä¿® ä»Ļ
Ġå¦Ĥ ä½ķ
åįĥ éĩĮ
å®¢ äºº
Ġæ¶ Ī
Ġå° ģ
ç¥ŀ çļĩ
éķ¿ ä»Ĭ
åıį æĬĹ
å« Į
Ġåģ·å¤© æŃ£æĸĩ
Ġå¿ħ é¡»
å¤´ é¢ħ
åĽĽ å¤§
Ġç¬¬ åħ«
æī¾ åĪ°äºĨ
åĨ· ç¬ĳéģĵ
æĢ» ä¼ļ
è§īå¾Ĺ èĩªå·±
æ¬¢ åĸľ
Ġå°Ĩ åĨĽ
Ġè¾ ¾
ä¸Ģ åĲĮ
åľ° æĺ¯
çĦ¶ çļĦ
çľ¼ åħī
è° İ
çķ ħ
éª ļ
å¤Ħ çļĦ
åħ¶ ä»ĸçļĦ
æĸ° çļĦ
æ¹ Ľ
åľ¨ éĤ£éĩĮ
æĭ ±
ä¿ ±
è½» çģµåŃĲ
ĠæŃ£ è¦ģ
Ġå¿ĥ éģĵ
çĿĢä¸Ģ ä¸Ŀ
éĥģ éĹ·
ä¸Ģ åįĬ
æī ©
éĽ į
èĥĮ ä¸Ĭ
æİ¨èįĲ ç¥¨
Ġçģµ éŃĤ
Ġ~~ ~
Ġå®ģ éĽ¨æĺĶ
Ġèĵ ¬
åĪ° æĿ¥
èĢģ äºº
ç¼ ļ
çİī ä¼½
åı¤ çİ©
è¾¾ åĪ°äºĨ
Ġå·® çĤ¹
æĦŁ åĬ¨
æĦŁ åºĶ
éĺŁ éķ¿
åĬŀåħ¬ å®¤
äºĨ ä¸Ĭåİ»
Ġè¿Ļ ä¸įæĺ¯
çİ ²
åħī å¤´
çĤ¼ åĪ¶
ĠéĽ· åĲ¼
Ġå Ń¦
Ġä»ĸ çŁ¥éģĵ
æīĭ éĩĮçļĦ
æīĵ åĩ»
äºĶ ä¸ª
å®Į æĪĲ
æĪ¿ éĹ¨
åĮħ åĽ´
äºĨåĩł ä¸ĭ
Ġæį ®
çĩĥ çĥ§
è¿ ģ
ä¸į æ»¡
Ġé ¬
é«ĺ é«ĺ
èµ° åĩº
Ġå¹¸ å¥½
å® Ļ
ä½ł å°±
æĥ³ èµ·äºĨ
Ġä¹Ł ä¸įçŁ¥
çĻ¾ å¤ļ
èİ ½
å¹¸ ç¦ı
Ġç«¥ çİĩ
çļĦ æ°Ķæģ¯
æĺ¯ è¢«
åĲ Ĭ
ä¸Ĭ ç©º
Ġè¿Ļ ä¸ĭ
Ġä»ĸ åľ¨
æľ¬ äºº
åı« å£°
åħ¶ å¦Ļ
Ġå¸ ®
Ġèµ ¤
Ġä¼ ¯
åŃĲ å¼Ł
èµ° åĲ§
èĲ ±
Ġè® º
åĪ© çĶ¨
ĠçŁ Ń
Ġ) ]
ľ è¡Ģ
ä» ģ
Ġä½ł æĶ¾å¿ĥ
å·¨ åĵį
å²ģ çļĦ
å°ıå¿ĥ ç¿¼ç¿¼
æľī åı¯èĥ½
åģļ åĩº
æī¾ ä¸įåĪ°
ĠæĪ Ī
Ġ è¿ľ
ä¸Ģ å¹´
ä¸ĭ æĸ¹
ç¥ŀ åĬĽ
çĭ °çĭŀ
æĬĬ èĩªå·±
Ġä¸įè¿ĩ è¿Ļ
çº¢ çļĦ
æ²ī åĲŁ
å°Ķ æĽ¼
éŀ ĭ
ĠæŁ³ æ¢ħ
æĥ³äºĨ æĥ³
éĿ¢çĽ¸ è§ĳ
æľī åĩłåĪĨ
å¸Ī åıĶ
Ġåĵ Ĺ
çº¢ äºĨ
åĸĿ éħĴ
å¸ĥ ç½®
Ġä¸Ģ ä¸ĭåŃĲ
åıĳ æĮ¥
éĥ¨ ä¸ĭ
åıį èĢĮ
çªģåİ¥ äºº
ĠãĢĤ ãĢĤãĢĤ
åľ° éĹ®
Ġå°ı æĺĵ
åĽĽ éĿ¢
èİ² èĬ±
Ġè¯Ŀ éŁ³
æľī æĦı
Ġä¸Ģ éĺµ
èĤ ¢
æĬĬ ä½ł
åĲ¸ æĶ¶
ĠéĹ® éģĵ
è¿ĩæĿ¥ çļĦ
æ¤ ħåŃĲ
Ġä¸Ģå®ļ è¦ģ
å¯Ĥ éĿĻ
ç¿¡ ç¿ł
ä»¬ çļĦ
äºĨä¸Ģ çĤ¹
ä½İ æ²ī
ä»· æł¼
èľ Ĥ
ä¸įè§ģ äºĨ
åħĶ å¦ĸ
ä¸Ģ çº¢
ä¸į è§ī
å¾Ĺ åĪ°äºĨ
Ġä¸Ģ çĤ¹
å¼º æĤį
é© °
åı« æĪĳ
Ġèĭ Ĺ
è¶³ è¶³
æĭį äºĨæĭį
Ġè¿ĻäºĽ äºº
Ġæ²Ī çĪ·
è¯ģ æĺİ
éĹ» è¨Ģ
è¿Ļ æĹ¶
è® ª
æĥ³ çļĦ
å¥³ åŃ©åŃĲ
åĳ½ è¿Ĳ
åĨ· æ±Ĺ
æĽ´ å¤ļ
è¿ĩæĿ¥ äºĨ
ĠåĬ Ľ
Ġè ĸ
Ġä»ĸ å·²ç»ı
éĽķ åĪ»
åĢ¼ å¾Ĺ
æ²ĥ é¡¿
ĠçİĦ éľĦ
æŀ Ħ
Ġè¿Ļ å°ı
èº« ä¸º
Ġä¸į ä½Ĩ
æ³ķ éĹ¨
Ġé² ģ
ä¸Ģ å¤§
ä¸Ģ ä¼ļ
åĲ ģ
çĽ ¼
å§ ľ
ä¹ĭ æĦı
è¯Ŀ é¢ĺ
çŃī å¾ħ
åŁİ éĹ¨
æĪĸ è®¸
Ġéĵ ¶
ä¹ ¾
ä½ £
æĹ¶ çļĦ
Ġä¸į ä»ħ
åĲ¬ è¯´è¿ĩ
ĠæŀĹæĻļèį£ åĺ¿åĺ¿
ä¸İ ä½ł
ĠæīĢ è°ĵ
æľį åĬ¡
åĲĦ èĩª
åı³ æīĭ
Ġçİĭ èĵ¬çµ®
é¢ĩ ä¸º
ç¤¾ ä¼ļ
åĨ ¬
è¯´ ä½ł
æĮ ª
çĻ¾ å§ĵ
ä¸Ģ åĲĳ
ä¸Ĭ æ¬¡
Ġè¿Ļ åı¯æĺ¯
é«ĺ äºº
Ġæ²¡ äºĭ
çļĦç¥ŀ æĥħ
Ġä¿ ŀå°ĳåį¿
Ġæı Ĳ
Ġ ä¸¾
Ġæ ¥
Ġè ¸
ĠéĤ£ ç§į
æĸ¹ ä¾¿
é£İ æ°´
åħ¨ éĥ½
Ġå¹ ½
è§Ħ åĪĻ
çº³ éĹ·
Ġåĺ´ è§Ĵ
ı éķ¿
ĵ èİİ
çļĦ ä½įç½®
Ġè ±
Ġå¤ ľ
åīį æĿ¥
Ġå°± ä¼ļ
Ġè¿ĺ ä¸į
å¸Ī ç¥ĸ
åħ¬ çĪµ
çĽ® çŀªåı£åĳĨ
ĠæĢİä¹Ī äºĨ
Ġæĭ į
ç¢° åĪ°
é¢Ŀ å¤´
Ġæ ¨
ä¸Ģ åĩ»
ä¸Ģ éľĩ
ĠæĪĳ ä¸įæĺ¯
å¤ª éĺ³
ç¦ ħ
ç£ ķ
Ĳ æ¸Ĳ
ĵ ¦
æĿ Ĩ
åī Ĭ
éĽ· åĲ¼
Ġä¸į å¦Ĥ
åĸ ī
Ġæĸ ½
åľº éĿ¢
Ġéĥ½ å¸Ĥ
åĮĸ åĬ²æľŁ
çļĦ åĲİ
æĥ ķ
Ġä½ł ä¸įè¦ģ
æĹł å½¢
ĠéĢ ģ
è¿ľå¤Ħ çļĦ
Ġèį ¡
Ġå¥³ äºº
æĨ ¾
å¿ĥ ä¸ŃçļĦ
ĠæŀĹéĽ· ä»ĸä»¬
æľĽ äºĨä¸Ģçľ¼
æĸ¯ éĽ·
è£ ³
Ġç½ ĳ
æĤ¬ æµ®
æĭĵ æĸľ
èĦĳæµ· ä¸Ń
çļĦ å¯¹
ä¸į ä¹ħ
çģ Į
Ġä¹Ł æ²¡
åħµ åĬĽ
è½¯ åīĳ
ĠæĽ ¾
åĴ³ åĹ½
æĸ¯éĽ· æ£®
Ġ ä¸»ç¥ŀ
éĢ Ľ
èĦ¸ é¢Ĭ
æ³¢ åĬ¨
ä¸Ģ è½¬
ĠæĬ ĵ
èİ± æģ©
åħ ®
å¤§ äºĭ
Ġè¿Ļ ä¹Łæĺ¯
çļĦ éĤ£äºĽ
æĺ¯ æĥ³
å¥ ĳ
ĠæĪĳ åİ»
Ġä¸º ä½ķ
èĳ Ľ
å® ¡
åį ĳ
ä¸ĭ ä¸Ģ
ä¸Ń äºº
Ġåı¶ ä¸ľå¹³
æľĢ ç»Ī
Ġæ²¡ ä»Ģä¹Ī
äº® çļĦ
åİ ¨
èĩªå·± åľ°
åĽŀ åĪ°äºĨ
åħ³ å¿ĥ
ĠæĪ ¿
ç¾¤ äºº
ç½® ä¿¡
Ġç«Ļ åľ¨
äºĨ ä¸ĬæĿ¥
æĸ¹ å¼ı
èĩ³ äºİ
çİ© æĦı
Ġéĩĳ å°ĳçĤİ
Ġä¸ĭ å®ĺ
ĠåıĮ æĸ¹
æĺĬ å®«
éĢĲ æ¸Ĳ
ä¸ĭ æīĭ
èº ģ
çĽ¸ äºĴ
è·Ł åľ¨
Ġå®ŀåľ¨ æĺ¯
ĠåĩĨ å¤ĩ
çļĦ èĦ¸ä¸Ĭ
è¿Ļ çĤ¹
åľ° æŃ¥
Ġæ² Ļ
åİŁ æĿ¥
æĢ§ æł¼
åı ł
ä¼ļ è®®
Ġä¸Ģ æĹ¶
çĶŁ çģµ
æ± ½
æİĮ æı¡
Ġåĳ Ĭ
æµ® çİ°
è® ¯
å¤´ éģĵ
æĮ ł
ç®Ĺ äºĨ
Ġä½Ĩæĺ¯ ä»ĸ
æģ¯ çļĦ
æ¼ ı
æ´¾ äºº
Ġèº« ä¸Ĭ
Ġæ´ »
éĺ´ éĺ³
ä¸įå¥½ æĦıæĢĿ
Ġå®¶ æĹı
å°± å¥½
å½ ¹
çĮ ¿
è·ĳ åĪ°
Ġåī ©
é¹ °
å® ł
ä¹ĭ è·¯
Ġæ¯ Ľ
åĩºäºĨ ä¸Ģä¸ª
ç«Ļ èµ·æĿ¥
æķ´ é½Ĳ
Ġéľ Ģ
Ġé¾Ļ èĳµ
å¼© åĦ¿
ĠéĻ¤ éĿŀ
Ã ¨
Ġ ä¼ł
ä¸Ģ è¶Ł
æĪĳ ä¸į
ä¹ĭ å¿ĥ
å®ŀ çļĦ
Ġå¯¹ ä¸įèµ·
åł µ
Ġåĸ ľ
Ġåı¯ä»¥ è¯´
é¾ Ħ
ä¸į å®¹æĺĵ
è¿Ļ æĿ¡
äºº ç¾¤
æ²¡ äºĨ
Ġä¹Ł æ²¡æľī
è¶ ´
çļĦè¯Ŀ åĲİ
é¸ ¿
Ġæ³ ª
Ġy Ã
Ġ ä¹¦
è¯ ¾
çĽ Ĩ
èº« æĿĲ
åŁİ å¢Ļ
Ġæĥ³ åĪ°
å°ı æĺĵ
å¥½ ç¬ĳ
è¯Ŀ è¯´
Ġæľī çĤ¹
èħ ¥
ç¬ĳçĿĢ éģĵ
éĵģ æłĳ
åī§ æ¯Ĵ
å¢ŀ åĬł
è¯¢ éĹ®
©¹ å°¼
Ġé¬ ¼
æĹł åĬĽ
éĵ ł
æĢĿ èĢĥ
Ġç»Ļ æĪĳ
è¿Ļ ä¸¤
Ġåı Ĺ
å½ ª
æ» ŀ
æľĿ çĿĢ
è¿½ æĿĢ
åİļ çļĦ
ĠåĽŀ å¤´
Ġ ä»ħä»ħ
ä¸į ä½Ĩ
ĠæĪĳ æľī
åº ı
å¼Ģ çļĦ
èĢģ å¤ª
æĥħ çļĦ
Ġç¬¬ ä¸īåįģ
åħ« åį¦
åļ ·
æĻ®éĢļ çļĦ
åŁº æľ¬
åįģä¸Ģ ç«ł
å£° åĸĿéģĵ
åĩł æŃ¥
æĺİ å¤©
èĪ Ł
åīĳ åĨ°
å½ĵ åį³
æ¶ ī
éĢļ çŁ¥
åĨ· éĿĻ
æĮĩ çĤ¹
èĮ ¨
Ġä¸ĩ ä¸Ģ
Ġå¡ ŀ
Ġæµĳ èº«
Ġä½ł åħĪ
å®¶ ä¿Ĭ
åĽĽ ç¥ŀåħ½
æº ħ
è°¢ çİīåħ°
Ġç¥ŀ èī²
å®ŀåľ¨ æĺ¯
ä¸įçĶ± å¾Ĺ
ä¸Ģ èº«
ä¸Ģ åī¯
ä¸į åĥı
æĥ ©
Ġè¿Ļ äºĭ
Ġè¿Ļ å°ıåŃĲ
éĢ Ĭ
éĿ¢ éĿ¢çĽ¸è§ĳ
åŁ ¹
Ġè¿ĺ è¯·
éĴ ī
Ġæľī çļĦ
æĲ Ĥ
è¢į äºº
åĮº åĪ«
åļ£ å¼ł
/ /
Ġ ä¾ĿæĹ§
ç» £
æīĭ éģĵ
æģ °
å®ŀ ä¸Ĭ
éĩĳ å¸ģ
æĤ¨ çļĦ
ä¸¥ éĩį
èŁ Ĵ
æľ ´
è® ½
çľĭ ä¼¼
Ġæĺ¯ ä½ł
ç²¾ éĶĲ
èĴ Ĥ
Ġæ° ¸
Ġå¨ ĺ
Ġæ¬ ¢
æµģé£İ éľľ
ĠéĤ£ æĪĳä»¬
åįģ ç«ł
åķ ¥
æīį ä¼ļ
ĠåĲ ī
æĦŁ è°¢
éª¨ å¤´
æĻ®éĢļ äºº
ä¸į è¯Ń
æ° ²
ä»İ å°ı
è¡Į ç¤¼
æ¬£ åĸľ
åĲķ ä¸¹çĳ¶
åįģäºĶ ç«ł
å¤§ å±±
æĭ ¢
éļı æĹ¶
Ġä¸ī ä¸ª
æ¤ ħ
Ġåħ¬åŃĲ çĲ®
ä¸Ģ éĿ¢
åı¯ çĪ±
éĹ´ çļĦ
åĪĨ åĪ«
åı¹ ä¸Ģå£°
åľ¨äºĨ åľ°ä¸Ĭ
åį° è±¡
ĠèĻ ŀ
Ġèİ« éĿŀ
Ġ çļĩä¸Ĭ
Ġå ł
çī© è´¨
å·´ å·´
å³ ¨
æ¸ħæ¥ļ äºĨ
æĬµ æĬĹ
Ġé ¼
èĢ ½
å¥½ äºº
ĠéĤ£ å¥½
éĹ® æĪĳ
Ġæĺ¯ çļĦ
å² ļ
åį³ ä½¿
åĬł æĸĩ
Ġæķ £
å¸ĥ èİ±æģ©
æ°ı éĽĨåĽ¢
Ġå¤ĸ éĿ¢
çº ¤
çĭ ®
Ġåİ ĭ
ç½ĳ åıĭä¸Ĭä¼łç«łèĬĤ
æ½ Ń
Ġä½İ å£°éģĵ
åįģä¸ī ç«ł
Ġåģ·å¤© ç½ĳåıĭä¸Ĭä¼łç«łèĬĤ
Ķ è´ŀ
ä¹Ł è¢«
çŁ ¢
å£« åįĴ
æĴ Ń
Ġéĥ½å¸Ĥ çģµçŀ³
Ķè´ŀ çĪ±
ä¸į ç»Ŀ
ä¸į ä½ıäºĨ
Ġä¸Ģ åıª
åĩł æ¬¡
èĬ ¦
å°±æĺ¯ äºĨ
åĽ½ äºº
æī¾ ä¸ª
åįĬ å¤©
ĠåĹ ¤
Ġä¸Ĭ æ¬¡
è¾ĵ äºĨ
éĢĤ åĲĪ
ç§Ĵ éĴŁ
Ġæµģé£İ éľľ
çļĦ åĬŁå¤«
ä¸º äºº
æµ Ĩ
åįĥ å¤ļ
Ġå¼ ķ
æĿİ å¸Īå¸Ī
ĠåĹ ĸ
éº» éº»
éħį åĲĪ
åįģäºĮ ç«ł
æĩĴ å¾Ĺ
ĠæĺŁ çĴĩ
Ġè ľ
éĥ½ ä¸įä¼ļ
èĩª çĶ±
æĥĬ æģĲ
ç¾İ çļĦ
Ġè¿ ½
Ġéļ¾éģĵ ä½ł
æ´Ľ åĩĿ
Ġæ¢ ħ
ĠéĿ¢ å¯¹
åľ° è¯Ŀ
æĬ ¼
ä¼ļ ä¸įä¼ļ
çĤ¹ çļĦ
çŃī çŃī
Ġæİ ¨
èģĶ æīĭ
åįģåĽĽ ç«ł
Ġ ä¹ĭåīį
æ² Į
è· º
ç¥ŀ éŃĶ
çľ¼ çıł
åĿ ĩ
èµ° çļĦ
Ġå°ı åŃĲ
å¤Ħ äºİ
æ£ µ
æ³¨æĦı åĪ°
æ² ¸
æ¸ ¡
æĥ³ ä¸įåĪ°
ĠæŀĹ åĨ°
ä¸ī ä½į
Ġæĥ³ æĿ¥
çĿ¡ è§ī
Ġç¬¬åĽĽ çĻ¾
¤ æ°²
äºĨ å¥¹
åŁİ æ±ł
ĠåĨį åĬłä¸Ĭ
åħĭ èİ±å¾·
Ġåį³ ä¾¿
Ġéĥ ĳ
æĹł å°½
éŃ ģ
ĠéĿ Ļ
Ġè¿Ļæĺ¯ ä»Ģä¹Ī
å¼ķ èµ·
çİ¯ å¢ĥ
çºł ç¼ł
ä¼ĺ åĬ¿
æĺ¨ å¤©
Ġ ä»Ķç»Ĩ
å® ħ
æĪĳ è¿Ļ
è¿ŀ éģĵ
ĠãĢı ãĢĤ
ĠåºĶè¯¥ æĺ¯
ĠåĲĦ ä½į
ä¸į ä¸Ģæł·
Ġç ¤
åĨ »
Ġè¿Ļ ä¸¤
å°ı åĨĽ
å¤ĸ äºº
æı ī
äºĶ è¡Į
Ġç¬¬ ä¹Ŀ
Ġä»¥ åıĬ
èµĦ æĸĻ
äº« åıĹ
ĠæĪĳ ä¹Łä¸į
ä¿ ¯
è´ ¦
ĠæĢ Ģ
Ġå½ ¢
éĺµ éĺµ
åĲĥ äºĨä¸Ģ
çļĦæīĭ æ®µ
è¯ķ è¯ķ
çĪĨ çĤ¸
èı© èĲ¨
ä»ĸ åľ¨
åľ° éĹ®éģĵ
åĵ §
å®ĥ çļĦ
ĠåħĪ çĶŁ
äºº å¿ĥ
èĤ ¥
æį ¢äºĨ
Ġä½Ĩæĺ¯ åį´
ç¢ Į
æĢĴ çģ«
æ»ļ æ»ļ
åįģåħ« ç«ł
---- ----
åįģåħŃ ç«ł
ä¸Ģ é¢Ĺ
å¥ĩ éģĵ
æĢ§ çļĦ
äºĨåĩł å£°
äºĨåĩł åı¥
è´µ çļĦ
éŁ ¦
åĪĺ æŃ£
æĤĦ æĤĦ
åįģä¸ĥ ç«ł
åľ¨ æŃ¤
åľ° æľĽçĿĢ
Ġä¹Ł ä¸įæĺ¯
çľīå¤´ ä¸Ģçļ±
çĮľ æµĭ
å½ ¦
åĩł å¹´
çĭ Ħ
åĲĮ æĦı
çĬ Ģ
æº ¢
å¯Ĩ éº»éº»
ĠåĢ Ł
çĽĺ åı¤
ĠåĵĪ åĵĪåĵĪ
æ²Ī åŃĿå¤©
çľ¨ çľ¼
æħĪ æĤ²
Ġä»ĸ è¯´
éļ ľ
åı£ æ°´
å¾® ç¬ĳéģĵ
ä½ľ åĵģ
æ£ Ĵ
ĠæĢİä¹Ī åı¯èĥ½
Ġåĺ »
é« ħ
ç´«åºľ ä¿®å£«
èİ«åĲį åħ¶å¦Ļ
çĲ¢ ç£¨
åĨĽ ä¸Ń
ä¿® åħĥ
Ġåĩ Į
ç¿ ħ
ĠæĿİ å¿Ĩå¦Ĥ
è¿Ľåħ¥ äºĨ
æĿĲ æĸĻ
ĠçĿ Ģ
Ġæ ½
ä¸º ä»ĸ
ç« Ń
å¾® ç¬ĳçĿĢ
æľīäºĽ åıĳ
åºķ ä¸ĭ
åħ« æĸ¹
åĲĦ ä½į
ĠåĪ« è¯´
Ġåĸ ĥ
Ġè½» çģµåŃĲ
åĩł åı¥
éĹ¨ æ´¾
Ġä¹Ł è¦ģ
æĿĢ æĪ®
å¤ª å²©
äº² äºº
åĪ« äººçļĦ
åį³ å°Ĩ
Ġå¦Ĥæŀľ æĺ¯
Ġèĭ ±
ĠåĨį æ¬¡
ĠèĲ ¨
èľ ľ
å®ŀåľ¨ å¤ª
Ġ1 0
Ġéª ĳ
Ġæ»¡ èĦ¸
é¾ Ł
ĠåĩĿ åĦ¿
æĪĳ æĿ¥
çģ ¿
èĦ¸ ä¸ĬçļĦ
åĺ Ģ
æĸ¯ ç½Ĺ
Ġèĩª çĦ¶æĺ¯
èĻļ ç©º
ĠåĲİ éĿ¢
é£ĺ é£ĺ
Ġåħ¨ èº«
ç©¶ ç«Ł
å¤§ å¤§çļĦ
åĪ° çİ°åľ¨
å°± åİ»
æĭ Ĥ
æ» ¨
æĢİä¹Ī è¯´
äº² çľ¼
å¼Ĥ çļĦ
åĿļ å®ļ
æµª è´¹
Ġåĸĥ åĸĥ
äºĨ çĤ¹
äºĨ ä»ĸçļĦ
æľī éĴ±
æīĭ çļĦ
çĻ½ èī²
Ġå°ı å¼º
Ġåı¯æĺ¯ è¿Ļ
çł ĸ
è¥¿ äºļ
ä¸İ ä»ĸ
æĬĵ ä½ıäºĨ
åįĩ èµ·
è¥¿ åĮĹ
ĠåĽłä¸º ä»ĸ
å¼± çļĦ
èº«åĲİ çļĦ
ç²¾ç¥ŀ åĬĽ
Ġéº »
Ġä½ł åľ¨
Ġçľĭ äºĨ
èħ Ķ
èĦĳ åŃĲ
æĬ± æĭ³
è¿Ł çĸĳ
Ġç´§ ç´§
· é«ħ
äº Ī
è¿Ļ äºĭ
äºº å½±
ä½ł ä¹Ł
å¤§ æĪĺ
å°± èµ°
è¯´ è¯´
è¯´ åĩºæĿ¥
ä»Ģä¹Ī çļĦ
è§Ħ æ¨¡
äºĨä»ĸ ä¸Ģçľ¼
ĠåĪĺ æŃ£
åĸĩ åĺĽ
ä¸Ģ è¾ĪåŃĲ
ĠæĪĳ åı¯ä»¥
èĢģ äººå®¶
ä¼¤ å¿ĥ
çļĩ å®«
Ġåĳ ĥ
äºĨåĩł æŃ¥
åģı åģı
çļĦ åĲĮæĹ¶
å¾Ī å°ĳ
éĿĴ é¾Ļ
æĭ¿ åĩº
Ġæģ ¨
çĶļ æĺ¯
çĭĲ çĭ¸
çļĦ éĹ®é¢ĺ
ä¸Ģ æĭ³
æľī åħ³
è· Ħ
Ġåıª è§īå¾Ĺ
ç»Ļ èĩªå·±
ç² Ĵ
åŃĹ èĲ¥
æ·· æ··
ç»§ æī¿
éķĩ æ±Ł
å¯» å¸¸
Ġæį ¢
æĹ º
åĩº èº«
Ġä½ł çİ°åľ¨
Ġä»ĸ è§īå¾Ĺ
æĸ¹ åľĨ
æµ ¸
åįģ è¶³
æ· »
éľ Ĩ
æķ° åįĥ
æĭħ å¿§
åı¹æģ¯ ä¸Ģå£°
æ£Ģ æŁ¥
ĠéľĢ è¦ģ
« n
ä¸Ģ å¤Ħ
åĩº éĹ¨
éĤ£ èĪ¬
è¾ ©
æĹł åı¯
æīį å¯¹
åį´ åıĪ
Ġè¿ĺ èĥ½
çİĭ çļĦ
Ġæķ Ļ
åĩĿ éĩį
Ġå§ ĳ
ä¾¯ çĪ·
å¾®å¾® çĤ¹å¤´
ĠåĲĮ æł·
Ġä½İ å£°
Ġé¢ Ĩ
Ġçºª ä¸Ģå·Ŀ
åįģä¹Ŀ ç«ł
éĥĳ éĩį
éĺħ è¯»
åĪ° çļĦ
Ġè¿Ļ ä¹Ł
çģ ¼
æŀĹ å°ĨåĨĽ
æŃ» åİ»
æĢİä¹Ī äºĨ
Ġç Ĩ
ä¸Ń å¿ĥ
Ġä¸į ç¦ģ
æ°Ķ å¾Ĺ
æĹł æķĮ
ç¾ ¡
ç½ ¡
å½¢ å®¹
ä½İ ä¸ĭ
ä¸įå¾Ĺ ä¸į
Ġåº ŀ
å¾Ĳ å°ıå§Ĳ
çĲ¼åįİ æ´¾
½ åŃĲ
æĺ¯ ä»İ
éĢ ¢
è½ ¿
ä¸ī çĻ¾
èĬ ³
Ġè¯´ åĪ°è¿ĻéĩĮ
éĺŁ çļĦ
ĠåĴ ¬
åĶ ¯
åĹ ¡
éĿŀå¸¸ çļĦ
Ġåĳ¨ æĺķ
Ġ ä¿®
ç¥ŀ çļĦ
Ġå¤ Ļ
å¾Ī ä¸į
ä¸įæĸŃ çļĦ
æŁ³ çĽ¸
æĪĳ åĴĮ
åıª åī©ä¸ĭ
Ġåį´ ä¹Ł
ä½ķ åĨµ
åĪ¤ æĸŃ
çķı æĥ§
æĵħ éķ¿
? âĢĿ
ä¸Ĭ å±±
éĢ Ŀ
ä¸º ä½ł
çª į
è®¸ ä¹ħ
èĥĮ å½±
æī¿ åıĹ
é¢Ħ æĸĻ
ĠåĶ¯ æľī
âĢ Ļ
å¤§ æĢĴ
æĥħ å½¢
äºĳ æµħéĽª
å¤ª æĺĬå®«
çļĦäºº ç±»
æį ·
Ġæĥ³ èµ·
ä¸ĢçĽ´ åľ¨
è¿ĺ æĥ³
Ġæ¯ Ĵ
æĬ¥ åĳĬ
ç»Ŀå¯¹ ä¸įä¼ļ
è½° çĦ¶
ä¼łéŁ³ éģĵ
Ġæ¡ ĥ
éĽ ģ
æĳĩ æĻĥ
åĤħæ¸ħæī¬ åĴĮ
ç½Ĺ æĸ¯
ĠåŃ Ĺ
æ¦ ľ
èĥĨ åŃĲ
ĠçĽ¸ åħ¬
éģĹ æĨ¾
å¾Ī æ¸ħæ¥ļ
å¼º çĥĪçļĦ
éª ·é«ħ
åĬł åħ¥
åħĥ èĢģ
æľĿ å»·
æľª èĲ½
ĠåŃ Ķ
ĠèĬ± æľ¨åħ°
å¼¥ æ¼«
çļĦ ä¿®ä¸º
äºº åľ°
å¤§ ä¼ļ
å¯ ¨
æ²¡ è§ģè¿ĩ
Ġä¸į æĸŃ
Ġæľ ķ
æ· Į
ç½ ķ
éĺ³ åħī
åı¯èĥ½ æĺ¯
ĠæĽ´ ä½ķåĨµ
åĭĩ æ°Ķ
æĽ¼ çº½
æĽ¼çº½ å°Ķ
ä¸į å¼Ģ
æŃ ¹
èº« æĿ¥
æ· «
éŃĶ æĻ¶
éļ¾ åıĹ
æľīä¸Ģ äºĽ
æĭį åįĸ
Ġè· ¯
åĳĨ äºĨ
èŃ¦ æĥķ
èµµ çģµåĦ¿
çĸ¼ çĹĽ
çºµ çĦ¶
å¤§ èĻŀ
æĪĳ åİ»
ä½ķ çŃī
è£ Ļ
Ġ &
äºĨ åı£
ĠæĪĳ åıĪ
çĦ¶ ä¸Ģç¬ĳ
è¢ ĸåŃĲ
æīĵ çĿĢ
çģµ çıł
ç®Ģåįķ çļĦ
è¿Ļ å°ı
éĩĮ éĿ¢çļĦ
å£° ä¸Ń
åĿ ¡
é£ŀ åĩº
åĢĴ åľ¨åľ°
å®ī å¾·
Ġå¨ ĩ
æ Ĥ£
ä¸Ģ æīĭ
ä¸ĩ éĩĮ
æĥĬ éģĵ
Ġæł¹ æį®
åıĳçĶŁ äºĨ
å¼Ģåı£ éģĵ
ĠæĹģ è¾¹çļĦ
èµ· çłģ
åı¯ è§ģ
çľ¼ æ³ª
Ġå°± åľ¨è¿Ļ
ĠåĲ ¼
çĲ ´
ä¹Ŀ çģ«
ç«Ļ èµ·èº«æĿ¥
ĠçľŁ æŃ£
çľ¼åīį çļĦ
Ġä¸¤ä¸ª äºº
ä¸Ģ è§ģ
åħ ľ
æľī å¤ļå°ĳ
å°ı å£°
æĥ³ åĪ°äºĨ
ĠæŀĹéĽ· çļĦ
æĳ ĺ
ä¸ĩ å¹´
çĲ ³
åľº æĻ¯
æ¡ ©
éĢĥ è·ĳ
å§Ĺ å§Ĺ
Ġs Ã¨
åĪ¹ éĤ£
çī ²
æŃ¦ ä¾¯
è¡¨ ç¤º
æ¡ Ĥ
ä½Ľ éĹ¨
æİł è¿ĩ
ä¸Ģ æĹı
åı Ļ
åľ¨ å±±
å¤§ çīĩ
ĠæĪĳ æīį
çľĭ ä»ĸ
å¼Ģ çİ©ç¬ĳ
æŃ£ å¼ı
å½ĵ åľº
è¿ĺæĺ¯ å¾Ī
èĭ¥ åħ°
Ġéľ ĩ
Ġå¤ļ è°¢
Ġå¾· æŀĹæŁ¯æ²ĥçī¹
åĤħ åħĪçĶŁ
Ġä¸Ģ æĿ¡
ä¸ĩ åĪĨ
Ġæķ ĳ
ĠéĢ įéģ¥
éĺ» æŃ¢
é¾Ļè¡Ģ æĪĺå£«
ĠæĪĳ æĿ¥
è¾ ľ
çĶ¨ æĿ¥
çģµ çŁ³
åĨħ åĬĽ
éĿĻ éĿĻ
ĠåĨ· åĨ·
Ġè¯Ń æ°Ķ
è ¤
ķ é¦ĸ
ä½ł åİ»
ä¸Ĭ éĹ¨
ä¸Ń æ¸¯
éĥ½ åı¯ä»¥
å¥½ äºĭ
æĻ ĭ
æĥ³ åĥı
è¾¹ ä¸Ĭ
å¸¦ é¢Ĩ
ä¸¤ä¸ª åŃĹ
å¤ľ æĢ»ä¼ļ
Ń æĦ§
ä¸Ģ å±Ĥ
æĺ¯ ä¸ºäºĨ
å¤§ åĳ¨
æ²¡ èĥ½
ç§ ĥ
ä¸ī å¤©
èĢĮ ä¸ĭ
åĺ Ł
é© ³
åĬŁ åĬĽ
æ·± çļĦ
å®« å¥³
Ġè· Ŀ
èº¬ èº«
Ġ è¿Ľ
çļĦ ä¸¤
äºĨ éĤ£
éģ £
æĹł èĢ»
çľŁ åħĥ
äºĶ åįģ
åĲĪ éĢĤ
åĲĦ ä¸ª
åħħ æ»¡
Ġè½¬ çľ¼
ĠåĲĳ çĿĢ
çļĦ éĹ®
Ġä¸į åı¯
éĩį åīĳ
æĪĺ é©¬
Ġè® ¤
Ġå¦Ĥæŀľ æĪĳ
æĸ §
æĹł èģĬ
æŀĹ æľĪå¦Ĥ
æ± ¡
è¿Ļä¹Ī å¤§
Ġæ¯ į
æ¡ ĳ
åĩŃ ç©º
Ġæĳ ¸
çļĦ åĲĳ
å¼Ģ åİ»
æĦı å¿Ĺ
ĠæĪĳä»¬ çļĦ
èħ »
Ġçº ·
åĹ ¯
å»º çŃĳ
ĠæĮĩ çĿĢ
æİ Ĳ
è®© èĩªå·±
æĦŁ åıĹ
é£ŀ åİ»
ä½¿ åĬ²
å¥Ī ä½ķ
æģ¼ æĢĴ
ĠçĮĽ åľ°
ä» ŀ
Ġå° ¼
æ²¡ éĶĻ
æµ ´
çĽ¸ å¯¹
åĢĴ éľī
è¨Ģ ä¸į
Ġå¼ Ł
çķª è¯Ŀ
èĢĲ çĥ¦
æ·±æ·± çļĦ
åľ¨ä¸Ģ æĹģ
ä¸į æŃ¢
æĹ ±éŃĥ
ç¥ŀ å¢ĵ
ĠåĪ º
Ġçľĭ è§ģ
è¡Ģ èĦī
ä¸ĥ æĺŁæģ¶éŃĶ
å®Ŀ çī©
æ´ŀ åºľ
æ²Ī éĹ¨
è¡¥ åħħ
Ġå¨ģ åĬĽ
âĢ ķ
æĹ ¨
åľ° åĽ¾
æĹ¶ åĪĨ
æŃ£ è¦ģ
éĩĳ ä»Ļ
ĠèĢģ éģĵ
ĠæīĢ æľīçļĦ
æ¢ µ
æ·¡æ·¡ éģĵ
Ġä½ł ä»¥ä¸º
çĻ½ äºĨ
æ¶ ¡
å¾Ģ å¤ĸ
ç¡ ķ
æ¡ £
æĲ ı
éªĤ éģĵ
æĹłæ¯Ķ çļĦ
ĠçĽĸ æĸ¯éĽ·æ£®
Ķ éģĵ
çļĦ åĲį
è¯´ ä¸įå®ļ
æĽ ¹
çĶ· å¥³
ä»£ ä»·
ĠæľĢ è¿ĳ
Ġçİī åħ°
Ġå¤ļ å°ĳ
ç¼ĺ æķħ
Ġå£« åħµä»¬
Ġé ¸
ä½ł èĥ½
å¤§ çĩķ
èĬ ¬
Ġå¦ Ī
Ġå¤© åľ°
ä¸ĭæĿ¥ äºĨ
éĥ½ä¸į æķ¢
æ³ª æ°´
æĴŀ åĩ»
é¹ ¤
åĮ» éĻ¢
Ġä¾Ŀ èİ²
ĠèµĽ æĸ¯åĭĴ
åı ¨
äºº ä»¬
å¤§ æŃ¥
Ġä¸į åı¯èĥ½
éŃ ħ
éķ¿ æĹ¶éĹ´
è¢« æīĵ
çĶµ å½±
ĠéĹ ª
éĩįè¦ģ çļĦ
Ġä»Ļ åŃĲ
Ġåĵİ åĳĢ
å¤§éĩı çļĦ
Ġå »
Ġè Ń¦
éĥ½ å¿«
Ġä»ĸ çİ°åľ¨
å¿ĥ ç¥ŀ
ç¥ŀ æĹı
åīį å¾Ģ
åĩł åįģ
å·´ æİĮ
èµ°äºĨ è¿ĩæĿ¥
Ġè£ ¹
Ġå®Ŀ åĦ¿
ä¸Ĭ åı¤
å¤§ æīĭ
çĶŁ çĶŁ
æ²¡æľī ä»»ä½ķ
ä¸» è¦ģ
è¿Ļä¹Ī ä¸Ģä¸ª
ĠåĨ °
æŃ¦ ç¥ŀ
èĭ¦ ç¬ĳéģĵ
çľ¼çĿĽ ä¸Ģäº®
éľĩ æĴ¼
åħģ è®¸
ä¸į ä¿¡
å® ı
éģĵ è·¯
èį ·
æĥħ æĬ¥
æĦı ä¹ī
å¼ł å¼Ģ
è¿Ļä¸Ģ å¹ķ
æĮĳ æĪĺ
è¢Ń åĩ»
ĠæĻ¯å¤© éģĵ
ä¹Ł ç®Ĺ
Ġåı¯æĺ¯ åį´
åŃ¦ å®«
å·¨ çŁ³
æ¶Īå¤± äºĨ
çļĦ æŀĹéĽ·
åĲĮ åŃ¦
éĥ¨ æĹı
åįĬ æĻĮ
éľ² åĩºä¸Ģä¸Ŀ
Ġéĺ Ł
çİĦ éľĦ
åĪ°åºķ æĺ¯
çĵ¦ ä¼¦
ĠåĮħ æĭ¬
åľ¨ ä½ł
çĿĢ å¥¹
ä¸ĭ ä»¤
äºĨä¸Ģ çķª
çĥ «
Ġå® ¹
Ġå® Ľå¦Ĥ
ĠæŃ£ å¥½
Ġè®© ä½ł
èĭ¥ æĹł
Ġå¾Ī å¥½
æ¾ ľ
åĴ¯ åĴ¯
Ġ ä¹ĭ
çļĦ åħī
çļĦ å¥³åŃĲ
çļĦ æĸ¹åĲĳ
æĿ ĸ
Ġä½ł è¯´çļĦ
Ġæľī äºĨ
åľº ä¸Ĭ
ç³ ķ
æĢ¥ éĢŁ
æľº åħ³
çľŁçļĦ æĺ¯
çħ§ çīĩ
Ġè§ģ ä»ĸ
æĺ¯ä»Ģä¹Ī äºº
æ´ª çĪ·
ä¹ĸ ä¹ĸ
« èĬ¦
Ġ ä¸Ķ
æĿ¥ åİĨ
Ġåı ĸ
æ° ¤æ°²
Ġä¸į å¾Ĺ
Ġä¸Ģ çīĩ
Ġä½ Ľ
çĶŁ çī©
ä»Ļ å±±
å¾Ģ ä¸ĭ
å½¢ æĪĲ
è¿ľä¸ľ åĨĽ
ĠéŃĶ ç¥ŀçļĩ
ç¾ŀ æ¶©
æĬ Ħ
Ġä½ł åİ»
æīĭ èħķ
å£° åĵį
ç¥ŀ æ®¿
åıª å¥½
ä¸įæĺ¯ ä»Ģä¹Ī
æľ¬ å°Ĭ
åĪĨ æĺİ
åģļ æ¢¦
éĩĳ ä¸¹
Ġçľĭ ä¸Ĭåİ»
å°ıéĽ· çļĦ
åĭ¿ä¹ŀ çļĦ
çĳ ŀ
èĢģå¤´ åŃĲ
Ġç½ĳ åıĭä¸Ĭä¼łç«łèĬĤ
åĺĢ åĴķ
çļĦ æ¶Īæģ¯
ä¸į æĿ¥
åĴ ±
å±± è°·
ĠèĢģ å¤´
ç¿ ĺ
ä¼¤ äºĨ
Ġè· ĳ
ĠéĽ· æĸ¯æĻ¶
æ²Ļ åıĳ
çļ±çľī éģĵ
äºĨ å¥½
çĿĢ äºĨ
ç¬ĳ è¯Ŀ
çŁ¥ æĻĵ
æ³ķ éĺµ
åĽŀ å¿Ĩ
é£ŀ æľº
æĢĴ æ°Ķ
å¨ģ ä¸¥
éĨĴ æĿ¥
å¹½ åĨ¥
ĠåĪĺ èĢģåħŃ
Ġè°¢ çİīåħ°
åĸ· åĩº
å¿ĺè®° äºĨ
ä¸Ģç¾¤ äºº
Ġå «
ä¸Ģ æĻĥ
å¥½ è±¡
æĦı è§ģ
è° ħ
éĹ¨ äºº
ç»Ļ å¥¹
è¾¹ ç¼ĺ
çĥ ¤
çĮ ¾
ä½ľ æĪĺ
ĠåĶ ¯ä¸Ģ
éĻ· åħ¥
Ġå·´ åħĭ
èī° éļ¾
Ġè·Ŀ ç¦»
ä¸į éĢļ
åĲ ±
å°± çŁ¥éģĵ
æ³ ¼
éĻ Į
åħī äºĨ
ĠåĪ ĩ
åĪ°äºĨ æŀģ
Ġç» Ĩ
åĮĸ ä½ľ
çķĻ ä¸ĭçļĦ
è§Ĵ èĲ½
éĺ» æĭ¦
åĩº åı£
çĽ ı
æĭ Ĩ
å¿ĥ æĥĬ
ä¸º æĪĳ
æŀĹ å¤§äºº
æīĵ æī°
æŃ¤ äºĭ
Ġæĸ Ĳå°ĳçĪ·
ĠåĴ ³
æ£ ĭ
åıį å¯¹
è¹ ²
æĿ¨ å¼ĺ
çĽĳå¯Ł åİħ
Ġç¿ »
éªĦ åĤ²
è¿Ļ åľº
å¤§ å°ıçļĦ
æŀ ī
Ġè¿Ļ è®©
ä¸ī å¼º
äºĨä¸Ģ æĿ¡
æĹł æīĢ
Ġåı¶ è´Ŀå®«
è¿ŀ ç»Ń
å¾Ĳ æ¸Ń
å¼¥ åĭĴ
éĤĢ è¯·
ĠæĪĳ åı«
æ¸ħ éĽħ
åĸ §
Ġå¤§ å£°
å¥ĩ å³°
Ġåģ ĩ
Ġæ¯ı å¤©
åįł æį®
Ġç¬¬äºĶ çĻ¾
æ §
åħ ¹
éĥ½ æľīäºĽ
ĠéĤ£ éĩĮ
åĲĳ ä»ĸ
é© ¶
æļĹ éģĵ
ĠæĶ »
ç¢İ äºĨ
æĥħåĨµ ä¸ĭ
Ġçº· çº·
Ġ è¿ľå¤Ħ
ä¸Ģ æİĮ
å¤§ äººçļĦ
èµ ¢äºĨ
ĠæĪĳ å°±æĺ¯
Ġåį «
ĠèĢ ³
èĢĮ è¿ĩ
çŃī ä»ĸ
é¢Ĩ ä¸»
å¡ ĳ
çĹĽ å¿«
ĠæĿ¥ åĪ°
èĻ« åŃĲ
æĬ¬èµ· å¤´æĿ¥
æľ ½
Ġè Į
èĢ ¶
åĴĮ èĩªå·±
åħ¥ åı£
çİī éĽķ
é¥ ¼
èĥľ åĪ©
éģ µ
åľ¨ æĦı
ä¹Ł å°±æĺ¯
è¯´ æĿ¥
èĥ §
ä¸ĩ äºº
ĠæĪĳä»¬ å°±
åĲĥ çļĦ
é½Ĳ é½Ĳ
ä¸įæĸŃ åľ°
Ġèĵ Ŀ
æĦıè¯Ĩ åĪ°
Ġè¿ħ éĢŁ
å¤ ·
äºĨ è¿Ľåİ»
åĴĮ å¥¹
çł °
åı« äºĨä¸Ģå£°
æĽ´ æĸ°
åįİ å¤ı
æĢ» ç®Ĺ
åŃ¦ ä¹ł
Ġæ´ ŀ
å¨ĥ å¨ĥ
é»ĳçĻ½ å²Ľ
åĲĥäºĨä¸Ģ æĥĬ
Ĩ åĹ¦
æī Ľ
çĿĢ æĪĳ
åīĳ éĺµ
åĭ ĭ
å² Ń
Ġæ¸ Ĳæ¸Ĳ
ç«Ļ ç«ĭ
è¡£ è¡«
ĠçĽ ĺ
Ġèº« å½¢
æĿ¾ äºĨåı£æ°Ķ
å®Ī åį«
Ġè¯· éĹ®
æ´Ľ èĴĻ
æ¯ģ çģŃ
ĠéĻ¶ èĭ¥é¦Ļ
éĩĳå±ŀ çĶŁåĳ½
ä¸Ģ æĭį
åĳ Ī
ä¿ ĺ
æ· ®
Ġåį´ æ²¡æľī
æĢĿ è®®
èĩ³ å°ĳ
èĥĮ æĻ¯
å®¢ åİħ
èµ¶ åĪ°
éĺ´ æ²ī
Ġéĺ¿ å¥´
é¡º åĪ©
Ġç½Ĺ æĿ°
éĢĨ å¤©
æ¯«ä¸į çĬ¹è±«
æīĢè°ĵ çļĦ
Ġåı¸ å¾Ĵ
Ġ ä¸¹
Ġ, âĢĺ
èĢ ¶é²ģ
å°ı å°ıçļĦ
æĹł ç©·
æĦı åĳ³
æĬĬ éĤ£
åĲ¬ ä»ĸ
åīĳ æ°Ķ
åı¶ ä¸ľå¹³
æ¯Ķ è¯ķ
å© ¢
ç§¦ å§ĭçļĩ
Ġæīĭ éĩĮ
Ġæ» ļ
èī¯ ä¹ħ
ĠåĮĹ å±±
æ»ĭ åĳ³
å¥ ĪçļĦ
å¦Ĥ èĬ±
é» Ŀ
äºĮ å°ıå§Ĳ
æľĢ é«ĺ
åĲĥ ä¸ĢæĥĬ
æ¶Ī æķ£
éĴ± çļĦ
ç»Ĩ ç»Ĩ
åĳĨ åĳĨ
Ġæ¸© ä¸įåģļ
ĠæĢ» ä¹ĭ
åĪ ®
è¯ Ī
Ġä½ł èĥ½
æĹł éĻĲ
éĴ §
é»ĳ èī²çļĦ
æī¾ æĪĳ
ç½Ĺ æ²Ļ
ç§¦ éĶ¥
éĨĴ äºĨ
Ġåīį éĿ¢
Ġæħ ķ
ä¸į ä¹Ĳ
åı ®
åĲ Ń
ç» ©
çĿĢ è¿Ļ
å¯ ĩ
æĮ ½
äºĨä¸Ģ æŃ¥
èĤ ł
åıĪ æĺ¯ä¸Ģ
éĴ °
èĢħ çļĦ
æĸĩ åŃĹ
åıĮ çľ¸
åĤ ¨
è¯´è¯Ŀ äºĨ
åįĹ å®«çħĮ
Ġä¸ĭ éĿ¢
Ġåĺ´ éĩĮ
ĠæĢķ æĺ¯
Ġ ht
çļĦ éĿĴ
å¯ ¡
Ġä»ĸ å¿ĥéĩĮ
éľ į
åīĳ æ³ķ
ç«Ļ çĿĢ
ĠçĽ ĳ
Ġå°Ĩ æĿ¥
è¿ĺæľī ä»Ģä¹Ī
Ġèĥ ĸåŃĲ
ç©ºéĹ´ æĪĴæĮĩ
æ¡Į ä¸Ĭ
éĻį ä¸´
ä¸ĺ çİĭ
ĠèĤĸ éĿĴæĹĭ
ä¸į æĦ¿æĦı
åĲ ¾
ä»ĸ äºĨ
Ġè¯´ èµ·æĿ¥
è®° è½½
è´£ ä»»
ĠæŁ ¯
Ġå¸Į å¡ŀ
é¢ľ èī²
Ġ |
ĠåĲ ĵ
èĶ ĵ
ĠåĮĸ ä¸º
Ġ n
Ġ ä¿®çĤ¼
çļĦ ä»İ
ä¸Ģ èĦī
Ġç ĵ¦
åĴĮ å°ı
ä¸ī æ¡Ĥ
ç»Ļ ä»ĸä»¬
Ġå¦Ĥ åĲĮ
äº¤ æµģ
çŃĶ éģĵ
Ġå¤§å®¶ éĥ½
Ġc h
ä¼łè¯´ ä¸ŃçļĦ
è´ «
éķ¿ å®ĺ
æļ ĳ
Ġæ²¡ æľīäºº
ç²¾ è¡Ģ
èº«ä¸Ĭ ä¸ĭ
æĭį æĭį
ç©¿ äºĨ
å¡ŀ åĨħäºļ
åį± æľº
èļ ģ
è®¨ è®º
åıĽ åĨĽ
äºĨ çīĩåĪ»
ä¸Ģ æĭĽ
ä¸į å¿ħ
å¤© å¤©
è¦ģ å¡ŀ
å¥½ ä¸ľè¥¿
çľ¼ çľĭ
ä¸¤ æĿ¡
å·²ç»ı åĪ°äºĨ
æµģ è½¬
èµ¶ æĿ¥
ĠéŃ ı
èĤ© å¤´
æ¯ķç«Ł æĺ¯
Ġ!! !âĢĿ
èĤ² æīį
çļĦ ä¸ī
Ġä½ł åı¯ä»¥
è´ ¤
Ġå¤ ı
Ġåıª å¥½
å±± çĶ²
Ġä¹Ł ä¸įä¼ļ
èĢĮ ä¸į
è®© æĪĳä»¬
åĲĮ ä¼´
è¡Ģ è½¯åīĳ
Ġè´ º
Ġæķ Į
ä¸¾ èµ·
åĲŀ åĻ¬
âĢ» âĢ»
Ġ l
ä¹ ı
æĥ ®
ĠéĤ£ ä½į
é¢ ł
ä½ı å¥¹
å±± å³°
ĠæŀĹéĽ· åĴĮ
Ġå°ı å§Ĳ
è¿ľ äºĨ
æŁ ´
è¥¿ æĸ¹
ä¹Ŀ çº§
æ²ī éĩį
æ²ī æĢĿ
æıĲ èµ·
© åªļ
ä¼ļ è¢«
ç»Ļ ä½łä»¬
çŃī åĪ°
åįĬ çĤ¹
æıĲ é«ĺ
å±ħ ä½ı
ä¾į å¥³
æľīæīĢ æĢĿ
Ġçī¹åĪ« æĺ¯
çļĦ éĹ®éģĵ
æĥ «
ä¹Ł å¾Ĺ
åĮ ķé¦ĸ
å¤ª å¤§
ĠåĤħæ¸ħæī¬ åĴĮ
æļĹ ä¸Ń
å¯Ĵ åħī
è¹ ¦
åĲŀ æµ·
å¤§äºĨ çľ¼çĿĽ
Ġé² ľè¡Ģ
Ġ ä»»ä½ķ
ä¸ ¢äºĨ
æĪĳ è¯´
æł ½
èº« èº¯
ä»Ģä¹Ī äºĭ
å·² æĺ¯
Ġåħ ´
Ġåħ µ
æĳ Ħ
é£İ åĲ¹
æı Ń
Ġå½ ±
è¿ĻéĩĮ çļĦ
ä¹Ŀ é¡¶
æľĿ çļĦ
å·´ é²ģåħĭ
éķĩ å®ļ
å»· æĸ¯
ä¸Ģ åĪĨ
åĪ° å¤Ħ
åĳ ľ
å¿ĥ çĸ¼
é«ĺ ç©º
çĸ Ĩ
æĸ¯ çī¹
æ·· æ²Į
æ¸©ä¹Ĳéĺ³ çļĦ
ĠçĤ ¼
å§Ķ å±Ī
çļĦ è¡Į
åľ° å¤§
åº ¸
æīĭ æĮģ
ç¬ĳ å¾Ĺ
éķ¿ éķ¿
æŃ» äºº
Ġåı¶ èĵī
çĻ¾ ç±³
Ġæľª å®Į
Ġå¡ Ķ
çľ ¶
åľ° å°ı
Ġè¿Ļ ä»¶äºĭæĥħ
ä¸Ń æľī
å¤© ä¸Ĭ
Ġä»ĸ èĻ½çĦ¶
éĽ· çĶµ
åĲ¬ åĪ°äºĨ
ĠèĢģ çĪ·
ä¸ĸ ä¸Ĭ
æĭ¿ èµ·
çº§ åĪ«
Ġçľ¼ ä¸ĭ
Ġæĭ ¥
çĿĢä¸Ģ èĤ¡
å¾ħ ç»Ń
èį¡ èį¡
ĠèĲ§ å¤«äºº
èīº æľ¯
Ġäºĭ å®ŀä¸Ĭ
åĽĽéĿ¢ åħ«æĸ¹
Ġåĺ» åĺ»
ä¸į çĶĺ
ĠæĪĳ å¾Ī
Ġä½ł åıĪ
ä»Ģä¹Ī ä¸ľè¥¿
åį´ å·²ç»ı
æ¯Ķ ä»ĸ
æħ ĳ
çŁ³ åŃĲ
æĢ¥ éģĵ
äº¤ æīĭ
çı Ĭ
èĳ «èĬ¦
ç»´ å¥ĩ
ĠçĽ¸ ä¿¡
èĮ« çĦ¶
å¿Į æĥ®
çļĦ å®¶ä¼Ļ
äºĨ æĮĩ
åľ¨ è¿Ļä¸ª
åĬ ±
åĨĽ å¸Ī
åħ³ äºİ
çĹķ è¿¹
Ġèµ¶ ç´§
Ġæľªå®Į å¾ħç»Ń
å¤§ çİĭ
Ġåı ·
çľĭ ä¸įåĪ°
æĪĲ å°±
çĻ½ çľ¼
å°±æĺ¯ ä¸Ģä¸ª
çĽ¸ è§Ĩ
åĨħ å¿ĥ
æ¡ ¶
æĲ º
Ġè°ģ çŁ¥éģĵ
Ġç¥ŀ æĥħ
å¾ ª
èµ ´
Ġä½ł å¿«
çĽ Ķ
Ġä»ĸ è¿ĺ
ä¹ĭ æ³ķ
æĶ Ģ
åį´ ä¸į
åĲ¬ è¿ĩ
éĩĳ æĸ¯
ĠåĴ ±
Ġè®© ä»ĸä»¬
Ġéķ¿ èĢģ
Ġéľį æł¼
äº Ń
Ġè ļ
æ¸ħ èĦĨ
æľĢ ä¸º
å¾· éĩĳæĸ¯
Ġåħ¶å®ŀ æĪĳ
è¹ ¬
åĩ¡ äºº
ĠèĻ ļ
İ åŃĲ
è¿ Ń
çĿĢ èĩªå·±
éĽ· èĻİ
å¤ļ ä¹Ī
æĿĢ æĪĳ
å¿« ä¹Ĳ
ä½¿ å¾Ĺ
åĻ Ĺ
ä¹± çļĦ
ç»ĵ å©ļ
ç´¢ ä½Ĳ
è°ĥ æŁ¥
Ġèµ° åĪ°
åı¦å¤ĸ ä¸Ģä¸ª
Ġæħ¢ æħ¢
Ġå Ľ´
å¥ ı
æ²¡ åĬŀæ³ķ
å¿ĥ æĦı
Ġä¸į å¿ħ
éķ¿ å¾Ĺ
æĥĬ äººçļĦ
åĽĽ æĸ¹
æĹ¥ éĩĮ
è¿Ļä¸Ģ çĤ¹
æľīä¸Ģ ä¸Ŀ
çĬ¹ å¦Ĥ
ä¸« é¬
Ġæŀľ çĦ¶æĺ¯
éģŃ éģĩ
Ġåį¡ ä¸¹
Ġç¬¬åħŃ çĻ¾
Ġ 8
ĩ æĮĩ
çĿĢ å°ı
Ġè¿Ļ ä¸«å¤´
Ġä½ł æľī
Ġåı¯æĺ¯ ä½ł
çļĩ åŃĲ
æ¢ Ń
Ġè´ ¾
ç»´ é£İ
ç¢İ è£Ĥ
ĠçĶļèĩ³ äºİ
å±ħ æ°ĳ
æīŃ æĽ²
èĢģçĪ· åŃĲ
æĿ¥ åľ°
åĩº åİ»äºĨ
å¤ļ åįĬ
æīĵ æŀ¶
çª ĥ
éħ ¥
åı¶æŀ« åľ°
æĹĭ è½¬
Ġåĥı æĺ¯
çħŀ æ°Ķ
æĨ ĭ
ĠæİĮ éĹ¨
Ġht t
æ² Ł
å¿ĥ çĲĨ
Ġä¹Ł èĥ½
Ġæĺ¯ åĲĹ
åħŃ ä¸ª
æĬ¥ å¤į
Ġè¿Ļæł· çļĦ
ç§» åĬ¨
å´© æºĥ
æĺ §
è¿Ļ ä»¶äºĭ
åľ¨ å¤§
æĸ Ĳ
è¡ °
å¥½ çľĭ
æŀĹ å®¶
å¾Ī å¤§çļĦ
èī ¾ä¸½æĸ¯
æīĵ ä¸ª
Ġåľ Ł
è¸ ī
æķ£ ä¿®
ĠéĢ ĥ
ĠéĹ »
ĠéĿĴ çģ«
ä¸«é¬ Ł
çļĦ ä¸Ĭ
Ġ: //
çĿ ¿
çĿĢ æīĭ
å½ĵ æĪĲ
æį ¡
Ġåħ¶ ä»ĸçļĦ
å» Ĭ
Ġé» Ľ
ä½İ äºĨ
åħĭ æĸ¯
ç§¦ ä»ĻåĦ¿
åŀ ®
ĠéĹ Ń
Ġç´« èĲ±
Ġå¹³ æĹ¶
ĠçĶ± äºİ
ĠæŁ¯ å®ĭ
Ġhtt p
Ġä»ĸ åıĪ
ĠæŀĹ å°ĨåĨĽ
å¤ļ è¯´
ä¸ī å¨ĺ
åķ §
æĺİ æĺİ
Ġè¿Ļä¸ª æĹ¶åĢĻ
åĪ© çĽĬ
åİī çļĦ
Ġèº« åĲİ
é¦Ļ æ°´
ä½ĵåĨħ çļĦ
è´¢ å¯Į
éĵł çĶ²
Ġæ ĵ
äºº åľ¨
Ġè¿Ļ æĺ¯ä¸Ģ
è¿ĺ ç®Ĺ
ç¥ŀ åĻ¨
äºĨä¸Ģ æĬĬ
åıĳ åĩºäºĨ
æ» ©
å¤ª åŃĲ
é¾Ļ åĵ¥
æķ° éĩı
Ġç» ´
å·´ å°Ķåħĭ
èĳ ¬
Ġç¥ Ŀ
æł¹æľ¬ å°±
é¡º çĿĢ
æĬķ éĻį
æ³ª çıł
ä»° å¤©
è¿Ķ åĽŀ
ä¸įèĩª ç¦ģ
çļĦ å°±
Ġä¸Ģ èĦ¸
èĬ± è´¹
è®¤ å¾Ĺ
åĿĲ çĿĢ
Ġæģ ¶
çĥŃ æĥħ
ç¿» æ»ļ
çĳ Ŀ
Ġä¹ ĥ
Ġæĺ¨ å¤©
ç¥ŀå¢ĵ åľ°
èĩª èº«
Ġçľ ¨
ç»Ļ æĪĳä»¬
Ġè¯ ļ
åı« çĿĢ
åıĮ æĸ¹
çĭ¼ çĭ
ĠåĲ¦åĪĻ çļĦè¯Ŀ
Ġæĳ Ĩ
è®¢ å©ļ
Ġ~~~ âĢĿ
çļĦ åĳ³éģĵ
åĪ° æĪĳ
çī Ī
å¯¹ å¥¹
èĢģ å®¶ä¼Ļ
éļ ¶
èĤ º
èı ±
æ°ĳ ä¼Ĺ
éĿ¢åīį çļĦ
æ¢¦ çĳ¶
åĶĲ æ°ıéĽĨåĽ¢
ä¸į çĽ¸
å¤§ å®¶æĹı
å¾Ĺ çŁ¥
èµ° è¿Ľ
å¸Ī å¦¹
æľĢ å¥½çļĦ
é¾Ļ ä¹ĭåĬĽ
Ġè´ «
Ġèī ¾ä¸½æĸ¯
Ġèĭ¥ ä¸įæĺ¯
çļ± çĿĢ
çļĦå¿ĥ æĢĿ
Ġç©º éĹ´
æł¸ å¿ĥ
Ġåħĭ èİ±å¾·
ç¾¡ æħķ
ä¸Ģ åŃĹ
ä¸Ģ éģį
æĭ §
ä¸Ģä¸ª æľĪ
Ġä¸Ģ èµ·
Ġä½ į
Ġåı¯æĺ¯ çİ°åľ¨
ĠåĽ ¾
æŀĹéĽ· ä»ĸä»¬
æŀģ éĻĲ
Ġéļ¾éģĵ æĺ¯
ä¹Łæ²¡ ä»Ģä¹Ī
åĿļ åĨ³
Ġå¸Ŀ éĥ½
Ġèĳ£ åĢ©åĢ©
ĠæĻļ ä¸Ĭ
ĠåĳĬ è¯ī
å¤§ æĤŁ
çĿĢ çľ¼çĿĽ
ĠæĪĳ ä¸įçŁ¥éģĵ
åĿ ¤
æĬĬ å®ĥ
ĠæĪĳä»¬ æĺ¯
æ·± æ¸Ĭ
èĭ¦ ä¿®
Ġé» ĺ
è°¢ è°¢
è®® è®º
æ¸¸ æĪı
Ġä½łè¯´ ä»Ģä¹Ī
Ġç¨ ½éĿŀ
æĹłè®º å¦Ĥä½ķ
ä¸Ģ çĶŁ
ä½ł æĿ¥
ĠæĪĳ åħĪ
æŃ ¢äºĨ
Ġè¿Ļ åı¯
è° ±
éĩĳ å±±
æı į
çĽ® åīį
ç»Ł å¸ħ
è¯¦ ç»Ĩ
çļĦ åĲįåŃĹ
çļĦ è¯Ńæ°Ķ
ä¸Ģ ç«ł
ä¸Ģ æĮĩ
å¤§ åĲĥä¸ĢæĥĬ
ĠæĪĳ è¿ĺæĺ¯
Ġå°Ĩ éĤ£
æŀ¶ åĬ¿
ĠèĤĸ å°ıå§Ĳ
âĢķ âĢķ
åľ° åıĺ
åĴĮ åĤħæ¸ħæī¬
äºĨä¸Ģ èµ·
Ġå¯ Ĩ
è·Ł éļı
åħ¶ ä¸ŃçļĦ
åĨ² åĬ¨
è¿ĳ ä¹İ
çĶµ è§Ĩ
Ġè¶ ģ
åĩ¶ åħ½
ĠéĿŀ å¸¸
Ġ è¿Ľåħ¥
éģĵ åŃĲ
ä¸ª ä¸ª
Ġ! âĢĶâĢĶ
ä¹ĭ æĥħ
åĴĮ ä»ĸä»¬
æŀĹ åĵ¥
æľ¬ ä¹¦
éĹ® éĹ®
éļ¾ è¿ĩ
Ġåİ Ĩ
Ġå°ıéĽ· å¿ĥä¸Ń
ä¼¸ åĩº
ĠãĢĭ ,
ĠåĲķ ä¸¹çĳ¶
Ġè£¹ çİ¯
Ġ m
ä¹Ł å¤ª
å¤© çĶŁ
ä»İ ä»ĸ
æĬĬ ä»ĸä»¬
åıĪ æľī
è¥¿ åįĹ
Ġè§ Ĥ
å°Ķ å¾·
åİĭ åĪ¶
ĠæĮ ¥
ä¸¾ åĬ¨
ç»§ å®Ĺ
ĠçĶ¨ åĬĽ
çļĦå¿ĥ æĥħ
åºŀ å¤§
Ġåįķ åįķ
æĭ ĩæĮĩ
éķ¿ éķ¿çļĦ
å¿« éĢŁ
ä¹Łä¸į è¿ĩ
Ġä»İ æĿ¥
å¸ĥ ç½Ĺ
å·¥ å¤«
Ġèĥ ¸
äºī æĸĹ
æ¯ı ä¸Ģä¸ª
Ġå¸Į å°ĶæĽ¼
Ġçĸ ¯
Ġ äº²
ä¸Ģ æĪĺ
ä¸Ģ æ®µæĹ¶éĹ´
ä½ł è¦ģ
å¤© éĶ¥
Ġä»ĸ å¯¹
éĢ »
æĭ Ĳ
éľ įçĦ¶
èµ° è¿ĩæĿ¥
æĳ §
æ± ª
ĠèĢģ ä¸ī
å¤± åİ»
éķĩ åİĭ
åĮĹ å®«
ĠçĪ ¸
æľ ¦
è¯´ æ³ķ
æ³ Ĭ
è¯Ŀ æĿ¥
åĪĨ å¼Ģ
çĸ ı
Ġè¿Ļæĺ¯ æĪĳ
åĨ³ å¿ĥ
Ġåıªè¦ģ ä½ł
çļĦ å¥³
è¯ ŀ
è¿ĺ å¾Ĺ
å¤´ å¤§
Ġåħ ¥
Ġåľ º
èµ° æĿ¥
é£İ ç³»
Ġè¿ĺ çľŁ
æĦŁ åħ´è¶£
åįĬ ç©ºä¸Ń
éĢģ ç»Ļ
éĽĨ ä¸Ń
éĢı æĺİ
ĠçĪ ±
æİ© é¥°
ĠçĹ Ľ
èĢ ¿
æł ĭ
ä¹ĭ æľ¯
åĴĮ æĿİ
ä»Ģä¹Ī äºĭæĥħ
ç¥ŀ å¥ĩ
åĬ¨ å¼¹
åı£ éģĵ
æīĵ çļĦ
åįķ åįķ
é»Ľ èĬĻå¦®
åĳ¨åĽ´ çļĦ
è£¹ çİ¯
èĪĮ å¤´
è°¨ æħİ
º çī²
çļĦ çľĭäºĨ
ä¸į æ¸ħæ¥ļ
ĠæĪĳ æ²¡
è¡ ·
æĥ³ è¿ĩ
æĥ³ åĬŀæ³ķ
å¼Ģ éĹ¨
Ġå°± è¿Ļä¹Ī
æīĵ çĶµè¯Ŀ
éĶ »
éĩĳ èī²
åŁİ ä¸Ń
åºĶ ä»ĺ
æį £
åĶ ®
æĮ¥ èĪŀ
éģĩ åĪ°äºĨ
ä¼¯ çĪµ
Ġåħī èĬĴ
Ġåįĥ ä¸ĩ
ĠåĸĿ éģĵ
Ġé¦ Ļ
Ġè ¹
è¿Ļ ä»¶äºĭæĥħ
ä¹Ł åıªèĥ½
Ġè¿Ļ å®¶ä¼Ļ
è§ģ å¥¹
æīĵ æī®
èĦ¸ çļ®
æ°´ ä¸Ń
åı¶ èĵī
Ġå¥½ åľ¨
ĠåĴ »
Ġå± ĭ
åĭĩ å£«
Ġå·´ é²ģåħĭ
ç» °
åľ° æĬĬ
æĪĳ çľĭ
åĵ ĩ
ä¸ī å¹´
Ġåı¶ åħĪçĶŁ
åı¶ æĢ»
Ġå¯ »
é¢Ĩ å¯¼
èĢ³ åħī
å»º è®®
ĠåĿ ļ
çľĭåĲĳ æŀĹéĽ·
Ġèį Ĩ
ä¸į é¡¾
ç§ Ł
æ¯ ħ
ä¸¤ åıª
åģ ¿
éļ Ļ
çĽ¸ åħ¬
å« Ĥ
ĠçŃī çŃī
ĠéĤ ĵèİİ
Ġch Å
åħ ¼
ĠæĪĳ éĥ½
è¿ĺ å¥½
Ġä¸į å¯¹
éĻ ĭ
Ġä½ ı
åĩł å£°
éª ¸
Ġå½ ¼æŃ¤
ä¹Łä¸į æĥ³
åħĥ å¸ħ
Ġåģ ľ
åĪº æ¿Ģ
è®¨ åİĮ
ĠæŃ¦ ç¥ŀ
è¯¢ éĹ®éģĵ
Ġæ ĩ
ä¸Ģ å®¶
ç¬ĳ ä¸įå¾Ĺ
ä¸Ģä¸ª å¤§
æīį çŁ¥éģĵ
æķ° åŃĹ
ä¸Ŀ ä¸Ŀ
ĠæĢİä¹Ī åĽŀäºĭ
ĠèĢĮä¸Ķ è¿ĺ
æĸĹ æ°Ķ
æ£® è¯º
Ġåıĳ åĩº
******** ********
çļĦ çľŁ
Ġè Ĺ
Ġé ½
ç¬ĳ èĦ¸
ç¥ŀ æĿ¥
åıĳ äºĨ
Ġåı¶ ä¸įç¾¤
æĢİä¹Ī åı¯èĥ½
ĠæĢİä¹Ī æł·
çĮĽ çļĦ
æĩĤ å¾Ĺ
Ġåľ° çĭ±
Ġé²ģ å¸Ŀ
ä¸ĭ åİ»äºĨ
ä¾ Ħ
Ġä½Ĩ åį´
Ġå¤§ å£°éģĵ
ä¸ĸ éĹ´
å¹² çļĦ
åºľ ä¸»
Ġæĭ ¼
éĢģ åĪ°
ä¾¯ åºľ
èµ°äºĨ åĩºæĿ¥
æĳĨ äºĨ
Ġæ± ī
çªĹ æĪ·
çļĦ å¤ļ
Ġæ £
ä¸Ģ ä¸ĩ
åħ ļ
åľ° å£°éŁ³
åĪ° è¾¾
å¤´ èĦĳ
æµģ æ·Į
å¹² åĺĽ
çľŁçļĦ å¾Ī
è¾¾ ä¹ĭè·¯
å±Ĥ å±Ĥ
æ¸© æļĸ
Ġç¬¬ä¸Ģ åįĥ
Ġåıĳ è¾¾ä¹ĭè·¯
Ġç¾ ½
æ¬£ èµı
Ġè£ ħ
éĻ¶ èĭ¥é¦Ļ
çľ¯ çľ¯
æĬļ æĳ¸
Ġåıĳè¾¾ä¹ĭè·¯ åį·
ä¸ ¸
çļĦ å£«åħµ
æĺ Į
ĠæĪĳ ä¾¿
æŀ Ĳ
è® ¥
æĭ ½
äºĭ ä»¶
ç»ı èĦī
åĩł çĻ¾
Ġä½Ĩ æĪĳ
è½» å£°
æĢª å¼Ĥ
å°½ äºĨ
é²ģ å¸Ŀ
ä¼Ļ åŃĲ
è¯ģ æį®
éĽ¾ æ°Ķ
ä»° å¤´
å°¾ å·´
èĢĹ è´¹
Ġç¨ į
Ġçĥ Ń
åĽĽç¥ŀåħ½ å®¶æĹı
çļĦ æĪĺ
ä¸į è¿ľå¤Ħ
ç» ¸
çİ Ľ
æľĢ å¤§
Ġéķ ĩ
Ġæ¯ı æ¬¡
ä¸į å®¹
æľī å¦Ĥ
ä¹Ł ç®Ĺæĺ¯
éĤ£ åıª
åĵ Ł
éĽ· éľĨ
Ġåıª å¾Ĺ
Ġå® Ī
éĴ ¦
çĻ¾ å¾®
çľĭçĿĢ æŀĹéĽ·
Ġèĩªå·± çļĦ
ä¸ºä»Ģä¹Ī è¦ģ
Ġçķ ¥
èĤĮ èĤ¤
ĠyÃ ¹
ä¸Ģ é¢¤
ä¸ª å°ı
åŃ ķ
æĪĳ åľ¨
Ġä¸į åĨį
ç« ŀ
æĥ³ åİ»
éĵ ¸
Ġä½Ĩæĺ¯ æĪĳ
æŀģ å¤§çļĦ
å·¨ åŀĭ
è·³ äºĨèµ·æĿ¥
çīĻ é½¿
èĻļ åŃĲ
çľĭè§ģ äºĨ
æģ¨ ä¸įå¾Ĺ
å¹½ å¹½
Ġç´«å·Ŀ åıĤæĺŁ
èĦļæŃ¥ å£°
Ġæ³ķ æģ©
æĪĲä¸Ģ åĽ¢
ĠæĽ¾ ç»ı
3 8
ä¸Ģ ä»½
åľ° åĲĳ
ĠæĪĳ ä¸įä¼ļ
è¯´ çļĦæĺ¯
Ġè¿Ļ è¯Ŀ
å§ Ĩ
ä¸¤ æŃ¥
æĹł å¥ĪçļĦ
åĽŀ æĿ¥çļĦ
é«ĺ éħĭ
æĿĢ çļĦ
çº¢ èī²çļĦ
ç»Ŀ æľĽ
ĠåıĪ æľī
è¡¨ éĿ¢
è®¤ çľŁ
è¶³ äºĨ
èĻ½çĦ¶ æĺ¯
çĬ¶ åĨµ
ĠæĹ© å°±
Ġç´§ æİ¥çĿĢ
å¬ ī
æ²¸ èħ¾
ä¸į æĺİ
çĿĢ å¤§
ĠæĪĳ èĥ½
éĤ£ å¼ł
åģļ äºĭ
ç¢ ĳ
Ġå· «
è§Ĩ çº¿
éº ¾
ĠéĢ Ģ
èĥ¡ ä¸įå½Ĵ
è¶ħ çº§
éĩĬ æĶ¾
åŃĻ æ¢¦çĳ¶
Ġå¹¸ äºı
Ġç¡® å®ŀ
Ġ ä¿Ŀ
Ġå Ħ
çļĦ åĨĽ
ä¸į åĸľæ¬¢
æľī äºĭ
å¤§ åįĬ
ä¹Ł æĹłæ³ķ
æ¸ Ĺ
æŀĹ ä¸Ń
æĬĬ å¥¹
éĢļ å¤©
å¥ĩ çī¹
æĲ ħ
Ġç§¦ å§ĭçļĩ
Ġä½łæĺ¯ ä¸įæĺ¯
å¾Ĳ èĬ·æĻ´
Ġå°ĳ å¥³
ĠæĪĲ ä¸º
èºº åľ¨
Ġä½¿ å¾Ĺ
åĹĵ åŃĲ
Ġ ä¸ľ
ä¼ ª
ä¼ º
åĳ Ĳ
å¯¹ ä¸įèµ·
å¼Ģ è½¦
åīĳ çļĦ
Ġåľ¨ å¥¹
çª ¦
ç»Ŀ ä¸ĸ
è®° å½ķ
å¨ģ èĥ½
é²ģ é»ĺ
æľĽçĿĢ ä»ĸ
éĻĨ å±±
ĠæĹ© å·²
Ġè¥¿ éĹ¨
è´º èĢģä¸ī
ä¸Ģ åĪĢ
ä¸Ģ å¤ľ
å· ¾
ĠâĢľ ......
è¢ ģ
æĦı åľ°
åŁİ åĨħ
åĪĢ éŃĶ
æĭħ ä»»
Ġå½ĵçĦ¶ äºĨ
Ġçĭ Ĥ
ä¸Ī å¤«
äºĨ èĩªå·±
äºĨ åĽŀæĿ¥
å° ¤
è¿Ļ åº§
Ġä¸į çŃī
æ²¡æľī äºĨ
æĪĲ çĨŁ
Ġè¿ĺ çľŁæĺ¯
çĻ¾ åĢį
å¸¦ æĿ¥
èĲ½ åĪ°
ç¿ °
ç»Ŀ åŃ¦
ç´§ äºĨ
Ġåĳ Ĩ
å³ ¡
éĽ¨ èı²
ĠåĽŀ åĪ°
çļĨ æĺ¯
Ġåģı åģı
Ġ äº¤
ä¸į å°Ĭ
Ġç ±
çĶ ¸
Ġä½ł è¿ĺæĺ¯
Ġä»ĸ åĴĮ
Ġå¤ Ħ
éŃĶ å¯¼
é¾Ļ å®Ŀ
ä¸İ æĪĳ
å®¹ è²Į
åĪĩ é½¿
èĵ Ħ
Ġåģ ¶
æĻ¯ å¤©
ä¸° å¯Į
çĸ² æĥ«
æľī è¿ĩ
æĢ ¯
å£ ³
Ġä»ĸ åį´
åĴĮ æĪĳä»¬
ä¸¤ æ¬¡
éĥ Ĭ
æĦŁ åı¹
çĽ¸ å¤Ħ
é»ĳ çļĦ
å°½ å¤´
Ġæ²¡æľī æĥ³åĪ°
åĩºçİ° äºĨä¸Ģ
ĠæľĪ çīĻåĦ¿
ĠçĶŁ æĢķ
Ġçºª ä¹Ŀçģ«
èª ī
æĴĩ åĺ´
Ġæ¸©æħ§ éģĵ
Ġå¢ ¨
ĠçĽĳ å¯Ł
ä¹Ŀé¡¶ å±±
ä¸į å¦Ļ
åħ Ĩ
ĠæĪĳ æ²¡æľī
Ġè¿Ļ çĤ¹
Ġè¿Ļ ä»¶äºĭ
èµ° åĪ°äºĨ
è¡Į äºĭ
å®ī å§Ĳå§Ĳ
Ġåı¶æŀ« æľīäºĽ
æ¡ Ĳ
çĨ ¬
ç©¿ å±±çĶ²
åĮħ æĭ¬
çĭĤ é£İ
é¡¾ ä¸įå¾Ĺ
ä¸ľæĸ¹ çİī
è§£éĩĬ éģĵ
å³¨ çľī
ä¸Ģ ç¿»
åľ¨ ç©ºä¸Ń
åľ° åºķ
åĴ Ļ
åī ¿
æĦ ļ
é¡ ½
Ġæī ĳ
Ġå¤§ åĳ¨
é¾Ļ çļĦ
æŃ¦ éĻµ
æŁĶ è½¯
çļĦ çº¢
ä¹ Ļ
åľ¨ å¤ĸéĿ¢
çĿĢ ä»Ģä¹Ī
ä¹Ł åıªæĺ¯
è¿ĩ åĲİ
åĴ ļ
æł ª
è´ ±
ä¸ī ä¸ªäºº
å°Ĩ æĿ¥
èµ·æĿ¥ çļĦ
å¿« æŃ¥
è¿Ļä¹Ī ä¹ħ
éļ¾ çľĭ
éĿĴ å±±
æŀģ å¤§
è§Ĵ åº¦
Ġè¿ İ
èĤī èº«
ç¥ĸ å¸Ī
è¯ķ æİ¢
åŃ¤ æĺŁ
åĤ¬ åĬ¨
Ġ ä¿¡
Ġæ ¿Ģ
ä¸Ģ åı¹
æĿ¥ è¿ĻéĩĮ
åİ Ĥ
è¯´ ä»ĸ
ä»Ģä¹Ī éĥ½
ĠæŀĹ åħĦå¼Ł
ĠãĢı ãĢİ
æŃ¥ åħµ
å½± é¼ł
ä¼Ĺ äººçļĦ
è·ĳ åİ»
è¿ľä¸ľ çļĦ
æĻ¶ èİ¹
æĶ¿ åºľ
ĠæĽ ¹
çĶ ³
å¯¹ è¿Ļ
å§ ¨
èĢģ èĻİ
çĽ® å½ķ
ç®¡ å®¶
Ġæĭ ĵ
Ġæĸ¹äºĳ å¿ĥä¸Ń
Ġæĺ¾ çĦ¶æĺ¯
è¿ ¸
æľī å¿ĥ
å¥ ¢
å¤§ èĲ¥
æīĵ ä»Ĺ
ĠæŀĹéĽ· ä¸įçĶ±
çļĦäºº éĥ½
è½¦ ä¸Ĭ
è¡£ è£³
éĢı äºĨ
åĵŃ ç¬ĳä¸įå¾Ĺ
åĵĪåĵĪ ä¸Ģç¬ĳ
Ġå®ĭ èĸĩåħ°
Ġæ´ª çĪ·
çļĦ éĩį
çļĦ é«ĺæīĭ
å® ª
ä¹Ł åı¯ä»¥
çľĭ è¿ĩ
Ġä¸Ģ äºĽ
çĶŁ åĩº
å¹´ é¾Ħ
éĹ¨ åīį
éĩĳ å°ĳçĤİ
Ġå¯ Ĵ
å² Ķ
ä¸ĥ çº§
æĸĩ ç½ĳ
ĠæīĢä»¥ ä»ĸ
ĠæĹł æ³ķ
ĠæĹł å¥Ī
å¨ĺ å¨ĺ
çĽĺ èĨĿ
Ġéĺ¿ ç§Ģ
Ġç¬¬ä¸Ģ åį·
Ġé½ Ĳ
° åĦ¿
ĠãĢĤ [
ä¸Ģ åįĥ
åĬ £
éĩĮ åľ°
è§ģ æĪĳ
æĪĲ åĳĺ
åıª æĺ¯ä¸Ģ
Ġä¹Ł åıªæľī
èĻ ı
èĲ½ åľ°
æĹ© å·²ç»ı
æ´» åĬ¨
å¨ĺ äº²
ĠæĤ Ħ
Ġèĥ½ ä¸įèĥ½
æ²Ī éĺ³
æĺ¯ æĪĳä»¬
å¼ ¦
åĵ ĨåĹ¦
ç¬ĳ ä¸Ģå£°
è· ĭ
åĩł çľ¼
åħī çļĦ
æīĢ è¯´çļĦ
Ġåĵ ĩ
äºĶ åįĥ
Ġå½ĵ çĦ¶æĺ¯
Ġå¥½ å¥½
æ¯Ĵ çī©
è¸ ¹
åº§ ä½į
éĵģ çĶ²
å°ģ åĨµ
Ġè®¸ å¤ļ
ä¸įåı¯ æĢĿè®®
æĹłæķ° çļĦ
Ġç®Ĺ æĺ¯
ä¸įåģľ çļĦ
Ġ b
ç» ŀ
å¤§ å¦ĸ
Ġä½ł å¥½
Ġä»ĸ è¦ģ
Ġä¸Ģ å¤´
åĩł æĹ¥
æ³ķ åŃĲ
å¥³ çļĦ
ä¹Łä¸į çĶ¨
èĲ½ åľ¨äºĨ
æĢĿ ç´¢
æİĮ æİ§
åıĮ èĩĤ
æĶ¶ èĹı
ä¸¹ çĶ°
ç¥ĸ å®Ĺ
æĳ¸ æĳ¸
Ġç¾ ŀ
çļĦåľ° æŃ¥
Ġä¹Ķ æ²»
æĺ¯ çľŁçļĦ
æĿ¥ åĽŀ
å¤§ å¤§
æ² «
è¿ĺ ä¸įæĺ¯
Ġä¸į è®¸
å¯¹ äºĨ
å½ĵ ä½ľ
Ġè¿ĺ æľīä¸Ģ
è¿ľ çļĦ
æ°´ çģµ
æį ŀ
Ġå¾Ī æĺ¾çĦ¶
ĠæŃ¤ äºº
åģľ ä¸ĭ
Ġè¡ £
äº¡ çģµ
é»¯ çĦ¶
Ġ 6
ä¸Ģ æĹ¥
è¯´ èµ·
å¾Ĺ ä½ı
ĠéĤ£ æĹ¶åĢĻ
å¯¹ è§Ĩ
æīĵ æĸŃ
åĲĮ çļĦ
æıĲ åĩº
éļĲ çŀĴ
å°½ ç®¡
å¼ķ åĬĽ
ĠåĽĽ åĳ¨
Ġå¹¶ ä¸į
çģŃ äºĨ
ä»ĩ æģ¨
èĤ©èĨĢ ä¸Ĭ
æ¢ģ å±±
Ġå°ıå¿ĥ ç¿¼ç¿¼
Ġåı³ æīĭ
å¥½ ä¼¼
ä¿ ĳ
çľ¼ éķľ
åįģ ä½Ļ
åıĳ è´¢
çŃ Ĵ
éª Ĩ
æīĢ èĥ½
åĽ¢ éĺŁ
Ġåħī å¤´
åļ ĵ
åĩĮ ç©º
ĠæĪĪ æ°ĳè¾ī
Ġ ä¹Ĳç¾Ĭ
æľī è¿Ļä¹Ī
æľī ä½Ļ
åįģ åĩłä¸ª
æ¯Ķ ä½ł
Ġç« ¹
åħ³ æ³¨
å¦ĸ éŃĶ
æĺ¯ä¸Ģ çīĩ
æ·¡ æ¼ł
æĭ¿ åĩºæĿ¥
çĳ °
å°ĸ éĶĲ
åĺ»åĺ» ä¸Ģç¬ĳ
Ġè¦ģä¸į çĦ¶
æľī ä¸¤
çľ ł
åī ¥
æĹ¶ æľŁ
ä¸ī åĪĨ
æŀĹ åĨ°
æĥĬ éªĩ
äº² æīĭ
æį ħ
çļĦä¸Ģ ç§į
çªģ åħĢ
åĮĸ è§£
é¡¶ å°ĸ
å°Ħ åĩº
Ġè¿Ļæł· åĲ§
çĥĪ ç»´å¥ĩ
èİ± éĹ¨
ĠæĿľ ä¿®åħĥ
ĠéĴ ±
© æ¶¡
çļĦ åħīèĬĴ
å¤ Ļ
äºĨ ä¹Ī
æĹ ·
ä»ĸ å¦Ī
Ġåħ ħ
Ġæ¯ ģ
æľĪ çļĦ
åĮĸ çļĦ
æ·± åħ¥
Ġè¿Ļä¸ª äºº
Ġå¼ Ħ
åı¤ èĢģ
æĺŁ æľŁ
ĠåŃ Ĳ
ĠèĬ± éĵģæłĳ
ĠåĲ´ çĶ¨
å¼ĵ ç®Ń
åħĥç´ł æ³ķåĪĻ
å¸ĥèİ±æģ© å¸ĿåĽ½
Ġé Ħ
å¾ ½
åĴĮ åı¶æŀ«
Ġå°± åĲ¬è§ģ
åĽŀ åİ»äºĨ
æŃ» åľ¨
å¥³ äººçļĦ
çĻ¾ åĪĨ
Ġéĥ½ ä¼ļ
Ġè´ µ
Ġèº ²
è¯· ä½ł
åİĭ æĬĳ
å±ĭ éĩĮ
èįĨ è½²
çļĦ åħ³ç³»
è¿Ļ ä¸¤ä¸ª
Ġä½ł è¿Ļä¸ª
å¯ ŀ
Ġä¸į æĥ³
ĠéĤ£ å¥³åŃĲ
å¼Ģ åĲ¯
æ¡ §
ĠæĬ ¤
çł´ åĿı
å¯Ĩ éĽĨ
å¯Ĩ å¯Ĩéº»éº»
åĴ¬ çĿĢ
èĤ¯å®ļ ä¼ļ
æĺ¯ æľĢ
ç¬ĳ çļĦ
ä»¥ ä¸Ĭ
Ġä¸Ģ ä¼ļåĦ¿
éķ¿ åį¿
Ġè¯ ķ
Ġå¤§ éĩı
çŃī äºİ
Ġç» ¿
æĪ¿ éĩĮ
æķ£ äºĨ
åĲĦ å¤Ħ
è§Ĥ çľĭ
åľŁ åľ°
Ġé«ĺ å¤§åĵ¥
Ġè¿Ļä¸Ģ åĪ»
çļĦéĤ£ ç§į
å·¦ æīĭ
äº§ ä¸ļ
äººç±» çļĦ
éĦ £ä¹Ĳåħ¬ä¸»
¦ çĦ¶
ãĢ Ĭ
ä¸į è¯¥
æľ ķ
å°± å¥½åĥı
Ġä»ĸ æīį
éĤ£ å¤©
éĢ Ĺ
è¡ ħ
å°ı éķĩ
åĴĮ éĤ£
åīį éĿ¢çļĦ
æĹł åħ³
å¹´ äºĨ
èĢĮ ä¸Ĭ
ç§į æĹı
å¼º è¡Į
åįİ å¥ķ
Ġè¦ģ è¯´
è¿Ļä¸Ģ æĭĽ
Ġä¸ī åĵ¥
ä¸Ģèµ· åİ»
çŁŃ çŁŃ
ä¸ģ æ´ª
æĮĳ éĢī
Ġåķ Ĩ
ĠèĦļ ä¸ĭ
ä¸Ģ ä¸Ģ
åľ° çľĭäºĨ
çľĭ ä¸įåĩº
æ¸ ´
åıª æľīä¸Ģ
ĠåĲ Ľ
èµ° åĩºäºĨ
ä¸ĩ è±¡
åĽĽ ä½į
ç³ ĸ
ç»Ŀ é¡¶
åĿĲ äºĨä¸ĭæĿ¥
Ġç§ ĭ
å¸¦çĿĢ åĩłåĪĨ
æł¹æľ¬ æ²¡
åıĤ ä¸İ
èĤ¯å®ļ æĺ¯
çļĦ æŃ»
ä¸į å°ı
åħ ¢
çľĭ åĩºæĿ¥
çİ »
çľ¼ è§Ĵ
çĻ½ èĦ¸
ä¿® çľŁ
å¿« äºĨ
é£ŀ èµ·
æī¾ ä½ł
ĠæĬ ¥
éľĩ å²³
æĭĽ å¼ı
æĭĽ æĥ¹
åĩĿ åĦ¿
å¯Ĩ å®¤
Ġä»Ĭ åĲİ
ĠæĢ¥ æĢ¥
èķ ¾
ĠåĪĨ åĪ«
Ġé¦ĸ åħĪ
çļĦ ç²¾
çļĦ æĥ³æ³ķ
ä¸Ģ åħ±
å°± è¡Į
ä¸ĭ è½½
Ġä¸į è¯´
çī ºçī²
å¯¹ åĤħæ¸ħæī¬
Ġåıª åĲ¬å¾Ĺ
å¿Ļ éģĵ
æĶ¶ æķĽ
æıĲ åīį
ĠæīĢä»¥ æĪĳ
ç¢İ çīĩ
Ġåĩº äºĨ
åıĳåĩº ä¸Ģå£°
Ġç»Ł é¢Ĩ
Ħ ä¸ľ
å¤ļ å¤ļ
ä¾¿ è¦ģ
ĠæĹ ıéķ¿
é»ĳ é¾Ļ
å¸¦ æĿ¥çļĦ
å®Į æ¯ķ
éĺ´ è°ĭ
åĩŃ åĢŁ
Ġä¸Ń å¹´
è¡Ĺ ä¸Ĭ
ç¯ ĩ
æħĪæĤ² å¯º
Ħä¸ľ èµŀ
Ġå ¬
çļĦ åİŁåĽł
ä¹ Ķ
åı ±
å¤© çª¦
è¿ĺ æľīäºĽ
æ¯ Ļ
çľ¼ äºĨ
çľ¼ èī²
ä½ĵ è¡¨
æĶ¾ å£°
æĶ¶ è´Ń
Ġæĭ ³
çŃĶ æ¡Ī
ĠçŃī æĪĳ
èĥ¡ è¯´
åį¡ ä¸¹
ä¸Ŀæ¯« çļĦ
åĲŁ åĲŁ
Ġåľ£ å§ĳ
Ġå¹² èĦĨ
è¯± æĥĳ
ç į
ä¸į è®¤è¯Ĩ
Ġè ŀ
å· ·
äºĨä¸Ģ åľĪ
åĨį æĿ¥
åı« ä»Ģä¹Ī
å¹³ å±±
å© ¶
èĨ ľ
ĠéĽ· èĻİ
Ġåĸ Ħ
éŁ §
ĠéĿĴ æĹĭ
æ¾ ¶
ĠéĤ£æĪĳ å°±
çļĦ æĹ¶ä¾¯
ä¸į è¿Ń
å¤§ å£°éģĵ
ĠæĪĳ å°±ä¸į
è¯´ åĪ°
Ġä½ł å°±æĺ¯
è¿ĺ ä¸įçŁ¥éģĵ
æĦ ī
ĠéĤ£ ä»ĸ
äºĨä¸Ģ å±Ĥ
Ġä¸Ģ åıĮ
åĸ Ĥ
Ġè¯ º
èĻ Ĳ
å² Ĺ
å¿ħ å®ļ
éľ² åĩºä¸Ģ
é¸ ¦
ĠæĹ¢çĦ¶ å¦ĤæŃ¤
ä¾į åį«
Ġåħ¶ä»ĸ äºº
å²Ĥ ä¸įæĺ¯
è¸ī è·Ħ
å³¡ è°·
äºĭ å®ŀ
ä»İ æľª
æĺİ äºĨ
è¡Į èµ°
æŃ¤ åĲĮæĹ¶
Ġå® Ĺ
äºĶ åħŃ
ä½ķ æĹ¶
èĬ± èį£
åħĥ æĪĪ
æĲ ģ
æ¸© åĴĮ
Ġè½» å£°éģĵ
æĺ¯ä»Ģä¹Ī æĦıæĢĿ
Ġä¸įç®¡ æĺ¯
é¢ĩ æľī
Ġçİĭå°ıèĻİ éģĵ
çİĳ åŃĲ
Ġå´ Ķè´ŀçĪ±
Ġéĥ½å¸Ĥçģµçŀ³ æŃ£æĸĩ
ä¸Ģ åĽŀ
åľ¨ å¤ĸ
åľ° èĦī
ä¸Ĭ æĸ¹
ĠæĪĳ éĹ®
è§ Ī
å¸ ľ
å¿ĥ èĦı
éķ¿ äºĨ
å¤ª å¤ļäºĨ
æĶ¾ æĿ¾
åĶ ¬
åŃ¦ ä¼ļ
çĸĳ éĹ®
ç¿¼ èĽĩ
è½»è½» çļĦ
èĶ ½
ĠèĻ İ
Ġç®Ĺ äºĨ
ĠçĶ· äºº
å µ
ĠãĢĤ ãĢĤ
ä¸ª å¤§
å¥ İ
å¿ĥ åľ°
ä¸º ä¸Ģ
ä¾ ®
ä¸ī åįĥ
å·² çĦ¶
æŃ¤ äºº
çĽ¸ å·®
ĠåĨ ³
å¹¶ èĤ©
æĿİ äºĳé£İ
Ġéļı ä¾¿
éĶĭ åĪ©
éĺ» æĮ¡
ĠçĮĽ çĦ¶
æ²¿ çĿĢ
ĠchÅ «n
Ľ è¶ħ
çļĦ ä¸»
çļĦ åĲĹ
Ġè ©¹å°¼
ĠæĪĳ åĨį
ĠæĪĳ åĢĴ
æĪĳ ä¸Ģ
è¾ ħ
ç½ Ĳ
ĠæĢ Ŀ
æİ¥ è¿ŀ
Ġæĸ Ń
è¡Ģ èĤī
ĠåĴ Ķ
åĽ´ æĶ»
æķ´ æķ´
Ġå¾Ĳ éķ¿ä»Ĭ
åĲĽ æŃ¦
åĵ¼ éģĵ
æī« äºĨä¸Ģçľ¼
å¾Īå¿« å°±
çĭ¡ çĮ¾
Ġ j
ä¸į éľĢè¦ģ
åıĳ èĢģèĢħ
çĻ½ è¡£
å¼º çĥĪ
Ġåľ¨ ä¸ĭ
éĩį éĩįçļĦ
å¸¸ äºº
ĠåĴ ¯
ç«Ļ èµ·
çĶµ åĻ¨
å¯Ĵ æ°Ķ
æļ´ éľ²
åķĨ ä¼ļ
æ¤ į
æģįçĦ¶ å¤§æĤŁ
çĻ½èİ² æķĻ
åĨ²å¤© èĢĮèµ·
æĳĨäºĨ æĳĨæīĭ
çļĦ åĲ§
ä¸Ģ æĮ¥
Ġç ³
åĩ °
åĩº çĶŁ
åİ» åģļ
Ġä¸į å°ĳ
æĹł è¡¨æĥħ
èĦ¸ çº¢
Ġå¿ ł
è¿Ļä¹Ī åģļ
ç¡ Ģ
æ¼ ©æ¶¡
ç¼ĵ æħ¢
ç´« æ°Ķ
ĠåĶ Ķ
å±ķ å¼Ģ
Ġé¾Ļ éĺ³
Ġèį ī
åĮ» çĶŁ
Ġåľ£ åŁŁ
ĠæĬ¬ å¤´
ĠæīĢæľīäºº éĥ½
Ġæ¯į äº²
æĪĳ è¦ģ
ĠéĤ£ å¤©
æ°Ķ æ°Ľ
åıĳ éĿĴå¹´
é«ĺ çº§
çģ« åħī
ä¼¤ äº¡
è¶Ĭ æĺ¯
ĠåĪ° å¤Ħ
ç¤¼ çī©
çģµéŃĤ æĶ»åĩ»
è¿İ æİ¥
ĠèĲ§ çİīéľľ
ĠçĶŁ æŃ»
èĶ ĳ
æ±½ è½¦
è·º èĦļ
æ ª
æĥ ŃæĦ§
æĭ İ
Ġå°± çľĭè§ģ
èī ¾
ç»Ļ äºº
äºĮ åĤ»
æŃ¤ æ¬¡
ç«ĭ åľ¨
å¾Ģ å¾Ģ
å¦ĸ åŃ½
åĪ¶ éĢł
åħĭ æĭī
æĬ± æŃī
å¥¥ ä¹ī
ç±³ çļĦ
Ġèµ° åĲ§
ç´«å·Ŀ å®¶çļĦ
Ġå¥¥ åı¤æĸ¯å¡Ķ
æĿŁ ç¼ļ
é»İ åĲ¯èĩ£
Ġå¤Ļ çĳ¶
æĺ¯ å¤§
ä¸į ç»ı
æľī æľºä¼ļ
åľ° åĮº
å¾Ĺ å¤ļ
å¦ ©åªļ
ä¾ ı
åĺ ī
å°±æĺ¯ ä¸Ģ
éĩį çĶŁ
Ġæľī æ²¡æľī
æİĮ å¿ĥ
è®° ä½ı
ç½Ĺ æĺİæµ·
ç§ĺ ä¹¦
Ġä»Ĭ æĻļ
ĠæľĪ å±±
ĠéĶ Ļ
æĺı è¿·
ĠåĤ »
´ åŃĲ
è ¥
ĸ ä¸įå°Ĭ
çļĦ å°¸ä½ĵ
å¼ §
ä¸º ä¹ĭ
æĦı æĸĻ
Ġä¹Ł ä¼ļ
æ°´ çļĦ
åħ¬ å¹³
ä¼ł æĿ¥äºĨ
çŀ ħ
äº¤ æĪĺ
å®ĺ åĳĺ
éħĴ åĲ§
éħĴ æĿ¯
åįķ çĭ¬
éĨ ĭ
ĠéĢ ¼
Ġè¢ ģ
Ġå¸Ī åĤħ
è¸ı åħ¥
ĠæĹ¶ èĢĮ
ĠåįĬ åħ½äºº
èİ· å¾Ĺ
Ġçľ¨ çľ¼
ģ è¿ŀ
å°± æŃ¤
éĤ£ åĩłä¸ª
åīĳ åħī
Ġå® ³
å¾Ģ åĲİ
Ġçİ°åľ¨ çļĦ
èĭ± ä¿Ĭ
è¿½ éĹ®
Ġå¹¶ éĿŀ
å©Ĩ å©Ĩ
éĹŃ ä¸ĬäºĨ
åŃĶ å¼©åĦ¿
Ġæļ Ĥ
ç«łèĬĤ çĽ®å½ķ
åĨ·ç¬ĳ ä¸Ģå£°
çıį è´µ
çİĭåĽ½ çļĦ
ä¼º åĢĻ
Ġç± ³
Ġ 7
äºĨ å¤ļå°ĳ
äºĨ ä¸įèµ·
è¿Ļ çŃī
ä½ł è¯´çļĦ
å°ı å¼º
èĦ Ĥ
Ġä¸Ģ åī¯
å¨ ²
çģµ æ´»
æĢª åħ½
æµ· æ´ĭ
å½¢ åĬ¿
æ²ī å£°éģĵ
çķĻ ä¸ĭäºĨ
å°Ķ é»ĺ
æĺ¾ ç¤º
è§Ĥ ä¼Ĺ
æ¢¦ æĿ¥
Ġæĺİ æĺİ
åĪĴ è¿ĩ
ç¼ĵç¼ĵ éģĵ
æĮĤ çĿĢ
å¿ł å¿ĥ
ĠçĻ »
Ġæ¯« ä¸į
å´ĩ æĭľ
æĥ© ç½ļ
äºĨ é¡¿
ä¼ ģ
åľ° éĩĮ
Ġä»ĸ å¿ĥä¸Ń
èĩª ä»İ
çľ¼ çľ¸
å¼º çĽĹ
Ġæĺ¯ åĽłä¸º
ç®Ĺ è®¡
ä¼ł åĩº
ĠçĶ ĺ
Ġåĳ ľ
éļı åį³
ĠåĨį è¯´äºĨ
æ¬¢ è¿İ
Ġè§ £
ç´« è¡Ģè½¯åīĳ
ĠæŃ¤ æ¬¡
Ġå± ŀ
å¾¡ åīĳ
æĻº æħ§
åħĶ åŃĲ
Ġç¡ ¬
ĠåĪĻ æĺ¯
Ġåĩ¡ æĺ¯
çĢ Ľ
çĭ¼çĭ Ī
ä¾ı åĦĴ
Ġ çļĩ
çļĦ çĶ·äºº
ä¸Ģ æĥ³
ä¸į å¤ļäºĨ
æ³ ł
Ġå°± è¿Ļæł·
åıĳ è§ī
é»ĳ å½±
åŁİ å¤ĸ
Ġæĥ ¨
åĬŁ åĬ³
æµ· ä¸Ń
Ġå¿ĥ æĥ³
åı° éĺ¶
åħĪå¤© çĶŁçģµ
åĸī åĴĻ
¸ ä¸ĺçİĭ
Ġ --
į åĲĪ
çļĦ èĬ±
ä¸į å°ıå¿ĥ
å¤§ åıĺ
çľĭ æ¸ħ
å°ı æīĭ
Ġå¤§ å¤ļ
åıĪ éģĵ
æ» Ķ
Ġåľ¨ éĤ£
ä¸ĩ ä»Ļ
åĨ· åĵ¼ä¸Ģå£°
æĹ© ä¸Ĭ
è¿ĺæľī ä¸Ģä¸ª
å¢¨ çŁ³
Ġéķ¿ è¢į
Ġé¾Ļ è¡Ģ
æ¬º éľľ
ä¹Į äºĳ
åº· å®ģ
çļĦ åľ¨
çļĦ ä¿¡
æľī ä¸įå°ĳ
å¤§ åĬĽ
åŃĲ éģĵ
è¯´ çļĦè¯Ŀ
ä¸ĭ ä½įç¥ŀ
ä¹ĭ éģĵ
Ġä¸Ģ çľĭ
ç»ı èĲ¥
Ġå°± è¢«
èĩªå·± æĺ¯
çĸ ļ
é£ŀ å¥Ķ
ä¸įèĥ½ åĨį
Ġè®© å¥¹
èĻļ å½±
è¿ĺæ²¡ è¯´å®Į
å±ĭ åŃĲ
éŀ ĺ
Ġå¸Ī åħĦ
çĿģå¼Ģ çľ¼çĿĽ
æľī è¶£
çĿĢ ä»ĸçļĦ
æģ ³
åĲĳ æĿ¥
éĥ Ń
åĨħ å®¹
ĠèĢģ æĿ¿
æĸĩ æĺĬ
åĻ ©
å¸ĥ æĸ¯
éĤ£ä¹Ī å®¹æĺĵ
éŃĶæĹı åħµ
ä¿®çĤ¼ çļĦ
å°¼ åħĭæĸ¯
çŀª äºĨ
èĵĿ çĽ¾
Ġèį ¯
çī¢ çī¢
æĳ© æĸ¯
çļĦ ç¬¬ä¸Ģ
åľ° æł·åŃĲ
ĠæĪĳ ä¹Łæĺ¯
ä¹ĭ çī©
å°ı å°ı
Ġåıª æĺ¯ä¸Ģ
åıª ä¼ļ
æĥĬ æĦķ
åħ¨ æĺ¯
äº¤ æĥħ
åĳ¨ æĺķ
èµ°äºĨ è¿ĽæĿ¥
éĴŁ åĴĮå°ļ
Ġ3 00
å¥ĩæĢª çļĦ
Ġæİ¥ ä¸ĭæĿ¥
åģĩ çļĦ
éº»çĥ¦ äºĨ
Ġæ¬ ²
å¥´ éļ¶
çİ» çĴĥ
Ġ P
çļĦ æĶ»åĩ»
ä¸Ģ åĽ¢
åĪ° äºĨä¸Ģ
è¯´ è¦ģ
è¯´ åĲ§
Ġè¿Ļ éĩĮçļĦ
Ġä½ł åĴĮ
æĹł æĦı
åĮ ¿
åĬ¨ çī©
çİ° èº«
å¹³ æ°ĳ
Ġæĭ Ľ
ĠæľĢ å°ĳ
ĠåŃ ©
èº² éĹª
çĬ¹è±« äºĨä¸Ģä¸ĭ
çºµ æ¨ª
ä»ħä»ħ æĺ¯
éŁ© å¥ķ
Ġé¥ ¶
çļĦ æľ¬
çļĦ èº«ä¸Ĭ
äºĨ è¿ĽæĿ¥
èº« ç©¿
æĥħ ç»ª
æ· ¬
æīĵ å¼ĢäºĨ
é£ŀ èĪŀ
åĽ½ åĨħ
è·¯ çļĦ
ä½¿ åĩº
Ġä¸Ģä¸ª äºº
çľī æ¯Ľ
æľª æĿ¥
å¿į ä½ı
æĦıæĢĿ æĺ¯
Ġ1 00
ĠéĿ¢ èī²
çŁ¿ èĦī
Ġæ¸ħ æī¬
èĬ¬ èİ±
çļĦ å¤ª
äºĨ è¿Ļä¸ª
ä¸ĭ å·´
å¤© å¢ĥ
çŁ¥éģĵ ä»ĸ
ä»İ å®¹
åĨĽ äºĭ
æŃ£ éĿ¢
ç®Ĺ ä»Ģä¹Ī
è¡Ģ è¿¹
å¤Ł äºĨ
å°ģ åį°
Ġæ¯Ķ èµ·
ç®Ń çŁ¢
Ġç¬¬äºĮ å¤©
è¯ļ çİĭ
Ġç´«å·Ŀ å®¶
éļ¾ä»¥ ç½®ä¿¡
è¿Ļ ä»¶
ä»ĸ ä¹Ł
ä¸º æŃ¢
å¥½ ä¸įå¥½
è° ľ
è¢« æĪĳ
æ°´ çģ«
Ġåı¯æĺ¯ å¥¹
è± ģ
éļı æīĭ
ä¹¦ ç±į
å¥¥ åı¤æĸ¯å¡Ķ
æ¯ı æ¬¡
æ¤ Ĵ
ĠæĹłè®º å¦Ĥä½ķ
Ġåĵ¥ åĵ¥
Ġç¨ ĭ
çĶŁæŃ» æ¯Ĵ
åŃ½ éŃĤ
åĴ§ åĺ´
\ \
çļĦ éĹ¨
Ġè¿Ļ ä¸¤ä¸ª
å¤© éģĵ
éĽ· è¯º
ĠéĤ£ è¾¹
ĠéĤ£ åı¯æĺ¯
ä¸ī ç«ł
èĭ Łå¿ĥå®¶
Ġå¯¹ ä»ĺ
Ġç« ł
æŃ¦ æľ¯
å¦ĸ çķĮ
æĲ Ĳ
åľ£ å§ĳ
ç«ŁçĦ¶ æĺ¯
èĹı åľ¨
æŁ¥ æİ¢
ä¼¸ åĩºæīĭ
éŀ ł
Ġç¬¬äºĮ æĽ´
èĪį ä¸įå¾Ĺ
å¹» å½±
ĠåĿĲ åľ¨
Ġè¯ĿéŁ³ æľªèĲ½
Ġ ä¸»äºº
Ġä½ł åĪ°åºķ
èĩ Ģ
çľĭ åľ¨
ĠåĲ Ł
é«ĺ æ·±
Ġå¥¹ æĺ¯
æĢİä¹Ī èĥ½
é©¬ ç»´
æľĪ çīĻåĦ¿
èĴĻ åŁİ
æĻ¶ éĴ»
Ġéĩĳ åĪļ
å²© çŁ³
Ġèµ· çłģ
Ġä¸ª ä¸ª
çĿĢ åĳ¢
åĲĮ çĽŁ
Ġçľĭ æł·åŃĲ
éĵ ²
åºĶ éģĵ
éĶĻ è¯¯
ä¿Ŀ å®ī
å°Ķ å°¼
å³ »
åį« åĨĽ
éĺ² å¤ĩ
è£Ĥ ç¼Ŀ
è½»è½» ä¸Ģ
ĠæĦ ¤
Ġç¬¬ä¸Ģ æĽ´
Ġæ¥ ļ
Ġåī© ä¸ĭçļĦ
å¤§ éĥ¨åĪĨ
åĪ° åĵªéĩĮ
è¿ĩ äºİ
å¤© åįĹ
åĲİ æŀľ
èĩª åĬ¨
ä¿ ŀå°ĳåį¿
çĤ¹ çĤ¹
æŀĹ çĪ·çĪ·
åįģ åĢį
åı£ è¢ĭ
æĺİ çıł
åĨĽ èĲ¥
èĢĮ åıĪ
é£İ å£°
æĥĬ æħĮ
æľĢ å¤ļ
æĹ¥ çļĦ
Ġä»ĸä»¬ éĥ½
æĭī ä½ıäºĨ
æĪ¿ ä¸Ń
ĠéĢ ı
Ġè¿ Ĳ
åĿı äºº
éŁ µ
é¹ ħ
åŃĻ åŃĲ
å¿ł è¯ļ
ĠéĤ ª
åħĢ æľ¯
Ġ ä¹ħ
äºĨ åĩłä¸ª
è¯ Ľ
ä¼ °
Ġ? âĢľ
å¤© åºŃ
ä¹ĭ éĻħ
åį´ æĺ¯ä¸Ģ
ĠæŃ ¥
Ġæ² ¿
æł¹ æį®
Ġè´ ¹
å¤« å¦»
Ġéĺ µ
ç£ ĭ
ç¼ĵç¼ĵ çļĦ
Ġå¤ļ åįĬ
ç¢° æĴŀ
åķ¸ å¤©
è·ŁæĪĳ è¯´
éĴ° éĩįåīĳ
çĿĢ å®ŀ
Ġåı Ĥ
è¦ģ å®³
æīĭ ä¸ĬçļĦ
æ°Ķ åīĳ
æĹł ä¸Ģ
æĬĬ åīĳ
åıĪ è¦ģ
æĢ¥ äºĨ
åĪĢ åŃĲ
æıĲ ä¾Ľ
å°½ æķ°
éĹŃ ä¸Ĭ
äºĨä¸¤ ä¸ĭ
éĥ¡ ä¸»
å®£ å¸ĥ
å§¿ åĬ¿
ľ èķ¾
çļĦ å¼ºèĢħ
åľ¨ ä»ĸä»¬
å¿ ĳ
å¿ĥ äºĨ
é¢ ĳ
åĩł åı¥è¯Ŀ
æĻļ äºĨ
é£ŀ å¿«çļĦ
ç§Ģ åŃĹèĲ¥
åħ« éģĵ
å·¨ é¾Ļ
æĬ± ä½ı
Ġé©¬ ç»´
æĮĳ è¡ħ
ĠéĿŀ éĿŀ
Ġç¬¬ä¸ĥ çĻ¾
Ī ä¸īå¨ĺ
Ĳ å¿ĳ
Ġç ı
éĹ º
Ġä½ł è§īå¾Ĺ
è¿ĺ æľª
éĺ İ
è´ ©
Ġåı¯ ä¸įæĺ¯
åı£ çļĦ
çİ° åĩº
Ġæĺ Ĩ
å±± æ´ŀ
èĢĮ æĺĵ
çķ ľ
åĪĨ æŀĲ
ç² ¹
ç»Ŀ æĭĽ
å¾· æĸ¯é»İ
Ġæĥ³ æĥ³
ç³» ç»Ł
è®² ç©¶
ĠéĶ ħ
ç´¯ äºĨ
âĢĶâĢĶâĢĶâĢĶâĢĶâĢĶâĢĶâĢĶ âĢĶâĢĶâĢĶâĢĶâĢĶâĢĶâĢĶâĢĶ
éĻĮ çĶŁ
ä» įçĦ¶
æĺ¯ éĿŀå¸¸
åĩ ³
æĪĳ éĥ½
å¿ĥ ä¸Ĭ
å®¶ ä¸»
å§ ¥
ä¸¤ éģĵ
Ġä¸Ģ å¼ł
åģļ ä¸ª
å®ĺ åħµ
å¦ĤæŃ¤ çļĦ
ç»Ł æ²»
èĴĻ èĴĻ
å·¦ å®¶ä¿Ĭ
èº² éģ¿
æ¡Į åŃĲä¸Ĭ
éĻª çĿĢ
èĻ½ æĺ¯
æīĢæľīäºº éĥ½
Ġåģ¶ å°Ķ
ä½ł ä¸Ģ
ä¹Ł æĥ³
å°± å¥½äºĨ
æīĭ æīĵ
è½ ´
æŃ» æŃ»
èĬ Ŀ
å¸Ī å§Ĳ
ä»Ĭ æĻļ
å¹³ å®ī
æ·¡ ç¬ĳéģĵ
çĤ¼ ä½ĵ
åħ´ èĩ´
ĠåĽĽ ä¸ª
ĠæĿ¥ äºº
æĬ½ æĲĲ
çĶ° éľĩ
éļĨ éļĨ
éĥİ åĲĽ
éĹªçĥģ çĿĢ
äºĨ åĽŀåİ»
åı Ń
Ġç ĺ
åľ¨ ä¹İ
å¯ ¥
æĪ ļ
æĹł å¸¸
Ġæĺ ĵ
å°Ĩ åħ¶
æĦŁ åıĹåĪ°
åħ¥ éĹ¨
ä»ĸçļĦ è¯Ŀ
å®Ŀ åīĳ
åıĮ çĽ®
Ġç«Ł æĺ¯
æ¥¼ ä¸Ĭ
æ³¢ é¡¿
æĬµ è¾¾
Ġå®ĥ ä»¬
ç«¥ çİĩ
çļĦæĥħåĨµ ä¸ĭ
å©ī çĽĪ
è¯´ä¸įåĩº çļĦ
èĲĿ åįľ
æľ¦ èĥ§
Ġå° ¸
æł Ī
åĴĮ å¤§
ç¥ŀ åľ£
èĢģ åħ¬
Ġåı¯ è§ģ
åĮ ł
Ġåĵ Ń
Ġéļ Ķ
ĠçĶ »
Ġä½łä»¬ ä¸¤ä¸ª
Ġçľ¼ è§ģ
ĠæľĢ å¥½
å®Ī æĬ¤
ä¸ĵ ä¸ļ
ĠæŃ» äº¡
åĩĮ åİī
Ġä¿ º
æ³Ľ èµ·
Ġä¼Ĭ æĽ¼çº½å°Ķ
Ġæ º
ä¸į è¯´è¯Ŀ
æľī å¾Īå¤ļ
å¤§ æłĳ
æĢ ł
åĪ° æŀģ
Ġä¸į åĪ°
ä¸¤ äººçļĦ
æĹł è¾ľ
Ġå°± å·²ç»ı
æīį åıĳçİ°
æīĢ æľª
ĠæŀĹæĻļèį£ ç¬ĳéģĵ
å¾Ģ ä¸Ĭ
ä½İ å£°éģĵ
æİī çļĦ
åıªæĺ¯ ä¸Ģä¸ª
Ġåĵª ä¸ª
Ġå¥¥ åĬłæĸĩ
Ġåħ¬ ä¸»
æľ¬æĿ¥ å°±
é£Ł çī©
Ġå¾® èĩ£
åŁ¹ åħ»
Ġæ¬¢ è¿İ
ä¸į æĹ¶
åľ ¾
å°± å¾Ĺ
è¯´ äºĨä¸Ģåı¥
å¾Ĺ å¥½
åĲİ æľŁ
å¤ļ å¤§
èĢģ åĽĽ
çŁ¥éģĵ è¿Ļ
ĠåĲ ¸
Ġåľ¨ æĪĳ
Ġåľ¨ è¿Ļä¸ª
çª ¿
å¸¦ çĿĢä¸Ģ
çŀ Ħ
èĲ½ çļĦ
å¡ «
Ġéĺ ²
å±ŀ æĢ§
ĠæĢ» æĺ¯
æŁĲ ç§į
éĥ¡ åŁİ
ĠåŁº æľ¬
ĥ åľ¾
Ħ ç½Ĺæĸ¯
æĺ¯ å¥½
ä¸į çĽ¸ä¿¡
å¿ Ĵ
å¸ ½
Ġä½ł çľŁçļĦ
çİ° ä»£
çŃī æĪĳ
Ġå¼ Ĺ
ç®¡ çĲĨ
éģ¥ éģ¥
æľīä¸Ģ å¤©
å½Ĵ æĿ¥
èħ¾ ç©º
ĠæĢĢ æľĶ
2 0
çļĦ åĽŀçŃĶ
çļĦ åĬ¨ä½ľ
ä¸į èįī
äºº æĿ¥
Ġé ¹
æľī æķ°
çľĭ ä¸į
åĳ »
åĲİ éĿ¢çļĦ
ä¸¤ åįĥ
ä¸» æĮģ
Ġå°ı èĻİ
çŃī çº§
å¿« è¦ģ
Ġå¸ ķ
æŀģ å¿«
è¡¨ æ¼Ķ
åĺ´ ä¸Ĭ
Ġèī ¯
å±Ĥ çļĦ
å¤ľ éĩĮ
åĹ ·
åıĬ æĹ¶
å¼Ģå§ĭ äºĨ
çĪ± çļĦ
è¿½ æ±Ĥ
Ġæīį ä¼ļ
ä¹Łæ²¡ æĥ³åĪ°
ä¸Ŀæ¯« æ²¡æľī
æĹĹ å¸ľ
Ġç½Ĺ æĺİæµ·
æ±ĩ èģļ
Ġæµ· å»·æĸ¯
Ġè¾¾ åĪ°
ĠåĹ¤ åĹ¤
ä¾® è¾±
çļĦ æĬĬ
ä½ł è¯´
å¤§ çĪ·
å¦ Ĵ
ä¹ĭ åĬ¿
æīĭ äºĨ
æīĭ èĦļ
éĿ¢ çĽ®
Ġä½Ĩ åľ¨
å°ĳ äºĨ
è½» åĵį
Ġçİ ¯
åıĺ å¹»
Ġä¸įè¿ĩ æĺ¯
Ġæ²¡ äºº
æĭī åĩ¯
çĶµ èĦĳ
Ġåĭ īå¼º
ĠæŃ¤ äºĭ
ãĢĤ âĢĿ
ĠåĹ ¡
ĠåĬ Ł
åŁº ç¡Ģ
åħ¬åı¸ çļĦ
ĠæĦŁ è°¢
ä»ĭ æĦı
çŁĽ çĽ¾
Ġé»Ľ èĬĻå¦®
çļĦ åīį
åĮ Ļ
æĺİ åįİ
Ġæ² ³
å¸® ä»ĸ
çķĻ æĥħ
æĹģ çļĦ
ä¸įæķ¢ çĽ¸ä¿¡
éĻ¢ åŃĲ
ç§° ä¸º
æ½ ĺ
åĨĴ åĩº
Ġé¢ Ŀ
é¢¤æĬĸ çĿĢ
Ġä¹Łå°±æĺ¯ è¯´
Ġåĸľ æ¬¢
Ġè¯º è¯º
å¥İ æģ©
å¤ ķ
ä¸į æľį
å¤§ åĲ¼
.... ....
å¤© åĬ«
å¾Ĺ èµ·
ĠéĤ£ å°ı
è´ ¸
ç¥ŀ çº§å¼ºèĢħ
èµ° è¿ĩåİ»
æ°´ éķľ
åĥı ä¸ª
ç©º ç©º
æĢ¥ æĢ¥
ç»Ŀ ä¸įä¼ļ
éľĩ å¾Ĺ
è¯Ń è¨Ģ
éĤ£äºĽ äºº
ĠçĻ½ åŁİ
æ¯ı ä¸ª
å°Ĭ æķ¬
çŃĶåºĶ äºĨ
æĪ¿éĹ´ éĩĮ
æĬĢ æľ¯
èı± æĻ¶éĴ»
çļĦ å¨ģåĬĽ
ä¸Ģ æľ¬
æĺ¯ æĪĳçļĦ
ä½ ĳ
æĿ Ń
çľĭ æĪĳ
ĠéĤ£ åı¯
åıĳ èªĵ
Ġè¯´ åĪ°
èĲ½ ä¸ĭæĿ¥
ĠæĬ ķ
å¤§äºº æĤ¨
é¡¶ ä¸Ĭ
Ġç§¦ éĶ¥
åĨĴ éĻ©
Ġèİ ½
æµ© å¤©
Ġæļ ´
æĤł æĤł
Ġéľ² åĩº
æīĵéĩı çĿĢ
ä¸Ģ çŀ¬éĹ´
ĠæĪĳ çľŁçļĦ
Ġä½ł å°ıåŃĲ
éĤ£ å°ı
è¡ ¬
ç¥ Ł
è§ģ ä½ł
èĪ ±
æľ¬ èĥ½
Ġå½ ©
æĶ¾ åĩº
ä¼¼ æĺ¯
å®ī éĻĽä¸ĭ
æĢ» è£ģ
Ġèĭ Łå¿ĥå®¶
Ġä¸Ģä¸ª æĺ¯
èĦī åĬ¨
ĠæĽ´ åĬł
çĦ ļ
ç´«å·Ŀç§Ģ çļĦ
ĠèĬ± åīĳåĨ°
Ġä¸İ æŃ¤åĲĮæĹ¶
ĠåĲĦ ç§į
ç®± åŃĲ
ä¸į è®©
Ġé Ĩ
åľ¨ éĩĮéĿ¢
å¤§ ç¬ĳéģĵ
Ġä½ł èĭ¥
ĠéĤ£ æł·
å¯¹ æĪĳä»¬
Ġä¸Ģ çŀ¬éĹ´
åįģ åŃĹ
æīį å¥½
èĤ ¿
Ġä¹Ł ç®Ĺæĺ¯
éĶ £
æ¯Ķ ä¸įä¸Ĭ
æĥĬ å¥ĩ
çł ļ
ä¿® ç»ĥ
åĢĴ äºĨ
ä¼Ĺ ç¥ŀå¢ĵåľ°
è½¦ åŃĲ
çł´ çĥĤ
ĠéĽ ħ
æł¼ åĬª
åħ¬åŃĲ çĲ®
Ġæ¯ı ä¸ª
ç«ĭåĪ» å°±
Ġè°¢è°¢ ä½ł
ä¹ĭç±» çļĦ
æ¤ħåŃĲ ä¸Ĭ
Ġæĭĵ æĸľ
æł¼åĬª æĸ¯
çļĦ é¾Ļ
ä¸Ģ æŁĦ
ä¸Ģ æī«
äºº ä¹ĭ
åľ¨ ä¸Ĭ
å¿ Ĳå¿ĳ
æĸ ¼
è¿ĺ ä»¥ä¸º
æĥ³ èµ·æĿ¥
éĹ® äºĨ
äºĶ åĵ¥
åĨ² çªģ
åĵį èµ·äºĨ
Ġè° ĥ
æĶ¶ åĽŀ
æĺŁ åŃĲ
Ġæ¯ı ä¸Ģä¸ª
è°Ī åĪ¤
Ġæ³ °
Ġçĭ Ĺ
çĭłçĭł åľ°
çªŁ çª¿
Ġæ¼ «
ä¸į å¹³
æī ³
ä»ĸ å°±
ç¬ĳ çľ¯çľ¯
å¯¹ èĩªå·±çļĦ
æĹł è¾¹
èĥ ĥ
å½ĵ æĹ¥
Ġæľī æĹ¶åĢĻ
Ġè° Ī
é¦Ļ æ¸¯
æĻ¯ è±¡
Ġå¼Ģ åı£
åħīæĺİ çİĭ
Ġä¼ļ ä¸įä¼ļ
Ġ!! !
ĠæŁĶ å£°éģĵ
æ±¹ æ¶Į
çļĦ éĥ½æĺ¯
äºº æĺ¯
ä¹Ł åıªæľī
èµ ł
å¤© éŁ³
Ġä¸Ģ æ¬¡
æĹł è¸ª
äºĮ ç«ł
å¼º äºĨ
Ġä¸įè¿ĩ çİ°åľ¨
æĢ¥ çĿĢ
æĢ¥ åĪĩ
åĸľ æĤ¦
å¤± è¸ª
æĶ¶ èİ·
ä¸įä½ı çļĦ
è®¡ è¾ĥ
èĴĻ çī¹
Ġåıªè§ģ éĤ£
çĸ¯ åŃĲ
èİ« è¦ģ
ç»ķ çĿĢ
Ġéĥ ¨
åĶ¯ä¸Ģ çļĦ
ĠæĲ ŀ
Ġæĸ½ å±ķ
Ġ ä¸´
ä¸Ģ è¯´
ä¸į ç¨³
åŃ £
ĠæĪĳ å¯¹
å¥½ æĦŁ
åı¯ è¦ģ
ä¸¤ å¤§
Ġä¸Ģ æīĭ
Ġä¸Ģ åŃĹ
çĶŁ åŃĺ
Ġå°± åı¯ä»¥
çī¹ æĦı
åĢĴ ä¹Ł
ä½ľ åĵį
ä¼¤ çļĦ
å¦ĸ å¡Ķ
åŀ ĥåľ¾
çļĦå£°éŁ³ åĵįèµ·
æĿ¿ ä¸Ĭ
éĢı è¿ĩ
è°Ī è¯Ŀ
ĠæĢ» ç®Ĺ
å±Ģ éĿ¢
ç»¿ èī²
çĸ¯çĭĤ çļĦ
ä¸Ģåıª æīĭ
æĦĪ åĬł
æĴķ è£Ĥ
Ġæ°¸ è¿ľ
ª æĢĿ
çļĦ è·¯
çļĦ èĦĳè¢ĭ
Ġæ ¹
ä½ł åľ¨
å¾Ĺ å¤ª
åİ» çľĭ
éĽ· é¸£
è¾ Ł
è´ ¾
Ġä¸Ģ ä¼ļ
è¢« ä½ł
åħī ä¸ĢéĹª
æīĢ è¯´
åıĺ çļĦ
è¿Ļä¹Ī å¿«
å¹³ å¸¸
èĮ ľèķ¾
æĸ° éĹ»
å·® è·Ŀ
åıĳçĶŁ äºĨä»Ģä¹Ī
æ¾ ¡
Ġè¶³ è¶³
ç° ĩ
Ġæ·¡æ·¡ éģĵ
åľ° ä¸ĬçļĦ
ä¸º èĩªå·±
é¾Ļ å±±
åı« ä¸Ģå£°
ä¼ł æĿ¥çļĦ
éĢļ äºĨ
éļ¾ åº¦
Ġä»ĸä»¬ æĺ¯
ĠèĢģ é«ĺ
ä¸ĥ ä¸ª
å© ¿
æ´» äºĨ
éħĴ æ¥¼
åľ£ è¡Ģ
çĨ Ļ
ä¸įå¾Ĺ äºĨ
éĢĥ çªľ
çĮĽ åľ°ä¸Ģ
ĠæĶ ¹
æī¿ è¯º
ç´«å·Ŀ åıĤæĺŁ
æĢİ èĥ½
Ġ... âĢĿ
è¾£ æ¤Ĵ
æİı åĩº
ĠçĬ¹ å¦Ĥ
çļ±çĿĢ çľīå¤´
ĠéĶħ éĶħ
ªæĢĿ éĽ¨
ä¸ ĪçļĦ
ĠæĪĳ å½ĵçĦ¶
Ġè¿Ļ ä¸ľè¥¿
å£° éĹ®éģĵ
åĲİ å¤©
åĢ ¦
æīį æľī
Ġä½Ĩ è¿Ļ
æĤ ļ
äºĶ ç«ł
è¿Ļä¹Ī ä¸ª
åŃ¦ çļĦ
Ġåħ¶ ä½Ļ
å½¢ çļĦ
Ġå°Ĩ ä»ĸ
ĠæľĢ å¤ļ
åĩºä¸Ģ éģĵ
Ġè· ³
Ġåıį åĢĴ
éĺ¿ èĽĭ
æ²» çĸĹ
ĠæĹ¢çĦ¶ ä½ł
ä¸ĵ å®¶
å®ĭ èĸĩåħ°
éŃĶåħ½ å±±èĦī
Ġé¡¾ å°ıåĨĽ
å®¢æ°Ķ äºĨ
ä¸ĥåħ« ç³Ł
Ġé¡º ä¾¿
Ä ģ
åľ¨ äºĨä¸Ģèµ·
Ġä»ĸ å¿½çĦ¶
æīĵ åĲ¬
å°Ĩ å¥¹
ĠæĹ ±éŃĥ
æı £
äºĶ çĻ¾
Ġåį´ è¿ĺæĺ¯
è®¡ ç®Ĺ
Ġä»Ģä¹Ī æĹ¶åĢĻ
æł¹æľ¬ æĹłæ³ķ
æģ© æĢ¨
éĢł æĪĲ
èģĶ åĲĪ
æĬĺ ç£¨
éģŃ åĪ°
Ġå·¨ å¤§çļĦ
Ġé¼ »
èĢ½ è¯¯
Ġèļ ©æ¯Ľçºł
çļĦ åĨĽéĺŁ
åľ¨ ä»ĸçļĦ
åĨ ¶
Ġè¿Ļ åº§
å¾Ĺ é¾Ļ
Ġä»ĸ è¿Ļ
ä¸¤ çĻ¾
Ġæĺ¯ ä¸ª
åĽĽ ç«ł
çº¢ éľŀ
Ġå¦Ĥæŀľ ä»ĸ
æ·± åĲ¸
æ¢ °
æ·· èĽĭ
Ġå¹¶ ä¸įæĺ¯
ĠæĿĢ æŃ»
èģĬ å¤©
åĴ¬çīĻ åĪĩé½¿
ĠæľĿ çĿĢ
åĸĩ åıŃ
å¤¸ å¼ł
Ġå¼Ł åŃĲ
èĶĵ å»¶
¥ åĮĻ
æľī ä¸ī
åĬĽ éģĵ
æĸ¹ éĿ¢çļĦ
Ġå¤§ éķ¿èĢģ
å¿« æįķ
æŀģ åĵģ
æł¹ åŁº
æĽ ¦
åĬŀ äºĭ
ä¹ħ äºĨ
åĪ¶ çļĦ
è¾¾ æ±Ĺ
Ġèº« ä¸º
æĬ¥ çº¸
ĠèĦ¸ ä¸ĬçļĦ
Ġä½łè¿Ļ æĺ¯
èŀį åħ¥
çİĩ é¢Ĩ
åı¦ ä¸Ģä¸ª
å³¨çľī å±±
ä¸į ä»ħ
å· ¢
åľ° å¯¹
æĪĳ å¤§åįİ
Ġä»ĸ çªģçĦ¶
å£° åĵįèµ·
ç¬ĳ åĳµåĳµ
èĢĮ çŁ¥
èĢĮ èĩ³
æŃ£ èī²éģĵ
å½ĵ äºĨ
è¿Ļä¸ª å°ı
äº² åĪĩ
ä½ķ å¿ħ
é£ŀ åįĩ
Ġæ²¡ éĶĻ
Ġéļı æīĭ
Ġäºº ä»¬
å£«åħµ ä»¬
Ġè¡¨ æĥħ
åģ¶ å°Ķ
è°¦ èĻļ
Ġ è¿ĩåİ»
æĺ¯ èĩªå·±
æĺ¯ çľŁ
ç» ·
å¤§ ç©º
åĩº ä»Ģä¹Ī
éĿ¢ å®¹
Ġä¸Ģ çľ¼
æĹł ä¸į
éķ¿ å¤§
ĠèĢĮ è¿Ļ
åĥ »
éĩį è§Ĩ
æ® ·
èĽ ¤
å¤± èī²
éĽª è§ģ
åĪ¶ æľį
ĠåĴĮ å°ļ
éĿł çĿĢ
Ġåº Ł
å®Įåħ¨ åı¯ä»¥
æĻ® æĭī
åłĤ åłĤ
Ġè¿ĻéĩĮ æĺ¯
æħķ æħķ
ä¼ĺ ç§Ģ
åĸĥåĸĥ èĩªè¯Ń
çº¢è¡£ æĹĹæľ¬
ä¸Ģ æ®µ
Ġç Ĵ
ĠæĪĳ ä¸İ
å°± å°Ĩ
å°± è·ĳ
éĥ½ ç»Ļ
æ°Ķ è´¨
Ġå°± è§ģ
çŁ¥éģĵ èĩªå·±
çľŁ çĽ¸
Ġä¹Ł åıªèĥ½
ä¸» ä»»
åĺ ĺ
ç¼ ¸
åĲį å£°
åı¶ è´Ŀå®«
Ġä½Ĩæĺ¯ åľ¨
æ»¡ è¶³
éĿŀ åĲĮ
Ġç« ¯
çī© åĵģ
åıĹ ä¸įäºĨ
åī¯ ç»Łé¢Ĩ
Ġåįģ äºĮ
ä¸īåįģ åħŃ
Ġæ´Ľ è¿ľ
Ġè¿Ļä½į æĺ¯
Ġéª ¨
å¢ŀ æı´
Ġå·´ å°Ķåħĭ
çļĦæĥħ å½¢
Ġåı¹ éģĵ
ä¸į èĢĲçĥ¦
ä½ł åĴĮ
åľ° å¾Ī
Ġè¿Ļ æĿ¡
Ġä½ł åĨį
Ġä¸į å°±æĺ¯
åı¯ æ²¡
ĠæŀĹ å¤§åĵ¥
äºĨä¸Ģ æĢĶ
åĸ »
è¿Ľ æĿ¥çļĦ
å¤ĸ éĿ¢çļĦ
æ°´ æĻ¶
å¤Ħ ç½®
ä¹Łä¸į çŁ¥
Ġå¥½ æ±ī
Ġéĺ ³
åĪĩ ç£ĭ
æĵ Ĥ
ç»´ æĮģ
éĩİ äºº
ç¤º æĦı
ĠåĿ ı
Ġè½¬ å¤´
ĠåĪĨ æĺİ
ĠåĨĽ å®ĺ
Ġåı² ç¦ģ
ä»į æĺ¯
å·¡ éĢ»
å¬ ´
ä½£ åħµ
Ġæ¨ ª
Ġç¤ º
Ġæħķ æħķ
ĠèĢģçĪ· åŃĲ
çļĦ ç¬ĳ
ä¸į åĩ¡
å® µ
åľ¨ æĥ³
å¤§ åĸĬ
çĤ Ĵ
ä»İ å¤©
èĢĮ æĪĲ
èĢĮ ç«ĭ
æ± ģ
åĲ¬ çļĦ
ä½ĵ çļĦ
æĥĬ åıĪ
çļĦä¸Ģ çīĩ
åĮĸ å¢ĥ
æĸĩ åĮĸ
è®° èĢħ
æıĲ è®®
èĮ ħ
æ¯Ĵ çļĦ
å¨ģ é£İ
åĪº æĿĢ
å¤ļå°ĳ æľīäºĽ
æł¹æľ¬ ä¸į
å°±ä¸į çĶ¨
åĵ¼ äºĨå£°
èº² åľ¨
è¿· æĥĳ
Ġéª Ĩ
è®¾ è®¡
æĬ¬èµ· å¤´
çĽĴ åŃĲ
Ġå¿½ åľ°
åĽŀè¿ĩ ç¥ŀæĿ¥
èĢĮæĺĵ ä¸¾
æ ©
ä¸Ģ æĶ¯
ä½ł åĳ¢
çĭ Ń
ĠåĲ Ī
èĢĮ æĿ¥çļĦ
äºĶ äºº
å¿« çĤ¹
äº² è¿ĳ
çº¢ æĻķ
åĲĥ äºı
ç´§ æĢ¥
æ´¾ åĩº
Ġè¿ Ł
æı¡ çĿĢ
Ġæ´Ľ æķı
Ġè¾ ¹
Ġä¼¼ æĺ¯
å¤§å¤ļ æķ°
ĠæĶ¾å¿ĥ åĲ§
èĴĤ åĨ
Ġ 9
ä¸į å¿į
åľ° æīĭ
ĠæĪĳ çŃī
ĠæĪĳ ä»Ĭå¤©
ĠæĪĳ ä¹Łä¸įçŁ¥éģĵ
æĪ ³
èĪ ħ
åĲ¬ åĲ¬
å¸Ī çļĦ
æľĢ å°ĳ
é£ŀ éŃĦ
ç¬¬ åĽĽ
åĲĪ ä¸Ģ
éĽª éĽģ
èĮ Ĥ
å®¢ æĪ·
Ġè¯· ä½ł
Ġå¿« çĤ¹
Ġè®¸ æĢ»
ĠåĽŀ åİ»
è½° é¸£
çģ¯ åħī
èŁ Ĩ
ĠçĿ ¡
åı¬ åĶ¤
åĩ¤ åĩ°
å®´ ä¼ļ
é¸¿ å¾·
Ġæģ¨ ä¸įå¾Ĺ
a n
ä¸Ģ æĮ¥æīĭ
ä¸į éŁ¦
Ġä½ł ä¼ļ
å¯ ħ
éĥ½ æĹłæ³ķ
ĠéĤ£ æĹ¶
åĨĽ äºº
Ġæī Ń
é»ĳ è¢į
ĠæŀĹæĻļèį£ æĢ¥å¿Ļ
å¿« æ´»
ĠéĻ ¡çĦ¶
ĠåĤħæ¸ħæī¬ çľĭåĪ°
Ġéĥ½ è¦ģ
ä¸ĥ ç«ł
æĸĩ ç¥¥
å¹² äºĨ
å¤± äºĨ
æ£ ĺ
ĠæĹł å£°
éĢĢ äºĨ
Ġåº ľ
æĮ¡ ä½ı
ä¸įçĶ± èĩª
Ġé¢ ĩ
Ġç¦ ı
ç¾İä¸½ çļĦ
Ġå°ģ åĨµ
ä¿ĺ èĻı
çļĦ å¦ĸ
Ġç Ħ
ä¸Ĭ åľ°
Ġä»ĸ è¿ĺæĺ¯
å± İ
ç¥ŀ åīĳ
çĶŁ çĶŁçļĦ
èĥ Ģ
çĶ¨ å¤Ħ
è®© ä½łä»¬
ĠèĢĮ éĤ£
çģ« çĥ§
èĬ± åĽŃ
çł´ ç»½
éĤ »
åĮĹ æĸ¹
å»º ç«ĭ
åī§ çĹĽ
æ¼« å¤©
ä¼łè¯´ ä¸Ń
ä»ª å¼ı
é»¯ æ·¡
ĠèĹ ı
äºĨ ä»ĸä»¬
åĩ ¸
è¿ĺ æķ¢
éĩĮ å¥İæģ©
Ġä¸į æĸĻ
ä¸ī åĳ³
çĸ ¤
Ġè¯´ å®ŀè¯Ŀ
çļĦä¸Ģ çĤ¹
äº¤ æĺĵ
èĭ¥ æľīæīĢæĢĿ
éļĲ èĢħ
å°Ķ èĴĻ
å¯Ĩ çļĦ
Ġä¼ ´
ĠäºĮ åĤ»
ĠåĬ ¿
è¿Ĳ è½¬
æ±Ĺ æ°´
Ġæīĭ æĮĩ
åĢŁ åı£
Ġæĺ¾ å¾Ĺ
Ġä¸ĥ åħ«
åĥµ ç¡¬
Ġå²Ĥ ä¸įæĺ¯
Ġé»ĺ é»ĺ
ä¸Ģ èĲ½
ä¸į èĪį
åľ¨ æľĢ
ä¸Ĭ å¤©
ĠæĪĳ è·Ł
å°± è¿Ļæł·
Ġä»ĸ åıªæĺ¯
å½ ¼
ä»Ģä¹Ī åĳ¢
ä¸» åĬĽ
çģ« çļĦ
æŃ¥ èĻļ
èĬ± æľ¨åħ°
ĠåĤħæ¸ħæī¬ è§īå¾Ĺ
åħ« çº§
åĨ² éĶĭ
ç´« éĩĳ
åĿĹ éĴ±
åĩºä¸Ģ åī¯
çĥŃ çļĦ
ĠæĦ ¿
Ġæĺİ çĻ½
æŁĶ åĴĮ
Ġæ» ´
å¯Į è±ª
çº³ å¾·
ä¾į èĢħ
çļĦ å°Ĩ
ä¸Ģ æĹ¶éĹ´
çľ ©
Ġåı ®
Ġä½ł èĩªå·±
éĽ· æĸ¯æĻ¶
Ġä¸Ģ ç¾¤
çĶŁ æľº
åĿ Ł
è½» ç¬ĳ
æĿĢ æľº
ĠæĪĳä»¬ è¦ģ
çİĭ åħ«
ĠæĬ ¢
æ¼ ĵ
çľĭçĿĢ ä»ĸ
çĶ· åŃ©
æķĻ ä¸»
åĩłä¸ª æľĪ
åįł äºĨ
æłĩ åĩĨ
ä¸Ĭåīį åİ»
Ġç¼ĵç¼ĵ éģĵ
æµģé£İ å®¶
Ġåħīæĺİ çİĭ
éľ¸ éģĵ
è½¬è¿ĩ èº«æĿ¥
çļĦ é©¬
ä¸Ģ æ²ī
ä¸į ä¼ĳ
è¿Ļ ä¸ľè¥¿
è¿Ļ åĿĹ
åŃĲ å¼¹
Ġè¿Ļ åı¥è¯Ŀ
æĬ ¿
ç¬ĳ åĺ»åĺ»
èī ĺ
çŀ ĳ
éĶĻ æĭ³
çķĮ çļĦ
è¿Ļä¸Ģ åĪĩ
éĿĻ çļĦ
æĺ¾ çĦ¶æĺ¯
è·³ èµ·æĿ¥
èĻļ è§Ĥ
èĸĩ èĸĩ
æĶ¯ æĴĳ
ä¸įåĲĮ çļĦ
æĢĶ äºĨä¸ĢæĢĶ
èļ Ĥ
èµŀ åı¹
æīŃ å¤´
Ġæı ¡
ç²® é£Ł
çİ©æĦı åĦ¿
ç¿ħ èĨĢ
çģ¿ çĥĤ
ä¸į è¿ľ
ä¸į åĪ©
ä»ĸ èĩªå·±
éģĵ æŃī
ĠæĪĳ çĽ¸ä¿¡
Ġåħ į
ä¸ľ æĪĲ
å½ĵ çľŁ
éª ı
çĻ¾ éĩĮ
ä¿¡ ä»°
è½¬ ç§»
ä¹Ŀ ç«ł
æĺ¯ä¸Ģ ä»¶
è¨Ģ è¯Ń
å¤§äºº çī©
éľĩ é¢¤
æ¸© æħ§
Ġéļı æĹ¶
æĪĲäºĨ ä¸Ģä¸ª
åįĹ çĶ°
çıł åŃĲ
ĠæĶ ¯
æ¨¡ ä¸Ģæł·
åĿļ ç¡¬
çº¦ å®ļ
ç»Ŀå¯¹ æĺ¯
èļ Ģ
æĤ² åĵĢ
ĠæĪĳçŁ¥éģĵ ä½ł
æģŃæķ¬ æķ¬
æĪĪ æ°ĳè¾ī
ĠåŁº æģ©
ĠçĶ° éľĩ
æıı è¿°
Ġè¯ļ çİĭ
ä¸Ģ æĬ¹
åİ Ħ
Ġè¿Ļ ä¸į
å¤© å¤§çļĦ
æ°Ķ äºĨ
è¢« è¿Ļ
ĠåĪ ©
Ġåľ¨ è¿ĻéĩĮ
çª ¥
Ġå® ¢
ä¼ł æİĪ
æĢª æĪĳ
ç«Ł æĺ¯
æĺ¯ä¸Ģ åĲį
å¾Īå¤ļ äºº
æŀĹæĻļèį£ ä¸Ģçľ¼
ä»»ä½ķ äºº
åıĽ ä¹±
åĲķ å¤ªå²©
Ġå°ıè¯´ å¿«æįķ
Ġå¡Ķ ç½Ĺæ²Ļ
åĳ» åĲŁ
çļĦ èĤ©èĨĢ
ä¹ į
åŃĲ äºĨ
å°± è¶Ĭ
Ġä¸Ģ èº«
æģ į
åĩł ä¸ĭ
Ġæĺ¯ è°ģ
Ġæĸ Ĺ
åŁİ ä¸»
ä¹Łæĺ¯ ä¸ª
Ġèµ «
éĹª åĬ¨
ç½Ĺ æĿ°
éĢįéģ¥ æ´¾
æº ª
åı¸ ä»¤
çģµéŃĤ éĺ²å¾¡
çŀª çĿĢ
æ³° åĴĮ
çļĦè¯´ æ³ķ
ä¾ĭ å¤ĸ
æ·±æ¸Ĭ åĪĢéŃĶ
Ġ éģĩåĪ°
ç» ĺ
å· į
ä¸Ĭ æľī
åĨ ī
å¯¹ éĿ¢çļĦ
åıª æīĭ
æīĢ çŁ¥
å®Į æķ´
åĢĴ åľ¨
æ·¡ çĦ¶
Ġé»ĳ èī²
åı¸ å¾Ĵ
æĦ£ ä½ıäºĨ
ĠçĪ ·
è¹ Ļ
è¯º è¯º
æľĢåĲİ çļĦ
Ġèĥ¡ å¤§åĵ¥
== ==
Ġ ä¸¥
ä¸Ģ çŀª
æĺ¯ æĢİä¹ĪåĽŀäºĭ
æĿ¥ åĲ§
ĠæĪĳ èĻ½çĦ¶
çľĭ ä¹¦
æķ ŀ
é¡ µ
Ġå°ı éĿĴ
è¿Ļä¸ª éĹ®é¢ĺ
ä¿® éģĵ
æļ ĩ
çº¢ æĺŁ
æµģ æ°´
ä¸įä¼ļ æľī
çı ĳ
åįķ çº¯
çº¿ ç´¢
ĠéĻĪ å°ıéĿĴ
èµĦ è´¨
æī« è¿ĩ
ĠåĲ´ ä¸īæ¡Ĥ
Ġåħ³ äºİ
èĲĿ èİī
Ġåĸĥåĸĥ éģĵ
ĠæĪĳ åĪļæīį
è¦ģ æ¯Ķ
å¿ĥ æĿ¥
èĩª åľ¨
äºĭ åħĪ
Ġæľ º
Ġæľ į
Ġåıª åī©ä¸ĭ
çĻ½ è¢į
äºĮ ä½į
åĲĳ éĤ£
åħ« ç«ł
ä¸ĸ çļĦ
è½¦ éĩĮ
ĠæĢİä¹Ī èĥ½
ĠéĽ ¨
Ġç«Ł çĦ¶æĺ¯
Ġæ´ ¾
Ġå§ ľ
æł¹æľ¬ æ²¡æľī
åįĩ æµ·
èħ° éĹ´
åĨĻ çļĦ
ĠçĮ ´åŃĲ
æľ¬æĿ¥ å°±æĺ¯
è·ĥ èµ·
Ġç©º æ°Ķ
ĠåĮĹ å®«
å©´ åĦ¿
ĠçŁŃ çŁŃ
äºĨ åĳ¢
åľ¨ æĹģè¾¹
å¤§ æľī
ĠæĪĳ ç»Ļä½ł
ä¸ĭ åľ°
å¸ ĸ
åĴ ª
éĥ½ ä¸įèĥ½
çľĭ åĩºäºĨ
ä»Ģä¹Ī äºº
Ġæľ «
æĤ »
æŀľ çĦ¶æĺ¯
æĿĢ ä½ł
çĽ¸ åĬ©
çĲ ª
éĥ¨ çļĦ
èħ ĳ
Ġå½ĵ çľŁæĺ¯
ĠèĢģ åħ¬
Ġå¦Ĥæŀľ è¯´
åı¤ èĳ£
ç»Ī ç©¶
æİ¨ å¼Ģ
æ¹ ĥ
Ġé»ĳ çŁ³
æĺ¯ä¸į åı¯èĥ½
Ġæ³ ¨
æºľ æºľ
Ġå¹´ è½»
ĠåĮĹå±± çĻ¾å¾®
ĠP S
ĸ æĺĬ
ä¸Ģ æĿ¯
Ġç ¦ģ
æĥ º
ä¹Ł æĹł
å°± ç®Ĺæĺ¯
Ġè¿Ļ åĲį
Ġä½ł çľŁ
çľĭ éĩį
Ġå° Ķ
Ġä¸Ģ äºº
å¾Ī ä¸įéĶĻ
çŁ¥éģĵ æĪĳ
éĹ¨ å¼ŁåŃĲ
èĥ ŀ
è¿Ļä¸ª åĲįåŃĹ
Ġåı¯æĺ¯ éĤ£
æı ½
æĶ¾ å¼Ģ
åı¹ åı£æ°Ķ
å¹¶ æĹł
å°½ éĩı
ä»½ ä¸Ĭ
Ġé»ĳ å¾·æ£®
çĭ¬ èĩª
çļĦèº« åŃĲ
éĤª æģ¶
æĸ© æĿĢ
Ġå®ĭ åħ¬æĺİ
çĪª åŃĲ
ä¸° æ»¡
ä¸Ńå¤® åĨĽ
è´Ń ä¹°
è¥ Ł
ĸæĺĬ å¾·
çļĦ æĹ¥åŃĲ
æī ģ
å¤§ ä¸º
æ° ĵ
äºĨä¸Ģ ç§į
éĩį åĪĽ
å¤Ħ å¤Ħ
éĴ ¥åĮĻ
ĠæŀĹæĻļèį£ åĵĪåĵĪ
ä¼ł éĢĴ
è¿ĺæĺ¯ è¦ģ
Ġåĩ ¶
Ġçº §
å¤« åĲĽ
å¿ħ çĦ¶
çķĻ ä¸ĭæĿ¥
å°Ķ ç¿°
çľĭåĪ° åĤħæ¸ħæī¬
åĳĬ è¾ŀ
åĩºä¸Ģ èĤ¡
çĥŃ è¡Ģ
æ¿Ģ çĥĪ
åıĸ åĩº
ä¹¾ åĿ¤
åĮĸåĬ²æľŁ æŃ¦èĢħ
çļĦ ç¾İ
çļĦ åŃĺåľ¨
åľ¨ åľº
æĸ Ĳå°ĳçĪ·
éĽ ĩ
è¿ĩ æĪĳ
Ġä½ł åĪļæīį
åĳ ¸
æĹ¶ æľº
çĤ Ļ
å®¶ ä¸Ń
å¾Ī æĥ³
å±± ä¸ĭ
å®ļ çĦ¶
æĥĬ å¤©
æľĽ åĲĳäºĨ
äºĶ åħĦå¼Ł
åıĺ èº«
Ġå¦Ĥæŀľ æ²¡æľī
Ġå°ıéĽ· åı¹äºĨåı£æ°Ķ
èº«ä½ĵ çļĦ
æĩ µ
ç§ĺ æ³ķ
Ġæł ĳ
å¢Ļ ä¸Ĭ
ĠçĽ¸ æ¯Ķ
æŁĲ äºĽ
é¢Ħ å¤ĩ
ĠåĨĽ éĺŁ
çĪ¸ çĪ¸
çĸĹ ä¼¤
ĠèĽ ĩ
ĠæģŃ åĸľ
Ġ F
çļĦ å¯¹æīĭ
çļĦ æĢģåº¦
ä¸Ģ å¼Ģå§ĭ
éĤ£ æĿ¡
å°ı èĬ±
Ġåı¯ æĢľ
è¡Į åİ»
åĺ İ
ç¼ İ
æĤ ¸
å¤ª çĽĳ
æĶ¾ çĿĢ
åįĥ ä»ŀ
æŃ¦ å£«
çł´ ç©º
åĳ¨ èº«
ĠéĽ· åħĥæĪĪ
æĻ¯ çĶŁ
ä¸įåľ¨ ä¹İ
èĮ« èĮ«
é« ĵ
ĠæĻ® éĢļ
ç»ĵæĿŁ äºĨ
åĨ¤ æŀī
ä¾ıåĦĴ èĢģéģĵ
æĿ¥ äºº
ĠæĪĳ ä¸ĢçĽ´
è¦ģ ç´§
ä¹ĭ å¤§
ä»¥ å¤ĸ
ç¥ŀ ä½įéĿ¢
è° £
åĽŀ èį¡
çĻ½ éª¨
æĦŁ åı¹éģĵ
å¸Ī åĽ¢
åıĺ æĢģ
äºĭæĥħ çļĦ
Ġè® ¨
Ġåĩ »
æ·± åĪ»
æ²³ ä¸ĺ
ä¸įçŁ¥éģĵ è¯¥
ä¿Ŀ ä½ı
Ġæ° ĳ
ĠåĽĽ äºº
æĺ¯ä¸ª ä»Ģä¹Ī
éĢł åŀĭ
ä¼¯ çī¹
Ġæ´Ľ å°ıå§Ĳ
æī§ è¡Į
ĠæĺĨ ä»ĳ
å°ĶèĴĻ æĸ¯
Ġ r
Ġ ä¼¤
å°± ä¸įæĺ¯
Ġè¿Ļ ä»¶
çľĭ ä¸įè§ģ
æĪ ¾
çľ¼ çļ®
åı£ å¤§
çľŁ å®ŀ
æĺİ æľĪ
Ġä¹Ł ä¸įèĥ½
å°Ĩ ä¼ļ
æīĢ è¨Ģ
Ġä¸įè¿ĩ ä½ł
ĠåĨ ¥
Ġå¯¹ ä»ĸ
åĢĴ åľ°
é¢Ĩ çĿĢ
æ·± å¤ľ
èĴ ¸
é½Ĳ å£°
å¸Į å¡ŀ
è¹ Ī
æĥ¨ çĻ½
Ġæĺİ ç¾½
èĭĹ äºº
ĠèĬ± èį£
åĲĲ è¡Ģ
Ġ2 0
è¿ħ çĮĽ
Ġä½łæĢİä¹Ī äºĨ
è½® åĽŀ
éľ¸ çİĭ
çĲ³ å¨ľ
Ġ äºĨä¸Ģå£°
çļĦ æľĭåıĭ
åı ¼
Ġè ¨Ģ
åŃĲ æ°ĳ
åĽ ļ
å¦ ĥ
æĭ ĺ
ç»ı æµİ
è§ģ åĪ°äºĨ
å¦Ĥ æ°´
åĩł åĲį
æīĵ æĸŃäºĨ
è®© åĤħæ¸ħæī¬
éĩĳ åĪĢ
Ġåı¯æĺ¯ æŀĹéĽ·
ç¿ ©
ç»Ŀ ä¸į
çł´ åľŁ
æ¸ħæ¥ļ æ¥ļ
åĽ¾ æ¡Ī
åĲ¼ éģĵ
ä¸ļ åĬ¡
Ġè¿Ļä¹Ī å¤ļ
Ġå®ī å¾·
æĤĦ çĦ¶
Ġæ® µ
äº§çĶŁ äºĨ
åĩĽ çĦ¶
è¿ĩç¨ĭ ä¸Ń
ĠåĬĽ éĩı
ĠæĪĳ åĲ¬
ä¸ĭ åįĪ
Ġä»ĸ ä¸į
é£ Ļ
å¹´ ä»£
æĪĲ ç¥ŀ
åĲĳ æŀĹéĽ·
ä»Ļ åĿĬ
é¾Ļ é³ŀ
æĮĩ äºĨæĮĩ
çİī åĪĢ
æ°ĳ æĹı
çľĭäºĨ ä»ĸä¸Ģçľ¼
èĴĻ å»·
ĠçĮ ª
æĺ¨ æĹ¥
åįļ çī©
ĠæĹłæķ° çļĦ
ĠéĢļ è¿ĩ
æ¼Ĩ é»ĳ
å¸ĺ åŃĲ
çĽĺåı¤ å¤§éĻĨ
ĠèįĨ è½²
Ġ äºļåº¦å°¼æĸ¯
ĠæĪĳ ä¸Ģå®ļ
æĪĳ ä¼ļ
Ġè¿Ļ ä¸ī
ä¸¤ çľ¼
éķ¿ çŁĽ
æīĵ æĭĽåĳ¼
é«ĺ å¤§
Ġå¤§ åįİ
Ġåį´ è¢«
çİĭ èĢħ
ç¬¬ äºĶ
æĸĩ æŃ¦
çł´ ç¢İ
äº¤ è°Ī
ĠèĢĮä¸Ķ è¿ĺæĺ¯
èĦĳ ä¸Ń
éĢĢ åĲİ
æ¥¼ æ¢¯
èµ·äºĨ çľīå¤´
æ²Ļ æ¼ł
å¸Į èħĬ
Ġæ²Ī æ¬ºéľľ
é¹ ı
Ġåı« åģļ
å¸Ń åį·
ĠèĤĸ éĿĴçĴĩ
é¾Ļè¡Ģ åŁİåł¡
Ġæķħ æĦı
Ä «
çļĦ å¤´
ä¸Ģ æĬĸ
ä»ĸ å·²ç»ı
ä½ł èĩªå·±
ä¸ª å±ģ
ĠæĪĳ éĿł
ĠæĪĳ è®°å¾Ĺ
å¯ Ħ
å£° èī²
ä¿ Ħç½Ĺæĸ¯
ä¸Ģä¸ª åŃĹ
ä¸¤ è¾¹
ä¸¤ åı¥
æĥħ ä¸įèĩªç¦ģ
éĹ¨ ä¸ĭ
Ġæī İ
è¿Ľ æŃ¥
ç§į çİĦå¥¥
åģļ ä¸įåĪ°
æ¯Ķ åĪĴ
åıĺ èī²
Ġç¬¬ ä¸Ģæ¬¡
éĵ Ń
éĿŀ æĺ¯
ä¾Ŀ éĿł
ä¾¯ çĪµ
å¦Ļ çļĦ
èµ°äºĨ è¿ĩåİ»
èĲ¥ åľ°
æ±Ĺ çıł
åĳĺ å·¥
åļ ¼
æĭľ è®¿
åĪĽ éĢł
Ġæ´ª å¥ĩå³°
åºĦ åĽŃ
é»ĳçĻ½ åŃ¦å®«
æĭ± æīĭ
åĹ¯ äºĨä¸Ģå£°
« çĳ°
Ġ t
İ æ¹ĥ
çļĦ ä»ĸ
ä¸Ģ æ»´
ä¸Ģ æŀļ
æľī éĻĲ
å¤§ ä¹ī
ĠæĪĳ åı¯æĺ¯
ä¸ĭ æĦıè¯Ĩ
å¤© çĭ¼
çľĭ ä»ĸä¸Ģçľ¼
æł ı
æĭ Ļ
åĲİ äºº
åĢ ı
ä»İ åĵªéĩĮ
ä½ı åľ¨
å½ĵ åľ°
æŃ¤ åľ°
æĤ ¯
åģļ å¥½
çĲ Ĳ
é¾Ļ èĻİ
åŁİ éĩĮ
ä¼ł ç»Ł
å®ī æ¾¶
åĸľ éģĵ
çº§ åĪ«çļĦ
Ġèī ¾
åĨ° åĨ°
é¦Ļ åĲĽ
æĬĵ çĿĢ
å°Ħ éĥ¡ä¸»
çº¦ èĢĮ
ĠæŁ ´
èĿ ¶
åĺ± åĴĲ
Ġéº» çĥ¦
· åŃĲ
è¿Ļ å®¶ä¼Ļ
å¤§ åŃ¦
å¤§ èĥ¡åŃĲ
Ġä½ł ä¸įçĶ¨
æİ ·
äºĨä¸Ģ æł·
Ġä¸Ģ åħ±
çŁ¥éģĵ ä½ł
åĨĽ æ³ķ
çĶ¨ æīĭ
Ġæī ¬
ĠæŀĹéĽ· çľĭçĿĢ
è½» å£°éģĵ
çĻ¾ äºº
è¿Ļä¹Ī å¤§çļĦ
éĺµ çļĦ
è¥¿ éĹ¨
æľĪ äº®
éĺŁ åĪĹ
è½¬ åĲĳ
æĸĩ è¿ľ
ç¾İ åĽ½
æ²ī æ²ī
ĠçĽ ¯çĿĢ
åºľ çļĦ
æĮģ ç»Ń
åĩĿ ç»ĵ
çļĦæīĭ èĩĤ
èŃ¦ åĳĬ
ä¸ľæĸ¹ åľ£
çĸ¯ äºĨ
Ġè½¬ è¿ĩ
ĠçĽ® åīį
åī§ çĥĪ
ä¸įåıĬ å¾ħ
Ġå°ĳ çĪ·
Ġåħīæĺİ æķĻå»·
ĠèĴĻ æ±Ĺ
é¤Ĳ åİħ
Ġçľī å¤´
éº¾ ä¸ĭ
å¤§ æµ·
å°± åĪ°äºĨ
èµ· ä¼ı
æ¸ ł
å¥¹ æĺ¯
æŃ» åľ°
Ġå¿ ĺ
æĥĬ åı¹
ç¦ ½
æķ° ä¸ĩ
åįĥ éĩĳ
ç¬¬ åħŃ
æŃ¦ è£ħ
æĶ¶ äºĨ
æĶ¶ åħ¥
éļĲ çº¦
ĠéĽ ¾
ç»ĵ å®ŀ
ĠåĮ º
Ġåĸ Ĭ
ä»ĺ åĩº
Ġä»Ĭ åĦ¿
èħ¾ èħ¾
Ġä½İ å¤´
åºŃ éĻ¢
Ġæĭī çĿĢ
åĴĴ è¯Ń
Ġä»» åĩŃ
æĥ¶ æģĲ
æĮª ç§»
ä½İäºĨ å£°éŁ³
ĠæļĤ æĹ¶
Ġç¤º æĦı
³ å¦ĩ
éģ Ĥ
ä¹Ł å·²ç»ı
åİ» çľĭçľĭ
éĤ£ ä¸¤ä¸ª
å°ı åħĦ
äºĨä¸Ģ éģĵ
ä¸¤ éĵ¶åŃĲ
åģ İ
åįģ å²ģ
æĪĲ ä¸ºäºĨ
åīĳ åľ£
æ°´ å¹³
ĠæĪĳä»¬ è¿Ļ
å®ī å¦®
çİī çŁ³
åł ¤
åİŁ è°ħ
åıĮ èħ¿
Ġè¿ŀ è¿ŀ
å« ī
ĠéĢ Ĵ
åģľ ä½ıäºĨ
Ġä¼ ĳ
èĴĻ æ±Ĺ
Ġéķ¿ åīĳ
å¸Ĥ åľº
Ġåįģ ä¹Ŀ
è¿ľè¿ľ çļĦ
Ġåģ· åģ·
Ġåķ §
Ġå®ģ ä»ĻåŃĲ
ç»³ ç´¢
æ¬§ æ´²
è¿Ļ ä¸ī
å¤§ æĦı
Ġå° ļ
å¤´ äºĨ
å¦ ĪçļĦ
å°ı å§ĳå¨ĺ
ç¬ĳ éĿŀ
çī §
åĢ Ķ
èĢģ çĪ¸
å¾Ī ç®Ģåįķ
éķ¿ è¢į
ä¾¿ éģĵ
Ġåı¶ å¤Ń
Ġæĺ¯ åĳĢ
ç¨ ļ
Ġæĸ¹ éķĩæ±Ł
Ġå¹ »
Ġåİ Ħ
åı¤ åł¡
è¿Ļä¸Ģ åĪ»
å®Ĺ æķĻ
Ġé»ĳ é²ģ
éĢĥ èĦ±
åĪº å®¢
æ´ŀ åı£
åĮĹ å±±
åĤ» äºĨ
ĠçĶļèĩ³ è¿ŀ
æ³¨æĦı åĬĽ
Ġé¢ ľ
ç¨į ç¨į
åı¹æģ¯ éģĵ
åĤ¬ ä¿ĥ
åĥµ å°¸
å§ľ åĽ½
ĠéĦ £ä¹Ĳåħ¬ä¸»
Ġå¬ ´
åľ¨ æīĭéĩĮ
åİ» è§ģ
èĥ½ æľī
æĸ¹ ä½į
æ¸ħ æ¸ħæ¥ļæ¥ļ
åıĳ çĶ·åŃĲ
ĠèĢĮ æŀĹéĽ·
ä½ĵ ç§¯
è¡Ģ èī²
ä¼ł äºº
é£ŀ äºĨåĩºåİ»
æŃ¦ éģĵ
æµģ åħī
å®¹ åº·
Ġå¿ĥ æĥħ
åıį é©³
æĲ ĵ
è¿Ļç§į äºĭæĥħ
æľīçĤ¹ ä¸į
åģľ äºĨä¸ĭæĿ¥
Ġè§ģ è¿ĩ
èĻļ ç©ºä¸Ń
Ġä»Ģä¹Ī äºĭ
åľŁ é»Ħ
ä¸Ģå®ļ æĺ¯
å°ļ æľª
èŃ¦ å®ĺ
ç¬ĳäºĨ ä¸¤å£°
èµĦ éĩĳ
å°ĸ åı«
èĢĥ éªĮ
åĤ» åŃĲ
Ġåīį è¾Ī
Ġé¢ ¤
Ġåį³ä½¿ æĺ¯
è¿Ļä¹Īå¤ļ å¹´
Ġä½ĵ åĨħ
å®ª åħµ
é£ŀéŃĦ æķ£
çĿ ¹
æĪĳ è¿ĺ
å°± æĥ³
å°ı äºĶ
æ· ¹
å°ĳ æķ°
åı¶ å¤Ń
æİ¥ åĪ°
åı« ä½ł
ä¼ł éĢģ
å®ī å¿ĥ
Ġæ¸ ¸
åº¦ çļĦ
åĮĸ æĪĲ
ä¹± ä¸ĥåħ«ç³Ł
æ²ī ç¨³
åĳ¼ åĳ¼
Ġæģ °
ĠçľŁ çļĦæĺ¯
æľª åħį
æķĳ äºĨ
èĲ¥ å¸Ĳ
è¿Ĳ åĬ¨
æı¡ ä½ı
æ´Ľ æ»¨
çĽĳ è§Ĩ
è¿Ł éĽª
Ġåħ¬åŃĲ çĳĿ
çļĦç¡® æĺ¯
ĠåĦ ¿
çļĦ æľĢ
çļĦ å¼ŁåŃĲ
äºº å½¢
å¤§ ä¼Ļ
æ²¡ æŃ»
äºĨä¸Ģ å¤§
å¼Ģ æĭĵ
èĢģ é¼ł
æĥħ æĦ¿
åķ ¼
åıª è§ī
èĪ ª
å°Ĩ ä»ĸä»¬
Ġæĺ¯ åĲ¦
éŃĶ é¬¼
Ġ. âĢľ
çĻ¾ åĲį
å¤ª ä¹Ļ
Ġçľĭ å¾Ĺ
è·Ł æĪĳä»¬
éĿŀ éĿŀ
åĩ» æĿĢ
æĢ¥ ä¿ĥ
åħ« ä¸ª
æµģ ä¼ł
åĨ² çĿĢ
è¿ĻäºĽ ä¸ľè¥¿
ç¡® è®¤
ä¹¦ çĶŁ
åĹ ħ
ĠåĹ ¨
éĽ¨ æ°´
å¥¥ å¸ĥèİ±æģ©å¸ĿåĽ½
æłĳ æľ¨
è°Ī è®º
Ġç»Ļ ä½ł
åĢŁ åĬ©
ä½įéĿ¢ æĪĺåľº
ç¼ł ç»ķ
Ġå¥ĩ æĢª
ĠåĴ¬ çīĻ
è¯ŀ çĶŁ
Ġ äºļ
çļĦ è½¦
ä¸Ĭ åĵģ
Ġ! âĢľ
åŃĲ åĲ¯
æ¯ Ĳ
å¾Ī é«ĺ
ä»İ åīį
èĥ ¤
å·²ç»ı åľ¨
è¾¹ å¢ĥ
ĠåĪ ·
ĠæĪĳä»¬ çİ°åľ¨
æľīäºĽ å¥ĩæĢª
æĶ¾ äºĨ
å®Į ç¾İ
é¦ ¨
Ġçº ¯
æĹ© æľī
Ġä¾¿ éģĵ
Ġå§ ĵ
èĻļ å¼±
Ġä¸ĭ æ¬¡
ĠéŃĶ åħ½
Ġè®¸ éľĩ
èŀ Ĥ
åĩ¶ çĭł
èĢĢ çľ¼
åĺ¿åĺ¿ ä¸Ģç¬ĳ
åŁĭ ä¼ı
èĦĸåŃĲ ä¸Ĭ
ĠèĲ¨ æ´ĽèĴĻ
æĿŃ å·ŀ
ª æ¯Ĳ
äºº æķ°
ä¸ĭ é©¬
ä¿ º
å¯¹ ä»ĸä»¬
æīĵ è¿ĩ
åīĳ æľ¯
æĥĬ éĨĴ
ä¼¼ åľ°
åŃĹ åı·
æ¡ Ģ
åĿĲ ä¸ĭæĿ¥
ĠåĨį ä¹Ł
æł¼ æ¸©
å®¢ åį¿
åģľ æŃ¢
å¯¼ èĩ´
Ġçŀ ª
Ġç¬¬ä¸ī æĽ´
æıĴ æīĭ
æ³¥ åľŁ
Ġç¢ §
ãĢ į
ä¹ ³
æĿ¥ çĿĢ
å¤§ åĸĿ
å¤§ åĸĿä¸Ģå£°
å¤© éĻħ
åĴ Ķ
èº« æ³ķ
æ¸ º
åĴĮ æŀĹéĽ·
æĹł æĥħ
å¹´ å¤ľ
è° Ĭ
ĠåĲ ¾
ĠæĿ ĳ
çŃī äººçļĦ
çļĦäºº å½±
åĨ² åİ»
åĩĨ ç¡®
å¿į çĿĢ
å®¢ æłĪ
Ġé»ĳ çĻ½
Ġéĺ¿ æŀĹåĵ¥
èģĶ åĨĽ
å¾ĹåĪ° çļĦ
æĤ² ä¼¤
è¯» ä¹¦
éĢĴ ç»Ļ
ĠæĶ» åĩ»
èļĤ èļģ
Ġ ä¹Ĳ
è¿Ļ åĩłä¸ª
Ġåı °
æĪĳ å·²ç»ı
èĥ½ åľ¨
å¿ĥ äºĭ
æ¸ Ķ
åĲİ æĸ¹
æĥ³ æĿ¥
Ġ...... âĢľ
åıĳ æ³Ħ
çİ° åľº
å±± æŀĹ
ä½ĵ åĬĽ
é¾Ļ éĺ³
é¾Ļ èĳµ
é£ŀ æĿ¥
åĪļ èĲ½
ä¿¡ æģ¯
åĬł èµ·æĿ¥
åĨ² åĨ²
ä¹± äºĨ
èĭ¦ ç¬ĳçĿĢ
çĬ ¬
éļı èº«
æľīä¸Ģ çĤ¹
çĪ¶ åŃĲ
äº® äºĨ
å®Ĺ ä¸»
åıĸ äºĨ
åĪº èĢ³
å®Ī å¤ĩ
çļ± èµ·
Ġéĺ¿ å¾·éĩĳæĸ¯
Ġåįģ ä¸ī
çļĦèº« èº¯
è¿· ç³Ĭ
åĸĦ èī¯
åĲ¦ è®¤
Ġéĩį æĸ°
æĶ¿ æ²»
çļĦåľ° ä½į
Ġæı Ĵ
æĹłå£° æĹł
ç®ĢçĽ´ å°±æĺ¯
Ġåı¸å¾Ĵ ç©º
çļĦ æľ¬äºĭ
çļĦ ç¼ĺæķħ
ä¸Ĭ éĿ¢çļĦ
å¤§ çº¦
çĿĢ ä½ł
çĿĢ èĩªå·±çļĦ
ĠæĪĳ åĲ¬è¯´
å°± å¾Ģ
æ² §
ä¸Ń åľ°
éĥ½ ä¸įæĺ¯
å°ı çĻ½
èº« åľ¨
ä¸ī æĿ°
éķ¿ è¾Ī
éĩĳ çªĿ
ĠæĪĳä»¬ è¿ĺæĺ¯
å¼Ł åŃĲçļĦ
Ġè¯´ ä¸įåĩº
å£« åŃĲ
æ® ´
ç¨ İ
Ġèĭ į
æ¯Ĵ èĽĩ
æĶ» åĬ¿
çĨ Ħ
ç©¿ è¿ĩ
éĨĴ æĤŁ
Ġå®ī å§Ĳå§Ĳ
éģ¿ åħį
Ġæ¬ §
å¦ĩ äºº
æĺ¨ å¤ľ
è¿ŀè¿ŀ çĤ¹å¤´
å®īå¾· çĥĪç»´å¥ĩ
åµ Į
èĽ¤ èŁĨ
Ġ çļĨ
äºĨ åķĬ
æī Ĵ
åľ° ä»İ
ä¹Ł è·ŁçĿĢ
æŀ ¢
åĩº ä¹İ
Ġä½ł ä¸įä¼ļ
è® ³
å¾Ĺ æĦıçļĦ
ä¹ĭ è¾Ī
ä¸º é¦ĸ
Ġä¸Ģ è·¯ä¸Ĭ
æģ ķ
èĢģ å¼Ł
å¾Ī åı¯èĥ½
èĢĮ è¡Į
å½ĵ éĵº
çª ĳ
Ġå¾ Ħ
çĽ¸ è²Į
è¡Ģ èħ¥
ä¹Łä¸į å¥½
ç²¾ æ°Ķ
åı¹ äºĨä¸Ģå£°
å·® ä¸įå¤ļäºĨ
éº ¦
åį« åħµ
éĵģ éĿĴ
Ġè¿ĺæľī ä¸Ģä¸ª
æ³¨ è§Ĩ
Ġé«ĺ ä¸¹
åıªæľī ä¸Ģä¸ª
Ġä¹ ĸ
Ġæ¸© åĲŀæµ·
èĲ§ å¤§å°ıå§Ĳ
ç«Ļåľ¨ éĤ£éĩĮ
Ġä½łè¿Ļ äºº
Ġç´¢ æĢ§
Ġåįİ å¥ķ
æĹħ æ¸¸
åįĳ éĦĻ
åĺŁ åĽ
Ġçİīåħ° å¤§éĻĨ
åĪ°äºĨæŀģ çĤ¹
Ġåħ´ å¥ĭ
å¸ĥæĸ¯ å®¶æĹı
çļĦ åı¯æĢķ
ĠæĪĳ ä¸įæĥ³
å°± è¿ŀ
Ġä»ĸ æĥ³
æĭ £
å¥½ å¥½çļĦ
...... âĢĿ
çŁ¥ è¯Ĩ
å±± é¡¶
åĨį åİ»
å¤ª å¥½äºĨ
è¿ĺæĺ¯ æľī
é£ŀ äºĨ
æĸŃ è£Ĥ
æ´» çļĦ
Ġä»¥ ä¸º
ç»Ł ä¸Ģ
èµ¶ åİ»
åĨ³ æĪĺ
äºĮåįģ å¤ļ
çĽĺ é¾Ļ
Ġåĵª æľī
æĬķ åħ¥
æĿĥ åĬ¿
Ġæ± Ĺ
å±Ģ éķ¿
ĠåĲĮæĹ¶ ä¹Ł
Ġå¸Ī åıĶ
çĵ¶ åŃĲ
æ¶Īå¤± åľ¨
æ¾ İæ¹ĥ
èĻŀ å§¬
åı¹æģ¯ ä¸Ģåı£æ°Ķ
çļĦé»ĳ èī²
ĠâĢĻãĢĤ âĢĿ
ĠæĻ® æĸ¯ç½Ĺ
Ġèģ Ķ
Ġçĸ¯ çĭĤ
Ġèİ½ èįĴ
ä¸Ģ ä¸¾
ä¸Ģ ç¼ķ
Ġç ĳ
è¿Ļ ä»½
ä½ł ä¸į
æĿ¥ ä¸ª
ĠæĪĳ å®¶
æĹ¶ æĹ¥
æİ ĺ
çľ¼ åĬĽ
Ġä¸Ģ åı£
æĬĬ æīĭ
éĹ® ä»ĸ
è½» èĢĮæĺĵä¸¾
éª ¼
Ġå¦ ®
å¾® çļĦ
Ġåį´ åıĳçİ°
ç§Ģ å·Ŀ
åĨ² åĩº
æ¢ §
ä¹Ŀ å¤©
Ġä¸º é¦ĸ
ç±» ä¼¼
Ġå± ł
èµ¶ ä¸Ĭ
ä¸»ç¥ŀ ä½¿èĢħ
åĸĬ çĿĢ
çļĦæīĭ æİĮ
ç»ĥ åĬŁ
æĿĥ åĪ©
ä¸´ æĹ¶
è¡Ĺ éģĵ
Ġå¾® ç¬ĳéģĵ
èģĮ ä¸ļ
éĶģ å¦ĸå¡Ķ
Ġè¶³ ä»¥
å¥¶ å¥¶
å¹²åĩĢ åĩĢ
Ġæ³¢ é¡¿
ĠåĴ¯ åĴ¯
ä¸Ģ åıĮ
ä¸Ģ è¾Ĩ
ä¸Ģ è¡Įäºº
Ġé ŀ
ä»ĸ åĴĮ
æĥ ł
å¾Ĺ è¿ĩ
å¦ Ĩ
å¿ĥ æĥ³
ä»ĸä»¬ éĥ½
ĠèĢĮ ä¸įæĺ¯
ĠèĢģ å¤«
å¾Ģ äºĭ
åı¤ ä»£
åİŁ æĿ¥çļĦ
æ²ī æµ¸
æķ´ çĲĨ
çľĭåĪ° çļĦ
æķĳ åĳ½
æĳĨ æĳĨæīĭ
æī¿ æĭħ
éŁ «
ĠåĿ ¦
åĩłåĪĨ éĴŁ
é¹ ¿
ç¥Ń å±±èĦī
ĠéĻ¤ æŃ¤
çŀ¥ äºĨä¸Ģçľ¼
çļĦ åı¯èĥ½
æľī åħ´è¶£
åŃ Ł
è¦ģ è¯´
çĤ Ń
ç¬ĳ èµ·æĿ¥
æ°Ķ éģĵ
èĢģ è¿ľ
é¢ ĸ
å¤ĸ åĽ´
è¿ľ æĸ¹
çª Ħ
åĨį ä¸Ģæ¬¡
è¿Ļä¸ª ä¸ĸçķĮ
çŃī åĢĻ
é»ĳ å¾·æ£®
é¾Ļ åĮĸ
çļĦäºº äºĨ
éļ¾ åħį
çļĦä¸Ģ æł·
åĢĴ æĺ¯ä¸į
ç¦» äºĨ
æĸĩ ä»¶
æł¹ æīĭæĮĩ
èĸ °åĦ¿
è¿ĺæľī çĤ¹
æĮ¥ äºĨ
åĲĽ çİĭ
æ¢¦ ä¸Ń
Ġé£ ĺ
å¸Ĥ æĭ³
Ġåıªè§ģ ä»ĸ
é¥Ń åºĹ
ĠæĢ» éķ¿
Ġè½¬ çŀ¬
åª ³å¦ĩ
çľĭåĲĳ äºĨ
Ġä¿ Ĺ
ĠæĪĳçŁ¥éģĵ äºĨ
åĨ·åĨ· éģĵ
æ²Ļåıĳ ä¸Ĭ
ĠæķĮ äºº
ĠçĽĳå¯Ł åİħ
ĠçĪ· çĪ·
åľ° çĤ¹
åľ° å°Ĩ
Ġä¸Ģ ä½į
èĢĮ éĻį
Ġå¤§ ä¼Ļ
çª Ĵ
Ġå® «
å¤ª å¤§äºĨ
é¾Ļ å°¾
éŁ³ ä¹Ĳ
Ġç» ĥ
Ġå¥½ åķĬ
èĬ± èĬ±
çĲĨ è®º
åħĥ å©´
è®¤ çľŁçļĦ
** *
è¯· æ±Ĥ
ĠåĬ ª
çĳ ¾
ĠåŃ Ł
Ġçī ©
åĽŀåİ» åĲ§
Ġ) ,
Ġçĭ ¼
èĭĹ å¯¨
çĺ ©
Ġè¶Ĭ æĿ¥è¶Ĭ
ĠåĲķ å¤ªå²©
åĸĺ æģ¯
ĠèĽ ®
èĭ¥æĹł åħ¶
Ġèī¯ ä¹ħ
ä¸Ģ è·ĥ
åħ ĳ
éģĵ éŁ«
ä¸Ĭ ä¸ĩ
å¤§ èħ¿
åĪ° éĤ£
å¤© åīĳ
çľĭ æ³ķ
å¾Ĺ ä¸į
å°ı åŃ©
éĽ· æ´ª
ç¥ Ī
åĴĮ å¹³
ä¾ ¥
äºĨä¸Ģ æ¬¡
æĹł èµĸ
éĻ ¨
è¢« å¥¹
äºİ æ¸ħéĽħ
çĻ½ èī²çļĦ
è¡Į ä¸º
åĥ ļ
å¸Ī éĹ¨
åħµ å£«
Ġå¥½ è±¡
åĢĴ ä¸ĭ
æŃ¦ æŀĹ
è¡£ è¢ĸ
åıĮ æİĮ
èĸ ª
è¿Ļç§į äºº
èįī ä¸Ľ
èĥ¡ èĲĿåįľ
æĬ± ä½ıäºĨ
ä¹° åįĸ
å£ģ ä¸Ĭ
çº¯ æ´ģ
Ġ** ,
æĺ¨ æĻļ
é©» æīİ
Ġé»ĳæļĹ éĩįçĶŁ
åį§ å®¤
Ġæ³ª çıł
çļĦ çŁ³
æľī çĿĢä¸Ģ
ä¸ª åĦ¿
Ġ! )
åĪ° èĩªå·±
Ġä»ĸ æ²¡æľī
èĩª å®¶
çİ° å®ŀ
æĬĬ è¿Ļä¸ª
Ġè¯ ¡
èµ° è¿ĽäºĨ
æ¯Ķ æŃ¦
çģµ èĥ½
åĲĮ æĥħ
Ġçľĭ ä½ł
æĹ¥ æľ¬
å¦ĸ ä»Ļ
æ¼ ¾
æĹ© çĤ¹
å¸® ä¸»
Ġåıªæĺ¯ ä»ĸ
åİŁ åħĪ
èĭ¥ åįİ
Ġä»İ æŃ¤
ĠèĦ ±
å¼Ĥ æł·
å°½ å¿«
éĤ£ä¹Ī å¤§
è§Ĵ èī²
ĠåĲ¬ çĿĢ
çļ± èµ·äºĨçľīå¤´
ĠåıĮ çľ¼
Ġç«ĭåĪ» å°±
Ġå² ģ
éĢĶ ä¸Ń
Ġéĥ Ń
èĽŁ é¾Ļ
æĴ¤ éĢĢ
ĠçĲ Ĩ
çļĦ èĥ½åĬĽ
ä¸Ģ å¥Ĺ
æĺ¯ äºº
å¤§ éģĵ
æĥ ļ
Ġè¿Ļ äºĭæĥħ
æ²¡ çĶ¨
å°ı åĩ¡
æīĭ ä¸ĭçļĦ
Ġä¸į åģľ
Ġä¸Ģ æŃ¥
æģ Ĵ
è¯Ŀ äºĨ
Ġåıª åı¯æĥľ
Ġä½Ĩ çİ°åľ¨
æŃ£ éģĵ
è¿Ľ éĹ¨
åĲĳ åĲİ
è½» åĬŁ
éª °
Ġåľ¨ ä»ĸä»¬
æ°´ éĩĮ
çĽ¸ è§ģ
çĸ Ļ
ä½ķ å¤Ħ
éĥ¨ ä½į
åĮĸ åĬ²
æµ· äº®
åħ½ çļ®
åĳ¼ éģĵ
æķĻ å¯¼
Ġé¡ ¶
èĥĮ åıĽ
åĩĨ äºĨ
Ġè¿ĻäºĽ éĥ½æĺ¯
åŀĭ çļĦ
é©¬ä¸Ĭ å°±
åĩĮ èĻļè§Ĥ
Ġä½ķ å¿ħ
å·« èĽĬ
å¦Ī å¦Ī
Ġå®¶ éĩĮ
ç²® èįī
çĽ¸å½ĵ äºİ
çģ¾ éļ¾
çļĦ è¡£æľį
çļĦ åįĬåħ½äºº
æľī äºĨä¸Ģä¸Ŀ
åľ¨ èº«ä¸Ĭ
Ġä¸į åĥı
ĠéĤ£ ä¹Łæĺ¯
åĨĽ åĬ¡
çĶ¨ æĦı
å½ĵ å¹´çļĦ
Ġåľ¨ åľº
Ġæĺ¯ ä»¥
æľĢ åĸľæ¬¢
Ġçľĭ ä¼¼
ä¹Łä¸į åı¯èĥ½
Ġè® ²
åįĬ å¹´
Ġæ²¡ çŃī
å© ª
åĵį å½»
ä»¤ çīĮ
Ġçľ¼ åīįçļĦ
Ġè¿Ļæĺ¯ ä¸Ģä¸ª
åİĭ æł¹
ä¸½ å¨ľ
é»ĺ æĸ¯
åıĤ è°ĭ
éĽķ åĥı
çľ¼ä¸Ń éĹªè¿ĩä¸Ģä¸Ŀ
çĿģ çĿģ
æ·ĭ æ¼ĵ
ĠçĬ¹ è±«
ä½İä¸ĭ å¤´åİ»
æĲº å¸¦
1 0
æĺ¯ å¤©
ä¸į åģĩ
åĩº ä¸ª
éĽ· éľĩå²³
Ġä¸į æĹ¶
åı¯ å¨ĩ
æĥ³ éģĵ
æ¸ħ æ°´
æ²¡æľī ä¸Ģä¸Ŀ
èĤ ĭ
å±± éķĩ
æĪĺ åĪĢ
æ¶ ķ
çŃī ä½ł
Ġæĸ ©
çİĭ å°ıèĻİ
Ġä»ĸä»¬ ä¹Ł
ĠåĤħæ¸ħæī¬ çļĦ
å®« ä¸Ń
ç´§ æİ¥çĿĢ
Ġå¿ĥ åºķ
éĢįéģ¥ åŃĲ
ç¤¼ è²Į
äºī åıĸ
éĵ¶ è¡Į
å°ģ ä¿¡
çĶ» éĿ¢
æĿĥ åĬĽ
ĠæŁ³ æ¢¦çĴĥ
Ġæ²ī é»ĺ
æĮĩæĮ¥ å®ĺ
Ġæĺ¥ èĭ¥åħ°
ĠéĻĨ å±±
Ġæ¥ ¼
Ġæĭ¥ æľī
èİ±éĹ¨ å»·
Ġæ¯ģ çģŃ
çĻ¾åĪĨ ä¹ĭ
ä¸į æĢİä¹Ī
Ġè Ķ
æľī ä½ķ
Ġä¸Ģ é¢Ĺ
æĪĲ ä¸¤
Ġä½Ĩ ä¹Ł
è¿Ľ éĺ¶
ä¸ľ å°¼
è¿ŀ ä¸²
çļĦäºº ç¾¤
éĺµ èĲ¥
å¸¦ ä¸Ĭ
çĹ ĩ
æŃ¦ åŃ¦
Ġåıªæĺ¯ åĽłä¸º
éĤ£ä¸ª äºº
çĶ· äººçļĦ
æĭį çĿĢ
ĠéŃ Ĥ
Ġçİī éľľ
æĮ¡ ä½ıäºĨ
Ġå¥¥ å¤«
åħ· ä½ĵ
çģ¯ çģ«
è±ª åįİ
æĦ§ æĺ¯
ĠæĪĺ æĸĹ
å®¿ èĪį
åįļçī© é¦Ĩ
çĸĻ çĺ©
çļĦ ä¸įæĺ¯
ĠãĢ ĳ
å¤§ åıĶ
æĥ ´
å¤© äºĨ
èº« é«ĺ
åı¯ æ¯Ķ
æŀĹ å§Ĺå§Ĺ
æĺİ äº®
æĺİ è¾ī
ä½ı å¤Ħ
åıĪ å¦Ĥä½ķ
éĹ® äºĨä¸Ģåı¥
ĠåĪ Ŀ
ĠèĢĮ åľ¨
Ġçľĭ ä»ĸ
é»ĳ çŁ³
å¸¦ èµ°
é£ŀ å¿«
åĢĴ åľ¨åľ°ä¸Ĭ
æľĪ å±±
èĽ Ľ
åıĹ åĪ°äºĨ
åĸĿ çĿĢ
Ġè®© çĤ¯
å·¥ åħ·
æ£® æ£®
æģ© æĸ¯çī¹
Ġæł ¼
æ±Ł å±±
åĪ°åºķ æĺ¯ä»Ģä¹Ī
èĲ§ çİīèĭ¥
æĹĹ åĨĽ
Ġåĵ¼ åĵ¼
è¢Ń æĿ¥
æĿĳ åŃĲ
éĹŃ åħ³
çĽĳ çĭ±
è¯¸ å¤ļ
éªĩ çĦ¶
æ±ĩ æĬ¥
ç¦Ģ æĬ¥
ĠåĲī å°Ķé»ĺ
ä¾¥ å¹¸
çļĦ åķĬ
ä¸Ģ å¯¹
è¿Ļ çīĩ
ĠæĪĳ æľįäºĨ
æĪĳ æĥ³
Ġä»ĸ ä»İ
ä¼ļ é¦Ĩ
åı¯ çľŁ
æĥ³ è¯´
Ġåį ±
Ġå°± åĥıæĺ¯
æĢķ æĺ¯
Ġè¯´ æĺ¯
å¿Ļ ç¢Į
è¿Ļæł· çļĦäºº
å¹² å¹²åĩĢåĩĢ
å½¢ çĬ¶
æĦŁè§ī åĪ°äºĨ
Ġä¸¤ åĲį
æķ£ å¼Ģ
ĠæĤ ł
æķĮ äººçļĦ
é¡¾ å¿Į
å°ıéĽ· ä¸Ģçľ¼
å¥¥ ä¸ģ
æ¸ħæ¥ļ çļĦ
åĲĽ åŃĲ
äºī å¤º
Ġä¹ °
çĽĺ æĹĭ
å°ģ éĶģ
Ġçī Ľ
Ġåĩº çİ°
Ġä½łæĺ¯ è¯´
æŀ¶ åŃĲ
èĵĿ èī²
èİ« æµĭ
Ġèµµ ä¾ĥ
çĶ° å®¶
æ®ĭ éħ·
åħį è´¹
ä¿Ĭ ä¹ī
Ġæķ° åįģ
Ġçºµ çĦ¶æĺ¯
åĵĹ åķ¦
Ġæķħ èĢĮ
ĠæĿİå¿Ĩå¦Ĥ éģĵ
æ¢µ èĴĤåĨ
» âĢ»âĢ»
ĳ å¡Ķ
ä¸ª åŃĲ
å¤§ å°Ĩ
Ġä½ł ä¸ºä»Ģä¹Ī
çİ ħ
éĤ£ æĹ¶åĢĻ
è½ ¨
å¯¹ æĬĹ
å¼Ģ çľ¼
ĠâĢ »âĢ»âĢ»
å±± ä¸Ń
æīĵ æŃ»
Ġä¹Ł åı¯ä»¥
ä¸» æķĻ
å¸Ī åħĦå¼Ł
å¤ª å¤ª
ä»ĸçļĦ èº«ä½ĵ
æŀģ é«ĺ
å¼ł åĨ°
é¢Ĩ åŁŁ
è¡¨ éĿ¢ä¸Ĭ
ç²¾ åįİ
è¿Ļä¸Ģ åīĳ
ä¿Ŀ çķĻ
çľī å¿ĥ
çĭĤ å¥Ķ
ä¸½ çļĦ
éĿł åľ¨
Ġå·²ç»ı æĺ¯
åĵŃ æ³£
Ġè¶ ħ
éĴ» çŁ³
Ġåħ¶ä¸Ń ä¸Ģä¸ª
æµĵ éĥģ
Ġå·¦ å®¶ä¿Ĭ
æŁ¯ å®ĭ
ĠæĢĴ éģĵ
Ġä¹ĭ é¢Ĩ
ĠåĴĶ åļĵ
æľī åĬĽ
Ġä½ł æķ¢
Ġä»ĸ èĥ½
Ġä»ĸ åıª
èµ· ä¹ī
çĤ ½
ĠæŀĹ å§Ĺå§Ĺ
ä¸ī åı£
å¦Ĥ çĶµ
Ġåħ ·
åħĪ åīį
èĲ½ äºĨ
ĠåĤħæ¸ħæī¬ å¯¹
å¿Ļ çĿĢ
Ġè¦ģ ä¹Ī
ç²¾ åĬĽ
éļı åı£
æ¯Ĵ èĻ«
ç½Ĺ æ±ī
Ġéļ¾ å¾Ĺ
åĩºä¸Ģ éĺµ
éĺ´ åĨ·
ç£ ģ
Ġåį³ ä¾¿æĺ¯
ç¨³ ç¨³
éĩįè¦ģ çļĦæĺ¯
Ġèĥ¡ äºº
åĽŀçŃĶ éģĵ
åħīæĺİ ä¸»å®°
ĠåĲ¬åĪ° åı¶å¤©
Ġçŀ §
Ġç¬¬ä¸ī åį·
çĨĬ çĨĬ
èµ¤ å²©
çªĹ å¤ĸ
æĪĺåľº ä¸Ĭ
å¯Ĥ å¯ŀ
Ġæ¶ ²
ĠæĬ± æŃī
ĠæĹ¢ çĦ¶æĺ¯
Ġæį® è¯´
Ġçİĭèĵ¬çµ® éģĵ
ĠçĨ Ĭ
è¨Ģä¸į åıĳ
ĠåĲĵ å¾Ĺ
Ġ 0
ĠãĢĤ âĢĶâĢĶ
ä¸Ĭ åįĥ
å¤§ éķ¿èĢģ
ä¹Ł æľīçĤ¹
Ġä½ł æĪĳ
Ġå° ī
çİ «çĳ°
ç¥ ģè¿ŀ
ç§ ī
ä»Ģä¹Ī åľ°æĸ¹
äºĨä¸Ģ çīĩ
æĸ¹ éķĩæ±Ł
æ´ ±
åķ ĥ
Ġæĺ Ķ
æĬĬ æĪĳä»¬
çĻ½ å¤©
åıĪ æĥĬåıĪ
æĪĺ èĥľ
Ġåį´ ä¸į
é¾Ļ çİĭ
éĢļ å¾Ģ
çĮ ©
çº¢ å£¶
èĬ± åīĳåĨ°
ç¿ ģ
çļĩ æĹı
ä¸ĸ å®¶
è®¤ åĩº
åıį åĩ»
æĺ¾ éľ²
ç©¿ æ¢Ń
Ġåĩł äºº
åıĸ èĥľ
ä¿®çĤ¼ åĪ°
Ġé©¬ è½¦
Ġåīį æĸ¹
åĨĽéĺŁ çļĦ
åī© ä¸ĭçļĦ
åĨ¥ çķĮ
ç¬¬äºĮ ä¸ª
éĵľ é¼İ
çĮª å¤´
ĠéŁ© ä¸īå¼º
æĲľ ç´¢
Ġä¸ľæĸ¹ çİī
Ġä¹Į æ£®è¯º
å¥½æ±ī ä»¬
Ġè¸ ı
ä» ²
å¾ Į
åľ° çĽĺ
Ġè¿Ļ åĽŀ
Ġè¿Ļ åĢĴ
åĩº åĬ¨
è¦ģ æĿĢ
ä¹ĭ æĪĴ
ä¸ī åĽĽ
Ġå°± ä»¿ä½Ľ
å¾Ī å¼º
åĩł åįĥ
èĩªå·± ä¹Ł
æ²¡æľī ä¸Ŀæ¯«
åĦ¿ çļĦ
Ġåľ Ī
ĠæŀĹéĽ· å¤§äºº
éĶ µ
Ġå°ı å¼Ł
å½ĵ çĦ¶æĺ¯
èį£ å¹¸
Ġè¿ĺ å¥½
åĨį æĹł
çĽ¸ åıį
åĲĮ éĹ¨
åĵ¥ ç±³
è½¬ ä¸ĸ
åĲĥ è¿ĩ
ä¸ĥ æĺŁ
æµģ æ°ĵ
Ġè¦ģ æĥ³
éĽª é¾Ļå±±
åľ£ éªĳå£«
ç»Ĩ çļĦ
åģľ çķĻ
é¦ĸ åħĪ
è¿½ ç©¶
æĳ¸ çĿĢ
æĥ¨ åļİ
Ġæĺİ æĺ¾
éĩİ åħ½
éĤ£ä¸Ģ åĪ»
åįģåĪĨ çļĦ
æ¯ģ æİī
è¾ī çħĮ
ç¨Ģ å¥ĩ
è¿ħéĢŁ çļĦ
Ġåħ³ éĶ®
è¯¡å¼Ĥ çļĦ
Ġåİī éļıé£İ
Ġèĭı åªļ
Ġç®¡ åħ¬æĺİ
ĠæĢª ä¸įå¾Ĺ
Ġç¬¬åħ« çĻ¾
Ġå¨ĺ äº²
çļĦ äº²
äºĨ åı¥
äºº å¤´
åľ¨ åĵª
åľ° äºĨ
åľ° æľĿ
ä¸Ĭ é£İ
å¤§ å¨ĺ
å°± åĴĮ
å°± ä»İ
ä¸ĭ äºº
è¿ĺ åı¯ä»¥
äºĨä¸Ģ åľº
äºĨä¸Ģ ä»¶
èĢģ çīĽ
æŃ» ä¸į
è¶ ĭ
Ġåį´ æ²¡
æī¾ äºº
å®ī çĦ¶
ĠâĢĻ âĢĺ
å¹³ åĴĮ
å®ģ éĿĻ
å¦ĸ å¥³
Ġå¤© ç©º
éŃĤ é£ŀéŃĦæķ£
ĠæīĢä»¥ æīį
Ġä¸¤ åıª
Ġå¾Ī æĺ¯
åĹ Ķ
å¿į åıĹ
èµ¶ å¿Ļ
å·¥ èµĦ
åı¸ æľº
Ġæ¸© æŁĶ
èĲ§ å¤«äºº
Ġé¡¿ äºĨé¡¿
å»º æĸ°
Ġè¿Ļä¹Ī è¯´
å¤©åľ° éĹ´
çĿģ å¤§äºĨçľ¼çĿĽ
åħ¨èº« çļĦ
æĭĶ åĩº
èĿ ĩ
ĠåįĬ æĻĮ
å°Ŀ è¯ķ
ä»Ĩ ä»İ
ĠèĻ½ è¯´
Ġèĭ¦ ç¬ĳéģĵ
å¤©èµĭ ç¥ŀéĢļ
ç£ķ å¤´
Ġä¼´ éļıçĿĢ
½ åĴ½
çļĦ æīĵ
ä¸Ģ ä»£
åľ¨ ä¸Ģä¸ª
ĠæĪĳ è§ģ
ĠæĪĳ ä¸įèĥ½
å°± å¼Ģå§ĭ
åī Į
å¿ĥ éģĵ
çľ¼ çľ¶
åıĳ æĬĸ
éķ¿ åķ¸
åĽŀ æĬ¥
ä½ı çļĦ
åıĪ ä¸įæĺ¯
åĲ¬ ä¸įæĩĤ
çĥ Ļ
Ġè¿ĺ æ²¡æľī
ä½ĵ ä¼ļ
åı¶ ä¸įç¾¤
åĪ« è¯´
ĠåĨ Ļ
ä¿¡ çī©
æĹ¥ åĲİ
çº¢ èı±æĻ¶éĴ»
çļĦä¸Ģ å¹ķ
åĮĸ äºĨ
è¡¨ è¾¾
æļĹ åĬ²
è¶³ è¶³æľī
æĭ¿ ä¸ĭ
å·´ åħĭ
åĲ¸ äºĨåı£æ°Ķ
Ġè°ģ ä¹Ł
è¿½ åĩ»
ç¿» èº«
Ġåħ¬ åŃĻæ¢¦çĳ¶
æŁĲ ä¸ª
ç§ģ äºº
è¡Įçľģ çļĦ
Ġç¢ °
ä¸¹åĬ²æľŁ æŃ¦èĢħ
æĤļ çĦ¶
çļĦ èį¯
ĠæĪĳ ä¸Ģ
Ġä½ł åºĶè¯¥
èĩª è¡Į
èĩª è§ī
æ°Ķ è¡Ģ
ä¸¤ ä¸ĭ
çĶŁ æĢķ
æ´ ¥
å·²ç»ı å¾Ī
å¨ ±
Ġåı¶ å°ĳ
åħ« å¤§å®¶æĹı
ç¾İ éĩĳ
åĳ¼ åĶ¤
å°½ åľ¨
å°½ åħ¨åĬĽ
éĤ£ä¹Ī ç®Ģåįķ
ä¸įå¾Ĺ å·²
ĠçŃī ä»ĸ
ĠåĪ« çľĭ
æ¥¼ ä¸ĭ
è´¥ äºĨ
çİĦ å¦Ļ
åĿļ éŁ§
æīĳ éĿ¢
Ġå§ļ åĲĽæŃ¦
çŁ¿ æ´ŀ
åįı è®®
Ġ p
Ġ ä¿®ä¸º
ģ ä¸ĭ
çļĦ å·¨
æĺ¯ çĶ¨
äºº èĥ½
åį ĵ
æł Ĺ
Ġä»ĸ åľ°
Ġä»ĸ å½ĵçĦ¶
éĤ£ éĿ¢
å£° è¯´
èĦ Ĭ
æĥ³ èĢĮçŁ¥
å¤ļ æĥ³
Ġä¸Ģ åº§
Ġæľ Ĺ
å¾Ī å¥ĩæĢª
åıĳ ä½ľ
æ³ķ çļĦ
Ġåı¯ è¿Ļ
Ġåıª è§ī
çľŁ é¾Ļ
å°±æĺ¯ ä¸ª
æ°´ æ½Ń
éĴ ©
ä¸ĩ å²ģ
çģ« æĬĬ
çģ« çĥŃ
èĲ½ åħ¥
å¼ł åı£
ĠæŃ£ èī²éģĵ
åħŃ ç«ł
å½¢ è±¡
æľīä¸Ģ èĤ¡
è·ĳ æĿ¥
å³ Ļ
å« ¡
å¥¥ åĬłæĸĩ
è¿Ĳ çĶ¨
çĪĨ è£Ĥ
ä¸īä¸ª æľĪ
Ġè·Ł æĪĳ
ä¼łæĿ¥ ä¸Ģéĺµ
çĽĽ ä¼ļ
èµŀ åĲĮ
Ġä¸Ģå®ļ ä¼ļ
æīĭä¸Ģ æĮ¥
ĠéŁ© å¥ķ
ä»Ĩ äºº
æŃĩ æģ¯
è¶ģ æľº
éĹªçĶµ èĪ¬
éŀł èº¬
åľ¨ åīį
åľ¨ ä¸Ģè¾¹
å¤§ ä»Ļ
Ġè¿Ļ ä¸ĢçĤ¹
åĩº å¤´
è¦ģ èµ°
æ²¡ æ³ķ
å¯¹ å¾ħ
å§ »
Ġä¸Ģ å¤©
æµ Ĭ
Ġå°± æĬĬ
Ġåı¯ å°±
å±± çİĭ
Ġä½Ĩ éĤ£
è¿Ľ åİ»äºĨ
Ġè¿ĺ ä¸įæĺ¯
é© Ń
Ġèĩ Ń
è½¬ çľ¼
åİŁ çŁ³
Ġéĩ İ
å°½ åĬĽ
æĿİ é¾Ļå®Ŀ
æĮ¥ æĮ¥æīĭ
Ġå§ ĭ
å±Ģ åĬ¿
å¤§å®¶ éĥ½
çĶ° çıĤåĦ¿
çĪ¹ çĪ¹
éĢ¼ è¿ĳ
åıĽ å¾Ĵ
åı¤æĢª çļĦ
çŃ¹ çłģ
ıéķ¿ æ¥ļ
ĠæĪ¿ éĹ´
çĭĦ æĸ¯å¡Ķ
¹ æĸ°
çļ Ĥ
çļĦ åĩłä¸ª
ä¸į çĲĨ
è¿Ļ ä¸«å¤´
æľī å¤§
ä¸ĭ éĿ¢çļĦ
Ġè¿Ļ åıª
Ġè¿Ļ åľº
åĩº éĿ¢
å°ı äºº
å¿ĥ åĬ¨
éĿ¢ ä¸´
å¯¹ è¿Ļä¸ª
Ġå¤ Ł
æµ Ĵ
èĢĮ åħ¥
èĲ Į
åĪĨ äºĨ
éĩį å¤§
äºĶ ä¸ĩ
å¸¦ äºĨ
éĿĴ çģ«
åĵį äºĨèµ·æĿ¥
åĿĲ éķĩ
åĽ´ çĿĢ
Ġä»İ å°ı
æ¯Ĵ èį¯
åŀ «
Ġèĥ ľ
çļĦæīĭ æĮĩ
åį¡ æīİ
åľĪ åŃĲ
Ġç½Ĺ æĸ¯
åºĵ æĸ¯
Ġç¾İ å¥³
ä¸į èµ·æĿ¥
ä¸į è®¸
åľ¨ åĨħ
å¤§ å®¶çļĦ
å¤§ åĵŃ
å¤§ æĭĩæĮĩ
ä¸Ń åįĪ
å¤´ å¸®
ĠéĤ£ åĲį
çľŁ å¿ĥ
å¥¹ åľ°
åĪĨ çļĦ
æ¯Ķ çĿĢ
çĲ ī
ä¿® å¤į
çİĭ åŃĲ
è¿ĺæĺ¯ æľīäºĽ
åĪļ å¥½
åįĬ å¤ľ
æĢĿ æĥ³
åįİ å±±
æļĹ åĻ¨
çĶ· æľĭåıĭ
Ġçľ¼ çľĭçĿĢ
ĠåĨį çľĭ
åİī å£°åĸĿéģĵ
çĵ £
æ¹ ¾
çº¿ ä¸Ĭ
åı· ç§°
éĻĪ éĽį
Ġç¬ĳ å®¹
çĺ ¾
å·« æķĻ
æ¬£ æħ°
æħĮ ä¹±
è·ª ä¸ĭ
ĠæĪĸèĢħ æĺ¯
Ġm Ã
åį¡æīİ åĽł
Ç İ
Ġ ä¸¢
çļĦ åĬŀæ³ķ
æĺ ¶
ä¸į èĥľ
åı ½
è¯ µ
ä½ł ä¸ª
ä¸ĭ è½¦
åī ª
éĢ ŀ
å°ı äºĭ
èĩª å¾Ĺ
æĮ «
èĢģ äºĮ
åĬ¨ åľ°
èĤ Ŀ
ĠåĲ ±
Ġçľĭ äºĨä¸Ģçľ¼
æį Ĩ
ä¿¡ ä¾¯
ä¸İ å¥¹
èģ Ĥ
ç¨ ½éĿŀ
ç²¾ å½©
Ġå¿ĥ å¤´
å¿ĥä¸Ń ä¸ĢåĬ¨
ĠæĢİä¹Ī åĬŀ
ç©¿ è¶Ĭ
ĠåĲ¬ äºĨ
ĠéĢ ī
Ġåĩł ä½į
è£ħ çĶ²
å¥½åĥı æĺ¯
ä¸įäºĨ å¤ļå°ĳ
åī§ çĥĪçļĦ
Ġå¤ª åŃĲ
åı¬ éĽĨ
Ġæĸĩ æ²³
Ġç¬ĳçĿĢ éģĵ
æĻĭ åħĥ
æ·® çĳ¾
ä¸į åıĺ
åĲ ı
ä»ĸ ä¸Ģ
å¤§ å°ĨåĨĽ
Ġè¿Ļ åĩłå¤©
Ġä½ł éĤ£
è¦ģ æĬĬ
ä¹ĭ éĹ¨
ç¥ ·
å®¶ ä¹¡
Ġä¸Ģ ç§į
èĦ¸ çļĦ
å¸Ī å°Ĭ
éĵ ®
çĮ Ĭ
çļĦä¸Ģ æĿ¡
å¸¸ å¸¸
ĠèĢģ èĥ¡
åħĥ åįİ
ĠæĿİ æ³°
å¾· æĸ¯
åĵį å£°
éļı ä¹ĭ
åĲĦ åľ°
éķĩ å®Ī
å¡ŀ å¾·æĸ¯
åĽł æŃ¤
å¿įä¸įä½ı çļĦ
èĵĿ åºľ
å¤©åľ° åħĥæ°Ķ
åĸĦ æĸŃ
èĿ İåŃĲ
Ġè¡Į äºĨ
ĠçĿ ģ
æ¹¿ æ¶¦
ç«ĸ èµ·
ĠåºŁ è¯Ŀ
¤ éħĴ
Ł éĥ½
çļĦ åĴĮ
ä¸Ģ æ¨¡ä¸Ģæł·
å° ¿
è¿Ļ ç¾¤
æĪĳ åķĬ
å°± æĽ´
æĬ ¢äºĨ
å± ¥
ĠæŀĹ éĢļ
å¤ļ è¾¾
æĪĲ è¿Ļæł·
éķ¿ åıĳ
çľŁ éŃĤ
æĺİ ç¡®
éĩĳ çŁ¿
åħĪ æĺ¯
åħ¨ åĨĽ
ĠæŀĹæĻļèį£ åĲ¬å¾Ĺ
åĭ º
éĿĴ èī²
Ġéĥ½ èĥ½
å®¹ ç´«èĭ±
å®« æ®¿
æľį çļĦ
èĭ¦ æ¶©
æķĻ ä¼ļ
æ¶Ī çģŃ
æ¨ ±
è°ģ éĥ½
Ġä¸ī ä½į
ĠèĻ½çĦ¶ ä»ĸ
ä¾Ŀ èİ²
æİī å¤´
Ġäºº ç¾¤
éģĩ ä¸Ĭ
èŃ¦ åį«
Ġç® Ń
ä¸įéĶĻ çļĦ
ç¬¼ éģĵ
Ġæ°Ķ åĬ¿
Ġç¦ Ħä¸ľèµŀ
èµĮ çŁ³
è´´ èº«
éŁ© ä¸īå¼º
Ġç®Ģ åįķ
Ġå¾Īå¿« å°±
ĠåħĦå¼Ł ä»¬
ĠæĺŁçĴĩ éģĵ
Ġå®¹ åº·
çĽ¸è§Ĩ ä¸Ģçľ¼
ä¸į åħ¥
äºº çļĩ
ĠæĪĳ åĨĽ
ĠæĪĳ æĢķ
çľĭ ä½ł
å¤´ éĽķ
éĿ¢ æĹłè¡¨æĥħ
ç¥ŀ ç»ı
æĹł èĥ½
è¯Ŀ çļĦ
å½ĵ çļĦ
åĽĽ äºĶ
ä¿® åĽł
Ġåį´ åĲ¬
å¼Ł åħĦ
æŃ¥ ä¼Ĳ
åįĬ æĪª
æ¢ ¨
Ġæĸ¹ æŀĹ
Ġè¦ģ ä¸įè¦ģ
åŃ¦ éĹ®
è®¸ æĢ»
æ£ ī
æĺŁ çŁ³
èĮ ¬
Ġéļ¾ ä»¥
åĹ Ĵ
ĠçŃī å¾ħ
åĬ² é£İ
é»ĺ çĦ¶
Ġé»ĳ è¡£
çıł å®Ŀ
ç§ĺ æľ¯
æł¹æľ¬ å°±ä¸į
é»Ħ èī²
å¼Ħ å¾Ĺ
åĳĬè¯ī ä»ĸ
èħ¿ ä¸Ĭ
ĠéĿĴ éĺ³
çĭ± å³°
éķľ åŃĲ
ĠæŃ» äºĨ
ä»İæĿ¥ æ²¡
åĮĨ å¿Ļ
æĶ¾åľ¨ çľ¼éĩĮ
æĦ§ çĸļ
è¿« ä¸įåıĬå¾ħ
æĳ© æĵ¦
æ¼Ĥäº® çļĦ
éŃħ åĬĽ
Ã ²
éĽ ³
è¿ĩ å¤´åİ»
éĤ£ å°ıåŃĲ
éĿ¢ åŃĶ
ä¸ī å°º
æĹł æīĢè°ĵ
Ġåį ĸ
é«ĺ å±Ĥ
æī¬ èµ·
ç§į ç§į
Ġè¿ĺ ä¸įå¦Ĥ
éĩį å¤į
åĲį åı«
éĩĳ èī²çļĦ
å¢ Ł
æİ¥ å¾ħ
Ġæľī çĿĢ
Ġå¯ ¼
ä¼ł å¥ĩ
éļ¾ æĢª
Ġçİ°åľ¨ æĪĳ
Ġéĺ ®
çļĦå¤§ éĹ¨
èµ¶ è·¯
èĦ¸ä¸Ĭ éľ²åĩº
éĢĥ èµ°
ä¸¾ çĿĢ
ĠåĽĽ å¤§
é¡º æīĭ
Ġç½ ¢äºĨ
å¯Į è´µ
æĢİ ä¼ļ
çĬ¯ äºĨ
æµĵ æµĵ
æĥ¯ äºĨ
Ġè®° å¾Ĺ
ĠæĪĳçľĭ ä½ł
åİĨåı² ä¸Ĭ
åıī åıī
ĠçĶ° çıĤåĦ¿
ĠçķĻ ä¸ĭ
æįĤ ä½ı
åĲģ åĲģ
ĠæŀĹéĽ·åĴĮ è´Ŀè´Ŀ
Ġ i
çļĦ ä»Ļ
å® ħåŃĲ
æĿ¥ è¿ĩ
åľ¨ èº«
æ² ¦
æķ ¦
æĭ Ł
æĹł äºĭ
éķ ¶
æĥħ æĻ¯
ĠåĲ ŀ
Ġä½Ĩ è¿ĺæĺ¯
Ġä¹Ł ç®Ĺ
Ġåľ¨ è¿Ļç§į
æĥĬ è¯§
å®Į æĪĲäºĨ
Ġåĩ ĳ
ç¬¬ ä¸ĥ
ç²¾ éĢļ
åĪ© äºļ
æĲ Ģ
èĦĳ åŃĲéĩĮ
çĨ ı
ĠçĦ¶åĲİ å°±
åģľ æŃ¢äºĨ
ĠæĬĬ ä»ĸ
çĽ´æİ¥ æľĿ
èĪĴ åīĳ
æľīä»Ģä¹Ī åħ³ç³»
æĳ¸ äºĨ
ç»§ç»Ń è¯´
éģį äºĨ
éĹ· åĵį
Ġæ® ĭ
Ġçº¢ å£¶
æģŃæķ¬ éģĵ
Ġçĸ ¾
éģ® æİ©
ĠæĹ¥ åĲİ
åĸĥåĸĥ éģĵ
æķ£åıĳ çĿĢ
ĠåĽ¾ ç´¢ä½Ĳ
æĢł æħ¢
Ġ k
åľ¨ åīįéĿ¢
å¤§ èĽĩ
Ġä½ł æ²¡
åī Ķ
åĲİ èĥĮ
èĩª è±ª
æĶ ĺ
Ġåı¯ æĪĳ
èµ° è¿ĩ
å®ļ è¦ģ
Ġå°ı å§ĳå¨ĺ
Ġå°ı èļ©æ¯Ľçºł
ä¸ĩ ä¸ĩ
åı« äºº
Ġå½ĵ ä»ĸ
æ·± åİļ
å¤« å¦ĩ
çĶµ åŃĲ
ç»ĵ å±Ģ
æĺĵ è¡į
ĠçŃī ä½ł
çĽ´æİ¥ è¢«
çļĦéĤ£ æł·
æļ´ éĽ¨
åĲĵ åĶ¬
ĠåıĮ çľ¸
éĺ¿ å¥´
æľĢåĲİ ä¸Ģä¸ª
åĨĻ çĿĢ
èĮ¶ æĿ¯
æĲŃ çĲĨ
ç§Ĵ ç§į
çŀ¥ äºĨ
çİ² çıĳ
éĶ» çĤ¼
Ġå¥½æ±ī ä»¬
ç¬ĳéĿŀ ç¬ĳ
Ġ d
Ġ ----
ä¸Ģ å¿ĥ
æľī ä¸¤ä¸ª
åľ¨ æĪĳä»¬
èº« åİ»
èĦ ĸ
å¯¹ ä»ĸçļĦ
æ¸ħ å½¦
èĢģ é«ĺ
å¦Ĥ éĽ·
åıĳ åĳĨ
æīį éģĵ
é«ĺ å¼º
Ġå¤§ æŃ¥
Ġåı¶ çĪ·
åıĺ å¼Ĥ
Ġç¬¬ ä¸Ģä¸ª
Ġä¸įè¿ĩ åĤħæ¸ħæī¬
é©¬ åºĵæĸ¯
è·Ł ä»ĸä»¬
æĶ¾ ä¸ĭäºĨ
å®Į èĽĭ
Ġä½Ĩæĺ¯ çİ°åľ¨
å¼ł æľĽ
åħ« åįģ
åĵª ä½į
å½¢ æĢģ
æķĻ çļĩ
åºľ ä¸Ń
Ġå°±æĺ¯ ä¸ºäºĨ
ĠæĤ ²
æİ¨ æ¼Ķ
æ¥¼ çļĦ
æłĳ ä¸Ĭ
èĩªçĦ¶ ä¸įä¼ļ
ĠæĪĸ æĺ¯
ĠçŁ ®
çĺ «
æĸ¹äºĳ çļĦ
åĲ« ä¹ī
æħķ çĻ½
æī§ äºĭ
Ġå°±åľ¨è¿Ļ æĹ¶
æ³°åĴĮ ä¼ļ
¹ éĽ³
Ġ ä¸ĵéĹ¨
çļĦ åĨħ
æĢ ¦
Ġä½ł éļ¾éģĵ
èĩª æĪĳ
æĥ³ è®©
Ġå¥ ´
èĪ Ķ
æŃ» åĲİ
å°Ĩ èĩªå·±
åŁ ĥ
è¡Į åĨĽ
åĲ¬ æĪĳ
åīĳ å½±
åĲĳ å¤ĸ
Ġæĺ¯ ä»ĸ
çĽ¸ åħ³
æīĢ ä¸º
ä»Ĭ å¹´
Ġå½ Ń
åı« ä»ĸ
Ġä»ĸä»¬ éĥ½æĺ¯
ĠçĶ ļ
èĬ± äºĨ
å¹² æİī
åĸĿ èĮ¶
çº§ éŃĶæ³ķå¸Ī
åıį åĢĴ
åħĦå¼Ł ä»¬
èĥ¡ ä¹±
ĠçĻ½ è¢į
çļ± äºĨä¸ĭ
å²ģ æľĪ
ĠåİŁæĿ¥ å¦ĤæŃ¤
èĢĥ æł¸
èº² å¼Ģ
å¼Ģåı£ äºĨ
Ġé£İ çĭĤ
è¯¸ èĳĽ
è¿ĺä¸į å¦Ĥ
Ġä½ķ å¤©çª¦
Ġéª Ĥ
èº«æĹģ çļĦ
ç¹ģ åįİ
å±ı å¹ķ
ç¦ħ å¸Ī
èĢ½ æĲģ
ĠåŃĶ å¼©åĦ¿
å¹½åĨ¥ æŀľ
Ġè´º èĢģä¸ī
å«ī å¦Ĵ
è ©¹å°¼
Ġç £
éģĵ éĹ¨
æľī çĶ¨
ä¸ª ä¸įåģľ
éĩ ī
å¤§ æĸ¹
å¤§ ç¬ĳçĿĢ
æ³ ³
ĠæŀĹ å¤©åįĹ
ç® ĵ
åħī éĹªçĥģ
Ġæī Īä¸īå¨ĺ
åıĪ è¢«
å¼º å£®
å¤ĸ è¡¨
åģļ æ³ķ
åı¶ åħĪçĶŁ
çĽ¸ ä¼¼
Ġå¥¹ è§īå¾Ĺ
ĠæĪĳä»¬ éĥ½
Ġå½ĵ æĹ¥
å¹³ æ·¡
åįİ å®ī
åĻ ľ
Ġè®© æĪĳä»¬
Ġè¿Ļæĺ¯ ä¸ª
æ¥ļ æ¥ļ
åĲ¸ æķĽ
Ġå§ ¬
Ġè°ģ æķ¢
æķĳ äºº
éĻ¢ åŃĲéĩĮ
ĠçĪ Ĩ
ĠçŁ ¥
ä»ĩ äºº
ä¹Łæ²¡æľī æĥ³åĪ°
ç¢° åĪ°äºĨ
ä¸įè§ģ å¾Ĺ
Ġèĥ¡ è¯´
åķ¸ å£°
Ġä¸įçŁ¥ ä¸įè§ī
æĿ¨ æĺİåįİ
èģªæĺİ äºº
åĭ¾ ç»ĵ
å¿½ åľ°
ç´§ç´§ çļĦ
åĸĺ åĲģåĲģ
åĴ§ åĴ§
æīĵäºĨä¸ª å¯Ĵ
Ġæ¯« æĹł
ç¥Ŀ ç»´é£İ
å½ª æĤį
ĠéĻ¤æŃ¤ ä¹ĭå¤ĸ
Ġ éģ¥
çļĦ ä¿®å£«
äºĨ èĩªå·±çļĦ
æľī åĩł
è¯´ è¿Ļ
Ġä½ł èĭ¥æĺ¯
éĤ£ åī¯
åº ĩ
ä¹ĭ ä½Ļ
è¡ Ķ
å°ı æ³ī
èĥ½ è®©
åĵ ī
ĠæŀĹ åĨ²
åĬ¨ äºĨä¸Ģä¸ĭ
Ġä½Ĩ è§ģ
èµ° è¿ĳ
å¥³ å£«
Ġå¤§ æ®¿
ç¼ ´
å°±æĺ¯ æĪĳ
æĦŁ æĤŁ
æĸ¯ åĿ¦
åºĶ å¯¹
æĶ¾ åĪ°
é¢Ĩ åľ°
åł ĥ
ä¸įèĥ½ ä¸į
çĶµ åħī
Ġå°±æĺ¯ æĪĳ
Ġèº« è¾¹
èĨ ı
å·§ çļĦ
å¿µ åı¨
ä¸¥ åİī
è£Ĥ å¼Ģ
çĶ» åŁİ
çļĦç¥ŀ éĢļ
å¹¸ è¿Ĳ
åĲ« ç³Ĭ
åĬ« åĮª
å¹¿ åĳĬ
æĤĦ æĹłå£°
Ġæ²ī å£°éģĵ
éĶĢ éĩĳçªĿ
Ġçĺ ¦
Ġ ä¹ĭåĲİ
Ŀ åĵģ
çļĦ åĦ¿åŃĲ
ä¸į ç¦»
ä¸į æĦ¿
ä¸į éĢı
åĩ ¹
Ġ: âĢĺ
åľ¨ è¿ľä¸ľ
åľ° åľ¨
åľ° çĽ¯çĿĢ
Ġåı Ľ
ĠãĢĤâĢĿ îĢĦ
Ġä½ł æĿ¥
åĴ ĭ
éĢ µ
å°ı éĺŁ
å¿ĥ çģµ
çĤ «
å¯¹ æŀĹéĽ·
ç¥ŀ åĤĢåĦ¡
Ġå¥ ¶
åĬ¨ çĶ¨
Ġä¹Ł å¥½
æŃ» æŃ»çļĦ
å·²ç»ı å®Įåħ¨
å°Ĩ è¿ĳ
æŃ£ ä¸Ń
åį´ æ²¡
åį´ å¾Ī
åĪĨ è¾¨
çĽ¸ è¯Ĩ
åĳ½ äºĨ
ç¦» çľŁäºº
ä¸ĸ æ°ĳ
å¾· æŀĹæŁ¯æ²ĥçī¹
åıĮ åīĳ
ä»¤ ä¸ĭ
å¿ħ æŃ»
Ġåĭ ĩ
Ġè¿ŀ ç»Ń
å¿į èĢĲ
ç¦ģ åľ°
åıĸ å¾Ĺ
ĠéĽ· æŀĹ
ä»¥ä¸º èĩªå·±
ĠæĿ¥ äºĨ
çĶ» åį·
æĬĹ è¡¡
ĠèĲ§ å®¶
æ¦Ĥ å¿µ
ç¬¦ æĸĩ
æĨ ¨
å¿ħé¡» è¦ģ
Ġå¦ĤæŃ¤ ä¸ĢæĿ¥
æĮ£ èĦ±
åĵĢ æ±Ĥ
çļĦæ°Ķ åĬ¿
æĸ¥ åĢĻ
ä¿ı èĦ¸
ãĢģ âĢľ
çĭĦ èįĴ
ç§Ĵç§į åĲİ
Ġ çļ®
çļĦ çĶ·åŃĲ
çļĦ æ¯įäº²
ä¸Ģ æī¹
Ġä½ł æĬĬ
è¿ĺ è®°å¾Ĺ
ä¹ĭ ä¸º
ä¹ĭ å¢ĥ
ç¬ĳ äºĨä¸Ģå£°
äºĭ åĬ¡
å¤ļ æĹ¶
å¤ļ æľĪ
ä¸¤ ç§į
Ġæľ ĭåıĭ
Ġå¤§ çº¦
åģļ è¿ĩ
åĨį å¤ļ
åĨį ä¹Łæ²¡æľī
æĿĢ æŃ»äºĨ
åħ¬ éĩĮ
ç² ĺ
æ® Ĩ
å¸¦ æĿ¥äºĨ
æī¾ ä»ĸ
æī¾ æŃ»
Ġä½Ĩæĺ¯ ä½ł
åĸľ èī²
çł´ è§£
æķĻ ä½ł
ç»ĵ åĲĪ
åİī éĽ·
å¢ĥ åĨħ
éĤ£ä¹Ī å¥½
åĩºåİ» çļĦ
æĦ£ äºĨ
Ġéķ¿ åį¿
å°Ĭ éĩį
Ġçģ °
åħħ æĸ¥
å»º éĢł
ç¨³ å®ļ
åıĳçĶŁ çļĦäºĭæĥħ
ä½Ĩ æĺ¯
æ¯ģ äºĨ
è¸ª å½±
Ġçģµ åĦ¿
Ġåĵİ åĵŁ
Ġå¤´ åıĳ
Ġæľª å¿ħ
Ġåĳ¨åĽ´ çļĦ
ç©ºæ°Ķ ä¸Ń
æ´ĭæ´ĭ çļĦ
ç¥ŀéŃĶ çĤ¼ä½ĵ
éħ¥ èĥ¸
Ġæĵ į
Ġå¦® ä¸Ŀ
Ġ ä»ĵ
æľī åĬŀæ³ķ
ĠæĪĳ åĳĬè¯īä½ł
Ġä¸Ģ ä¸ĭ
æĸ¹ èħĬ
é«ĺ æ¹Ľ
æľ¬ åĳ½
åıĪ èĥ½
ä¸ĩ ä¸Ģ
çĽ´ äºĨ
é»ĳ éĴ°éĩįåīĳ
ĠæŀĹæĻļèį£ ç¬ĳçĿĢ
ĠæŀĹæĻļèį£ çĤ¹çĤ¹å¤´
åºĶ äºĨä¸Ģå£°
éħ ¬
åĩ» ä¸Ń
ĠèĢģ åħĶå¦ĸ
æ¥ ¹
ĠåıĪ æĺ¯ä¸Ģ
åŃ¦ åĳĺ
Ġèµ ¢
Ġèµ Į
Ġé¡ »
éĴ± è´¢
å·¨ äºº
æķ£ åıĳåĩº
ç©¿ çĿĢä¸Ģ
ç´« èįĨ
æ¸© ä¸įåģļ
Ġèĭ¥ éĿŀ
æľŁ çĽ¼
ĠåĽłä¸º æĪĳ
å¥¥ å¸ĥéĩĮ
çļĦæīĭ ä¸ĭ
èĦ¸èī² ä¸Ģåıĺ
å°¸ çħŀ
ç»§ç»Ń éģĵ
Ġéĩį éĩį
èıľ åĪĢ
çħŀ çĻ½
èĿ ī
éļĲéļĲ çļĦ
ä¸Ģä¸ĭåŃĲ å°±
çĪ¬ èµ·æĿ¥
éĴ¢ éĵģ
ĠéĽªè§ģ éģĵ
èĢģå¤ª å¤ª
Ġä¹Ĳç¾Ĭ çĶľ
æµĴ ä¸īæĿ°
© åºı
çļĦ è¦ģ
éģĵ è§Ĥ
åľ° åĨ²
Ġè¿Ļ ä¼ļ
å¤´ çĸ¼
éĺ ±
åīį æīĢæľª
æĹł å½±
Ġåį ł
å·²ç»ı å¼Ģå§ĭ
å¥³ åŃĲçļĦ
è¿ľ åı¤
Ġæĺ¯ ä¸Ģä¸ª
åģļ ä¸»
æĿĢ äºĨä»ĸ
æ¶ ¯
è£ ¸
æĢ¥ å¾Ĺ
çļĩ å®¤
ĠæĿİ æŃ¦éĻµ
è¶Ĭ å¤ļ
åĵª åĦ¿
ä¹¦ æĪ¿
æĬ± æĢ¨
ĠéĻĪ éĽį
ä¸ĢçĽ´ æ²¡æľī
åĪļæīį çļĦ
ĠèĤ ²
çĩķ ä¸¹
ĠåĲĦ èĩª
Ġæ¬ ¡
Ġå¾Ĺ åĪ°
ä¼Ł å¤§çļĦ
ç³Ł ç³ķ
æĹłè¯Ń çļĦ
Ġåı¹ æģ¯
å®¾ é¦Ĩ
åĭĥ çĦ¶
åħĥèĢģ ä¼ļ
Ġç¥Ŀ ç»´é£İ
ķ åıĺ
Ľ åŃĲ
ä¸Ģ è·³
è¿Ļ åī¯
ä¸Ĭ ä¸Ģæ¬¡
å¤§ åĲį
ĠæĪĳ åĸľæ¬¢
ä¹ĭ ä½į
å°ı æĹ¶åĢĻ
èº« å¤Ħ
è· µ
Ġä¸Ģ åīĳ
æĪĲ ä¸Ģä¸ª
åĿ ª
äºİ æĪĳ
èµ° å»Ĭ
Ġå¤§ çİĭ
é£İ çĭĤ
äºĳ å¨ĺ
åĽĽ ä¸ªäºº
æļ ®
éĢļ ä½ĵ
éħ ¿
çŁ³ çŁ¿èĦī
å¼ł èĦ¸
æĸĩ æĺİ
è§£ å¼Ģ
ĠæĿİ æ¸ħ
æ£ º
æĭī å¼Ģ
çĤ¼ æ°Ķ
åĺ´ è¾¹
çľ¼çĿĽ éĩĮ
å°Ķ é©¬
èĳ ±
æ¸© é¦¨
ĠéĢ ł
æĬĵ èµ·
åįĹ æĸ¹
Ġè¿ĺæľī ä»Ģä¹Ī
ĠäºĮ åĵ¥
è£ħ ä½ľ
éĵ¶ éĴĪ
è°ĥ åĬ¨
è¹ Ń
çİ¯ ç»ķ
å¥Ķ è·ĳ
åĪĺ èĢģåħŃ
å¤©ä¸ĭ ç¬¬ä¸Ģ
Ġæł¹æľ¬ å°±
Ġéª ¤
æ´Ĺ æīĭ
éĻ· åħ¥äºĨ
å¯º åºĻ
éŃĶç¥ŀ åł¡
è¶³å¤Ł çļĦ
åħīå¤´ å¦¹
åħ® åħ®
Ġåł ª
çĬĢ åĪ©
åĲŃ å£°
å¨± ä¹Ĳ
Ã ¬
çļĦ çĪ¶äº²
äºº ä¹Ł
äºº åķĬ
ä½ł è¿Ļä¸ª
ä¹Ł è§īå¾Ĺ
èµ Ŀåĵģ
éĿ ©
å¤´ èĽĩ
åĢ ļ
Ġå¤ º
äºĨä¸Ģ åįĬ
äºĨä¸Ģ ç¤¼
æģ Ļ
åįģ ç±³
æĺİ çİĭ
å·²ç»ı ä¸į
å®ŀ è´¨
Ġå°ı ä¸«å¤´
è½» èĶĳ
åħ¬ å¼Ģ
æİ¥ ä¸ĭæĿ¥
å®ģ æĦ¿
åĵį äº®
æĢĴ äºĨ
æĿİ ç»§å®Ĺ
çļĦå¤§ åĨĽ
ĠçŃ Ķ
ĠåĲ¬ ä»ĸ
ç´¢ æĢ§
Ġä¸Ĭ ä¸Ģæ¬¡
èĢ³ ä¸Ń
åĮĹ åĨ¥
ĠåħĪ æĺ¯
æ°ı å®¶æĹı
åĩłä¹İ æĺ¯
è½° åĩ»
åºĹ éĵº
Ġä½łæĢİä¹Ī çŁ¥éģĵ
è®¨ å¥½
äºĨåįĬ æĻĮ
æŃ£å¸¸ çļĦ
èĮĥåĽ´ åĨħ
çī¹æ®Ĭ çļĦ
Ġä¸ĢåĪĩ éĥ½
ĠåĬ¨ ä½ľ
ĠåİĨ åı²
^ ^
ä¸Ģ æŃ»
äºº æīį
åĨ ½
æĪĳ åĳ¢
å¤© éĿĴ
å¤© æ®¿
å°ı å¼Ł
èº« æīĭ
ç¬ĳ äºĨåĩłå£°
æĥ³ äºĨä¸Ģä¸ĭ
åīį çº¿
Ġå¥ Ī
Ġåı¯ ä»ĸ
æĪĲ ä¸Ģçīĩ
Ġçİ ©
Ġåı¯æĺ¯ æ²¡æĥ³åĪ°
æľĢ æľī
ä¿® ç½Ĺ
Ġè¯´ æĿ¥
Ġå¥½ ä¸įå®¹æĺĵ
è·¯ äºĨ
ĠèĢģ æľ½
æµģ çļĦ
å¹¶ ä¸įçŁ¥éģĵ
å½¢ æĪĲçļĦ
èĦļ çļĦ
æıĲ åĪ°
èĸ Ľè¶ħ
æĶ» åŁİ
é¡¾ å°ıåĨĽ
éª¨ éª¼
èĹı çĿĢ
ä»· éĴ±
Ġæīĭ æĮģ
æŁ¥ çľĭ
åĵŃ äºĨ
ĠåĿ Ĺ
èļ Ĭ
æĺ¥ èĭ¥åħ°
çĿģ å¼ĢäºĨ
Ġéĩį éĩįçļĦ
å·« å¸Ī
å¼¯ åĪĢ
ç»µ ç»µ
ĠåĶ¯ çĭ¬
ĠçĽĸ èĮ¨
é»ĳè¡£ äºº
éŃģ æ¢§
ç¡ķ å¤§çļĦ
å¤§çĩķ æľĿ
Ġå» º
ä¸ľå°¼ é©¬åºĵæĸ¯
Ġå°ī è¿ŁéĽª
ĩ æ´Ĵ
çļĦ éĥ¨éĺŁ
çļĦ åĳ½ä»¤
æľī æŃ¤
ĠæĪĳ éĹ®ä½ł
Ġä½ł åį´
éĥ½ å¾Ĺ
å¿ĥ æĦ¿
åĴĮ äºº
è¾ ĪçļĦ
ĠéĤ£ é»ĳ
æĮ Ł
Ġåį ·
Ġåį ļ
åķ ¤éħĴ
åıª å¾Ĺ
Ġæĺ ı
çĻ½ åħī
ä¸įæĺ¯ ä½ł
èµ° ä¸Ĭ
äºĮ äººçļĦ
å¥³ æľĭåıĭ
æŃ£ è§Ħ
åĲĳ ä¸ĭ
Ġè¿ĺ åľ¨
é© ¼
Ġçľĭ åĲĳ
äº² çĥŃ
æĽ´ å¥½
ä¸ĸ åłĥ
æµģ æĺŁ
æİĮ æ³ķ
ç²¾ èĭ±
å¡ ĺ
éĹª èº²
ĠèĻ½çĦ¶ æĺ¯
æł¼ æĭī
ĠçľŁ åľ°
ĠæĮ Ĥ
æ£® æŀĹ
ç¿» äºĨ
åĪĿ æľŁ
ä»¥ä¸º æĺ¯
çļĦå°ı æīĭ
æĸ½ ä¸»
ĠåĽĽ å¾·
ĠåĽĽ ç¥ŀåħ½
å°Ħ èĢĮåĩº
æĪĸ æĺ¯
ĠæľĽ è§ģ
èµµ ä¾ĥ
èµĮ åľº
åĲ´ éģĵåŃĲ
Ġçºª æ°ı
å¿½ çķ¥
æĴĴ è°İ
ç° Į
ĠèĪ ¹
åºĨ å¹¸
çĵ· åĻ¨
Ġçº¨ç»ĶæīįåŃĲ éļĲèĢħ
ĠæŀĹæĻļèį£åĺ¿åĺ¿ ä¸Ģç¬ĳ
çĽĶ çĶ²
Ġæĩ Ĵ
® ä¸§
Ġ è¿ĩæĿ¥
çļĦ çİī
æĺ¯ åĲ§
ä¸į çĪ½
åŃ ľ
æĪĳ èĩªå·±
è¯´ äºĨä¸Ģéģį
åĩº ä»·
Ġä»ĸ ä¸Ģ
ä¹ĭ èº«
å°ı ä¸«å¤´
çĤ ģ
Ġ!âĢĿ ......
ĠéĤ£ ä¸ªäºº
ä¸ī åĲį
å·² è¢«
å¦Ĥ çİī
åıĳ çĻ½
é«ĺ å¤§çļĦ
Ġå¤§ å¸ĪåħĦ
æŃ£ ç¡®
é© ´
ĠæĿ ¾
æĿĢ ä¼¤
åħĪ åİ»
Ġæĸ Ĳ
Ġæĥ ¹
éĿĴ éĵľ
å¹³ åİŁ
åı¯èĥ½ ä¼ļ
æ²ī éĩįçļĦ
å°½ æĺ¯
Ġäºº çĶŁ
éĽĨ ç»ĵ
æľ¨ å¤´
ĠåĪ° çİ°åľ¨
ä¸ĢçĤ¹ éĥ½ä¸į
Ġåĺ Ń
å³° ä¸»ç¥ŀ
Ġéĺ¿ èĽĭ
Ġæ¯ı ä¸ªäºº
Ġæ¸© å®¶
æ¹ĸ æ°´
ä»ĩ å¯Į
å¥ĭ åĬĽ
æĮĤ åľ¨
ĠçĶŁ åĳ½
Ġèĳ£ å·§å·§
æ³ķåĪĻ çİĦå¥¥
Ġåıĺ å¾Ĺ
Ġä¹Ķ å®īéĻĽä¸ĭ
æĦŁåºĶ åĪ°
éĿĴé¾Ļ ä¸ĢæĹı
ĠçĻ» æĹ¶
èĵĿçĽ¾ å®¶æĹı
ĠåŁºæľ¬ ä¸Ĭ
Ġ ä¸Ŀ
ä¸Ģ ç©º
ä¸Ģ æĹ©
åľ° ç¡®
ä¸Ĭ æł¡
å¤§ éĺŁ
ĠæĪĳ åĢĴæĺ¯
çľĭ æ¸ħæ¥ļ
çľĭ ä¸įæ¸ħ
Ġä»ĸ ä¹Łæĺ¯
ä¹ĭ ä¸ŃçļĦ
å°ı åŃ©åŃĲ
å¥½ åķĬ
ç¬ĳ åĲŁåĲŁ
å½ ¬
ĠæŀĹ çĿ¿
ç¥ŀ åĬŁ
Ġå¥ Ķ
åĸ ½
å¹´ å¤´
çľŁ æľī
é£İ éĽ¨
æĪĺ ä¸Ń
åĲį å°Ĩ
Ġå® ½
æīĢ è§ģ
Ġåį´ ä¸įçŁ¥éģĵ
è¡Ģ æ¶²
æĢķ ä½ł
Ġç» Ħ
å®ī ç¢§å¦Ĥ
æµģ è¡Ģ
ä¹Ŀ åŃĲ
å®Ŀ çŁ³
ç´« èī²
çħ§ èĢĢ
ç¬ĳçĿĢ è¯´
è°¢ æĸĩæĺĬ
çİ© çļĦ
ĠäºĮ æĿ¥
è¿Ľåħ¥ åĪ°
Ġæīĵ å¼Ģ
çĭ¬ åŃ¤æĺŁ
åĩ¶ æīĭ
æ¬º éªĹ
ç¬¦ åĲĪ
Ġçł ¸
è¯¸ äºº
ĠæŁ Ĳ
Ġä¸Ģå®ļ æĺ¯
æħ¢æħ¢ çļĦ
Ġåħīæĺİ ä¸»å®°
èĤĸ éĿĴçĴĩ
èĩ³é«ĺç¥ŀ åĻ¨
Ġå§ĳ å¨ĺ
æ¸´ æľĽ
Ġæ²¿ çĿĢ
çļĦ åİīå®³
æľī ç¤¼
æĿ¥ åĪ°è¿ĻéĩĮ
æĿ¥ å½¢å®¹
Ġè¿Ļ æŀĹéĽ·
Ġä½ł ç»ĻæĪĳ
éĤ£ æĹ¶
èº« ä¾§
ä¼ļ æĺ¯
ä¼ļ éķ¿
Ġä¸Ģ åıĺ
Ġå°± åĩŃ
ĠåĲ ¹
æīĵ æĪĳ
å·²ç»ı æľīäºĨ
ĠåĪ ¶
å®ŀ éĻħ
Ġå°ı æ²Ļ
ĠåĨ µ
é£ŀ æī¬
çº¢ åħī
æ»¡ æĦıçļĦ
èĽ Ļ
ä½İ çĿĢå¤´
è°ģ èĥ½
å·¨ åīĳ
æĢĢ æľĶ
è¯´è¯Ŀ çļĦ
éĽĨ åĲĪ
ä¸½ çī¹
Ġè´Ŀè´Ŀ äºĮäºº
çļ± äºĨ
æĻ® é¡¿
Ġæĺİ è¾ī
éģ¿ å¼Ģ
ç¯ ®
æĵį æİ§
æ½® æ°´
ĠèĦļ æŃ¥
ä¹łæĥ¯ äºĨ
Ġåı¦ ä¸Ģä¸ª
Ġç§Ģ å·Ŀ
Ġå© ī
ç»½ æĶ¾
ĠåĬª åĬĽ
Ġ f
Ķ éĺ³
ä»ĸ èĥ½
æľī æĪĲ
æĪĳ å®¶
çĽ Ĳ
Ġä¸į ä¹ħ
å¥½ çĶŁ
ç« ¯çĿĢ
çľ¼ ä¸ŃçļĦ
æµ Ķéĺ³
ĠèĢ ¶
å¨ Ł
æ°´ éĿ¢
ĠæĪĳä»¬ ä¹Ł
Ġè¯´ èµ·
éĺµ åľ°
åı« äºĨèµ·æĿ¥
Ġåĩ ¯
çĽ® ä¸Ń
çº¢ åı¶
è·¯ ç¨ĭ
æĮĩ æľĽ
æľĪ åħī
Ġéĥ½ æľī
åĲĪ åĬĽ
é¡¿ äº²çİĭ
ä½İ çļĦ
çķĻ çĿĢ
Ġæĭ ħ
éĢģ æŃ»
æĿ¾ äºĨä¸Ģåı£æ°Ķ
è£ħ å¤ĩ
åı³ çİĭ
Ġéķ¿ åıĳ
ĠçĪ µ
Ġæ¯Ķ ä¹ĭ
å¥Ķ åİ»
Ġå¥¥ å¸ĥéĩĮ
æ´Ľ æķı
æŁĦ åīĳ
Ġä¸Ń éĹ´
Ġ** *
ç§¯ ç´¯
èĤļ åŃĲéĩĮ
Ġå¸ĥ é²ģé»ĺ
çļĦèĦ¸ é¢Ĭ
Ġè¿ľä¸ľ åĨĽ
æĭīä½ı å¥¹
åİĮ æģ¶
é³ŀ çīĩ
ĠçīĩåĪ» ä¹ĭåĲİ
è®ª è®ª
Ġè´« åĥ§
Ġå¥Ī ä½ķ
çļĦ éĵģ
çļĦ çĶŁæ´»
çļĦ å¿µå¤´
ä¸Ģ åľĪ
ä¸į å¦¨
å¿ ¿
æĬ ¡
è¦ģ åģļ
çľĭ åľ°
åı¯ è°ĵ
ç¥ŀ é¼ł
çľ¼ çĿģçĿģ
å¥¹ äºĨ
Ġä¹Ł åıªæĺ¯
ç»Ļ æĤ¨
èµ° åĩºæĿ¥
æŃ¤ å¤Ħ
æĤ ´
éĩĳ çĮĬ
æĪĳä»¬ å°±
çĽ® éĩĳçĮĬ
Ġå¯¹ éĿ¢
æ»¡ æ»¡
éĿŀ åĩ¡
ä¼¤ äºº
å¥ĩ è¿¹
ä½Ľ éĻĢ
æ·¡ çĦ¶éģĵ
æķĻ èĤ²
å®Ĺ éĹ¨
æ¸© ä¸įèįī
ĠçĦ¶åĲİ åıĪ
ĠåĮ »
Ġè´Ŀè´Ŀ ä¹Ł
ĠæĮ ¡
ĠåĬ ŀ
åĽ¾ ç´¢ä½Ĳ
Ġè¿Ļä¸Ģ åĪĩ
Ġç© ¶
æ´Ľ å°ıå§Ĳ
ĠéŃĶæĹı çļĦ
ĠæŁ³ çĽ¸
ä¿ĿæĬ¤ ä½łçļĦ
Ġä¾Ŀ çĦ¶
åĨĽåĽ¢ éķ¿
ç¼Ŀ éļĻ
ç¥ŀç§ĺ çļĦ
ĠæŀĹæľĪå¦Ĥ éģĵ
Ġæĳĩ å¤´
å¤§æĥĬ å¤±èī²
çĹĴ çĹĴ
æĮ¥äºĨ æĮ¥æīĭ
į æĻļ
çļĦ äºĶ
ĠãĢ Ĺ
ä¸į åºĶè¯¥
è¿Ļ åıª
æľī åħ³ç³»
æĪĳ åĲ§
è¿ĩ ä½ł
å¾Ĺ åĥı
æĪ Ł
Ġå° ĸ
Ġä»ĸ åı¯æĺ¯
éĤ£ åĿĹ
éĽ· è¥¿äºļ
åĴĮ ä½łä»¬
ä»¥ ä¸ĬçļĦ
è´ ¡
ä¾ ¦
ä¸¤ å¹´
Ġä¸Ģ çĻ¾
æĹł åĲį
æĹł åıĮ
åĬ¨ ä¸įåĬ¨
ä»İ ä¸Ń
é«ĺ å£°
ä¸ľ çĢĽ
æ¯Ķ èĩªå·±
åħ¬ åħ¬
æķ° åįģä¸ĩ
çļĦä¸Ģ åº§
çļĦä¸Ģ åı¥è¯Ŀ
ç§Ģ åıĳ
èģ ĺ
æľº å¯Ĩ
åħŃ äºº
æµ· æ°´
æĭ¿ äºĨ
ä¸Ģä¸ĭ åĲ§
åĽ¢ åĽ¢
åĩĿ ç¥ŀ
æĩ Ī
æ¯Ľ çĹħ
å¤ļå°ĳ éĴ±
Ġè¢« äºº
çĥ¦ æģ¼
çĩ ¥
ç»Ŀå¯¹ ä¸įæĺ¯
èĦĨ åĵį
Ġä½łè¦ģ æĺ¯
ç¯ Ĩ
å¤§ç¬ĳ èµ·æĿ¥
åħ´å¥ĭ çļĦ
Ġæĭī ä½ı
ĠæĬ¬ èµ·
çĽ¯ ä½ı
ĠèĦĳ è¢ĭ
ĠåĵĹ åķ¦
å¥ĳ çº¦
ĠéĢįéģ¥ åŃĲ
Ġç¬¬ä¸Ģåįĥ ä¸ĢçĻ¾
ĠåĨµ ä¸Ķ
Ã ł
Ķ æĤ´
Ġå ŀ
åĪ ģ
è¿Ļ å¥Ĺ
äºº çĶŁ
åľ¨ æīĭ
å°± çŁ¥éģĵäºĨ
ä¸ĭ å®ĺ
Ġä½ł æľīä»Ģä¹Ī
éĤ£ èĤ¡
èĥ½ æĬĬ
ä¼ļ åľ¨
è§ģ å¾Ĺ
å¦Ĥ éĽ¨
Ġå°± è®©
åķ °
åĬ¨ äºº
èĤ ĺ
éķ¿ ç©º
çĻ½ çĹ´
èĬ Ĭ
è¿Ľ æĿ¥äºĨ
åīĳ èĬĴ
åĲĳ ä½ł
Ġå® ĺ
ä¸ĩ æĺ¥
åŁİ ä¸ĭ
è·Ł æŀĹéĽ·
ä¼ł åħ¥
èĲ½ äºĨä¸ĭæĿ¥
åį³ åı¯
çĹ ŀ
æŀģ äºĨ
ç»Ŀ æĬĢ
è¶Ĭ åıĳ
æĭ¿ æĿ¥
ä¿Ŀ åį«
åĻ¨ ä¹Ł
é¸ Ń
èĴ ²
Ġåĩł ä¸ªäºº
Ġæ²¡æľī ä»Ģä¹Ī
Ġå¾Ĳ éķ¿åį¿
èĥľ è´Ł
æķ¬ çķı
Ġçİī èĻļåŃĲ
Ġåįĥ ä»ŀ
ĠæŁ ¥
èĸĦ çļĦ
ĠåĲ´ éģĵåŃĲ
Ġè´Ŀé²ģçī¹ å¤§äºº
ä¸Ģä¸ªå°ı å°ıçļĦ
æĶ¹åıĺ äºĨ
ĠçļĦç¡® æĺ¯
ĠçĲ ¼
Ġç¦» å¼Ģ
Ġèľ Ģå±±
çļ±äºĨä¸ĭ çľīå¤´
äºĨ æĻĥ
ä¸Ģ ç¬Ķ
ä¸į å¦¥
è¿Ļ èĤ¡
åŃĲ éĩĮçļĦ
æ² ®ä¸§
å¾Ĺ ä»ĸ
ĠéĤ£ ä¸įæĺ¯
å®¶ åºŃ
çĶŁ éķ¿
æĪĲ éķ¿
æ· ĺ
Ġæī ¿
é«ĺ æĺİ
é£İ çļĦ
åģļ åĩºäºĨ
æĥĬ å¼Ĥ
åħ¬ åŃĲçļĦ
åĩºæĿ¥ åľ°
é©¬ åĪĢ
åĪ« æĥ³
åĽ½ å¤ĸ
çº¢ åĨĽ
ä¸Ģæł· åľ°
çħ ®
å¥ĩ å¼Ĥ
éĶĻ æĦķ
ç²¾ æĺİ
å¸® çĿĢ
Ġä»¥ ä»ĸçļĦ
Ġæ´ Ĺ
ĠæĮ ĳ
å¸Į å°ĶæĽ¼
æĥ¨ éĩį
åĴ¬ äºĨ
Ġéĩĳ æ¢¦æĿ¥
èĪŀ éĺ³
éŃĶæ³ķ éĺµ
Ġèµµ åº·å®ģ
Ġä¸įè¦ģ è¯´
ç¬Ķ çĽ´
æłĩ å¿Ĺ
Ġå¤ª å¥½äºĨ
èµĽ æĸ¯åĭĴ
ĠæĦŁ åıĹ
åĲķ å¸ĥ
éļĶ çĿĢ
è¿Ļä¹Īä¸Ģ è¯´
æĪĲäºĨä¸Ģ åĽ¢
èµ« çĦ¶
ĠåĻĹ åĵ§
Ġæĭľ æīĺ
åĹ¡ åĹ¡
âĢķâĢķ âĢķâĢķ
çļĦ éĿ¢åīį
ä¸į åĢ¼
äºº ä¸į
äºº å¤ļ
ĠæĪĳ è¿ĺæľī
ä¸Ń æĸĩç½ĳ
å¤© ä¸ĭçļĦ
åĴ ¸
åĴĮ æ¸©ä¹Ĳéĺ³
åīį åĲİ
è¯Ŀ ä¸įè¯´
èĢģ äºĨ
èĢģ çĪ¹
æµ ĩ
åĩł å¼ł
çĻ½ çĻ½
é£İ ä¸Ń
é£İ æł¼
åħĪ ç¥ĸ
ä»Ĭ åĲİ
è¨Ģ èĩªè¯Ń
å¸® æ´¾
Ġåıªæĺ¯ è¿Ļ
ä¸Ģçľ¼ å°±
æĿİ æī¿
åĩºä¸Ģ åı£
Ġè°ģ èĥ½
çĮĽ çĥĪ
æ£® ä¸¥
å¤ļå°ĳ äºº
Ġæīĭ ä¸ŃçļĦ
æ³¢ çº¹
å¡Ķ åĲŀ
åĭĩ æķ¢
Ġ1 2
Ġæ°´ éķľ
æĢľ æĤ¯
Ġåĵ¥ æĻ®æĭī
åĩĦ æĥ¨
Ġçĭłçĭł çļĦ
Ġä¸įå¥½ æĦıæĢĿ
åįłæį® äºĨ
èį¡èį¡ çļĦ
æ¢¨ èĬ±
å°± ä¸įä¼ļ
ç§ ©åºı
Ġä¸Ģ æĿ¥
æĹł éĻħ
èĢģ å¤«
èĢģ åħĪçĶŁ
çŃ ·åŃĲ
ĠåĲ §
å·²ç»ı æľī
åĪĨ éĩı
äºĳ è±¹
æĿĢ ä»ĸ
åĽĽ èĤ¢
Ġæĸ ľ
è·Ł ä¸Ĭ
å£« ä»¬
çļĦäºº é©¬
äº² å¯Ĩ
åºĶ æĺŁ
çģ« çº¢
ä¼¤ çĹķ
åĪĢ çĪ·
æĺ¯ä¸Ģ çĤ¹
æĹ¶éĹ´ åĨħ
Ġæĭ Ķ
æĭĽ å¾ħ
åħĭ åĪ¶
ä¸įè¿ĩ æĺ¯ä¸ª
çĭĤ æļ´
Ġæīį åıĳçİ°
ĠéĽ· æ´ª
ä¸įäºĨ çļĦ
éĹ®é¢ĺ çļĦ
åŃĺ çļĦ
ĠæĦ £
å´ Ķè´ŀçĪ±
ä¹Łæ²¡æľī ä»Ģä¹Ī
æ¶Į åĩº
åª Ľ
èĪį å¾Ĺ
Ġéĩį è¦ģ
åį±éĻ© çļĦ
æī¶ çĿĢ
ĠæĿľ æ¡¥
èĲ¨ æ´ĽèĴĻ
çļĦèĦ¸ åºŀ
æģĲæĢĸ çļĦ
è¿Ŀ èĥĮ
Ġè± ¡
Ġéª¤ çĦ¶
å¡ĶåĲŀ å¿Ĵ
¨ ç½Ĺ
çļĦ çģµéŃĤ
Ġç µ®
å® ĪçļĦ
ĠæĪĳ åį´
ĠæĪĳ æĺİçĻ½
å¤© çİĭ
å¾Ĺ ä¸Ģ
æ²¡ å¥½
å¥½ åĩłä¸ª
Ġä¸Ģ éĿ¢
è§ģ åĤħæ¸ħæī¬
å¾Ī å®¹æĺĵ
å¥¹ ä¸Ģçľ¼
åĨĽ çģ«
èĢĮ åĿĲ
Ġåľ¨ ä»ĸçļĦ
è¿ľ å¾ģ
æ¯Ķ èµ·
äºĶ ç¦ı
åŁİ åį«åĨĽ
åĪ« æīŃ
æī¾ äºĨ
ĠèĢģ èĢħ
åĬł éĢŁ
Ġçº ¦
Ġè´ ª
åħŃ æĺŁæģ¶éŃĶ
æĺ¯ä¸Ģ æĿ¡
é¡¿ äºĨä¸Ģä¸ĭ
Ġçİ°åľ¨ ä½ł
èĭ¥ æľī
è°ģ ä¹Ł
Ġèº º
æĸ° èĻŀ
åģľ ä¸ĭäºĨ
æľĹ æĻ®é¡¿
éŃĶæĹı åĨĽ
ĠåĪ« çļĦ
ĠæĮ º
Ġç§¦ æ¡§
å¢¨ éķľ
åĸĬ å£°
è¯´äºĨ åı¥
ä¸ľæĸ¹ å®¶æĹı
Ġåĩº æĿ¥
Ġé©¬ åħ¬åŃĲ
æİ¢ æŁ¥
æ¶Į åħ¥
Ġä¸İ åħ¶
ç»¿ èĽĩ
ĠçĽ¸ åıį
çº¯ ç²¹
éĺ¶ æ®µ
Ġç¼ĵç¼ĵ çļĦ
Ġç¨ ³
Ġçĸ ĳ
éŀŃ åŃĲ
Ġç«¹ çŃł
Ġèİ½èįĴ çºª
ĠèĤ² æīį
çļĦ é¬¼
äºĨ æĪĳä»¬
ä½ ¬
ä¸į æīĵ
æĹ ±
æĹ ¸ä¸ĺçİĭ
Ġåı Ķ
ĠæĪĳ åĴĮä½ł
æĪĳ åĲĹ
ä¸ĭ åľº
è¿ĩ ä»ĸ
éĤ£ åıĮ
äºĨä¸Ģ åĿĹ
åīį ä¸ĸ
è¯Ŀ éŁ³
æĥħ äºº
Ġå°± çŁ¥éģĵ
åĩł æĿ¡
æĪĲ ä»Ļ
åĿ İ
å°±æĺ¯ è¿Ļæł·
åħ¥ ä¾µ
Ġæľī ä¸Ģä¸ª
Ġæľī å¦Ĥ
è·Ł å¤´
åľº åŃĲ
çĲĨ çļĦ
ĠéĻ ©
æµģ æ¯Ĵ
ĠæŃ£ å¦Ĥ
å¸® äºº
Ġå°ıéĽ· ç«ĭåĪ»
ä¿Ŀ éĻ©
æıĲ çĿĢ
Ġå°Ĩ è¿Ļ
æķ£ åİ»
çļĦæĺ¯ ä»Ģä¹Ī
Ġèº« æĿĲ
Ġæİ Ĵ
çĽ®åħī ä¸Ń
è£ħ é¥°
äºĮåįģ ä¸ĩ
åĮĹ æĸĹ
ĠåŃ ¤
ä¸īä¸ª åŃĹ
Ġç© Ĩ
ç¬¬äºĮ æ¬¡
æĢİä¹Īæł· äºĨ
çľĭå¾Ĺ åĩºæĿ¥
Ġé¡º çĿĢ
æ³Ľ çĿĢ
çīµ æī¯
èĩ³é«ĺ ä½įéĿ¢
Ġç§Ģ åŃĹèĲ¥
å¢Ļå£ģ ä¸Ĭ
çī©è´¨ ä½įéĿ¢
å®īå¾· çĽĽ
é»Ŀ é»ĳ
Ġä½į éĿ¢
ä¸Ģ çŃ¹
åį ¸
ä¹Ł åıĺå¾Ĺ
ĠæĪĳ çľŁ
å¤© çĽĸ
æīĭ ä¸įåıĬ
å¯¹ è¯Ŀ
ç¥ŀ çģµ
ç¥ŀ æĢģ
æ°Ķ è¿Ĳ
æĹł çŁ¥
åĩł ä»¶
æīį å¥³
äºİ ä»ĸ
è¡Į è¿Ľ
ä¸ĩ çī©
åħ¬ å®ī
åĨħ è¡£
é©¬ å±ģ
éĥ¨ éĹ¨
ĠåĤħæ¸ħæī¬ è§ģ
åĶ ¾
æĴ ©
ĠæĬ ½
ç²¾ èĩ´
åĽ´ è§Ĥ
éļĲ ç§ĺ
ä¹ħ çļĦ
ĠæľĢ æĸ°
é¦Ļ æ°Ķ
ä¸įçŁ¥ ä¸įè§ī
åİļ åİļçļĦ
èį¡ æ¼¾
éĽ¾ æµ·
Ġåı« éģĵ
å¦® åŃĲ
Ġ5 00
Ġåĩłä¹İ æĺ¯
é¢Ħ æĦŁ
éĻ· éĺ±
æĪĺæĸĹ åĬĽ
è¯¡ è®¡
éŁ© æļĳ
Ġåı¦å¤ĸ ä¸Ģä¸ª
è¯´çĿĢ è¯Ŀ
æ½ľ ä¼ı
çļĦéģĵ è·¯
é²ģåħĭ æĸ¯
æ³Ħ éľ²
Ġxi Çİ
Ġç©¿ çĿĢ
Ġèģ ļ
å°±åı¯ä»¥ äºĨ
Ġçł´ åľŁ
Ġèħ °
èİ½ èįĴ
åĤ¨ çī©
ç«ŀ äºī
ä¸ĩè±¡ çľŁäºº
² é¹ı
ä¸Ģ å°ı
ä½ł æľī
ä¼ ŀ
å¤§ çľ¼çĿĽ
ĠæĪĳ æĺİçĻ½äºĨ
æŀ ķ
éĥ½ å¸Ĥ
çľĭ ä¸Ĭ
Ġä»ĸ æľ¬æĿ¥
å°ı é¬¼
ä¸Ģä¸ª åĬ²
æĹł æģĻ
Ġåı¯ æĢķ
åıª ç®¡
äºİ æŃ¤
æĻļ è¾Ī
éĩį äºĨ
Ġæĺ¯ ä»Ģä¹Ī
åģļ äºĨä¸ª
æ¯Ķ ä¹ĭ
æı ª
Ġå½ Ĵ
æĶ¾ åľ¨äºĨ
åĭ ¿
åĽ½ çİĭ
éħ ±
çļĦä¸Ģ åĿĹ
ĠèĢģ å¸Ī
æĽ´ å¤ļçļĦ
åįİ å¤«äºº
Ġä½łä»¬ éĥ½
ä¸įèĥ½ è®©
Ġåĳ Ģ
è¿ĻäºĽ äºĭæĥħ
å·§ åĲĪ
èµ¶ å¿«
åİĭ è¿«
Ġä¸Ĭ ä½įç¥ŀ
ç¿» èĦ¸
æ¢¦ æĥ³
éĻĪ å°ıéĿĴ
Ġè¿Ļä¸Ģ æĭĽ
Ġçİĭ åĽ½
Ġåįģ åĪĨ
Ġç© ´
Ġå¥½åĥı æĺ¯
Ġæ¢ ģ
è¿¹ è±¡
ç¬¦ ç®ĵ
ä¸¢ ä¸ĭ
æ¾ ¹
Ġå°ıè¯´ éĺħè¯»
æĤ¬ å´ĸ
ĠçĶ± æŃ¤
åĮ¹ é©¬
åĽĽä¸ª åŃĹ
ä¾Ľ å¥ī
Ġä½¿ çĶ¨
Ġåı²ä¸Ĭç¬¬ä¸Ģ å¦ĸ
è´ª å©ª
éĶĢ åĶ®
å°ıå¿ĥç¿¼ç¿¼ çļĦ
Ġè¢ģ éĽ¨èı²
ĠåŃ© åŃĲ
æĺ¶ åħ¬ä¸»
ä¸Ģ ä»¶äºĭ
ä¸į äº¤
åľ° ä¸Ģå£°
å°± åĥıæĺ¯
ä¸ĭ èĲ½
åĩº èĩª
Ġä½ł ä»Ĭå¤©
è¦ģ æĪĳ
åİ» è¿ĩ
Ġä»ĸ çĶļèĩ³
å¦ ¾
ä¹ĭ æ£®
æ°Ķ æµģ
å¦Ĥ å±±
ä½į ä¸»ç¥ŀ
éľ ¹éĽ³
Ġå¤§ å¸Ī
åıĪ åľ¨
è®© å¼Ģ
å®ŀ çİ°
éĺ³ å¤«äºº
æľīäºĽ è¯§å¼Ĥ
çİĭ æľĿ
éĿĴ èĭĹ
æľĪ æķĻä¸»
ä½Ľ ç¥ĸ
æĭ¿ åĪ°
åŃ© åĦ¿
ĠåĲ¬ è§ģ
å¾ħ éģĩ
å³° ä¸Ĭ
åĮº åĮº
Ġä¸įæĺ¯ æĪĳ
è¶ħ å¿«
æ²» æĦĪ
æł¡ éķ¿
çº¹ äºĳè±¹
çĤ¸ å¼¹
ĠæĹ¶ è¿ģ
æİĮéĹ¨ åĪĺæŃ£
æģ¼ çģ«
æĬ¹ äºĨ
èĢĲ å¿ĥ
éĢĴ ç»ĻäºĨ
å¼¥ éĻĢ
è¶³å¤Ł äºĨ
å¸ķ ä¼Ĭ
Ġç¬¬ä¹Ŀ çĻ¾
-------- --------
Ġé¸ ¡
çĵ¦ä¼¦ è¦ģå¡ŀ
ä»İå¤© èĢĮéĻį
æĳ¸äºĨ æĳ¸
æĺ¯ ä»ĸçļĦ
éģĵ éģĵ
è¿ĺ å¾Ī
Ġä»ĸ ä¸įæĺ¯
Ġåħ ±
è¿Ľ åŁİ
è¾¹ éĺ²
ç®Ĺ ä¸įä¸Ĭ
æı ĸ
Ġæľī ä¸ª
çī¹ åĪ«çļĦ
Ġå¥½ ä¹ħ
æĢĿ ç»´
ĠèĢģ å®ŀ
ĠéĻ ª
çİī èĻļåŃĲ
ä¹Łæĺ¯ æľī
ä¸ĸ å°ģ
å¦ĸ ç²¾
è½¦ éĺŁ
å¤± èĲ½
å¸Ŀ ç¿¼
æĬ¤ èº«
Ġå± ħ
çĴ ĭ
ä¸¥ æł¼
æĸ½ æ³ķ
Ġæīĭ ä¸Ĭ
æĻ¯ ä½ı
Ġæ¯ı ä¸Ģ
è°Ī è°Ī
æļ´ åĬĽ
çİ¯ é¡¾
éĩİ å¿ĥ
Ġè¿Ļæīį æĺ¯
åĲĲ åĩº
åľ£åŁŁ éŃĶåħ½
ç¨Ģ å°ĳ
Ġçºª çº¢éľŀ
çĶľ èľľ
Ġçģ« çĦ°
æĦ¤æĢĴ çļĦ
Ġå·¦ æīĭ
ĠèĤ¯å®ļ æĺ¯
Ġçªģåİ¥ äºº
Ġé¾Ļèĳµ éģĵ
Ġè´¾ å¤§ç©º
ĠçĪµ çĪ·
Ġ R
äº µ
Ġå ª
ä¸į æĹ©
çľ º
åĪ° è¿Ļä¸ª
ĠæĪĳ èĩªå·±
æ² Ĳ
çľĭ ä¸įèµ·
éĩĮ æľī
ä¹ĭ ä¸»
ĠéĤ£ æĺ¯ä»Ģä¹Ī
è· ·
åĢ Ń
æĹł åĩł
Ġå°± æľī
åĮ ¡
åĬ¨ èµ·æĿ¥
è¢« ä»ĸä»¬
ĠæŀĹéĽ· ç«ĭåį³
Ġå¤§ åĨĽ
è¡Į è¸ª
é£İ æļ´
çĽ¸ å¸Ī
Ġåı¯æĺ¯ å½ĵ
é¾Ļ æĹı
åħµ çļĦ
ä¹Łä¸į éĶĻ
ĠåĨ ľ
æľº çģµ
å¿Ļ èĦļ
è¿ĳ åľ¨
åħĥ çĴĭ
æĶ¶ éĽĨ
Ġé¡ ¹
ĠèĦ ī
éĤ ĵèİİ
çļĦäºĭæĥħ äºĨ
æ¿Ģ èį¡
èĻļ æĹł
Ġæµ ĵ
Ġç¥ŀ è¯Ĩ
èĲ§ å®¶çļĦ
ĠæĶ¾ åľ¨
å²Ľ ä¸Ĭ
ç´¢èı²äºļ çļĦ
ĠéĻĪå¢¨ å¾Ī
èĭį èĿĩ
Ġè½° éļĨéļĨ
èĳ£ åĢ©åĢ©
ä¸įå¯¹ åĬ²
å°ıè¯´ æĽ´å¤ļ
æķı æĦŁ
æĴĩ äºĨ
é©» åĨĽ
åĺ¶ åĵĳ
æĮ£æīİ çĿĢ
åĺ± æīĺ
å±ł æĿĢ
èķ´åĲ« çĿĢ
Ġè¿Ļå°ı å¦ŀ
çĭ® åŃĲ
æ¢µ åº¦
æĽ´æĸ° è¶ħå¿«
ä¸ĭè½½ å°½åľ¨
ĠãĢĤãĢĤ )
Ġj Ä«
ĠåĲ¬åĪ°åı¶å¤© çļĦè¯ĿåĲİ
ä¸Ńæĸĩç½ĳ æĽ´æĸ°è¶ħå¿«
Ġå°ıè¯´éĺħè¯» ä¸ĭè½½å°½åľ¨
ä¸Ńæĸĩç½ĳæĽ´æĸ°è¶ħå¿« å°ıè¯´æĽ´å¤ļ
çļĦ åĪĢ
ĠãĢ ĸ
ä¸Ģ åĸľ
ä¸į å°±æĺ¯
ä¸į åıĹ
äºº éĥ½æĺ¯
Ġä»ĸ åı¯
å¯¹ å³Ļ
äºĭ ä¸ļ
ä¸¤ ä¸ī
æĹł è§Ĩ
çĶŁ æĹ¥
åıĳ é¢¤
åĬ¨ åĬĽ
èĥ ¶
åĲ§ ä¸Ńæĸĩç½ĳæĽ´æĸ°è¶ħå¿«å°ıè¯´æĽ´å¤ļ
äºĮ åĵ¥
èĲ į
èĲ İ
Ġå°ı å¼¥åĭĴ
è¥¿ åºľ
æĢ» è¦ģ
åĨ² åħ¥
Ġè¿Ļä¸ª éĹ®é¢ĺ
åı¹ äºĨä¸Ģåı£æ°Ķ
Ġå¼ Ĥ
å» ī
ĠæĹł çĸĳ
ĠèĻ½çĦ¶ æĪĳ
æķ´ å¤©
ç©¿ éĢı
èĨ ¨
èµ°äºĨ åĩºåİ»
æĻ® æ£®
éĢł åıį
åįĩ èħ¾
æĻĥ æĻĥ
ĠéĿĴ é¾Ļ
æĬ¢ åħĪ
Ġäºĳ åħ¬åŃĲ
æ¾ Ī
éĢĤ åºĶ
æĨ ĶæĤ´
éĹ¯ åħ¥
Ġè¡¨ å°ĳçĪ·
åĩĦ åİīçļĦ
èªĵ è¨Ģ
Ġåı¹ äºĨåı£æ°Ķ
ĠæģŃ æķ¬
ĠéĺŁ éķ¿
ĠéĺŁ ä¼į
éªı é©¬
ĠæĸĲ å°¼åħĭæĸ¯
Ġå°ıè¯´éĺħè¯»ä¸ĭè½½å°½åľ¨ åĲ§ä¸Ńæĸĩç½ĳæĽ´æĸ°è¶ħå¿«å°ıè¯´æĽ´å¤ļ
Ġ z
Ġ hu
çļ Ļ
æĺ Ń
æĿ¥ è®²
çĿ «
ĠæĪĳ å¿ĥéĩĮ
Ġè¿Ļ è¿ĺæĺ¯
è¿ĺ çĶ¨
åĳ ķ
åĴĮ çĻ½
æ³ »
ä»¥ å¾Ģ
èĦ ¯
èĢģ å¤§çļĦ
Ġå°± æĺ¯ä¸Ģ
åıĳ äº®
æĪĲ ç»©
éķ¿ æŀª
æīĵ éĢł
Ġä¹Ł ä¸įæķ¢
æŃ» æĪĳ
ç¾ ģ
èµ° çĿĢ
Ġå¥¹ ä¹Ł
éļ¾ äºĨ
å¼ł åĺ´
åĻ ¤
ä¹Ŀ çº§å¼ºèĢħ
ç²¾ åħī
èĭ¦ èĭ¦
ç¾İ éħĴ
ĠèĢĮä¸Ķ ä»ĸ
æĿİ æ³°
èĥĮ éĵģçĶ²
ĠäºĮ å¨ĺ
ç¬¬ä¸Ģ åį·
å®Įåħ¨ æĺ¯
åı· çłģ
èĩªçĦ¶ ä¼ļ
çºª ä¸Ģå·Ŀ
ĠèĤ ī
èŃ¦ æĪĴ
æĸĻ åĪ°
ĠåıĮ çĽ®
çĪ¶äº² çļĦ
ĠæľĪ ç¥¨
æĹ¦ éĽħ
äº¬ ä¸Ń
å¾ģ åħĨ
Ġæķ° åįĥ
Ġç»ı åİĨ
ä¼Ĭ æĽ¼çº½å°Ķ
ç¥ŀè¯Ĩ ä¼łéŁ³
ä¸ĳ éĻĭ
ĠãĢĤãĢĤãĢĤ ãĢĤãĢĤ
éĹŃä¸ĬäºĨ çľ¼çĿĽ
æ¢µèĴĤåĨ Ī
ĠæĪĳ èĩª
è® ·
è¦ģ å¼º
æĹ¶ è¿ģ
Ġä»ĸ å°±æĺ¯
å£° çļĦ
ĠéĤ£ ä¸¤ä¸ª
Ġåıª åĲ¬è§ģ
åıª æĢķ
æĬĬ èĩªå·±çļĦ
Ġä½Ĩ ä½ł
åĲĳ æĪĳ
æĪĺ æŃ»
è¿Ļä¸ª æ¶Īæģ¯
å¤ª å°ı
åĲĮ å¿Ĺ
éĺµ ä¸Ń
è¿ĺæĺ¯ éĿŀå¸¸
åįĬ åĪĨ
éĿĴ å¤´å¸®
Ġèĩª å·²
Ġæĸ¹ åľĨ
å®Ŀ é©¬
äº¤ éģĵ
äº¤ æį¢
éĽª çĻ½
Ġå°±æĺ¯ åĽłä¸º
Ġè¿Ļæĺ¯ æĢİä¹ĪåĽŀäºĭ
åĮħ åĲ«
Ġå¾Ī éļ¾
Ġæīį æĺ¯
å±ŀ ä¸ĭ
Ġé«ĺ ä¸½
Ġèĩ³ é«ĺ
ä½Ļ çļĦ
æīĢæľī äººçļĦ
æĪĺå£« ä»¬
ç»Łé¢Ĩ å¤Ħ
æ´Ľ è¿ľ
åĩ¶ éĻ©
åįł é¢Ĩ
çĪ¹ å¨ĺ
çº¸ ä¸Ĭ
æĥ§ æĢķ
å·« åĬĽ
åĩī æ°Ķ
Ġæ»¡ éĿ¢
æĬĢ å·§
éĢīæĭ© äºĨ
Ġçªģåİ¥ å°ĳå¥³
Ġæľ± è´µ
Ġæ¶Ī å¤±
çī©è´¨ æĶ»åĩ»
Ġæİ¨ èįĲ
ĠåĴ³ åĴ³
åĸ§ åĵĹ
Ġç¬¬ä¸Ģåįĥ éĽ¶
§ æĺ§
Ġ S
ä¸į å°½
äºº å°±
ä¸Ĭ äº¬åŁİ
Ġåı ¬
åĪ° å¤§
éĿ ¡
Ġå° ¾
æķ ĸä¸įå°Ĭ
æĭ Ń
å¥½ æĦı
æ¯ ¯
é£ ķ
æĶ Ĵ
åįģ å¤©
è¢« éĤ£
çľŁ çģ«
åĽŀ èº«
æŃ£ äºĭ
èĦ¸ ä¸Ģçº¢
å¤ĸ çķĮ
çģµ åĬĽ
çģµ ç¬¦
ç©º äºĨ
Ġå¦Ĥ èĬ±
æĢİä¹Ī åģļ
éļ¾ çļĦ
æĹ¥ å¤ľ
Ġå¤© èī²
å¸Ŀ æĳ©æĸ¯
çķĻ æĦı
éĹª éĹª
å¸ĥ é²ģé»ĺ
èĤ¡ ä»½
éº Ł
Ġå¾Ĳ åħĪçĶŁ
äºĮåįģ å¹´
éĢł åĮĸ
èľ Ģ
æ¦ »
æ®ĭ å¿į
ĠéĿ¢ åīį
æģŃ æģŃæķ¬æķ¬
çģ° å°ĺ
éĺ» ç¢į
éĻª ä½ł
èĶ ¼
æĺĶ æĹ¥
å°Ŀ å°Ŀ
æ²¡äºĭ åĲ§
Ġèģ Ĥ
æĹłåı¯ å¥Īä½ķ
Ġç¨½éĿŀ èĢģéģĵ
å¸ĥç½Ĺ è¿ª
è®¥ è®½
Ġå¤§åĳ¨ æľĿ
ĠæĶ¯ æĮģ
ä¸Ģ ä»¶äºĭæĥħ
ä¸Ģ æĮ¯
ä¸į æİī
ä¸į èĪĴæľį
åĲ Ĩ
åĩ ¿
å¤§ ç¾¤
å¤§ èĥĨ
Ġ? ?
Ġè¿Ļ éĥ½æĺ¯
å¤© æľº
Ġä»ĸ ä¼ļ
éĤ£ åĲį
Ġä¸į æĢķ
æĹł æķħ
éķ¿ æľŁ
Ġåľ Ĩ
ç»Ļ ä½łçļĦ
è¿Ľ ä¸ĢæŃ¥
åį´ éģĵ
Ġå¿ Ĩ
çĽ¸ åĲĮ
Ġå¥¹ è¯´
é»ĳ å¸Ĥæĭ³
ĠæŀĹæĻļèį£ å¿ĥä¸Ń
è¥¿ æĸ¯
éĢļ çļĦ
Ġå¦Ĥæŀľ çľŁçļĦ
åħ« çĻ¾
æĢ» è§īå¾Ĺ
Ġè½ ¯
è¿Ļæł· åľ°
æĢĴ åĸĿ
åĳ¨ åķ¸å¤©
Ġä¾¿ è¦ģ
ç»ĵ è®º
å°½ çļĨ
æ¸© åĲŀæµ·
çĭĤ åĸľ
ĠåĴĮ æĪĳ
ä¸ĢçĤ¹ çĤ¹
éĽ¨ æ¡Ĳ
æ£® åķĨä¼ļ
Ġè½» éģĵ
Ġéķ¿ ä»Ĭ
ä¹Łæ²¡ çĶ¨
èĩ£ åŃĲ
åķĨ ä¸ļ
æ´ª å¥ĩå³°
èĭĹ å®¶
Ġå¥¥ ä¸ģ
åľ¨ä»ĸ èº«ä¸Ĭ
Ġå®ī å¦®
æĦ¤ æĦ¤
åı¯æĢķ äºĨ
æĬĺ èħ¾
èĪ¹ ä¸Ĭ
åħ´å¥ĭ åľ°
Ġåį¡ èĵĿ
ä¸įåĬ¨ å£°èī²
ĠéŁ© èı±çº±
è¡¨çİ° çļĦ
é»ĳæļĹ ä¸Ń
çļĦæ°Ķ æ°Ľ
çļĦæĥħ ç»ª
èĤĸ å°ıå§Ĳ
ç»³ åŃĲ
ĠçĶµ åĻ¨ä¹Ł
çļĦä¸ĭ èĲ½
åİ¨ æĪ¿
åĻĹ åĹ¤
è¢ģ éĽ¨èı²
æ°´çģµ ç²¾
Ġç¦ı ä¼¯
ĠçĶµåĻ¨ä¹Ł çĸ¯çĭĤ
Ġ ä»£
ãĢ Į
äºĨ ä¸¤ä¸ª
ä¸Ĭ å¸Ŀ
å¤§ èĩ£
Ġä½ł ä¾¿
Ġä½ł ä¸įçŁ¥éģĵ
å¤© èī²
è¿ĺ æ´»çĿĢ
Ġä»ĸ è¿Ļä¸Ģ
ä¸º ä¸»
åĴĮ è´Ŀè´Ŀ
ä»Ģä¹Ī éĥ½ä¸į
ç¥ŀ çķĮ
ç¥ŀ éŃĤ
æ°Ķ æĦ¤
æĶ ¥
å¾Ī éĩįè¦ģ
åıª åī©
éĹ¨ ä¸Ĭ
ĠæŀĹéĽ· å¾®å¾®çĤ¹å¤´
å¥³ å¨²
å½ĵ çľŁæĺ¯
ç¼ °
è¡Ģ æĪĺ
åĪ» æĦı
Ġè¯´ çļĦ
åįĥ åīĳéĺµ
æĹ¥ æľĪ
éħ ·çļĦ
çļĦä¸Ģ ç¬ĳ
æĮĩ å°ĸ
Ġå· ¥
æŃ¦ åĬĽ
è½¦ åİ¢
åħĥ åĬĽ
æ£ ļ
æĭĽ æķ°
Ġéĺ ģä¸ĭ
èį¯ æĿĲ
ç¢İ çİī
éªĳ é©¬
è´¥ åĿı
è°ĥ æķ´
Ġçİī çİĳåŃĲ
åķĨ äºº
Ġåĩº åİ»
æĻĥ äºĨæĻĥ
Ġåıĳ çĶŁ
è¿Ļä¹Īå¤ļ äºº
å¾ģ æľį
Ġè¾ ĵ
Ġçĩķ ä¸įå½Ĵ
ç¿¡ç¿ł åİŁçŁ³
è¾ħ åĬ©
ĠåĮº åĮº
çļĦ ç©ºéĹ´
çļĦ ç»ĵæŀľ
ä¸į è½»
ä¸į æħ¢
è¯ £
åľ° æĦŁè§ī
å¤§ æī¹
Ġ? ?âĢĿ
ĠæĪĳ åıªèĥ½
Ġä½ł å¦Ĥæŀľ
å¯ Ŀ
Ġä»ĸ æľī
Ġä»ĸ å°Ĩ
å¿ĥ çľ¼
ä¸º å¸Ī
æĻ ¦
Ġå°± è¯´
è¿ľ è¶ħ
åģļ å¥½äºĨ
äºĳ éľŀ
éĴ ŀ
åħ¬ åĽ½
è¡Ģ çļĦ
Ġè¯´ ç½¢
çĽ® åľ°
ä½ľ å¯¹
è·¯ è¾¹
ĠèĢģ çļĩå¸Ŀ
æĽ´ æľī
Ġå¦Ĥæŀľ æĪĳä»¬
è½¦ çļĦ
Ġå¤© éŁ³
ç²¾ çģµ
ç«Ļ ç¨³
å¤ľ èī²
ĠåĮ Ĩ
é¡¾ ä¸įä¸Ĭ
æĬ± çŁ³åŃĲ
éĢĥ åĳ½
Ġå¾Ĳ å¾Ĺé¾Ļ
å¾®å¾® ä¸Ģ
çļĦéĤ£ ä¸ĢåĪ»
Ġéĩĳ å±ŀ
çľ¼åīį ä¸Ģ
èĭĹ çĸĨ
ĠåĽŀ æĿ¥
åĢŁ çĿĢ
æĻķ äºĨè¿ĩåİ»
åı² åĭĴ
Ġå¾· æŀĹçĪ·çĪ·
éªĹ æĪĳ
ĠçĽ®åħī ä¸Ń
çĨŁæĤī çļĦ
è§£åĨ³ äºĨ
çĽ¾ çīĮ
Ġå¤« åĲĽ
æĶ¾å¼ĥ äºĨ
ĠèĻ½ æĺ¯
Ġ:âĢľ...... âĢĿ
æĹłå°½ çļĦ
ä»Ļå±± æ´¾
ĠæĦ¤ æĢĴ
éĹŃä¸Ĭ çľ¼çĿĽ
Ġ ä»£è¡¨
äº ¢
åľ¨ åĲİéĿ¢
Ġè¿Ļ ä»½
éĥ½ æĥ³
æĹ¶ èĢĮ
Ġä»ĸ æĬĬ
è¡ Ļ
æ²¡ è¯´
æīĭ å°±
åı¯ ç¬ĳ
åĢ º
çĤ¹ ä»Ģä¹Ī
æĸ¹ æŀĹ
Ġä½Ĩ å¥¹
Ġæī «
å®ŀ éĻħä¸Ĭ
èį£ èĢĢ
Ġå¦ ĩ
æ¯Ķ èµ·æĿ¥
Ġå¥¹ çŁ¥éģĵ
çŃī çļĦ
æľĽ èĪĴåīĳ
é»ĳ æĭ³
åŁİ å¤´
åĽ½ å¼º
Ġå¯¹ æĪĳ
çİ°åľ¨ å·²ç»ı
ä¸ĸ çºª
è¶Ĭ å¤§
é¥ ¥
èĻ½çĦ¶ æ²¡æľī
ä½ıäºĨ ä»ĸ
æł¼ æĸ¯
ĠçĦ¶åĲİ åĨį
æİ¨ æµĭ
æľĹ è¥¿æĸ¯
éª¨ çļĦ
ĠåĢ ¼
å¼ķ èµ·äºĨ
æłĳ æŀĿ
æ²Ļ åĵĳ
å¨ĩ èº¯
Ġéĺ¿ éĩĮå¥İæģ©
æ¯ı ä¸ªäºº
æĬķ èµĦ
ä¸ľæĸ¹ æµ©
ĠéŃĶ æ³ķ
Ġå¼ł æ¸ħ
æŁ³ åı¶
ä¹Łå°± ç½¢äºĨ
éªĹ åŃĲ
Ġæ¬ º
èĶ ¡
ĠæĽ ¿
Ġæ²ī åĲŁ
åĨįè¯´ åĲ§
ä¸įä¸ĭ åİ»äºĨ
æĳĩæĻĥ æĻĥ
æ¤į çī©
ĠéĽħ å§¬
çľŁé¾Ļ ä¹ĿåŃĲ
Ġåı²ä¸Ĭç¬¬ä¸Ģå¦ĸ ç¬¬ä¸Ģåį·
çļĦ è¡¨çİ°
ä¸Ģ åĴ¬çīĻ
æĺ¯ ä¸įä¼ļ
ä¸į é«ĺ
ĠæĪĳ åĪļ
å°± æĿ¥
Ġè¿Ļ åĿĹ
ä¸Ń æľĢ
Ġä½ł çľĭçľĭ
è¦ģ æī¾
ä¹ĭ å¤ļ
ä¹ĭ å¿«
å°ı åĳ½
åĴĮ ä¸Ģä¸ª
Ġä¸į å¦¨
åĬĽ ç©ºéĹ´
ä¸ī åĵ¥
äºĨä¸Ģ èĪ¬
Ġå°± å½ĵ
è° ´
Ġåħ Ķ
éľ İ
Ġæī ¶
æľ¬ é¢Ĩ
Ġå¤§ çīĩ
Ġå¤§ ä¸įäºĨ
Ġå¤§ èĥĨ
è¾¹ è¯´
åį´ åľ¨
é£İ æĻ¯
è½» é£ĺé£ĺ
çĽ´ åįĩ
Ġåı¯æĺ¯ ä»ĸä»¬
åĨħ æģ¯
è·Ł å¥¹
æĶ¾ åħī
éļ¾ äºĭ
ä»ĸçļĦ æīĭ
ç¢ ¾
å¹³ æĹ¥éĩĮ
ä¹Łæĺ¯ å¦ĤæŃ¤
æŃ¦ å°Ĩ
ĠæŃ£ å½ĵ
èĩ³ ä»Ĭ
ç²¾ éŃĦ
ä½łä»¬ äºĨ
åĳ¨ è¾¹
éľĩ å¤©
æł¼ å¤ĸ
ĠæĻ ıéķ¿æ¥ļ
å¨ģ åİĭ
ç»Ł ç»Ł
é¦Ļ åĳ³
åįĹ æĿ¾
èĲ¥ çļĦ
Ġåĸ »
èĹı æ°ĳ
çļĦå°ı åŃĲ
ĠåħĪ å¤©
æĮ¡ åľ¨
Ġä¸Ń å¤®
åĿĲåľ¨ åľ°ä¸Ĭ
åį±éĻ© äºĨ
Ġç¾ ¤
ĠæĪĸèĢħ è¯´
æĭīä½ı ä»ĸ
Ġå¤§åľ° èĦīåĬ¨
æİĢ èµ·
Ġåĳ½ è¿Ĳ
Ġåł Ĥ
åĬ¨å¼¹ ä¸įå¾Ĺ
æĦļ èł¢
åĺī è¿ª
çļĦ æľ¨
çļĦ ä»»åĬ¡
è¿Ļ çķªè¯Ŀ
äºº æĹı
ä½ł éĤ£
å¤§ æ°Ķ
ĠæĪĳ æ²¡äºĭ
æĸ ¥éģĵ
çĦ¶ èĢĮ
ä¸Ń æ¯Ĵ
å¤© ç¥Ńå±±èĦī
å¤´ çļ®
éĤ£ æ¬¡
éĤ£ åº§
èĥ½ æī¾åĪ°
å¥½ æŃ¹
è¾ ĸ
é¢ ĵ
Ġåı¯ è°ĵ
ç»Ļ åĤħæ¸ħæī¬
ä¸įæĺ¯ æĪĳ
é£İ åħī
Ġè¿ĺ ä»¥ä¸º
ĠèĢĮ æĪĳ
Ġå¿ ħçĦ¶
æķ° çĽ®
èħ ®
èĬ± éĵģæłĳ
å¹³ æĹ¥
ĠåĤħæ¸ħæī¬ å¿ĥéĩĮ
åĨ² åĲĳ
å¦ĸ çİĭ
æ¼ ī
æľĿ æŀĹéĽ·
åĩłä¸ª åŃĹ
æ´¾ éģ£
æĦŁè§ī èĩªå·±
ç©¿ ä¸Ĭ
æľīçĤ¹ ä¸įå¤ª
æľŁ éĹ´
Ġåī §
åĲ¸ äºĨä¸Ģåı£æ°Ķ
ĠåĢ ªæĢĿéĽ¨
çļĦæīĭ èħķ
åĳĨ ä½ıäºĨ
éĺ² çº¿
çļĦéĤ£ ä½į
Ġçģ ¯
Ġæ²Ī éĹ¨
ä¸ĸçķĮ çļĦ
çŁŃ åīĳ
åĨĴ åĩºäºĨ
ä½¿çĶ¨ çļĦ
åª Ĵ
ç²Ĺ å£®
ĠçŁ¥éģĵ äºĨ
èģĮ ä½į
èµ¤ çº¢
åĩºäºĨä¸Ģ åı£æ°Ķ
æĭ¦ ä½ı
Ġå¸ĥ ç½Ĺ
åĮĸä¸º ä¸Ģéģĵ
æĭ¼åĳ½ çļĦ
æ¸ħæĻ° çļĦ
è½¬è¿ĩ å¤´æĿ¥
æľ± æŀľ
ĠçĲ ´
ä¸ľåįĹ äºļ
æĿ¥æī¾ æĪĳ
è£ģ åĪ¤
å¸ķ å¾·æ£®
èĢ¿ èĢ¿
Ġåķ§ åķ§
¿ éĶµ
Â ·
ä¸į æĺĵ
äºº æĥħ
ä»ĸ ä¼ļ
åľ° ç¬ĳ
å¤§ å¢ŀ
å¤§ æħĪæĤ²å¯º
å°± è·Ł
Ġä½ł ä¹Łä¸į
å¤© éŃĶ
éĥ½ æľīçĿĢ
å°ı å¼¥åĭĴ
å¿ĥ è·³
Ġçľ ģ
Ġåıª éľĢ
çľŁ çĤģ
æĺİ æĺŁ
å½ĵ å¤´
åĽĽ åįģ
åĽĽ æķ£
é»ĳ çĶ²
ç² ¥
Ġå½ »
åĽ½ éĻħ
èģ ĭ
æŀģ å°ĳ
åħ³ å¤´
ç¨ ł
åĬŁ å¾·
ç»Ŀ äºĨ
æ¢ ¢
äº¤ éĶĻ
äº¤ ç»ĻæĪĳ
æĭ¿ åĩºä¸Ģ
Ġä»¥ ä»ĸ
æĹģ è§Ĥ
å·´ è¾¾
è¿ĺæľī ä¸ª
çĭł è¾£
æľ¨ åįł
è£ħ çļĦ
æ²Ļ æ»©
Ġåĵª èĥ½
åİīå®³ äºĨ
æĬķ éĿł
éĺ¿ å¾·éĩĳæĸ¯
Ġä½łæĺ¯ è°ģ
Ġåľ° éĿ¢
Ġä¸Ń æĸĩç½ĳ
çº³ æĢĿ
éľ²åĩº åĩłåĪĨ
æŁĲ äºº
Ġæ¬ £
å¿§ èĻĳ
çľ¨ çľ¼çĿĽ
Ġæ°Ķ æ°Ľ
Ġè¾ Ľ
æĪª çĦ¶
æĭĸ å»¶
Ġæĳĩ æĳĩå¤´
èĢ¸ èĢ¸
æ¬§ éĺ³
æĬ±æĭ³ éģĵ
æĹº æł¹
åľ°åıĺ çº§
çķľ çĶŁ
ĠèĶ ¡
ĠçĲ¼ åįİ
åĮ¡ èĥ¤
µ å¹½
Ŀ çģ«
çļĦ çľ¼ä¸Ń
çļĦ å¾®ç¬ĳ
ä¸į éķ¿
ä¸į è¯Ĩ
è¿Ļ åĩł
ĠæĪĳ å¸¦
æ² Ľ
åĴĮ å§ļèķĬ
å¥½ å¿ĥ
éĿ¢ å¸¦
æ°Ķ åıĪ
Ġä¸Ģ è¡Įäºº
æĹł ç¤¼
è§ģ çĬ¶
åĸ Ģ
ĠåĲ Ĳ
å±± éĹ¨
æŃ» åĲ§
é«ĺ è´µ
å·²ç»ı æĬĬ
Ġè¿ĺ å¾Ĺ
åģļ åľ°
è¿Ļä¸ª æł·åŃĲ
ç©º çļĦ
é»ĳ è¢įäºº
è¡Ģ åħī
Ġä¸įè¿ĩ åį´
çī¹ åĭĴ
é£ŀ çļĦ
å¸¸ å¹³å±±
å¾Ģ æĿ¥
åł ķ
ç«Ļ åľ¨äºĨ
ä¸įä¼ļ åĨį
åĿĲ éªĳ
çº§ éŃĶåħ½
Ġä¸¤ æĿ¡
èĵ Łéĥ½
Ġæ²¡æľī ä»»ä½ķ
ä»¥ä¸º çĦ¶
å¯Ĵ åĨ·
æİĴ åĲį
èľ Ĵ
èŃ¦ æĸ¹
ĠæĿ¥ åĪ°äºĨ
æľĢåĲİ ä¸Ģ
åį¡ èĵĿ
éģį å¸ĥ
æĿĢäºĨ ä½ł
ç¬¬äºĮ å¤©
æĪ´ çĿĢ
æĺĤ æĹı
çŀ§ ä¸įèµ·
Ġå¾Ģ å¾Ģ
åĩĦ åİī
Ġç®ĢçĽ´ æĺ¯
Ġå¹½ å¹½
ĠéĿĻ éĿĻ
Ġèŀ įåĲĪ
ĠéĢı è¿ĩ
ĠæŃ»äº¡ ä¸»å®°
³ èŀĤ
Ġ ä¹ĭæīĢä»¥
çļĦ æĸ¹
äºĨ æĥ³
äºº å®¶çļĦ
æĹ Ń
æľī å¦ĤæŃ¤
ä¸ª æľĪ
å· ½
ĠæĪĳ å¾Ĺ
ĠæĪĳ å¿Ļ
åĩº é©¬
è¦ģ å°Ĩ
çľĭ çĥŃéĹ¹
Ġä»ĸ èĩªå·±
ä¹ĭ å£°
åĴĮ ä»ĸçļĦ
èĩª ç§°
Ġæŀ ª
æĻ Ĵ
ä¸¤ ç±³
Ġä¸Ģ åĿĹ
è¯Ŀ åı¯
ä»İ æ²¡
Ġä½Ĩ ä»ĸä»¬
èµ° åĲĳ
ä¸» äººçļĦ
èĦ¸ éĿ¢
ç¼ ħ
ç¼ Ń
åĲį ä¹ī
åĽĽ ä¸ĭ
å£« æ°Ķ
Ġæ²¡ åĬŀæ³ķ
çī© ä»¶
ĠåĴ ļ
Ġéĥ½ è¯´
åĨ² åĪ°
è¶Ĭ å¥½
è®¤ åĩºäºĨ
è®¤ è¾ĵ
è¨Ģ éģĵ
éľĩ æħĳ
ä¾Ŀ åģİ
æĸ° é²ľ
ç´« èĲ±
Ġæİ §
çĹĽ åĵŃ
ä¼Ļ è®¡
Ġç¥ ¨
éĵģ éªĳ
ä¸ĢçĤ¹ çļĦ
å½Ĵ äºİ
çļĦå£°éŁ³ ä»İ
Ġæµ ©
æľĽçĿĢ åı¶æŀ«
Ġç¥ŀ ç§ĺ
å¯Ĵ æĦı
Ġå¿« èµ°
åİļ éģĵ
æŁĶ å¼±
ĠéĤ£æĺ¯ åĽłä¸º
è¿ĺæ²¡ æĿ¥å¾ĹåıĬ
æµ® å½±
ä¼łæĿ¥ ä¸Ģå£°
è¿İ éĿ¢
ç´ł è´¨
Ġé£İ ç³»
éĽħ çĲª
èĮ¶ æ°´
å¹¿ éĺĶ
éĶģ éĵ¾
è¸ª è¿¹
å¸ĿæŀĹ çļĦ
Ġæħ Į
èĤĥ ç©Ĩ
æ²īé»ĺ äºĨ
Ġé¡¾ éĩĳå±±
ĠéŁ© æļĳ
è½¬å¤´ çľĭåĲĳ
Ġæĺ¨ å¤ľ
ä¸ĢèĦ¸ çļĦ
Ġå¸¸ å¹³å±±
Ġçĩķ ä¸¹
ĠèĥĮ åĲİ
Ġè¶ģ çĿĢ
åħ¢ åħ¢
ĠéĨ Ĵ
Ġçµ® åĦ¿
ĠæľĢæĸ° ç«łèĬĤçĽ®å½ķ
Ġz w
! )
4 38
çļĦ è¿Ļä¸ª
ä¸į æıĲ
Ġè Ŀ
æľī åĩłä¸ª
æľī éģĵçĲĨ
ä½ł è¿ĺ
æŃ ¼
å°± è®©
å°± è§īå¾Ĺ
åĩº ç¥ŀ
Ġä½ł èĥ½ä¸įèĥ½
å¤© æ°Ķ
å¾Ĺ ç»ı
èº« æŃ»
åĴĮ è¿Ļ
ç¥ŀ è¯Ŀ
Ġä¸Ģ æł·
æĹł åĬĽçļĦ
æŀĹ åħĦå¼Ł
ä»İ åľ°ä¸Ĭ
Ġæī ĺ
é«ĺ åĤ²
Ġå¤§ åŃĹ
åĲĳ èĩªå·±
ä»Ļ åĻ¨
éĴ Ŀ
åħ¥ åĪ°
æľĢ å¼º
ä¹Łä¸į ç®Ĺ
çİĭ ä¾¯
é£ŀ çªľ
Ġå¯¹ åķĬ
å®ī åį±
æĢĿ å¿µ
ç«ĭ æľ¬
æĮĩ çİ¯
åĸľ åħ¨
å¿Ļ çļĦ
Ġéĥ½ è¢«
ĠæĿİ é¦ĻåĲĽ
æ²³ æµģ
ç®¡ äºĨ
è¿ĩåİ» çļĦ
ç½Ĺ åħ¹
æº ¶
ĠåĬ Ī
æķĳ æĪĳ
Ġæīĭ æİĮ
çĨŁ äºº
ç¨ĭ å¾·
ĠçľĭåĪ° åĤħæ¸ħæī¬
çĭ¬ ç«ĭ
Ġå°±ç®Ĺ ä½ł
æĿĤ çĿĢ
åĲŀ åĲŀ
é²ľ èĬ±
çģ¯ ç¬¼
åĩĮ æŃ¥èĻļ
çĩķ å±±
æ¸Ĳæ¸Ĳ çļĦ
éĶħ éĶħ
åĽº çĦ¶
Ġåıĺ æĪĲäºĨ
èµļ éĴ±
Ġç²¾ ç¥ŀ
Ġ4 38
çŀİ åŃĲ
è®½ åĪº
ĠçĨ Ł
åĮĹå®« èĭ±éĽĦ
ĠçĪ¸ çĪ¸
æ·¡æ¼ł éģĵ
Ġä¸Ńå¹´ äºº
èĥ¡è¯´ åħ«éģĵ
Ġé»ĳèī² èĢģçīĽ
Ġçĳ ŀ
æĹłå½± æĹłè¸ª
ä¿ĿæĬ¤ä½łçļĦ çľ¼çĿĽ
ä¸Ģ æī¬
ä¸į åĲĥ
Ġé ¥¿
ä¸Ĭ æĿ¥äºĨ
å¤§ çĨĬ
åİ ķ
ĠæĪĳ åľ°
ĠæĪĳ å¸ĮæľĽ
Ġè¿Ļ ä¸Ģä¸ĭ
Ġä»ĸ å¾Ī
å¤´ åĪ°
éĤ£ æĬĬ
çŁ £
å½ Ń
éĿ¢ åĮħ
äºĨä¸Ģ é¡¿
èĢģ æĢ»
ä½į éĿ¢çļĦ
äºĮ æ¥¼
Ġå°ı äºĶ
Ġè¿ĺ æĥ³
Ġå¿ µ
éĩĳ éĴ±
ĠæĪĳä»¬ åı¯ä»¥
Ġç» ķ
é£ŀ åĪ°
ä¸İ äºº
èĲ½ åı¶
Ġä½Ĩæĺ¯ è¿Ļ
åĬł å¿«
å¤± å£°
ç«Ļ èµ·èº«
æ£ ķ
åı¤ éĴŁåĴĮå°ļ
åĸĿ äºĨ
å» ĵ
æ²ī çĿ¡
ç½Ĺ å¨ĩ
æĮģ çĿĢ
ĠåĴĮ ä»ĸ
è¶ħ è¶Ĭ
Ġåħ¨ éĥ½
æĻĥ åĬ¨
Ġè¿Ļä¹Ī å¤ļå¹´
ç¢° ä¸Ĭ
Ġç»Ļ ä»ĸ
æĢĶ æĢĶ
èī¯ å¿ĥ
æ»´ æ°´
æĭ¼ äºĨ
ä»¥åīį çļĦ
è¿Ł æĹ©
ç¼© å°ı
æīĭä¸Ģ æĮĩ
åĵĹ åĵĹ
æĬĽ å¼ĥ
Ġä¸ľæĸ¹ åľ£
èµĲ äºĪ
è¯¯ä¼ļ äºĨ
å¯Łè§ī åĪ°
è£¤ åŃĲ
éĢĬ èī²
ĠxiÇİ o
« å°º
Ġ a
Ġ, ãĢİ
ä½ł è¿Ļä¹Ī
åľ° çĽ®åħī
Ġè¿Ļ éĩĮéĿ¢
Ġä½ł åľ°
Ġä½ł è¿Ļä¹Ī
è¦ģ äºĨ
èĥ½ èĢĲ
è¾ ĩ
ç¥ŀ åºĻ
å®¶ äºĨ
Ġä¸Ģ å¹´
Ġä¸Ģ æİĮ
æŀĹ åĨ²
éķ¿ åı¹ä¸Ģå£°
Ġåıª ä¼ļ
å±± ä¸ľ
æīĵ éĢļ
è§ī çļĦ
çģµ æħ§
æĥĬ åı«
ĠæĪĳä»¬ å¿«
æļ §æĺ§
Ġè¯´ ä»Ģä¹Ī
è·Ł è¸ª
ä¼ł ä»¤
éĿŀ è¦ģ
æĢ» ç»Łé¢Ĩ
å®ģ ä»ĻåŃĲ
ĠæĿİ ç»§å®Ĺ
å¾· å¸ĥæĸ¯å®¶æĹı
æĺ¯ä¸Ģ åľº
å®Ŀ èĹı
Ġå°ıéĽ· åį´
åĬŀ äºĨ
æĺŁ çĴĩ
æ´¾ ä¸Ń
ç»Ī æŀģ
åĨ° éĽª
Ġéļ¾ ä¸įæĪĲ
éĢĢ åĩº
åį« æĹħ
çĪ± æĥħ
å¿µ ä¸ĢåĬ¨
åŀ Ĵ
æłĳ åı¶
ĠæĤ¨ çļĦ
åĩºçİ° çļĦ
è¢ĭ åŃĲ
ç½ĳ ä¿ĿæĬ¤ä½łçļĦçľ¼çĿĽ
éĢł è¯£
é¡º çľ¼
Ġé©¬ æł¼åĬªæĸ¯
éĩİ èĽ®äºº
åľ¨ä»ĸ èº«è¾¹
æ¶Į èµ·
Ġå¼ł èĮľèķ¾
éĤª å¾Ĵ
æĬµ å¾¡
æĪĴ å¤ĩ
è¯¸ èĪ¬
åħ± åĲĮ
æĹłå¥Ī éģĵ
æĶ¾åľ¨ å¿ĥä¸Ĭ
Ġä½łä¹Ł çŁ¥éģĵ
è½¬å¤´ çľĭåİ»
Ġé»İ åıĶ
åģ¶ çĦ¶
æ¼Ĩ æ¼Ĩ
Ġä¸» è¦ģ
éĦĻ è§Ĩ
çĢ ĳ
Ġç¤ ¼
ä¸ĩä»Ļ çĽŁ
ĠçĴ ĩ
çľĭä¹¦ ç½ĳä¿ĿæĬ¤ä½łçļĦçľ¼çĿĽ
Ġæľ« å°Ĩ
èĨ¨ èĥĢ
Ġå¤§åŃĹ çľĭä¹¦ç½ĳä¿ĿæĬ¤ä½łçļĦçľ¼çĿĽ
çļĦ åı£
çļĦ åĬŁæ³ķ
ä¸į åĩĨ
ä½ł æĥ³
åľ¨ åįĬç©º
åľ° ç«Ļåľ¨
çĦ¶ åĲİ
Ġä½ł è¿Ļæł·
Ġä½ł å±ħçĦ¶
å¤© éĽ·
Ġä»ĸ æĢİä¹Ī
æīĭ åĬ¿
ĠéĤ£ ä¹Ł
æĹł è¨Ģ
æĪĲ éĩĳ
ä»İ æŃ¤
åħī æ»ĳ
ä¸» å¸Ń
Ġå¤§ ä¼¯
çķ Ķ
åĪĨ æķ£
åģļ çĶŁæĦı
çģµ è¯Ĩ
äºĶ å¹´
çģ« ç³»
Ġåĩ Ħ
ä¼¼ ç¬ĳéĿŀç¬ĳ
èĬ± éĴ±
å°ıå§Ĳ çļĦ
ä¸¤ä¸ª æľĪ
è¿ĳ äºĨ
çļĦè¯Ŀ è¯Ń
åĿĲ åľ¨äºĨ
äº¤ ç»Ļä½ł
ä¸¹ éĺ³åŃĲ
èĮ İ
èº«ä½ĵ éĩĮ
ĠèĢĮä¸Ķ è¿Ļ
ĠçľŁ çļĦå¾Ī
æľª å©ļ
Ġå¾Ī æĺİæĺ¾
çĴ ĺ
éĺ´ å½±
ä¸»ç¥ŀ æł¼
ĠéĻĪ èĥĸåŃĲ
ç¢İ çŁ³
åĽ¾ è°ĭ
åķĨ è®®
Ġåħī æĻķ
çĭ¬ çī¹
è®² è¿°
ĠæĿĢ äºĨ
é²ľ èī³
èŀį åĮĸ
æµ© çī¹
çĻ» æĹ¶
çľ¸ åŃĲ
éĻĦ åĴĮ
æ³° å±±
çŀ³ åŃĶ
Ġç² Ĺ
æİı åĩºä¸Ģ
Ġæī¾ åĪ°
çļĦæĥħ æĬ¥
æĬ« é£İ
å§¿ æĢģ
æµİ å®ģ
æİª æīĭä¸įåıĬ
å¾Ĺç½ª äºĨ
æıı æ·¡
å®Ļ æĸ¯
è¶´ åľ¨
Ġæ³ª æ°´
Ġå¡ŀ åħĭæĭī
å½¦ æµ©çī¹
å¾½ ç«ł
æĦī å¿«
ĠæīŃ å¤´
çļĦ å¢ĥçķĮ
çļĦ æĪ¿éĹ´
ä¸Ģ æıĲ
åľ¨ ä¸ĬéĿ¢
ä¸Ĭ æ¥¼
å¿ ĸ
å¸ ½åŃĲ
åĳ Ĺ
æĹ¶ åħī
ç¥ ł
èĩª çŁ¥
ĠéĤ£ ä»Ģä¹Ī
ĠæŀĹ é»Ľ
ĠæŀĹ å°ıåħĦ
äºĨä¸Ģ åº§
ä¸¤ å®¶
å¾Ī å¥½çļĦ
åĬ¨ æĳĩ
éķ¿ å¤§çļĦ
æŃ» æ´»
ĠæŀĹéĽ· åį´æĺ¯
æ¬¡ çļĦ
åĲ¬ éĹ»
è¿ŀ ç»µ
Ġå¥¹ å·²ç»ı
åĽĽ å¹´
é»ĳ çĨĬ
è¡Ģ çº¢
Ġä¸įè¿ĩ å¥¹
Ġä»ĸä»¬ åľ¨
æ·± æĦı
å¾Ģ éĩĮ
æļĹ åı¹
æĭī äºĨ
Ġæķ Ī
ä½İ è°ĥ
èĮ §
çľŁçļĦ è¦ģ
æĭĽ æīĭ
åħĭ èĤ¯
å·® çļĦ
å®¢ æ°ĶçļĦ
çļ® èĤī
Ġè°ģ ä¹Łä¸į
æ¯Ľ éª¨
èĥľ è¿ĩ
æķ¬ ä½©
å¡Ķ ç½Ĺæ²Ļ
æ»ļ çĥ«
è½¯ çļĦ
Ġè¿Ļç§į äºĭæĥħ
éĽ¾ ä¸Ń
çĬ¶ åħĥ
ç«¯ èµ·
è¾¾åĪ° åľ£åŁŁ
ĠéŃĶæĹı åħµ
åįĥä¸ĩ ä¸įè¦ģ
ĠåĻ ¬
ĠæĴ Ĵ
è¹Ħ å£°
äººç¾¤ ä¸Ń
ĠåĨ·åĨ· éģĵ
å¾ª çİ¯
Ġåħīå¤´ å¦¹
æ³ł æ³ł
ĠåľĪ åľĪ
åħĭèĤ¯ å¸Į
¿ èľĴ
Ġ ä¸Ŀæ¯«ä¸į
Ġ äº¦
çļĦ ä½ľçĶ¨
ä¸į åĲ¬
çľ ¯çĿĢ
ä½ł ä¼ļ
åľ¨ å¿ĥéĩĮ
å¤§ åŃĹ
ĠæĪĳ åıĳçİ°
è¯´ è¿ĻäºĽ
ç¬ ĥ
å¤´ ä¸ĬçļĦ
å°ı èĴĻåŁİ
ĠéĤ£ åı¯å°±
æĮ ļ
ĠæŀĹéĽ· æľīäºĽ
Ġå¤§ åľĨæ»¡
å°Ĩ ä½ł
èĦ¸ èĽĭ
Ġå°ı èĳµ
èį£ åħī
æĪĺ çķ¥
Ġå® £
æĿĢ æĦı
åĨħ åľ°
åĵ¥ ä»¬
åĳ½ åķĬ
æī¾ åĩº
æĢª çļĦ
ĠéĻ Ħ
çİī çİĳåŃĲ
éĺŁ åĳĺ
å¹³ è¡¡
è¡¨ å°ĳçĪ·
è§īå¾Ĺ è¿Ļ
æĴ µ
ä¹Ŀ å¹½
æĺ¯ä¸Ģ åıª
Ġä½łä»¬ æĺ¯
Ġåĳ ¸
ä¸įçŁ¥éģĵ å¤ļå°ĳ
éģ¥ è¿ľ
å®³ ç¾ŀ
ĠæĢİä¹Ī è¯´
èĮ Ħ
å¨ģ æľĽ
æĬ¥ éģĵ
Ġå¾Ī åı¯èĥ½
é¬¼ çķĮ
Ġæİ ¢
æĬĵ äºĨ
éŃĶæĹı çİĭåĽ½
èĥ¡ éĹ¹
è¿½ èµ¶
Ġè¡ Ĺ
è¿Ĳ åĬŁ
ĠèĤ ©
ĠèĤ Į
æĺ¯ä»Ģä¹Ī ä¸ľè¥¿
æ½ ĩæ´Ĵ
ä½Ļ åľ°
å´ ½åŃĲ
åĲĵ äºº
çģµéŃĤ ä¹ĭåĬĽ
åıĳåĩº äºĨä¸Ģå£°
åıĽ éĢĨ
åºŁ çī©
åĲķ ä¸įéŁ¦
é¸¡ èĽĭ
çĽĪ çĽĪ
Ġåĳ¼ åĲ¸
çĿĢèĦ¸ éģĵ
Ġç®ĢçĽ´ å°±æĺ¯
åĿł èĲ½
çİ² çİ²
Ġè´« éģĵ
Ġç¾½ åĵ¥
Ġåħį å¾Ĺ
åŃľ å°Ķ
Ķ è¯ļ
æĺ¯ æ²¡æľī
éģĵ åıĭ
å¤§ åı¯æ±Ĺ
Ġä½ł å½ĵ
Ġä½ł æĹ¢çĦ¶
çľĭ ä¸Ģçľ¼
Ġä»ĸ ä¾¿
ä»Ģä¹Ī æł·
éķ¿ å¤§äºº
çĶ¨ ä¸įçĿĢ
ä¸įæĺ¯ å¾Ī
åį´ çªģçĦ¶
è®© åı¶å¤©
è®© çĤ¯
Ġæĺ¯ æĪĳä»¬
éŃĶ å¤´
æĿĢ æİī
æ¶ µ
Ġçľĭ åĪ°äºĨ
åĵ¥ çıĬ
çģ« èį¯
åĤħæ¸ħæī¬ çļĦè¯Ŀ
ç¨ ½
åŃĹ çĶ»
ĠæĿİ æī¿
ç´§ éĹŃ
åħŃ åĲį
è¶Ĭ åıĳçļĦ
è¿ĻäºĽ å¹´
Ġåĭ ¾
çĭł æīĭ
èĥĮ åĮħ
æ±Ĥ ä½ł
Ġè¿ Ī
éĢĥ åĩº
Ġä»Ģä¹Ī æĦıæĢĿ
ĠæĬĬ æĪĳ
ä¸įäºĨ è§£
æĦ¿ æľĽ
éªĳ çĿĢ
å°¸ é¦ĸ
Ġè®¸ æ¯į
åħ» çļĦ
çķ¥ å¸¦
å¼Ģåı£ è¯´éģĵ
æ»´ æ»´
Ġ~ âĢĿ
ä¹Į å±±éķĩ
Ġè¯Ŀ è¯´
å°±ç®Ĺ äºĨ
Ġè½»è½» çļĦ
çļĦæĥħ æĻ¯
ĠæĪĳè¿ĺ ä»¥ä¸º
åįĬä¸ª æĹ¶è¾°
æ¯ķ ä¸ļ
çº½ çº¦
å²ļ å²ļ
Ġéĥ½å¸Ĥçģµçŀ³ ç«łèĬĤçĽ®å½ķ
Ġå¯Ĩ å¯Ĩéº»éº»
Ġéĺ² å¾¡
Ġèµ« çĦ¶
Ġæ¬§ éĺ³
åĭĥçĦ¶ å¤§æĢĴ
¯ æķĳ
ä¸Ģ è¡Į
ä¸į å°±
æľī çĿĢä¸Ģä¸Ŀ
ĠæĪĳ ç¬ĳéģĵ
å°± åħĪ
Ġè¿Ļ å¯¹
å¤© å¸Ŀ
å¤© è±¡
éĤ£ æŁĦ
å± ¿
éĽ· åĭĴ
ç« ¿
ä¸ī ä¸ĩ
æĹł èĥľ
æĹł å¿§
Ġæĺ ł
éĹ¨ ä¸»
èµ° åľ¨
æ± ©
ĠåĪ ¹
ä»ĸä»¬ æĺ¯
å½ĵ æĪĲäºĨ
ĠèĢĮ ä»ĸ
ä½ĵ è´¨
Ġç¬ Ķ
ä¹Ĳ äºĨ
åħ¨ æĹł
ç¦ ¾
ä¼ł å¼ŁåŃĲ
å¸¦ è·¯
Ġåı¶æŀ« ç¬ĳç¬ĳ
å¦ĸ åħ½
èĭ¦ æģ¼
åıį å¤į
ä¿Ŀ éĩį
çľŁçļĦ æľī
Ġèº« ä¸ĬçļĦ
éĢģ ä½ł
éĢģ ä¸Ĭ
è¯· æķĻ
ç¦ģ æŃ¢
ĠåĴĮ ä½ł
Ġç§¦ è·¯
ĠæĽ´ æľī
Ġæµ ®
æ´ŀ çªŁ
è´¨ éĩı
æĬķ ç¥¨
åĳµ æĸ¥
ĠæĢ» è¦ģ
Ġä¸įçŁ¥éģĵ ä¸ºä»Ģä¹Ī
Ġäºİ æ¸ħéĽħ
æĿ¯ åŃĲ
éĹŃ çĽ®
æĤ² æĦ¤
Ġä¹Łä¸į åı¯èĥ½
éģŃ åıĹ
åĲ´ ä¸īæ¡Ĥ
å®½ å¹¿
Ġä¼¸ åĩº
Ġç»§ èĢĮ
å¤©é¾Ļ å¸®
ç®ĢçĽ´ æĺ¯
Ġä»¤ äºº
é³ŀ çĶ²
Ġæ¯Ķå¦Ĥ è¯´
ä¸ĬéĹ¨ æĿ¥
ĠèĢģå¤´ åŃĲ
è§ĴèĲ½ éĩĮ
Ġæ¸Ĳæ¸Ĳ çļĦ
éĴ§ å²ļ
Ġå½± é¼ł
æĸĩæŃ¦ åŃ¦æł¡
å¼Ģæĭĵ èĢħ
çļ±èµ· çľīå¤´
ĠmÃ ©
Ġ ä»ħ
çļĦ æ¯Ĵ
çļĦ åıįåºĶ
çļĦ éģĵçĲĨ
çļĦ å·¨å¤§
çļĦ æĸ¹æ³ķ
çļĦ å½±åŃĲ
æľī ä¸į
æľī ç©º
ä¸Ĭ æµ·
èµ ¦
ĠæĪĳ æľ¬æĿ¥
æĪĳ èĥ½
æŀ Ń
åĳ Ľ
å®¶ éķ¿
æŀĹ åŃĲ
Ġå¥ ĭ
æĪĲ å¹´
ä»İ éĤ£
Ġå°ı å¼Łå¼Ł
Ġå°ı ä¾¯çĪ·
åĺ ¤
é£İ æµģ
äºĶ åįģä¸ĩ
é»ĳ ç¤¾ä¼ļ
çļĦäºº ä»¬
ĠåĨ Ĵ
ä¹İ ä¹İ
äººçļĦ çĽ®åħī
é¢Ĩ åľŁ
å¥ĩ å¼ĤçļĦ
ĠåıĪ æľīäºĽ
Ġç§ ĳ
æ¸© åº¦
çĵ ®
çĪ± å¥½
æĩ Ĭ
æ³¨ è§ĨçĿĢ
Ġç¥ŀ ä»Ļ
åĩĨå¤ĩ çļĦ
ä¹° äºĨ
åĨĴ äºĨåĩºæĿ¥
åģı åĥ»
éĶĭ åĪ©çļĦ
æĮĤ äºĨ
åºŁ å¢Ł
è¶ĬæĿ¥è¶Ĭ å¤ļ
ç¡®å®ŀ æĺ¯
èįīåİŁ ä¸Ĭ
æĻ¨ èĸĩ
æĥ³è±¡ çļĦ
è±Ĩ èħĲ
Ġæ¢ħ èĭ¥åįİ
çº¦èĢĮ åĲĮçļĦ
Ġå§ĭ ç»Ī
Ġ ä¾ĭ
çļĦ æ³ķæľ¯
çļĦ ç¬ĳå£°
è¿ ¢
ä¸Ģ ä¾§
ä¸į åĸĦ
äºº åı£
å¥ Ħ
èµ İ
å°± è¯´
Ġä»ĸ æĢ¥å¿Ļ
åĴĮ å¯¹æĸ¹
ä¸ī è§Ĵ
Ġä¸Ģ ä¸Ŀ
çľŁ è¦ģ
åĽŀ åºĶ
åħī æ³½
Ġä¹Ł çŁ¥éģĵ
åį´ å·²
Ġå°ı å£°
åĪĨ ä¸º
éĩį éĩı
çĽ¸ äº¤
æĥĬ åĳĨäºĨ
åľº åĲĪ
éĿĴ èĽĩ
å¼ł åıĳè´¢
ä¸Ģæł· äºĨ
Ġè´ Ł
Ġä½łä»¬ è¦ģ
Ġä½łä»¬ åĩłä¸ª
ä¿Ŀ ä½ĳ
Ġä¸ī å¤©
Ġä¸ī åĳ³
åĩĿ åĽº
åĩĿ è§ĨçĿĢ
ç§¦ æ¡§
Ġè¿ĺæľī éĤ£
Ġå·² æĺ¯
éº» æľ¨
åı° ä¸ĬçļĦ
çĦ ī
åĮĹ äº¬
Ġæ¯ı ä¸Ģæ¬¡
Ġè¯· æĤ¨
å¼Ħ åĪ°
æ±Ł èĭı
Ġéĩĳ åħĢæľ¯
ä¼¯ åĪ©äºļ
ä¸įå°ĳ äºº
åĤ» çľ¼äºĨ
æµ® èµ·
èµµ å¤©é¾Ļ
è¡Ĺ éģĵä¸Ĭ
ĠåĨ· ç¬ĳéģĵ
ĠåĬł ç»´
çĶĺ å¿ĥ
æĪĺäºī ä¸Ń
Ġçĥ Ł
Ġå¾ħ åĪ°
ä¿ĿæĮģ çĿĢ
Ġæŀģ ä¸º
ä¹Ĳç¾Ĭ æ¸©
å®īæħ° éģĵ
ĠçĶµ è¯Ŀ
Ġçĭ¬ åŃ¤æĺŁ
æķ´é½Ĳ çļĦ
åħľ éĩĮ
Ġç¨į å¾®
å¼ĵç®Ń æīĭ
Ġå¼Ĺ å°Ķç¿°
Ġå¼Ģåı£ è¯´éģĵ
Ġæ¹ ĸ
è°£ ä¼ł
æ²»æĦĪ æľ¯
² åŃĲ
ŀ èĽŁ
çļĦ ä»Ģä¹Ī
çļĦ å¤ĸ
äºĨ å¾Ĺ
ä¸Ģ äºĮ
è¿Ļ åĩłå¤©
çľ Ī
å¤§ æĪĲ
å¤§ å¤«
ä¹Ł æĺİçĻ½
åŃĲ åŃĻ
å°± ä»¿ä½Ľ
Ġè¿Ļ æ®µæĹ¶éĹ´
Ġä»ĸ æ²¡æĥ³åĪ°
æ¸ £
ĠéĤ£ ä¾¿
çľ¼ ä¸ĭ
Ġä¸Ģ åĲĳ
èĩªå·± åĴĮ
æĪĲ è½©
èĤ ¾
ĠåĲ «
é«ĺ åº¦
ä¸» åľ°
å¥³ æĢ§
Ġå°ı å¦¹å¦¹
æ» ¥
ç¼ ª
è¿ľ åİ»
åģļ å¾Ĺ
Ġæ² »
å¤ª å¥½
Ġåı¯æĺ¯ å¦Ĥæŀľ
ä¿® éķ¿
é»ĳ èĭĹ
æķ° ä¸Ī
ä¹Łä¸į åĽŀ
ä¹Łä¸į çĶ±
ĠéĻ ¢
ç¢ Ł
æĢ¥ åī§
åĨ² äºĨè¿ĩæĿ¥
å¤± ç¬ĳ
åħŃ ä¸ĥ
æĭ¿ çĿĢä¸Ģ
Ġä¸¤ éģĵ
ĠéĽ Ĩ
Ġè§ Ħ
ç»ĵ å·´
æľīäºº åľ¨
Ġå± ķ
ĠéĻĪ åı¯å¨ĩ
çİĦ æŃ¦
éĢı çĿĢ
ä»»ä½ķ ä¸Ģä¸ª
ç»Ŀå¯¹ ä¸įèĥ½
Ġåĳ¨ èº«
Ġç»Ī ç©¶
éŀ ĳå¡Ķ
çĺ ª
æł¡ å°ī
ĠäºĶ è¡Į
è¯ļ æĦı
ä¹Į æ£®è¯º
é¼ĵ åĬ±
éĴĪ å¯¹
Ġç¦ Ģ
Ġåĺ´ åĶĩ
è¾Ĩ è½¦
åľ¨åľ° ä¸ĬçļĦ
è¿ŀè¿ŀ æĳĩå¤´
æĿľ ä¿®åħĥ
æ»¡èĦ¸ çļĦ
æ¡ĥ èĬ±
Ġæĳĩ å¤´éģĵ
ĠæĲ ľ
éĦĻ å¤·
ç´«æĻ¶ å±±èĦī
å¥ĸ åĬ±
Ġçĭ¬ åŃ¤
å¤§æīĭ åį°
Ġä¿Ĺ è¯Ŀè¯´
Ġå¿Ĩ å¦Ĥ
Ä «n
çļĦ éĴ±
çļĦ è¿ľä¸ľ
çļĦ åŃ©åŃĲ
çļĦ ç«Ļåľ¨
ä¸Ģ éĥ¨åĪĨ
æĺ¯ å¦ĤæŃ¤
åľ° äºĭ
åľ° çĲĥ
Ġ? ......
ĠæĪĳ çİ°
åĩº è¨Ģ
ä¸Ń æľŁ
åĴ «å°º
çľĭ åĩºæĿ¥äºĨ
Ġ!âĢĿ ,
å¥½ å¤ļ
å¥½ ä¹ħ
çľ¼ çľĭçĿĢ
å¤ļ å°ıæĹ¶
ä¸ī å¤§
å¼Ģ æĪĺ
æŀĹ åĨĽ
åıĳ éº»
èĤ ´
è¢« åĭ¿ä¹ŀ
çľŁ è¯ļ
éĹ¨ éģĵ
æīĵ æĸĹ
ç»Ļ æĪĳçļĦ
èĢĮ æŃ»
åĲĳ ä¸Ĭ
å°±æĺ¯ ä¸ºäºĨ
çĻ¾ ä½Ļ
è¿Ļä¸ª éģĵçĲĨ
åĽĽ èĢģçĪ·
åħĪ éĶĭ
Ġä¸įè¿ĩ åľ¨
Ġè¯´ æĺİ
è¥¿ æ´±
çŁ³ æĪĲéĩĳ
åĨ· æ°Ķ
åºķ ç»Ĩ
åĤħæ¸ħæī¬ ä¸Ģçľ¼
é¢Ĩ è¢ĸ
åħ³ åĪĩ
è¯¥ æĢİä¹ĪåĬŀ
æµģ åĬ¨
æ¢ ³
è¿Ļæł· çļĦè¯Ŀ
èĩ³ å®Ŀ
åı¹ æ°Ķ
éĤ£ä¸ª å°ı
èı ĩ
æ²ī å¯Ĥ
åı¶æŀ« ä¸Ģçľ¼
çĪ¶ çļĩ
è¿ĺæľī çĿĢ
åĩºä¸Ģ æĿ¡
åİĭ ä½İäºĨå£°éŁ³
è´µ å®¾
ĠåĢ ı
çĽĺ ç®Ĺ
åİĨ ä»£
èħ¾ äºĳ
åĲ« çĿĢ
ä¾ĿæĹ§ æĺ¯
åĲ¬è§ģ äºĨ
ä»Ĺ çĿĢ
Ġä¿ ¯
å¸ĿåĽ½ çļĦ
Ġåı¤ éĴŁåĴĮå°ļ
æ£į åŃĲ
åľ°çĭ± ä¸Ń
è·Łä½ł è¯´
å²¸ è¾¹
ä¿ı ä¸½
æĦģ çľī
Ġéĺ´ éĺ³
Ġè¿ľè¿ľ çļĦ
æ±¹ æ±¹
Ġè¿ĺä¸į å¿«
æ¤ħ ä¸Ĭ
ĠèŃ¦ å¯Ł
Ġä¸¹ éĺ³åŃĲ
¨ç½Ĺ å²Ľ
çļĦ çĤ¹çĤ¹å¤´
ä¸Ģ çŃī
ä¸į èµ°
ä¸į çŃī
åı ©
å¤§ æ±Ĺ
å°± æīĵ
Ġè¿Ļ çŃī
åĩº åľº
Ġä»ĸ ä¹Łä¸į
Ġä»ĸ ç«ŁçĦ¶
åĵ İ
åĵ ½åĴ½
èĩª æĿĢ
ä»Ģä¹Ī éĥ½æ²¡
è¢ ħ
Ġä¸Ģ èĦļ
èĢģ å¤ĸ
èĢģ æĶ»
åĩł åįģå¹´
ç´ Ĺ
ä»İ æĹģè¾¹
é«ĺ ä¸¹
äºĮ å¨ĺ
éĹ® è¯Ŀ
ä»ĸä»¬ ä¹Ł
åīĳ éĶĭ
çĻ¾ ä¸ª
è¿Ļä¸ª å¥³äºº
Ġåĵ į
æĢķ äºĨ
åĳ½ çģ«
ĠèĢģ å¤©
ä¼¤ æĦŁ
æľº ç¼ĺ
Ġå¦Ĥæŀľ ä¸į
åĨ² æĿĢ
æĽ °
å¹¶ æľª
æĺŁ æĺŁ
éĤ ĥ
åľ£ åºĻ
é¬¼ åŃĲ
æľ¨ å±ĭ
é»ĺ å¥ĳ
Ġè· ª
ä¸ĢçĤ¹ ä¹Łä¸į
ç»´ æĬ¤
çĶ² å£«
éĺ² å®Ī
å¼± çĤ¹
è°ĥ æĪı
çĶ» åĥı
åĿı äºĭ
Ġé©¬ æĭīåĩ¯
Ġç½ ª
å®ĭ æµ©å¤©
å¢ĥçķĮ çļĦ
ç¥Ń çĤ¼
å°ĺ åľŁ
æĽ¿ æĪĳ
ç«¥ çİī
çĶľ çĶľ
ĠéļĲ èĢħ
æĿľ é£ŀ
æ¸ħæĻ ¨
æ´ģ çĻ½
ä¼Ł å¤§
å¯¿ åĳ½
åĭĥ åĭĥ
Ġæ½ ĺ
é¸¦ å²Ń
Ġé»ĳçŁ³ ç©ºéĹ´
Ã Ĺ
çļĦ çĶµè¯Ŀ
çļĦ è·Ŀç¦»
çļĦ æ³ķå®Ŀ
çļĦ éĿĴå¹´
è¿Ļ æ®µæĹ¶éĹ´
ä»ĸ ä¸į
ä¸ª å¤´
åľ¨ å¤©
ä¸ĭ ä¸Ģä¸ª
ä¸ĭ æ¬¡
æķ ·
ä¹ĭ æĪĺ
å¿ĥ çŁ¥
å¥½ æīĭ
åı¯ åĲ¦
æĥ³ çŁ¥éģĵ
ä¸ī ä»¶
æĹł éĩı
æĹł è¾¹çļĦ
åĸ ³
æĺİ ç¾½
çĻ½ äºĳ
äºĮ çĪ·
åıĪ æĬĬ
å¤ª æŀģ
ä¹Ĳ ç¥¸
åıĺ æķħ
çĸ «
Ġå¥½ ä¸Ģä¸ª
å®ī åĲĽ
çŁ³ æŀĹ
åĨ· éħ·
ä¸ĸ äºĨ
ä¸ĥ å½©
åĪĢ æŀª
Ġçľ¼ çľ¸
ç»ĵ å·´å·´
é¦ĸ å¸Ń
Ġåĺ ī
èĴĻ æĹı
æ¯Ľ åŃĶ
èĪĴ äºĨåı£æ°Ķ
åħ¬åŃĲ çĳĿ
éĻĪ æ´ĭ
æı¡ æīĭ
ç§° ä¹ĭä¸º
è®® ä¼ļ
æĶ»åĩ» åĬĽ
çĿ¡ çĿĢäºĨ
é¥Ń èıľ
ĠåĢĴ ä¸įå¦Ĥ
èĦ± ç¦»
Ġä»Ĭ å¹´
åĨĴ çĿĢ
èĵĿ èī²çļĦ
å²Ľ åĽ½
ç¾ŀ çº¢
Ġä½İ æ²ī
åĨĽå®ĺ ä»¬
ç¨Ģ ç½ķ
æĤł éĹ²
Ġå¼º åĵ¥
Ġä¸įçĶ¨ äºĨ
èĥĮåĲİ çļĦ
åĺ»åĺ» ç¬ĳéģĵ
ĠæĪĳè¿Ļ å°±
ĠåĪ°åºķ æĺ¯
è´º åħ°
é©¾ é©¶
çģ¾ ä¹Ĳç¥¸
å¸¦é¢Ĩ ä¸ĭ
ä¸įè¿Ń çļĦ
Ġå±ŀ ä¸ĭ
Ġè®¨ åİĮ
è ĺ
Ġ B
çļĦ ä¸¤ä¸ª
çļĦ å¹´è½»äºº
ä¸Ģ æĹłæīĢ
äºº æīĭ
æľī åĲį
ä½ł æĪĳ
å¤§ åı£
å¤§ ç¥Ńåı¸
çĿĢ ä»ĸä»¬
ä¹Ł ç½¢
åĪ° ä¸Ģä¸ª
åİ» åĵªéĩĮ
ä¹ĭ æģ©
åı¯ éĥ½æĺ¯
çĤ¹ çĩĥ
äºĨä¸Ģ å¤©
åīį åİ»
æ²¡æľī è¯´è¯Ŀ
æŃ» åİ»çļĦ
ĠæŀĹéĽ· çĸĳ
æŃ£ ä¹ī
çŃī äººéĥ½
è¥¿ æ´ĭ
å¸¦ çĿĢä¸Ģä¸Ŀ
Ġå¥½ çļĦ
æŀģ å¥½
æ·± æ²ī
åĬł æĮģ
æµģ éľ²åĩº
Ġæķ ĸä¸įå°Ĭ
ä½İ ä¸ĭäºĨ
Ġæģ ¢å¤į
å·¨ åĬĽ
èĻİ å¯º
Ġåĩł åįģ
Ġè¿ «
çĥŃ æ°Ķ
Ġè§ģ å¥¹
é¡¾ å®¶
ä¸¾ è¡Į
ç¿» çĻ½çľ¼
å¼ķ æĿ¥
ĠæĤ¨ æĺ¯
çļ± çľīå¤´
æľīä»Ģä¹Ī äºĭæĥħ
Ġéķ¿ éķ¿çļĦ
å°Ĭ ä¸¥
é¢Ĺ çģµçıł
é£ĺ èį¡
çĪĨ åıĳåĩº
ä¸įåĩº å£°
Ġ3 0
è¿İ äºĨä¸Ĭåİ»
Ġå¼ł é¡º
ĠèĩªçĦ¶ ä¸įä¼ļ
ĠæĶ¾ ä¸ĭ
åħ· æľī
ä¿Ĭ ç¾İ
åĬ¨æīĭ äºĨ
èĭį èĢģ
å¹» çŀĳ
Ġéľ² åĩºäºĨ
åĥ§ äºº
åĲĮæł· çļĦ
ĠçĤ¹ å¤´éģĵ
åĺ»åĺ» åĵĪåĵĪ
Ġå¤´ é¡¶
ä¸įå¤ª å¥½
å¤įæĿĤ çļĦ
éŀŃ çĤ®
æīĵäºĨä¸ª åĵĪåĵĪ
æ³ī æ°´
ä»į æĹ§
èĨĿ çĽĸ
Ġèµ¶ å¿Ļ
èĤĸ éĿĴæĹĭ
åĨ°åĨ· çļĦ
åĪ· åĪ·
æ¸©å®¶ æĿĳ
åĶ¯ æľī
åı«ä»Ģä¹Ī åĲįåŃĹ
ĠåĸĦ æĸŃ
Ġåĳľ åĳľ
Ġå¯¼ èĩ´
çļĦ åıĳ
ä¸Ģ æ¯Ķ
ä¸į æ¯Ķ
æľī éĹ®é¢ĺ
ä¸Ĭ åįĪ
å¤§ ä¼¯
å°± ä¸įèĥ½
è¿ĩ äºº
è¿ĩ å¾Ĺ
éĥ½ è§īå¾Ĺ
è¦ģ å¤ļ
çľĭ å¥½
çľĭ äºĨä¸Ģä¸ĭ
çĽ ħ
æīĭ æ³ķ
ä¸º æķĮ
åı¯ æ²¡æľī
äºĨä¸Ģ èº«
äºĨä¸Ģ å¼ł
ä¸¤ åĿĹ
åīį éĢĶ
Ġæľ Ł
è¢« æĿĢ
Ġè¯ ¯
èµ° åĬ¨
åıĪ è¯´
è®© æŀĹéĽ·
ä»Ļ æľ¯
è¿Ļä¸ª æľºä¼ļ
åĲĮ è¡Į
åŁİ å®Ī
éĵ Ľ
çĪ· æĪĳ
é£ŀ æºħ
èĲ½ åĪ°äºĨ
çİī éľ²
çİ°åľ¨ å°±
è½¬ åĬ¨
Ġçº ¤
å®« å»·
éĶĻ è¿ĩ
ä¸Ģå£° ä»¤ä¸ĭ
æļĹ ç®Ĺ
Ġè¿Ļä¸ª å°ı
æĭī æĭ¢
åĪ© ç´¢
æķĻ æĪĳ
ä½İ åĲ¼
æĭ³ æīĭ
èĥĮ çĿĢ
èĵ ¦çĦ¶
åĹ Ķéģĵ
é¡¶ çº§
ĠåĲ¬ å¾Ĺ
åĽ¾ çīĩ
ç§° èµŀ
æ±Ł åįĹ
å°¼ æĪĪ
Ġåĩº æīĭ
ĠåĢĴ ä¹Ł
å¥Ķ é©°
éĩİ èĽ®
æ³ª æµģ
ĠåĿ ĩ
ä¸ºä»Ģä¹Ī ä¼ļ
Ġæ´Ľ æ»¨
éĥ¨éĺŁ çļĦ
å¹¶æ²¡æľī ä»Ģä¹Ī
Ġéĩį æ¥¼
çªģåİ¥ å°ĳå¥³
çºµ èº«
éĻĲ åĪ¶
æµ© æµ©
éĤ£æł· çļĦ
ä¹Łä¸įæĺ¯ ä»Ģä¹Ī
ç¼º åı£
äº¿ ä¸ĩ
çŀ§ çŀ§
åŀĤ ä¸ĭ
çŃ¾ åĲį
ç´«æĻ¶ æĢªåħ½
çĳŁ ä¸Ĭæł¡
èĦĳæµ·ä¸Ń åĵįèµ·
è®¯ æģ¯
åŁºæľ¬ ä¸Ĭ
Ġå°±åľ¨è¿Ļ æĹ¶åĢĻ
å¹½åĨ¥ å±±
æ§ Ľ
å¯Ĩå¯Ĩéº»éº» çļĦ
æª Ĳ
ĠçĮª å¤´
æ²Ĳ æµ´
Ġ "
äºĨ å¾Īä¹ħ
è¯ ĳ
åľ° çĤ¹çĤ¹å¤´
çĿĢ æĥ³
ĠæĪĳ ä¸Ģå®ļä¼ļ
ĠæĪĳ ä¼°è®¡
Ġä½ł éĥ½
å¤© ä¹¦
å¿ĥ æĢ¥
ĠéĤ£ ä¸Ģ
å¯¹ ä¸Ĭ
å¤ļ æĭī
ä¸ī æĢĿ
Ġä½ ©
æīĵ æİ¢
é«ĺ åİŁ
èĢĮ éĢĥ
ä¸» ç¼ĸ
ĠæŀĹéĽ· ç¬ĳçĿĢ
åĲ¬ å®Į
åĲ¬ æĩĤ
å°±æĺ¯ åľ¨
ä»Ļ æŀĹ
éĩĳ çģ«
å¤ª å¤§çļĦ
åħ¬ åŃĻæ¢¦çĳ¶
æĢª åı«
è·¯ è¿ĩ
Ġåı¶æŀ« çªģçĦ¶
åħ³ éĹŃ
å®ģ éĽ¨æĺĶ
Ġå¤© èµĭ
åĪĢ éĶĭ
æĭī æĸ¯
é¡¿ é¥Ń
éĹª èĢĢ
æĺİçĻ½ è¿ĩæĿ¥
Ġæĭ ĸ
åĪ¶ ä½ľ
æĺ¾ å¾Ĺå¾Ī
ĠæĻ º
å¤ľ æĻļ
åĹ ĸ
Ġæİ ı
Ġä¸Ĭ åīį
èĴĻ æĿĳ
Ġçªģ åİīéĽ·
ç¥ĸ åħĪ
Ġå¤©æ²³ åĴĮ
Ġçİĭ å¯ħ
æ¸¸ å®¢
éĺ¿ ç§Ģ
æīĳ åĲĳ
å¾Ĳ éķ¿ä»Ĭ
çŁŃ æļĤ
éŃĶæ³ķ åŃ¦éĻ¢
Ġåĵ¼ éģĵ
ĠæĿĢ äºº
ĠçĽ´æİ¥ æľĿ
æ»´ è¡Ģ
åŃĿ å¤©çļĦ
èĿ İ
æĭ¦ æĪª
é¢Ŀ å¤´ä¸Ĭ
æ·ĭ æ·ĭ
Ġæķ¢ æĥħ
ĠçľĭäºĨ çľĭ
Ġå§ĳ å°Ħéĥ¡ä¸»
éĢĨå¤© è¯Ģ
æĳ§ æ¯ģ
Ġçķ¥ å¾®
èħ¾ç©º èĢĮèµ·
æģį æĥļ
è¿ħçĮĽ é¾Ļ
Ġç©¶ ç«Ł
¡ ä¸¹
Ġ A
ħ åĴĴ
çļĦ å¥³åĦ¿
è¿Ļ è¾ĪåŃĲ
äºº æ°ĳ
éģĵ å¢ĥ
éģĵ éĻµ
æľī è¿Ļç§į
çľ ¦
ä½ł è¿Ļæł·
æĿ¥ è¿Ļ
åľ° ä¸ľè¥¿
åľ° è¡¨æĥħ
å¤§ åłĤ
å¤§ å¸ĪåħĦ
æĪĳ ä¸Ģçľ¼
å°± å¾Ī
è¯´ äºĽä»Ģä¹Ī
åĩº åħµ
éĥ½ æľīçĤ¹
å°ı äºĮ
Ġ!âĢĿ îĢĦ
ä¸Ģä¸ª å¥³äºº
åīį è¡Į
Ġä¸Ģ åı¥è¯Ŀ
æĹł äºĮ
æīį åįİ
åı£ åĲĮ
æīĵ è´¥
Ġè¿ĺ ä¼ļ
Ġåľ¨ åľºçļĦ
çĻ¾ ä¸Ī
ä¸ĩ åįĥ
çł Ĥ
çģ« æ°Ķ
ç¬¬ ä¹Ŀ
åĬŁ èĥ½
åĲĪ åĲĮ
åħŃ åįģ
äº¤ å¾ħ
ç¾İ å¦Ļ
å£°éŁ³ åĵįèµ·
çķĻ åľ¨è¿ĻéĩĮ
çľĭåĪ° è¿Ļ
æĿİ æŃ¦éĻµ
èĦĳ çŃĭ
äº® èµ·
å¢ĥ åľ°
æľª æĿ¥çļĦ
çĴ ¨
ĠçĽ´ å¾Ģ
ä¸įäºĨ äºĨ
æ²Ļ åľº
æ³¨ å®ļ
åĩºçİ° äºĨä¸Ģä¸ª
é»Ħ æ¯Ľ
å¨ĩ ç¬ĳ
æŃ¢ ä½ıäºĨ
é¢¤ åĬ¨
å®¤ éĩĮ
ä¸įçŁ¥ æīĢ
ä¸ľæĸ¹ åĨ²
èĦ± èĥİ
è´£ æĢª
è®¤è¯Ĩ çļĦ
çĵ¶ é¢Ī
è¿ĺä¸į å¤Ł
Ġ5 0
æ´Ĺ æ¾¡
çĻ» ä¸Ĭ
æİ© çĽĸ
ä¼ĺ éĽħ
Ġä¾Ŀ æĪĳçľĭ
Ġå¾ħ å¾Ĺ
ä¿®ä»Ļ èĢħ
åĴ³åĹ½ äºĨä¸Ģå£°
ä½İä¸ĭ å¤´
æ°¤æ°² ç´«æ°Ķ
ä¸ºä¸Ģ ä½ĵ
ĠåĨ³ å®ļ
å¬´ æĶ¿
Ġå¾Ħ çĽ´
èĥĮéĵģçĶ² é¾Ļ
Ġ >
Ġ ä¸ĵ
Ġ ä¼łè¯´
Ģ çĴ¨
Ĳ çŁ³
ä¸Ģ éĹ´
ä¸Ģ è¨Ģ
Ġè ķ
ä»ĸ è¯´
ä¸ª ä»Ģä¹Ī
åŃĲ åĴĮ
è¿ĩ ä¸Ģæ¬¡
Ġä½ł ä¸įèĥ½
Ġä»ĸ å±ħçĦ¶
å± ¡
ĠéĤ£ è¿Ļ
ĠéĤ£ åıª
éĿ¢ éľ²
ĠæŀĹ éĥİ
å¤ļ è¿ľ
æ°Ķ æĢ¥
ä¸ī åħĦå¼Ł
èĢģ åħĶå¦ĸ
Ġåı¯ åĪ«
è° ¬
çľŁ åĪĩ
Ġå¤§ çĩķ
é£İ äºĳ
ĠèĢĮ æŃ¤åĪ»
Ġæĺ¯ ä¸ºäºĨ
ä»Ļ å¥³
ä»Ļ å®Ĺ
çĽ´ è§ī
Ġçľĭ éĤ£
è¡Ģ æ°Ķ
Ġæľī ç§į
ä¹Łä¸į åĨį
æĶ¾ èĤĨ
çİĭ åºľ
åĢĴ éĢĢ
Ġä½Ĩæĺ¯ ä»ĸä»¬
æ»¡ åľ°
ĠèĢģ äºº
æµģ éĢĿ
åħĥ æ³ķåĻ¨
åŃ¦ ç©¶
åĪĢ åīĳ
ç¾İ åħĥ
ä½İ å£°éŁ³
Ġä»İ ä»Ĭå¤©
ä¾Ŀ ä»Ĺ
ç»Ĩ èħ»
è·³ åĩºæĿ¥
ĠçŃī çĿĢ
ĠèĦ¸ é¢Ĭ
ä¹ī æ°Ķ
ä¸įæķ¢ åĨį
æĿ¿ çłĸ
çĨŁ ç»ĥ
ç¦»å¼Ģ è¿ĻéĩĮ
å±ĭ é¡¶
å¹¸ å¥½
æĿĳ æ°ĳ
æĶ¾å¿ĥ åĲ§
ĠéĤ£å°± å¥½
ç»Ħ æĪĲçļĦ
è½® å»ĵ
åĲķ å®ī
æħĮ å¼ł
å·¥ä½ľ äººåĳĺ
Ġé² ľ
Ġåį¡ åħ°
ĠæĿľ é£ŀ
çĹĽèĭ¦ çļĦ
æ½ľ åĬĽ
Ġè¶Ĭ æĺ¯
æ¬ºè´Ł æĪĳ
ĠæĬ± çŁ³åŃĲ
ĠæĢİ æł·
Ġè½¦ è½¦
Ġæ¼ Ĥ
å¸ĥéĩĮ çī¹
Ġè± ¹
Ġæ¨ ¡
Ġå½» åºķ
Ġ ä¸ľæµ·
çļĦ æ¸ħ
çļĦ èĥĮå½±
ä¸Ģ ç´§
ä¸Ģ åĽŀäºĭ
åľ¨ ä¸ĭ
å¤§ å¥½
Ġè¿Ļ ä¾¿æĺ¯
å°ı æ²Ļ
æİ º
åĢ ª
å¯¹ çļĦ
å¤ļ æ¬¡
Ġä¸Ģ ä»¶
å¦Ĥ åħ¶
é¢ Į
åıĳ å¸ĥ
åıĳ çĸ¯
æ³ķ æģ©
åıª æĥ³
åĦ¿ äºĨ
èµ° äºĨåĩłæŃ¥
ĠæŀĹéĽ· çĤ¹å¤´
ĠæŀĹéĽ· æĦŁåĪ°
åį´ ä¹Ł
é£İ éĻ©
åĪĨ æĪĲ
åĪĨ éħį
è¡Ģ æµģ
ä½ķ å°Ŀ
ĠåĨ ¬
åįĥ ä¸Ĭä¸ĩ
å®Į å¥½
çº¢ è¢į
ä¸ĥ ä¸ĥ
æ£ ±
åıĮ çľ¼çĿĽ
éļı åĲİ
Ġç§ °
Ġéĺ ħ
æĭ³ æ³ķ
ç©¿ çļĦ
ĠçŃī ä¸Ģä¸ĭ
é¬¼ çİĭ
æĢĢ æĬ±
åį« çĶŁ
æ®µ å¤©çĭ¼
æĳĨ èĦ±
è¢ĭ éĩĮ
ĠèĲ ¥
åī¯ æĢ»è£ģ
åĩĨå¤ĩ å¥½äºĨ
Ġè¢« ä»ĸ
æ¸¸ èµ°
æ¸¸ æ³³
ĠæĢ» ä¸įèĥ½
æİ¢ åĩº
æĹĭ é£İ
çļĦèº« å½¢
Ġä¼¼ä¹İ æĺ¯
Ġèµµ å¤©é¾Ļ
èįĴ èĢħ
ĠæĶ¾ çľ¼
æĶ¾å¿ĥ äºĨ
è¯¸ ä¾¯
æĢ¨ æģ¨
äºĨä¸¤ æŃ¥
Ġåĩłä¹İ åľ¨
éĩĩ è®¿
ä¿© äºº
ç¼º ä¹ı
æ¼Ĥ æµ®
Ġåĵ¥ çıĬ
Ġç»Ŀå¯¹ ä¸įä¼ļ
Ġå¹² åĺĽ
èĢ» è¾±
Ġæĺ¥ æĺŁçŁ³
ĠæĢİ èĥ½
Ġåı¯èĥ½ æĺ¯
ä¿®è¡Į èĢħ
Ġy Ä«n
æ²¾ æŁĵ
è¯Ħ ä»·
éī´ èµı
Ġæį® æĪĳ
èľĤ æĭ¥
ĠéĤ£å¥½ åĲ§
Ġæ½ ®
åĽŀå¿Ĩ èµ·
éľį æł¼
Ġæĭ¼ åĳ½
æĶ¶è´Ń ç«Ļ
Ġå¿ł ä¿¡ä¾¯
ĠçĶĺ èĴĻå»·
æĹłæĦı ä¸Ń
çģµéŃĤéĺ²å¾¡ ä¸»ç¥ŀåĻ¨
ĠåĦ¿ åŃĲ
è£ħçĶ² åħ½
Ã¬ ng
çº¢åı¶ æŀĹ
Ġ ä¸Ŀæ¯«
ĭ æĥľ
çļĦ é²ľè¡Ģ
ĠãĢ Ĳ
ä¸į éļ¾
ä¸į æĢ¥
æľī è¿Ļæł·çļĦ
ä½ł ä¸Ģä¸ª
Ġ: ãĢĮ
åľ¨ èº«è¾¹
åľ° å¥³äºº
ĠæĪĳ è¿Ļä¸ª
æĪĳ è¿Ļä¸ª
ä¸ĭ åĵģ
Ġè¿Ļ èĤ¡
Ġä½ł æ²¡æľī
è¿ĺ éľĢè¦ģ
å°ı åĺ´
å¿ĥ çĶŁ
åĲİ å±±
å¥½ æĦıæĢĿ
éĿ¢ æĿĢæīĭ
åı¯ å¥½
åı¯ ä¸įèĥ½
å¯¹ æŃ¤
è¢ ±
Ġä¸Ģ è¾Ĩ
éĻ ¡
Ġå°± åıªæľī
åĮ £
åĿ ŀ
åĵ¥ ä¿©
æļ Ħ
é£ŀ åĩºåİ»
è£ ķ
ĠèĢģ åĽĽ
ĠèĢģ èĻİ
æŃ¦ èīº
æĸĩ æ²³
åĻ ª
Ġå¹ ¼
Ġå¤© åłĤ
ä¹Ŀ ä¸ª
æİĮ åĬĽ
èĩ³ éĺ´
åħŃ çĽ®éĩĳçĮĬ
çĶ± äºİ
å®Ŀ åħī
Ġå°ıéĽ· ç¬ĳéģĵ
ç¾İ è²Į
èĦļ ä¸ĭçļĦ
æ²ī éĹ·
æĶ¶ åĪ°
åĳ¼ å£°
éĹª éģ¿
Ġæģ į
ç»ĵ çķĮ
çľĭåĪ° ä»ĸ
åħĭ æķĮ
è¿ĺæľī äºº
å¤į æ´»
è±¡ å¾ģ
Ġæİ ī
åİĭ åİĭ
ä¼¼ä¹İ æľīäºĽ
ç»ĥ ä¹ł
æ¯ı ä¸Ģ
æľīä»Ģä¹Ī çĶ¨
ä¹Łæ²¡ åĬŀæ³ķ
èľ ¡
Ġæ¸© æłĳæŀĹ
çļĦç¥ŀ è¯Ĩ
äº§ åĵģ
åľ¨ä»ĸ æĢĢéĩĮ
å¤©åľ° çģµæ°Ķ
ä¼ĳ æĥ³
èĦĨ å¼±
Ġå¤ª éĺ³
åĤ² æ°Ķ
ä¼ĳæģ¯ åĲ§
ĠæĪĺ äºī
Ġé»Ħ éĩĳ
Ġéħ įåĲĪ
Ġçĥ Ī
ĠèĤ¯å®ļ ä¼ļ
Ġå¢ ŀ
æįĤ ä½ıäºĨ
éī´ å®ļ
Ġè®º èµ·
æľįåĬ¡ åĳĺ
ĠèĻŀ å§¬
ĠåĵĪåĵĪåĵĪ åĵĪ
çł° çł°
æĦıåĳ³ çĿĢ
Ġä½ı æīĭ
åº§ä½į ä¸Ĭ
Ġhu Äģ
Ġèķ ´
o o
çļĦ æĢ§æł¼
ä¸Ģ äºĭ
ä¸Ģ è½¯
æĺ¯ æ²¡
ä¸į ç®Ģåįķ
ä¸į æĥľ
äºº åĳ½
æľī èµĦæł¼
åľ° çĤ¹äºĨçĤ¹å¤´
ä¹Ł éģĵ
ĠæĪĳ å¿½çĦ¶
ĠæĪĳ æĹ©å°±
ĠæĪĳ è¿Ļä¸ªäºº
å°± åľ¨è¿Ļ
ä¸ĭ åĲ§
å¾Ĺ çĿĢ
å°ı åı¯
å± ĪçļĦ
ä¼ļ ä¸Ĭ
Ġä¸į æĢ¥
çľ¼ èĬ±
çľ¼ çĨŁ
Ġä¸Ģ æĹģçļĦ
å¼Ģ æľĹ
å¾Ī åĸľæ¬¢
åĨĽ å£«
ç»Ļ ä»ĸçļĦ
äºĳ èĢģç¥ĸ
å¤ª å¼º
æīĢ æĢĿ
ĠæŀĹæĻļèį£ éģĵ
æį ¶
é£ŀ éĢŁ
çļĦä¸Ģ ä¸ĭ
çī© èµĦ
éĿĴ è¡£
åı¯ä»¥ è¯´æĺ¯
æŃ¦ æĿ¾
å½± åīĳ
è¿Ļæł· çļĦäºĭæĥħ
ĠæĬ «
ç²¾ å¿ĥ
åĪĢ çļĦ
Ġåıªæĺ¯ æĪĳ
è®° ä½ıäºĨ
ĠçĽ Ľ
Ġæĭ ¦
è·ĳ è¿ĩæĿ¥
åľ£ éŃĶå¯¼
åĮħ åİ¢
Ġå¾Ī å°ĳ
æĮ¥ åĬ¨
èĭ± æĺİ
æ±Ĥ é¥¶
æİ¨ éĹ¨
è§Ĥ æĪĺ
éĺ´ éĻ©
ĠåĪļ å¥½
ä¸¾ æīĭ
Ġèĥ Ĩ
æĶ¯ ç¥¨
åľŁ åĮª
èĦ¸èī² èĭįçĻ½
é»Ħ èī²çļĦ
Ġçºªå®ģ çĤ¹å¤´
ç¿¼ å¤©ä½¿
ĠåĽĽ å¤Ħ
Ġç¬ĳ åĳµåĳµ
èĤ© ä¸Ĭ
èŃ¦ è§ī
æģ¨ æģ¨
éĽ¾ éļĲ
èİ« å°Ķå¾·
Ġåħ¬ åı¸
èĥĨ å¤§
æī« äºĨ
è·ŁçĿĢ æĪĳ
æĤ² çĹĽ
é¹ Ĭ
Ġèį Ĵ
çļĦèĢģ äºº
éĺ¶ æ³ķå®Ŀ
Ġå°ĳ å¹´
Ġå² ³
Ġåĵ¥ è¾¾æ±Ĺ
æķ°åįģ å¹´
Ġèİ« è¦ģ
ä¸įåģľ åľ°
Ġä½łåı¯ è¦ģ
æĪĲåĬŁ äºĨ
Ġæľª åħį
çªģçł´ äºĨ
çªģçł´ åĪ°
Ġæ±Ĥ æľĪç¥¨
Ġå·® ä¸įå¤ļ
æĥ¨åı« å£°
é¥¿ äºĨ
åķª åķª
çľ¼çıł åŃĲ
ç«Ń åĬĽ
ĠéĹª çĶµ
åĴ¬çĿĢ çīĻ
çİĭåħ« èĽĭ
é²ģåħĭæĸ¯ ä¼ļé¦Ĩ
çļĦ æĿ¥
çļĦ åıĮ
è¿ ¦
äºĨ æķ°
äºĨ æĵ¦
ä¸į çķĻ
ä¸į åĲŃ
Ġè ©¹
å¤§ èĥ½
å¤§ èĢģçĪ·
æĥ ¦
ä¹Ł å°±ä¸į
åĪ° æĹ¶åĢĻ
ĠæĪĳ çŃĶåºĶ
ĠæĪĳ å½ĵæĹ¶
è¯´ åĪ°è¿ĻéĩĮ
éĤ£ çīĩ
éĺ ®
å¥½ åıĭ
å¯¹ è±¡
å¼Ģ å¤ĸ
èĢģ èĢģå®ŀ
çĶŁ äºĨ
çĶŁ åīį
åı£ è¯Ģ
æīĵ ä¸įè¿ĩ
èī² å½©
Ġæī Ķ
Ġç¬ ¨
æĪĺ åħ¢åħ¢
ä»Ļ å¸Ī
æĥĬ æĥ§
ĠæĪĳä»¬ åİ»
Ġåį´ å¿½çĦ¶
çī¹ çĤ¹
çĲĨ æĻº
éĿĴ èĬ±
åĨ² è¿Ľ
å¦ĸ æĹı
åħĥ æ¶²
æļĹ éªĤ
åĪ© çĪª
å½¢ æĪĲäºĨ
ç®¡ äºĭ
è¸ ±
éľ² è¥¿äºļ
ĠæĻ ¶
åŃ© ç«¥
è§Ĥ çĤ¹
æĬĵ ç´§
çĥŃ çĥĪ
ĠåĪļ è¦ģ
èĤī çľ¼
åĮº çļĦ
å²ģ äºĨ
éĢı åĩº
æľĭåıĭ ä»¬
éĺ¿ æŀĹåĵ¥
ä¸īåįģ ä¸ĩ
å£® è§Ĥ
åĢ¼ éĴ±
ç¤º å¼±
è§ģè¿ĩ çļĦ
æ¶Į ä¸Ĭ
ä¸įåĲĮ äºĨ
Ġx Ã¬ng
è² Ĥ
ç»Ħ æĪĲ
å¹¿ åľº
ä¸Ĭåīį ä¸ĢæŃ¥
çĻ» å±±
Ġæķ° çĻ¾
Ġå¸ĥ æ£®
è±¹ åŃĲ
Ġæ±Ĥ æİ¨èįĲç¥¨
Ġå®Įåħ¨ åı¯ä»¥
ĠéĴ Ł
å²Ĥ èĥ½
è¯´ä¸įåĩº è¯ĿæĿ¥
åĿĽ åŃĲ
Ġæĥħ åĨµ
ĠçĹ ħ
Ġå¡ŀ åĨħäºļ
æ°¤æ°² æ°Ķåīĳ
Ġæ´ŀ åŃĲåĲ¯
éĢļå¤© å¡Ķ
ĠåĳĨ åĳĨ
çį Ĵ
éĽĩ ä½£
çľŁé¾Ļä¹ĿåŃĲ çİīéĽķ
ĠåĪ¹ éĤ£
Ġ è¿ĽäºĨ
çļĦ åĳ¢
ä¸Ģ æĮĳ
çľ ·
ä¸ª å¥½
åľ¨ æ°´
å¤§ å±Ģ
çĿĢ åĺ´
åĪ° å¦Ĥä»Ĭ
åĽ ¡
ä¸Ń å·ŀ
è¿ĩ ä¸Ģ
è¿ĩ æľĽ
Ġä½ł åĢĴæĺ¯
ä¹ĭ å®Ŀ
ä¸º å¥¹
Ġä¸į åįķåįķ
æĥ³ ä»Ģä¹Ī
ä¸¤ ä¾§
å¼Ģ è¾Ł
ä½į çļĦ
åħī çº¿
åħī å½©
é«ĺ éĩĩ
å·²ç»ı æŃ»äºĨ
Ġå°ı å£°éģĵ
åĲ¬ åĩº
å½ĵ çĿĢ
è½» æŁĶ
æĪĺ æľ¯
æ°´ æ³½
éŃĶ åīĳ
éĩĳ èº«
å¾® å¼±
çī¹ åĪ©
è¿ĺæĺ¯ ç¬¬ä¸Ģæ¬¡
çº¢ éħĴ
æŃ¦ åľº
è½¬ äºĨ
åħ« åįĥ
æĢ» ç»ĵ
æľį ä¾į
çľĭçĿĢ éĤ£
çľĭçĿĢ çºªå®ģ
ä¹± è·ĳ
æĢ§ è´¨
éĽª æĻ´
ĠéĽ ķ
å·® åĪ«
ç´« è¢į
ä»Ĭå¤© çļĦ
Ġç«Ł æķ¢
Ġçª Ĺ
ä¸įè¦ģ è¯´
é»Ħ æĺı
æ´ŀ ä¸Ń
è¯´äºĨ åĩºæĿ¥
è¯ģ ä»¶
Ġè·Ł åľ¨
æĭľ è§ģ
æĭľ æīĺ
ĠæĪĳå°± çŁ¥éģĵ
çº¹ é»ĳçĨĬ
ä»İæĿ¥ ä¸į
é¦Ĩ éķ¿
ç¢§ ç»¿
é¼İ ä¾¯
Ġä¸ĥ ä¸ĥ
çļĦå¤© èµĭ
å¤ı çİĭæľĿ
åľ°çľĭçĿĢ ä»ĸ
ä½İå£° è¯´éģĵ
è·Łä»ĸ è¯´
Ġä¼¯ çº³å¾·
Ġæ½ ľ
ĠåĪĩ æł¼æ¸©
ä¸ĢåŃĹ å®«
å°ĸéĶĲ çļĦ
æĮªç§» éĺµ
Ġé¢ľ æĻ¯çĶŁ
Ġäºļ åĵ¥ç±³
Ã ¹
Ġ ........
çļĦ èĥ½éĩı
ĠãĢĤ {
ä»ĸ æĿ¥
ä»ĸ è¦ģ
ä¸Ĭ è½¦
å¤§ å§Ĳ
å¤§ ä¹±
å¤§ è¡Ĺ
Ġ! ]
æĢ ¡
ĠæĪĳ æĢ¥å¿Ļ
éĹ °
Ġè¿Ļ éģĵ
åĩº åįĸ
ä¸Ń ä»Ļ
å¾Ĺ ä»¥
å¤´ é¢Ĩ
å¤´ çĹĽ
å°ı æ··æ··
å¿ĥ èħ¹
ĠéĤ£ å£°éŁ³
å¯¹ å¤´
å¤ļ åĲī
Ġä¸Ģ æĭ³
æĹł å¤Ħ
åıĳ ä¸Ńå¹´äºº
éķ¿ åľ°
éĹ´ å°±
åĽŀ å½Ĵ
åĨĽ èĩ£
ĠåĪ Ĵ
é£İ çĭ¼
æĪĺ åĬĽ
Ġæĺ¯ è¦ģ
Ġå¥¹ å¿ĥéĩĮ
æĥĬ å¾Ĺ
çģ« å±±
çĮ ĸ
ä¿¡ çļĦ
æī¾ æĿ¥
ĠèĢģ çİĭ
åı¯ä»¥ è¯´
å¹³ æģ¯
çİ°åľ¨ æĺ¯
åĲĥ åĬĽ
å¥ĩ éĹ¨
åıĹ è¿ĩ
å®ģ é¡¿
Ġå¤© ä¹¦
Ġä¸Ģä¸ª æľĪ
æĿİ åŃĲ
ä¸įè¿ĩ äºĨ
å³ Ń
å¿į ä¸įä½ıäºĨ
Ġåĩł åĲį
Ġè¿ĻäºĽ ä¸ľè¥¿
Ġè§ģ äºĨ
Ġåĺ ¶
æĿ¾ ç§ĭ
èĥ¸ èĦ¯
éĵ¶ èī²
åıĤ æĤŁ
Ġçİī èĭ¥
Ġè¿Ļæł· ä¸ĢæĿ¥
æŁĶ æĥħ
è§Ħ å®ļ
ç½ª åĲį
æĮ¡ ä¸įä½ı
ĠèĦ¸ä¸Ĭ éľ²åĩº
éĥ½æ²¡æľī äºĨ
ĠåĪļæīį æĪĳ
Ġå¼ł åĨ°
ĠçĽ¸ äºĴ
èĮ¶ åı¶
Ġåı« æĪĳ
æ¯įäº² çļĦ
èĤĥ çĦ¶
ĠéĩĮ å°ĶèĴĻæĸ¯
æĻĵ é¾Ļ
é¡¹ éĵ¾
åĺ¶ åĲ¼
ä½³ äºº
çļĦéĿ¢ å®¹
åįı åĬ©
Ġé¥ Ń
Ġåºŀ å¤§çļĦ
Ġå¤ı å¨ĥ
æĸĲ å°¼åħĭæĸ¯
Ġå¤Ħ å¤Ħ
åĢĶ å¼º
Ġä¹ĸ ä¹ĸ
åīįæīĢæľª æľīçļĦ
ĠmÃ© n
Ġä¾ĭ å¦Ĥ
Ġ W
Ġ ä¸ģæ´ª
æĺ¯ å¥¹
ä¸į ä½ľ
æľī ç¼ĺ
å¤§ å¼Ģ
çĶ «
Ġè¿Ļ å¤©
Ġä½ł ä¸İ
è¿ĺ æīĭ
çľĭ è¿Ļ
å¾Ĺ è¿Ļä¹Ī
çİ º
éĢ ®
æ²¡ è§ģ
å°ı èĦ¸
åĴĮ åħ¶ä»ĸ
Ġä¸į éľĢè¦ģ
åĲİ éĻ¢
åı¯ æĥ³èĢĮçŁ¥
ĠæŀĹ éĽ¨
ä¸¤ å¤´
æĹł æįŁ
æ¸ħ äºĮ
æ¸ħ åĨ·
çľŁ èº«
æĬĬ äºĭæĥħ
åĦ¿ åŃĲçļĦ
èĢĮ æĪĲçļĦ
ĠæŀĹéĽ· æŃ¤åĪ»
å¥³ çĶŁ
åıĪ ä¸į
æŃ£ æĸ¹
éĶ Ī
éĹ® çļĦ
Ġå°ı åı¶
åīĳ æŁĦ
å½ĵ åħĪ
å¼º è¿«
æĪĺ å½¹
ç©º ä¸ŃçļĦ
é©¬ æĭīåĩ¯
Ġèĩ £
è¥¿ åĽ¾
ä¼ł æĴŃ
è·¯ çº¿
éĿŀ å¾Ĺ
ç«ĭ çĿĢ
æŀģ åº¦
æĢ¥ åĮĨåĮĨ
è¯¥ å¦Ĥä½ķ
å¾Ģ æĹ¥
æļĹ åĬ²æľŁ
å¤« äººçļĦ
Ġåıªæĺ¯ éĤ£
äº¤ åĬł
è¡£ è¥Ł
Ġå°ıéĽ· å¿½çĦ¶
çº§ æĪĺå£«
å®³ äºĨ
Ġçľ¼ æ³ª
åľ£ åľ°
åľ£ å·«æķĻ
åİī å£°
Ġåı¶å¤© æĳĩäºĨæĳĩå¤´
åĵģ è´¨
éĺ´ çħŀ
è¿½ æĺŁåŃĲ
æķĳ ä½ł
æĶ¯ æı´
ĠåĽĽ ä½į
æķħ ä½ľ
æĦ£ æĦ£
å¸Ĥ éķ¿
é¡º åĬ¿
Ġç´« æĻ¶
åħħ è¶³
å»º åĭĩ
çĥŁ éĽ¾
æĭ¥ æĬ±
å¹ķ åĲİ
ç¾ŀ è¾±
è´¢ äº§
çĩķ ä¸įå½Ĵ
Ġæį Ł
äºĨä¸¤ å£°
Ġèİ« å°Ķå¾·
éĻ¶ ä¸ľæĪĲ
ĠæĢ¥å¿Ļ éģĵ
Ġä½łåı¯ çŁ¥éģĵ
èŁ ¾
æİł å¤º
ĠéĻ¶ å©īçĽĪ
å»¶ ä¼¸
åħ¸ ç±į
Ġæ´ª éĹ¨
Ġå¾Īå¤ļ äºº
è¶ģ çĿĢ
çĮ« å¦ĸ
æĿ¥ä¸įåıĬ äºĨ
ĠèĻŀ ç¾İäºº
Ġæģ¶ éŃĶ
ç¥Ī ç¥·
ĠèĢ¶ çĲ³å¨ľ
a i
Ġ '
Ġ N
Ġ ä¿ĿæĬ¤
Ġ ä¿Ŀè¯ģ
çļĦ æĢªçī©
ä¸į åĢĴ
æľī æĹ¶åĢĻ
åľ° è·Ł
å¤§ åŀĭ
ä¹Ł ä»İ
Ġä½ł å·²ç»ı
è¿ĺ ä¸įèĥ½
æĪ ¾æ°Ķ
å¿ĥ èĻļ
åĴĮ éĤ£ä¸ª
å¥½ åĲ¬
å¥½ ä¸įå®¹æĺĵ
èĩª è¨Ģèĩªè¯Ń
æĥ³ å¿ħ
ç¥ŀ åħī
ç¥ŀ å¤©ä½¿
å®¶ åĽŃ
ä¸ī å¤ļ
ä¸ī æ¸ħ
Ġå¥ ī
ĠèĢ ĥ
Ġåı¯ æŀĹéĽ·
èĭ Ł
çİ° è±¡
æīĵ åĬ«
çĻ½ çļĻ
æŃ» ç¥ŀåĤĢåĦ¡
é«ĺ ä¸´
è®© åı¶æŀ«
ä¸ľ åĮĹ
Ġå¦ ¹
åĲį åįķ
å¤ª èĭį
Ġåı¯æĺ¯ åľ¨
æīĢ å½ĵçĦ¶
ç©º åľ°ä¸Ĭ
ĠæĪĳä»¬ åħĪ
é»ĳ æĹĹåĨĽ
Ġåį´ æĺ¯ä¸Ģ
äº² æĪļ
çİĭ å®«
ä¿¡ åı·
çļĦä¸Ģ ä½į
çļĦä¸Ģ ä¸Ŀ
çŁ³ å®¤
åĨ· å£°éģĵ
Ġåı¶æŀ« ç»Īäºİ
æľº åľº
Ġéĥ½ åľ¨
æĢ» ä¸įèĥ½
æİĮ å£°
æĢĴ éªĤ
å» ĸæĺĬå¾·
æ¶Ī çĺ¦
æĹģ äºº
å¸ĥ åħ°
å¨ĺ çļĦ
æĭį äºĨä¸Ģä¸ĭ
ĠæľĢ èµ·çłģ
å¤ľ çļĦ
æº º
éĽĨ ä½ĵ
æİ¨ è¾ŀ
æģ¶ æĦı
å¯Ĩ å¸ĥ
Ġçª Ŀ
æķĳ æı´
Ġåĸ ·
ä¸įäºĨ å¤ļä¹ħ
å¨ĩ ç¾ŀ
åı³ èĩĤ
ä¹ĭåīį çļĦ
åĶĲ æĸĩè¿ľ
Ġéľ ¸
é¡º ä¾¿
Ġçİĭ çĪ·
ä¹° çļĦ
åĬ© çĲĨ
ĠéĿĴ å±±
å¹´çļĦ æĹ¶éĹ´
å¹´è½» çļĦ
ä½įéĿ¢ çĽĳçĭ±
çĽĳ æİ§
Ġéĩį åħī
Ġå¾· æĺĨ
Ġä¿ ı
æİĮéĹ¨ äºº
ĠåĲ´ æĸĩç¥¥
éģĹ åĺ±
æĽ² æ¸Ĭ
Ġçľ¼ä¸Ń éĹªè¿ĩä¸Ģä¸Ŀ
çļĦå¥½ å¤Ħ
æĪ´ å¥ĩ
çªĹ åı£
æ¿ĢåĬ¨ åľ°
çľ¯ èµ·
éĹ² çĿĢ
Ġæĭ¿ çĿĢ
Ġé»Ħ æ¯Ľ
Ġçĸ ¼
å±ģèĤ¡ ä¸Ĭ
Ġä¸» è¦ģæĺ¯
çĥĽ åį°
ĠèĮ ¶
å¡ŀåĨħäºļ æĹı
Ġ!âĢĶâĢĶ âĢĿ
ĠæĤĦ æĤĦ
ĠåĨĽå®ĺ ä»¬
åİķ æīĢ
¶ èĽŁ
Ġ è¿ĽæĿ¥
Ġ ä¾ıåĦĴèĢģéģĵ
ä¸Ģ çļĦ
ä¸Ģ éĢļ
æĺ¯ è¿Ļæł·
åľ° åľ°æĸ¹
å¤§ ä¸»æķĻ
åŃĲ å³°
ĠæĪĳ é©¬ä¸Ĭ
æĪĳ åĨį
ä¸ĭ æ¥¼
Ġè¿Ļ å¤´
çľĭ ä¸įåĩºæĿ¥
æĪ į
çŁ «
ä¸ī å¤´
Ġå°± å¦ĤåĲĮ
èĩªå·± äºº
Ġåħ »
å±± ä¸ĬçļĦ
æīĵ åľ¨
èµ° è¿ĽæĿ¥
ä¸» åŃĲ
ĠæŀĹéĽ· æķ´ä¸ªäºº
Ġå¤§ éĥ¨åĪĨ
åıĪ éĹ®
ç½ ²
åĽĽ åĲį
æľĢ å¼ºçļĦ
åĵ¥ è¾¾æ±Ĺ
çī¹ ç½Ĺ
çŀ °
Ġå¸ Ĥ
Ġæĥ ŃæĦ§
æĢ» ç»ıçĲĨ
å¸Ŀ çİĭ
æľ¯ æ³ķ
åĮħ è¢±
æĬ¤ éĢģ
Ġèĭ¥ æľīæīĢæĢĿ
ĠæĤ ¬
èįī åľ°ä¸Ĭ
ç¦ģ å¿Į
èĥ¡ é¸¿å¾·
åıĸ åĩºäºĨ
Ġå·² çĦ¶
éĨĴ è¿ĩæĿ¥
éĹ®é¢ĺ äºĨ
çļĦæīĭ æľº
èľ ·
åĿļ å¼º
Ġæĺİ çĻ½äºĨ
åĪĴ çł´
çĥĪ çģ«
çŀª å¤§äºĨçľ¼çĿĽ
ç»Łé¢Ĩ å¤§äºº
éĽ¾ æ°´
æ·¡æ·¡ ä¸Ģç¬ĳ
çĮľ åĪ°
çº¸ å¼ł
å¦® å¼Ĺ
åĩī çļĦ
çľ¨ äºĨ
Ġå¹³ å¸¸
çıį æĥľ
ĠéĤ ¹æĸ°
çĭĲ çĸĳ
æİı åĩºäºĨ
æĳĨæīĭ éģĵ
å¹ħ æķ£
åĩı å°ĳ
åĻ¬ ç¥ŀé¼ł
ĠéĴ »
Ġåħĭ èİ±éĹ¨å»·
èĢģç¥ĸ å®Ĺ
åĪĨéĴŁ åĲİ
åķª åķ¦
èİ«åĲįåħ¶å¦Ļ çļĦ
Ġéªĳ åħµ
æį£ ä¹±
Ġèįī åİŁ
Ġé¢Ŀ å¤´
åľ£è¡Ģ å®Ĺ
æĵĤ åı°
èĭ¥æĹłåħ¶ äºĭçļĦ
æģ©æĸ¯çī¹ åŃ¦éĻ¢
å¿ħæŃ» æĹłçĸĳ
æ®Ĩ å°½
Ġåĺī è¿ª
æ¸ħäºĮ æ¥ļ
çļĦ åĨ°
çļĦ æĢ§åĳ½
çļĦ ç§ĺå¯Ĩ
ä¸Ģ ä¸ĸ
ä¸į ä¸ģ
è¿Ļ åĲį
è¯ ħåĴĴ
æľī æĦıæĢĿ
ä¹Ł è¡Į
ĠæĪĳ å¤§åįİ
æ² ¼
éĤ£ ä»½
æīĭ è¶³
å¿ĥ æ³ķ
ä¼ļ åĲĪ
åĴĮ æ°Ķ
éĿ¢ åħ·
ç¥ŀ æľº
å®¶ çļĦäºº
å¤ļ äºĨä¸Ģ
Ġä¸Ģ åĲ¬
å¦Ĥ é£İ
å¾Ī æĺİæĺ¾
åıĳ åĬ¨äºĨ
åķ ¡
å±± å£ģ
å§Ĳ å¼Ł
Ġå°ı åħĦå¼Ł
é£İ åı¸
ç¼ ī
åĨį è§ģ
ĠæĹ ¸ä¸ĺçİĭ
éĩĳ åħĢæľ¯
åħ¥ åĪ°äºĨ
æĥĬ çĸĳ
æĥĬ æĥ¶
èħ Ĩ
è¿ĺæĺ¯ ä¸ª
åĪļ è¦ģ
ĠèĢģ åĴĮå°ļ
æĮĩ ç¤º
åĲĥ éĨĭ
å¥ĩ å¦Ļ
ç»Ŀ éĿŀ
å¾· ä»ĻåĿĬ
åħŃ åĽ½
åĵª æľī
èĭ¦ å¿ĥ
åĸĿ äºĨä¸Ģå£°
æĭ¿ åİ»
æĶ¶ æľį
ĠåĨį è¿ĩ
Ġä¸ī ä¸ªäºº
å°Ķ æĸĩ
æİī èĲ½
æĬ¥ çŃĶ
éĢģ æĿ¥
åıĳçİ° èĩªå·±
çĿĢä¸Ģ å±Ĥ
ĠåĪ° æĹ¶
ç§¦ åĨĽ
åĲ¸ è¡Ģ
è¯´çļĦ å¯¹
å¼ķ åĬ¨
ĠéĽ· å¤§å°ıå§Ĳ
å®Ī åĨĽ
Ġéļ¾éģĵ æĪĳ
å°ļ ä¹¦
Ġæ²Ī æĢ»
ä¸įåı¯ æµĭ
èħ° èĤ¢
é²ľ çº¢
ĠæĪĳæĺ¯ è¯´
Ġèĥ¡ é¸¿å¾·
å²Ľ å±¿
çĭĹ å±ģ
åª ²
Ġé¢ Ħ
çļĦçĽ®åħī ä¸Ń
æİ© æĬ¤
Ġå®ĭ æµ©å¤©
å®½ éĺĶ
åłª æ¯Ķ
çıį è´µçļĦ
Ġè¥¿ å°¼
èİ· èĥľ
ĠåĲĥ é¥Ń
æķ² éĹ¨
åĵĳ å·´
Ġç¾İ ä¸½
åįĬä¸ª æľĪ
è°¦ éĢĬ
æĮĸ æİĺ
ä¹Ĳç¾Ĭ çĶľ
ä¹ĥ èĩ³
è¯´ä¸į åĩºæĿ¥
Ġä¸ĸ ä¸Ĭ
ĠéħĴ åīĳä»Ļ
åĿĩ æĺ¯
åı® åĺ±
æª Ģ
Ġ D
Ķ é¦ĸ
Ń èĦĤ
çļĦ åıĺåĮĸ
äºĨ æĹłæķ°
æĺ¯ æĿ¥
ä¸į ç»Ļ
äºº äºº
åľ¨ æĢĢéĩĮ
åľ° å¿ĥ
æĥ Ń
åĪ° å¥¹
å°± çĽ´æİ¥
çĦ¶ å¤§
åĩº äºĭ
Ġä½ł ä¸Ģå®ļè¦ģ
è¿ĺ çľŁçļĦ
Ġå° Ĭ
éĤ£ ä»¶
éĤ£ é¢Ĺ
å°ı èļ©æ¯Ľçºł
èĥ½ åĲ¦
éĽ· åħī
åĴĮ èĶ¼
å¥½ æ¶Īæģ¯
Ġä¸Ģ ä¸ĩ
Ġå°± åĴĮ
åıª ä¸įè¿ĩ
æĺİ æĹ¥
æĬĬ çĽ®åħī
æīĵ çł´
Ġä¹Ł å¾Ī
æŃ» æİī
èµ° è·¯
åĲĳ åĭ¿ä¹ŀ
éĥ Ŀ
éĺ³ å¸Ĥ
èĻ Ķè¯ļ
ä¸ĩ çģµ
ĠæĪĳä»¬ åľ¨
çī¹ åħ°
çģ« äºĨ
ä¸İ æŀĹæľĪå¦Ĥ
çº¢ èĢ³
ĠèĢģ å¼ł
é¢Ĩ æķĻ
è¯¥ æĢİä¹Ī
æ·± çŁ¥
ä¸ĸ åŃĲ
åĨ² ä¸Ĭåİ»
ĠæĿİ ç¦ı
ĠæĿİ é¾Ļå®Ŀ
å¾· æŀĹçĪ·çĪ·
è®¸ éľĩ
æĺ¯ä¸Ģ åº§
çł´ ç¥ŀ
éĿĻ æ°´
Ġæģ ¼
å°Ķ çī¹
åħĭ è¥¿
è·³ è·ĥ
è¯´è¯Ŀ çļĦæĹ¶åĢĻ
Ġå± ģ
æķĮ æĦı
ĠçĽ´ èĩ³
åıĸ åĩºä¸Ģ
éº» è¡£
æł¹æľ¬ å°±æ²¡
éķĩ å¦ĸ
æ´ŀ éĩĮ
Ġçģ Ń
ä¼¯ è¨Ģ
åŃ©åŃĲ ä»¬
Ġåįģ åĩł
Ġåįģ ä¸ĩ
å°ĸ åĪº
Ġé¾Ļ çľ¼
Ġä»Ĭ è¥¿
ĠèĦ¸ä¸Ĭ æ»¡æĺ¯
å¹¸ çģ¾ä¹Ĳç¥¸
æ®ĭ å½±
åł¡ ä¸»
ĠåĲĳ æĿ¥
è¯ļ æģ³
ä¼ı èĻİå¯º
ç§¦æľĹ çļĦ
Ġæ°´ æµĴä¸īæĿ°
Ġåķ ¥
æĥĬè®¶ éģĵ
çļĦå¤© æīį
Ġèĵ ¦çĦ¶
çĭĲ ä»Ļ
Ġå£°éŁ³ ä¸ĢèĲ½
Ġä¸įä¼ļ åĲ§
ĠæľĿ å»·
çļĦæ°Ķ è´¨
å®£ ä¼ł
Ġçĥ §
åģļåĪ° çļĦ
çļĦéŃĶæĹı åħµ
Ġç§ĭ åı¶
Ġæ¯«ä¸į çĬ¹è±«
Ġ-- -
èĬ¬èİ± åŁİ
éĿŀåĲĮ å°ıåı¯
Ġåħ· ä½ĵ
ĠåĽĽç¥ŀåħ½ å®¶æĹı
Ġ X
Ġ äº²èĩª
Ġ ä¸»åĬ¨
çļĦ ä¿®çĤ¼
çļĦ çŀ¬éĹ´
çļĦ å¼ºå¤§
äºĨ æĪĳçļĦ
ä¸Ģ çº¿
ä¸Ģ å¼¹
ä¸į æĽ¾
éģ ½çĦ¶
ä»ĸ èº«ä¸Ĭ
åľ¨ èĩªå·±çļĦ
ä¸Ĭ è¾ĪåŃĲ
å¤§ è§Ħæ¨¡
ä¹Ł æĿ¥äºĨ
ä¹Ł è¯´ä¸įå®ļ
åİ ¦
Ġè¿Ļ èĢģå¤´
çľĭ å®Ī
å°ı çİĭçĪ·
å®¶ éĩĮçļĦ
å¤ļ éķ¿æĹ¶éĹ´
æĸ¹ éĺµ
æ¸ħ äºĨ
å±± æ¹ĸ
Ġä¹Ł æĹłæ³ķ
Ġå°ı è´¼
å¼º åħī
å°±æĺ¯ ä½ł
åģļ çļĦäºĭæĥħ
å¤Ħ å¢ĥ
æ¯Ķ çļĦ
æ¯Ķ æĪĳä»¬
çĽ´ åĪ°
åĽĽ å°Ħ
ĠæĪĳä»¬ èµ°
ä¸İ èĩªå·±
ä¸İ éŃĶæĹı
Ġä»ĸä»¬ å°±
åĨ· åĨ°åĨ°
Ġæ²¡ è¿ĩ
ç«ł å°¾
æĮĩ åĲĳ
ç³ Ļ
å¾Ģ çļĦ
åĶ ī
Ġçľ¼ åħī
éĽª èĬ±
Ġæģ Ĳ
æĿİ æ¸ħ
Ġå°±æĺ¯ ä»ĸ
éľ² éĿ¢
åĤ įæĻļ
è¿½ éĹ®éģĵ
ä¸¾ ä¸ĢåĬ¨
ä»¥ä¸º æĦı
Ġç¥ŀ æł¼
è½»è½» åľ°
è¶ħ è¿ĩäºĨ
æŀĹæĻļèį£ çļĦ
åį± æĢ¥
çļĦèº« æĿĲ
è®©äºº å¿ĥ
ĠéĶ ĭ
ĠçľĭæĿ¥ è¿Ļ
ç¬Ķ è®°
çĭĹ å¤´éĽķ
æĿĢäºĨ æĪĳ
èĭį çĻ½çļĦ
ä¸ĢæŃ¥ æŃ¥
èĳĹ åĲįçļĦ
éĩĩ åıĸ
çĻ» éĻĨ
åĲ´ æĸĩç¥¥
èĳ£ åįĩæµ·
èĢĢ çľ¼çļĦ
è´´ çĿĢ
çī¢ çĭ±
èĵī èĵī
åŁĭ æĢ¨
åĲ©åĴĲ éģĵ
é« »
Ġæĺ¨ æĻļ
Ġç©¿ è¿ĩ
Ġä¹Į æĽ¼
åĵĳ çĦ¶
æĹłè®º æĺ¯
Ġç¿ ¼
åĴĨåĵ® çĿĢ
Ġèħ ¾
ĠåĩŃ åĢŁ
ĠåĤ ¬
Ġç¢ İ
å«Į çĸĳ
Ġèĸ Ľè¶ħ
åļ· åļ·
Ġåľ°çĭ± ä¸Ń
å¼§ çº¿
é¹ħ ç¾Ĭ
éĺİ çİĭ
åı£å¤§ éªĤ
ç»Īæŀģ æĪĺå£«
y e
Ġ â
Ġ Â·
Ĵ éºŁ
ĸ åķ¡
ł çīĻ
çļĦ å·¦
ä¸į åĪĨ
åľ¨ äºİ
ä¸Ĭ è¿ĺ
å¤§ èµĽ
å°± åıªæľī
åĩº åĲį
åĩº ç§Ł
è¿ĩ ä¹ĭå¤Ħ
Ġä½ł ç«ŁçĦ¶
éĥ½ å·²
éĤ£ ä¼ļ
ä¹ĭ åĲ»
èĩª èĭ¥
ĠéĤ£ æĿ¡
ĠéĤ£ èĤ¡
ä»Ģä¹Ī æĦıæĢĿ
Ġä¸Ģ åįĥ
Ġä¸Ģ æł¹
æĹł çĶ¨
å¼Ģ çĿĢ
Ġåį ĳ
çĶŁ å¾Ĺ
Ġå°± æŃ¤
æ³ķ åĽ½
éķ¿ çĶŁ
è¢« å¯¹æĸ¹
ä¸įæĺ¯ ä»ĸ
å·²ç»ı è¾¾åĪ°äºĨ
ä¾¿ å·²
èĦ¸ åºŀ
åĲ¬ ä¸įåĪ°
åĲĳ å¥¹
éĴ ĵ
åĭ ī
ĠâĢĿ âĢľ
çŀ Ł
Ġä½Ĩæĺ¯ å¥¹
ç¿ Ķ
åįİ ä¸½
åĲĥ çĤ¹
æĢ» éĥ¨
å®¹ é¢ľ
åĶ ı
åħĥ éľ¸
åħĦ å¦¹
æĺŁ åħī
ä»¤ æŀĹéĽ·
ä¿Ŀ åŃĺ
æĦŁè§ī ä¸įåĪ°
å·¨ æºĲ
å·´ å½¦æµ©çī¹
å¸ĥ ä¸ĭ
å¸ĥ ä¸¹
èĦĳ çļĦ
æĬ¤ ä½ı
ĠåĶ °
é¬¼ ç¥ŀ
ç±» çļĦ
çĹĽ æģ¨
çľĭäºĨ å°ıéĽ·ä¸Ģçľ¼
çĮĽ èĻİ
ĠéĻĪ å¤©é¾Ļ
ç½® çĸĳ
åĳ³ çļĦ
è´¹ çĶ¨
ĠèĤ ĥ
èľ ¿èľĴ
çĿ¡ ä¸įçĿĢ
Ġæ· ¡çĦ¶
èµĦ æºĲ
çĭ¬ çľ¼
æŁ³ éļıé£İ
çĤ¸ å¼Ģ
èĽ® çīĽ
å¤§åľ° æ³ķåĪĻ
è¸ı å®ŀ
æĺı æļĹ
ä¸ĢåĬ¨ ä¸įåĬ¨
èĿ ł
å¸Ŀéĥ½ çļĦ
ç¼º å°ĳ
Ġå¾Ĺ æĦı
æ·±æ·± åľ°
é»ĳæļĹ ä¹ĭæ£®
æĢ»éķ¿ åºľ
ĠéĹ¨ åı£
åģ¥ åº·
æľįåĬ¡ çĶŁ
éŃĶæĻ¶ æł¸
æ¡£ æ¬¡
æ¸ħèĦĨ çļĦ
ĠéĻ© äºĽ
çĿ« æ¯Ľ
éĴŀ ç¥¨
¥ çĲĲ
çļĦ ä¹Ī
çļĦ çģµæ°Ķ
çļĦ ä»·åĢ¼
Ġæ ĵ¦
æĺ¯ ä½łçļĦ
æĺ¯ å¦Ĥä½ķ
åľ° å¸¦
å¤§ çĤ®
å¿ ¡
è¯´ ä¸Ģå£°
ä¸ĭ é£İ
åĴ Ħ
æĹ¶ ç©º
å¤´ çĽ®
éĤ£ éģĵ
ä¼ļ åľº
èĩª æľī
èĩª å¦Ĥ
äºĨä¸Ģ æĿ¯
è§ģ ä¸įåĪ°
Ġåıª æľīä¸Ģ
Ġä¹Ł ä¸įè¿ĩ
å·²ç»ı æ²¡æľī
Ġå¤§ åİħ
Ġå¤§ èĻŀ
åıĪ ä¸Ģ
åıĪ ä¸Ģæ¬¡
çĥ ¬
éĩį çĤ¹
èĻ ¾
æĿĢ å¾Ĺ
çĽ´ å¥Ķ
çĽ´ å¾Ħ
æľĢ éĩįè¦ģ
Ġåĵ §
åĵ¥ åºĶæĺŁ
éĺµ åĬ¿
æķ° çĻ¾å¹´
è¥¿ è£ħ
è¥¿ ä¼¯åĪ©äºļ
ä¸İ ä¹ĭ
Ġå¥½ ä¸įå¥½
Ġå¸ Ĳ
Ġæ²¡ åĩĨ
åĩ» æºĥ
çļĩ åĲİ
åıĹ éĩįä¼¤
è¿ĳ èº«
åĻ Ķ
é² ¨
ç²¾ èĬĴ
äº¤ å¾Ģ
åĳ¼ åĸĬ
Ġçİ°åľ¨ æĪĳä»¬
éĹª èº«
ĠçĽ Ĺ
ĠèĻ½çĦ¶ æ²¡æľī
åľ£ æĹ¨
æĺ¾ çİ°
æĶ» æīĵ
ç»Ĩ èĬĤ
Ġæ¸©ä¹Ĳéĺ³ ä¹Ł
èį¯ ä¸¸
åı¸ å¤©æ®¿
ä¸įè¦ģ ç´§
æĻ® æĸ¯ç½Ĺ
Ġè½» å£°
ç¿¼ ç¥ŀå¤©ä½¿
è¢į èĢģèĢħ
éĢī æīĭ
ä¼¯ åĽ½äºº
åį¡ åħ°
åĨĴ åĩºæĿ¥
èĭĹ å¥³
å«£ çĦ¶ä¸Ģç¬ĳ
çīĽ çļ®
ĠéĤ£äºĽ äºº
ç»¿ èī²çļĦ
æľ¬æĿ¥ æĺ¯
æµĳ åİļ
ç²ī æľ«
èµĽ è¯Ĺ
æįŁ ä¼¤
åŃ¤ çĭ¬
ĠæŁ³ ä¸ĸå°ģ
çľ¨ å·´
ç§ģ ä¸ĭ
Ġå°ıè¯´ ç½ĳ
æľīäºĽä¸į å¯¹
æħ¢æħ¢ åľ°
å¼© ç®Ń
Ġåħ³ ç¾½
Ġå·¦ åı³
Ġè¶³ æľī
Ġå®Įåħ¨ æĺ¯
åĺ¶ é¸£
éģģ æ³ķ
ĠæĦŁè§ī åĪ°
å±ł æĪ®
ĠèĪ Ĵ
åĺ² å¼Ħ
Ġä¸ĢæĹ¶ ä¹ĭéĹ´
å¤· æīĢæĢĿ
ĠéĹ» è¨Ģ
ç»° ç»°
ĠèĻİ åĵ¥
åĪ°æŀģ èĩ´
Ġæ³° åĭĴ
æ·±åĲ¸ ä¸Ģåı£æ°Ķ
çĭŃ çªĦ
æııæ·¡ åĨĻ
éĩĳçģ« éĵĥ
Ġ ä¸ģ
ı åįĹ
çļĦ å§Ĳå§Ĳ
çļĦ æĸ¹å¼ı
ä¸Ģ åĳ½
ä¸į å¼±
ç» Ĵ
åľ° åºľ
ä¹Ł éĥ½æĺ¯
ä¹Ł æľªå¿ħ
ĠæĪĳ åĵªéĩĮ
Ġè¿Ļ è®©ä»ĸ
åĩº äºİ
å¸ Ľ
Ġä½ł åĸľæ¬¢
å¾Ĺ ä¸įåĪ°
ç¬ ł
ä¹ĭ ä½ĵ
æ²¡ æĿ¥
å°ı è±¡
èµ· åºĬ
æīĭ æĿ¥
åĴĮ åı¶å¤©
ä»Ģä¹Ī æł·çļĦ
ĠæŀĹ å®ļ
ç¥ŀ å¥³
ä¸¤ ä¸ĩ
Ġä¸Ģ æŁĦ
Ġä¸Ģ èĪ¬çļĦ
æĹł ä»İ
Ġä½ Ļ
åįģ éĩĮ
éķ¿ çĽ¸
ĠæŀĹéĽ· å¿½çĦ¶
è¡Į åĲĹ
Ġå°ı è¾£æ¤Ĵ
åĲ¬ èµ·æĿ¥
ä»ĸä»¬ åľ°
éĩį èĩ£
åı¶ ç¦ħå¸Ī
Ġå¥¹ åľ¨
Ġå¥¹ å°±
åĲĮ ä¸Ģä¸ª
Ġçľĭ æĪĳ
Ġä¸įè¿ĩ éĤ£
ä½ķ å¤©çª¦
æĮĩ çĶ²
åħ« ä¸ĩ
è¯¥ æŃ»
ç»Ŀ èī²
Ġè½ ®
ç²¾ æ¹Ľ
æĹ© æĹ©
å®Ŀ éĺģ
æĶ¶ ç¼©
Ġä¸¤ äººçļĦ
æĪ¿ å±ĭ
å¨ĺ åŃĲ
Ġå°Ĩ å¥¹
Ġåı¶å¤© éĹ»è¨Ģ
å¤į ä»ĩ
æ¸© æłĳæŀĹ
Ġè¿ĻäºĽ äºĭæĥħ
å¥¥ å¦Ļ
ä»¥ä¸º æĪĳ
çļĦæīĭ ä¸Ń
Ġç¥ŀ æĹı
Ġä¹ ł
é½Ĳ åĲĽ
Ġæł ¡
Ġä¸ĭ åįĪ
æŀĹæĻļèį£ éģĵ
è§Ħ å¾ĭ
å¥Ķ èħ¾
æīĳ ä¸Ĭåİ»
ĠèĬ ¬
Ġä»Ĭå¤© æĪĳ
å±ĭ åŃĲéĩĮ
èĩ´ åĳ½
ĠæĪĳä¹Ł è¦ģ
éĥ½æ²¡ æĥ³åĪ°
æłĩ æŀª
çģ° çĥ¬
ç²Ĺ æ°Ķ
Ġå®ĥ çļĦ
æķĪ çİĩ
éĢ¼ äºº
åħ¶ä¸Ń ä¸Ģä¸ª
ĠæĮī çĲĨ
é¸¡ ç¬¼éģĵ
Ġç² ī
Ġåħĥ èĢģ
æĴĩ åĺ´å·´
æĺĨä»ĳ å¼ŁåŃĲ
åıĹä¼¤ äºĨ
ĠæĢİ ä¼ļ
Ġå®ļ çĦ¶
Ġè¿½ æĺŁåŃĲ
æ£ĭ åŃĲ
ç°ĩ æĭ¥
ä¸įçĶ±èĩª ä¸»çļĦ
åı¼ ç¾Ĭ
å«¡ ç³»
æ¢¨èĬ± éħĴ
ĠåłĤ åłĤ
Ġ w
çļĦ æķĮäºº
çļĦ å°ĳå¹´
äºĨ æķ´ä¸ª
ä¸Ģ èĩ´
çĿ ¨
åľ° ç³»
ĠæĪĳ ä»İ
ĠæĪĳ è¿ĺæ²¡
ä¸Ń å¸¦
Ġä½ł å¹²ä»Ģä¹Ī
åİ» è·¯
ä¹ĭ èº¯
å°ı æ¥¼
æīĭ å¿ĻèĦļ
å¿ĥ æľī
Ġä¸į æĺİçĻ½
è¾ ĺ
èĦ ¾
æ°Ķ åĸĺåĲģåĲģ
æŀĹ åĮ¹
åıĳ çĿĢ
Ġä¹Ł éĥ½
Ġä¹Ł æ²¡ä»Ģä¹Ī
çĻ½ èĻ¹
é«ĺ äºĨ
é«ĺ åĥ§
Ġå¤§ åıĺ
é£İ å¤´
è½» è§Ĩ
æĪĺ éĺµ
åģļ äºº
åı¶ å°ĳ
ĠæĢ ģ
æ¶ Ķ
æľīäºĽ æĦıå¤ĸ
Ġå¯ Ĥ
Ġè¯´ åı¥
Ġå½ĵ åľº
Ġå¯¹ è¿Ļ
èĲ½ è´¥
Ġæ²¡ åħ³ç³»
ä¼¤ åĪ°
åħ« å¤§
åĬŁ æķĪ
ä¸ĸ ä»£
æµģ æ³ª
è¿Ļæł· ä¸Ģä¸ª
Ġè´ ¢
ç²¾ åĵģ
åĪĢ æ³ķ
Ġä½łä»¬ çļĦ
å¸® å¥¹
æĭ¿ è¿ĩ
Ġä¾¿ å¦Ĥ
ĠåĨį ä¹Łæ²¡æľī
äº® äºĨèµ·æĿ¥
åĳĬ åĪ«
æľª æĽ¾
çĿĢä¸Ģ æĿ¡
çĴ ĢçĴ¨
æ¹ ®
å±ķ è§Ī
çīĻ åĴ§åĺ´
Ġè°ģ ä¹Łä¸įçŁ¥éģĵ
èį¯ å¥³
éª¨ ç¢Į
ç¾½ ç¿¼
èĬĤ å¥ı
è¿½ ä¸Ĭ
ĠéĻĪ æĽ¦
ç®Ģ éĻĭ
éĻ© äºĽ
ç§° å¾Ĺä¸Ĭ
åĽł ç´ł
Ġå¤§äºº æĤ¨
çŀ¬éĹ´ å°±
å¢Ļ è§Ĵ
Ġå¿ĥä¸Ń åį´
ç´«å·Ŀ å®¶æĹı
ç¡¬ ç¢°
Ġè¿Ļä½į åħĪçĶŁ
æµ© çĦ¶
Ġæµģ ä¸Ń
Ġä½łçļĦ æĦıæĢĿæĺ¯
Ġå¹³ æĹ¥éĩĮ
ç¼º çĤ¹
èĤļ çļ®
éļĶ å£ģ
Ġèĳ£ éĿĴå±±
ĠçĤ¹ å¤´
åĩĳ åĪ°
å¼¯ æĽ²
Ġå¹´ çºª
å½±åĵį åĬĽ
ĠèĴĻ çī¹ç½Ĺ
Ġæŀģ éĢŁ
ä¸Ĭä¸ĭ ä¸ĭ
å¾Ħ çĽ´
è±Ĩ è±Ĩ
éļ¾å¾Ĺ çļĦ
åĺ² ç¬ĳ
Ġæ·· èĽĭ
çľ¼çıł ä¸Ģè½¬
ĠèĲ¨ çĭĦæĸ¯å¡Ķ
ä¸įçĶĺ å¿ĥ
Ġæĩ Ĥ
å¯¹è§Ĩ ä¸Ģçľ¼
å¤Ļ çĳ¶
åĢı çĦ¶
å®Īå¤ĩ éĺŁ
Ġæ¯ģçģŃ ä¸»å®°
çĿģå¼ĢäºĨ çľ¼çĿĽ
ĠçĴĩ çİĳ
Ġå¤©åłĤ ä¹ĭåĲ»
Ġ ä»»åĬ¡
Ġ çļ®èĤ¤
ħ ç¤
çļĦ ä¸»æĦı
äºº åĳ¢
éģĵ ä¹ĭ
ä½ł åķĬ
åľ¨ åºĬä¸Ĭ
Ġ! âĢĻ
ĠæĪĳ è¿ĻéĩĮ
æĪĳ éĤ£
å°± æĪĲäºĨ
Ġè¿Ļ èĢģ
Ġè¿Ļ åĩłä¸ª
éĥ½ è¿Ļä¹Ī
Ġä»ĸ ä¸ĢçĽ´
éĢ ¾
æ²¡ åħ³ç³»
æīĭ æľ¯
åĴĮ èĢģ
åĴĮ å®ī
æİ Ĥ
ĠéĤ£ ä½łä»¬
ĠéĤ£ åĩłä¸ª
çľ¼ å¸ĺ
Ġä¸Ģ å¤ľ
ĠèĢ Ĺ
æ²¡æľī ä¸Ģä¸ª
Ġåı¯ å¦Ĥæŀľ
éŃ ĳ
æīĵ æĪĲ
ĠæŀĹéĽ· å°±
ĠæŀĹéĽ· è¯´éģĵ
Ġå¤§ ç¥Ńåı¸
åį´ è¢«
é£İ éĽª
å½ĵ ä»Ĭ
éĩį åľ°
çĽ´ çĽ´
æĪĳä»¬ è¿Ļ
ĠæŀĹæĻļèį£ ç¬ĳçĿĢéģĵ
çģ« è½¦
Ġå½ĵ çľŁ
æ»¡ å¤´
æĳĩ æĳĨ
ĠåĴ ķ
Ġå¦Ĥæŀľ åĨį
ä¸ĸ å®Ĺ
è¡¨ åĵ¥
ĠæĿİ éĽªéĽģ
ĠæĿİ ä¸ĸæ°ĳ
ä»» çĶ±
åħŃ åıĶ
åĵį äºĨ
Ġæĥ³ çĿĢ
Ġæĥ³ äºĨæĥ³
åİŁ åĪĻ
æĺŁ åĲĽ
ä¸įçŁ¥éģĵ èĩªå·±
ä»£ çļĦ
è¸ ¢äºĨ
åľ£ åĿĬ
Ġéĺ »
å¨ģ åĬ¿
æĥ³åĪ° è¿ĻéĩĮ
åĨ° åĿĹ
è¿Ļç§į æĥħåĨµ
çĿĢä¸Ģ æŁĦ
åģľ é¡¿
åį« éĺŁ
èĹ ī
Ġé»ĳ é»ĺæĸ¯
èĦ¸èī² å¤§åıĺ
é½Ĳ äºĨ
æ¯ı å¹´
æı¡ ä½ıäºĨ
éĢł æĪĲçļĦ
åĿļ åĽº
Ġå¸Ŀ åĽ½
Ġé©¬ çº¢æĺŁ
èĦ± åı£
ĠæĹ¢çĦ¶ è¿Ļæł·
æĬ½ åĩº
åģĩ è£ħ
éĻį ä½İ
åħīæĺİ ç¥ŀæ®¿
Ġæł¹æľ¬ ä¸į
é©¬ä¸Ĭ å°±è¦ģ
Ġäºĳ å¤©æ²³
ç¯ Ŀçģ«
éĢ¼ å¾Ĺ
å¦® ä¸Ŀ
ç§¯ éĽª
çĶļèĩ³ äºİ
ä¸įåľ¨ æĦı
æįı çĿĢ
å®½ æķŀ
Ġåĺ´ å·´
Ġè£ ¸
Ġè£ ģ
æĳ© æīĺ
Ġé£ŀ å¿«çļĦ
ç§ĳ æĬĢ
Ġè¯¸ èĳĽ
æĥĬåĳ¼ äºĨä¸Ģå£°
Ġçĩ İ
å«ģ ç»Ļ
æľ± è´µ
Ġç²¾ ç¥ŀåĬĽ
æĸĳ æĸĳ
ĠçĪ¹ çĪ¹
Ġé¼ ĵ
ĠåĪ°å¤Ħ éĥ½æĺ¯
Ġå±ŀ äºİ
ĽåŃĲ åĸĦ
èĴ² åĽ¢
è¯Ŀåı¯ è¯´
ħç¤ ´
çļĦ åı¶å¤©
ĠãĢĤ \\
ä¸į èĩ³äºİ
Ġç ĵ
è¿Ļ å¤´
æľī åĪ©
æľī æĬĬæı¡
åľ¨ å®¶éĩĮ
ä¹Ł è¯¥
ĠæĪĳ éĤ£
ä»¬ ä¹Ł
å°± çľĭè§ģ
è¯´ è°İ
Ġè¿Ļ åı¯ä¸įæĺ¯
åĩº åĩ»
Ġä½ł ä»¥åĲİ
Ġä½ł è®¤è¯Ĩ
åİ» åĲĳ
å°ı èħ¹
Ġä¸į ä¿¡
ĠéĤ£ æ¬¡
ĠæŀĹ å®¶
ç¥ŀ æ£į
ä¾ £
ä¸¤ åįĥå¹´
æĹł æĦ§
å¼Ģ æŀª
Ġå°± å¦Ĥ
éķ¿ åĪĢ
èĭ ¹
æľ¬ æĺ¯
èĬ ½
å°Ĩ è¿ĻäºĽ
å®ļ ä¼ļ
å¤Ħ åľ¨
çĽ¸ æ®ĭ
åĽĽ æºħ
æķ° æ¬¡
ä¹Łä¸į èĤ¯
çİĭ èĵ¬çµ®
éĢļ æĬ¥
Ġå½ĵ åīį
Ġå¥½ åķ¦
åįĬ èº«
æĢĿ æ±Ĺ
æĽ´ å¤§
æŀģ æĺ¯
å¹³ å¹³
ç¨ »
æµģ å¯ĩ
åĨ² äºĨè¿ĩåİ»
ĠåıĪ èĥ½
ĠæŃ£ æīĢè°ĵ
Ġå¤© ç©ºä¸Ń
å¾· å¤«äºº
æĺ¯ä¸Ģ åī¯
Ġä½łä»¬ å°±
Ġå¼ ¯
åı¤ çİī
åı¤ æľ´
èĩªå·±çļĦ èº«ä½ĵ
ĠåĨį åº¦
åĽ¢ ç»ĵ
èĦĳ éĹ¨
æĸĹ äºī
è¿Ļç§į ä¸ľè¥¿
æĬ¤ å²Ľ
æľŁ æľĽ
çļ® ç¬ĳèĦ¸
æ¿Ģ çģµ
æĿ¾ å¼Ģ
ä¸¾ èµ·äºĨ
ä¿®çĤ¼ äºĨ
ĠéĹ ¹
é»Ħ æ²Ļ
æĥ¨ çĥĪ
ä»ĩ æĢ¨
èŀ ³èŀĤ
å«£ çº¢
å±ĭ åĨħ
Ġå¤§å®¶ éĥ½æĺ¯
Ġæİ¥ è¿ĩ
æĹ©å°± è¢«
è½° éļĨ
Ġå¼ł åı£
æĢĶ éģĵ
çīĮ åŃĲ
ĠæľĽ åĲĳ
æĬ¢ å¤º
å¢ŀ å¼º
ç§ĭ èį·
åĲ´ çĶ¨
è·ª åĢĴ
éĵľ éĴ±
éĹ² èģĬ
åĲī æĢĿæ±Ĺ
ĠæľĽçĿĢ éĤ£
Ġä½łåı¯ åĪ«
Ġåħĥ ç¥ŀ
çļĦåīĳ æ°Ķ
ç»ıåİĨ è¿ĩ
Ġçľ¼çĿĽ éĩĮ
ĠéĻĨ æĸĲ
å®ĩ å®Ļ
çĤ¯ çĤ¯
çĿģå¼Ģ çľ¼
è½¿ è½¦
Ġåģĩ å¦Ĥ
Ġåįĥä¸ĩ ä¸įè¦ģ
ĠåĮĹå®« èĭ±éĽĦ
æĹłå£°æĹł æģ¯çļĦ
æīĳéĿ¢ èĢĮæĿ¥
Ġåŀ Ĥ
Ġå¤©åłĤä¹ĭåĲ» æīĭæīĵ
n o
Ġå ļ
çļĦ å®¶æĹı
çļĦ æĪĺæĸĹ
çļĦ æŃ¦èĢħ
çļĦ éªĳåħµ
ä¸Ģ éĹ¨
ä¸Ģ çĻ¾ä¸ĩ
ä¸į åı¯ä»¥
è¿Ļ ä¼ļ
æĿ¥ æŃ¤
åľ° åĿĢ
ä¸Ĭ ä¸Ģä¸ª
å¤§ åĺ´
ĠæĪĳ çľĭçľĭ
ĠæĪĳ ä»¥åīį
è¯´ èĩªå·±
è¯´ ä¸Ģåı¥
Ġè¿Ļ äºĭåĦ¿
åĴ ĸåķ¡
Ġä»ĸ ç»Īäºİ
éĤ£ åı¥è¯Ŀ
ä¹ĭ æĹ¥
å°ı å±±
å°ı åĵ¥
èµ· å½¼
åı¯ è¨Ģ
æĥ³ éĹ®
ç¥ŀ çº§
äºĨä¸Ģ èĤ¡
ä¸¤ æł·
Ġå°± åĲ¬
æ²¡æľī ä¸ĢçĤ¹
çĻ½ åıĳ
æŃ» æĪĳäºĨ
æľ¬ ä½ĵ
åıĪ ä¸Ģä¸ª
èĲ Ħ
åĨį å¥½
åĲį ä¸º
å¸Ī å¾Ĵ
éĩĳ æ¢¦æĿ¥
åĨħ ä¸¹
é»ĳ åħī
æķ° éĩĮ
ä½ķ äºº
çģ« æŀª
éļ¾ é¢ĺ
åĪļ ä¸Ģ
åĨ· åĵ¼äºĨä¸Ģå£°
æĽ´ å¿«
æĮĩ å¤´
æģ¯ åľ°
å¾Ģ åĽŀ
åĨ² åĪ°äºĨ
åĨ² è¿ĽäºĨ
è¡¨ æĺİ
Ġå¤© ä½¿
ç´§ ä¸įæħ¢
ä»» åĳ½
æľį çĶ¨
åĪ© åīĳ
Ġå¼ ĵ
èĭ¦ èĦ¸
å°Ķ å¢¨
åĪĩ åī²
ç«ŁçĦ¶ å¦ĤæŃ¤
å¿į å¿ĥ
çħ§ çĿĢ
ĠåĽłä¸º ä»ĸä»¬
åģľ æ»ŀ
ç§¦ æľĿ
äºĨåĩł å¤©
é¡¾ éĩĳå±±
Ġç§¦ å°ıå§Ĳ
ĠéĻĪ ä¸ľ
è¾Ī åĪĨ
Ġè½» æĺĵ
éĺ² æŃ¢
å¨ĩ èī³
å¾Īå¤ļ äºĭæĥħ
å°¼ å¨ľ
åĩºæīĭ äºĨ
ĠåĲİ éĿ¢çļĦ
Ġçī ¢
é£ĺ çĦ¶
èĪŀ è¶³
æį¢ ä¸ª
æĬ¢ åĬ«
ç¼ĺ åĪĨ
ĠæĹ© çŁ¥éģĵ
å½© èĻ¹
å©ļ ç¤¼
æĵ¦ çĿĢ
ĠåĲ´ èĻ¹
ĠéĹ® é¢ĺ
åĨ³å®ļ äºĨ
è¡¥ ç»Ļ
Ġé² į
çıį çıł
Ġç»ı å¸¸
Ġèĳ£ åįĩæµ·
åĩºçİ°åľ¨ äºĨ
ĠæĺŁ è¾°
åĮª å¤·æīĢæĢĿ
åįĬä¸ª å°ıæĹ¶
Ġå®Ŀ éĩĳ
ĠåĩĨ ç¡®
Ġéº ¦
ĠåĩŃ ä»Ģä¹Ī
å«© çļĦ
ĠåĵªæĢķ æĺ¯
é¥¼ å¹²
å·´é²ģåħĭ å®¶æĹı
æĮ¥èĪŀ çĿĢ
å¿łå¿ĥ èĢ¿èĢ¿
Ġå¸ķ å¾·æ£®
ç§Ģå·Ŀ å¤§äºº
éķ¶ åµĮ
Ġk u
ĠçªĿ èĢģæĶ»
b u
Ġ éģµ
çļĦ ä½Ľ
çļĦ æķĪæŀľ
æĺ¯ ä»ĸä»¬
è¿Ļ æĬĬ
äºº å£«
æĥ ĭæĥľ
åŃĲ èī¯
æĪĳ æ²¡
æĸ Ł
Ġè¿Ļ éĥ½
å¤© äºº
çľĭ ç©¿
åī Ĥ
çĽ ²
Ġä»ĸ åİŁæľ¬
éĺ Ļ
æĭ ¯æķĳ
å¿ĥ èĤł
å¥½ åĲĹ
åı¯ çľŁæĺ¯
ä¸¤ åĽ½
ä¸¤ ä»¶
Ġä¸Ģ ç¼ķ
èĢģ æ¯Ĵçī©
å¦Ĥ åĪĢ
Ġåı¯ å°±æĺ¯
æīį ä»Ļäºº
åıª éľĢè¦ģ
é«ĺ åľ°
ä¸» ä¹ī
ĠæŀĹéĽ· ä¾¿
æ¬¡ äºĨ
å½ĵ éĿ¢
æŃ¤ è¨Ģ
è¿ŀ ä¸ª
éĺ³ ç§ĭ
åħ¨ éĿ¢
ç¦ Ħä¸ľèµŀ
äºĶ åİŁ
é»ĳ èĽŁ
æľīäºĽ åı¤æĢª
ä»Ĭ åĦ¿
é©¬ æł¼åĬªæĸ¯
å¿« é©¬
è¿Ļä¹Ī å¥½
è¿Ļä¹Ī ç®Ģåįķ
Ġå¯ Į
Ġç» ľ
åĢĴ åĲ¸
éĿĴ åħī
æľĪ äºĮåįģ
ĠåĤħæ¸ħæī¬ ä¹Ł
åħ³ ä¸Ĭ
è½¬ åĮĸ
Ġéĥ½ æ²¡æľī
Ġå¹ ¿
çļĦè¯Ŀ è¿ĺæ²¡è¯´å®Į
Ġå¤© å¤©
åĲĪ éĻ¢
çł´ å¼Ģ
å½¢ å¼ı
åĳ¨ äºĳå¨ĺ
å°½ çļĦ
åħĭ åŃľå°Ķ
çĭĤ å¦Ħ
æł¹æľ¬ å°±æĺ¯
å°¸ éª¨
Ġé© ¾
èģļ ä¼ļ
å¡ŀ è¿Ľ
Ġæ³ ¡
è¶ħ åĩºäºĨ
ĠåİŁæĿ¥ ä½ł
åĤ» åıĶåıĶ
èİ² åı¶
Ġè°¢ éģĵéŁ«
åĸĦ åħĥ
Ġå¸Ī å°Ĭ
çļĦå¿ĥ çĲĨ
Ġå±ħçĦ¶ æĺ¯
Ġæł¹æľ¬ æĹłæ³ķ
Ġä½łæĢİä¹Ī ä¼ļ
Ġä½İ ä¸ĭ
åįģåĪĨ éĴŁ
æĢ¨ æ°Ķ
è¿ľè¿ľ åľ°
è¸ı çĿĢ
æĺĨ æĹı
ĠéŃĶæĹı åĨĽ
èĻŀ ç¾İäºº
ä¸Ńå¹´ çĶ·åŃĲ
çļĦå¤© ç©º
ĠéĩĮ éĿ¢çļĦ
Ġåį¢ ä¿Ĭä¹ī
åĴ¬çīĻ éģĵ
å½»åºķ çļĦ
åĩĽ åĩĽ
è´Ŀé²ģçī¹ å¤§äºº
ç³Ĭæ¶Ĥ äºĨ
ä¸ĢèĦļ è¸¢
çĢ ļ
Ġèµ¤ å²©
ç»§æī¿ äºº
è¾© è§£
Ġæ¯Ĵ éĥİåĲĽ
Ġä¸įæĸŃ çļĦ
å¯ĨéĽĨ çļĦ
Ġå°ıèĻİ åĵ¥
è´¸ çĦ¶
ĠèĦī åĬ¨
æ¯Ľéª¨ æĤļçĦ¶
çº¢èĢ³ èµ¤
1 3
s no
Ġ ä¾§
äº ¨
çļĦ æĪĳ
çļĦ éĥ½
çļĦ åĬĽæ°Ķ
çļĦ æĬ¤åį«
æĺ¯ ä¸įèĥ½
ä¸į çŃĶåºĶ
ä¸į é«ĺåħ´
å° ¹
åľ¨ åĲİ
åľ° ä¸Ģä¸ª
ä¸Ĭ æĿ¥çļĦ
å¤§ åĸĩåĺĽ
ä¹Ł åºĶè¯¥
åĪ° ä¸Ģè¾¹
Ġä½ł åĳ¢
å¤© çĶŁçļĦ
éĥ½ åıĺå¾Ĺ
è¦ģ çĶ¨
åĳ ¦
åı¯ æģ¶
ä¿ į
å¦Ĥ äºĳ
èī ĩ
Ġåı¯ éĤ£
é» ł
è° Ĳ
èĥ ŃèĦĤ
ä½į éķ¿èĢģ
æīĵ åĪ°
çĻ½ ä»ĸä¸Ģçľ¼
å·²ç»ı ä»İ
å¨ ¥
èĬ ¥
è®© å°ıéĽ·
ç§į åŃĲ
ĠæĿ ĥ
ç©º åľ°
ç¦ Ħ
æĢķ ä»ĸ
æĸ¯ åħĭ
Ġæľī åĩłä¸ª
è¥¿ å¥¥
çģ« è¾£
Ġåĩ ¤
Ġå¥½ ä¼¼
Ġå¸ Ń
Ġåı¶æŀ« ç¬ĳäºĨèµ·æĿ¥
Ġå¦Ĥæŀľ æľī
Ġè¿Ļä¸ª å¥³äºº
åĿĲ çļĦ
åı¤ äºº
æĢĴ ä¹ĭä¸ĭ
ä»¤ ä»ĸ
Ġçİ°åľ¨ å·²ç»ı
éĴ± åĮħ
å®ĺ ç½ĳ
Ġä¸¤ åĨĽ
ç´« åħī
é¬¼ çļĩ
ä¸ĢèĪ¬ äºº
æ°ĳ éĹ´
æ±Ĥ è§ģ
æİ¨ æĸŃ
ĠæĮ £
è¯´çļĦ ä¸įéĶĻ
æĿ¾ å¼ĢäºĨ
ä¸įäºĨ ä½ł
Ġéļ¾éģĵ è¿Ļ
é»Ħ çļĦ
çİĦ åĨ°
æ¯ı äºº
æ¯ı æĹ¥
è½»è½» çĤ¹å¤´
Ġéľ įçĦ¶
Ġå¿« æŃ¥
Ġçİī åĪĢ
æĬ¬ æīĭ
ĠåħĪ åīį
å¿įä¸įä½ı åľ°
å±ħçĦ¶ æĺ¯
çīĽ è§Ĵ
Ġå¸Ī å¼Ł
åħ· å°¸ä½ĵ
ç¾ŀ åıĪ
åĮ» ä»Ļ
èģĮ è´£
è±ª éĹ¨
æħĮ å¿Ļ
æĹłå¥Ī åľ°
ĠéĿŀ ä½Ĩ
æĽ¿ ä½ł
ä¸° æĶ¶
ä»ĭç»į ä¸Ģä¸ĭ
ĠéĻ¶ ä¸ľæĪĲ
Ġè¯¥ ç«łèĬĤ
åĳµåĳµ ä¸Ģç¬ĳ
ĠåĨħ å¿ĥ
ĠéĢļ ä½ĵ
ĠæĴ ķ
ĠæĴ ŀ
çİīåħ°å¤§éĻĨ ä½įéĿ¢
æĭĴç»Ŀ äºĨ
ä»ĵ åºĵ
æĬĳ åĪ¶
æįĤ çĿĢ
Ġ/ )
ä¸ľåįĹ åĨĽ
åĽŀè¿ĩ å¤´æĿ¥
çķħ å¿«
æĭĵæĸľ å¸Īç¥ĸ
çº¤ ç»Ĩ
æĤĦæĤĦ çļĦ
çĬĢ çīĽ
æĸ¯ç½Ĺ çī¹
å¤ªæĺĬå®« çļĦ
åı£è¢ĭ éĩĮ
ç¥ŀåľ£ åĲĮçĽŁ
Ġå½© ä¾Ŀ
Ġå°ıè¯´å¿«æįķ å®ĺç½ĳ
æĥħä¸įèĩªç¦ģ çļĦ
Ġi ye
å¼¥éĻĢ ä½Ľ
ç¼ħ çĶ¸
ai bu
æŀĹåĮ¹ äºļ
Ġku aibu
Ġiye sno
¸ é©¬
Ġ o
çļĦ åĩł
çļĦ èº«è¾¹
ãĢ Ĳ
ä¸Ģ æĸ¹éĿ¢
æĺ¯ çĶ±
ä¸į è®²
ä¸į å¹¸
ä¸į å°ıçļĦ
è¿Ļ æī¹
åľ¨ æīĭä¸Ń
ä¸Ĭ äºĨä¸Ģå±Ĥ
å¤§ åĬŁ
å¼ Ĭ
ä¹Ł å¿«
è§ ħ
åĩº åħ¥
Ġä½ł åıªè¦ģ
è¿ĺ ä¸įéĶĻ
çĽ ĪçļĦ
Ġä»ĸ çĶ¨
Ġä¸Ģ åı£æ°Ķ
æĹł ç¼ĺ
æĦı äºĨ
èĩªå·± èº«ä¸Ĭ
åıĳ è¾¾
è¢« åĽ°
ä½į äºİ
ç¾ ²
ĠæŀĹéĽ· ä¸ĢæĢĶ
Ġå¤§ èĥ¡åŃĲ
æĻļ é¥Ń
ä¾¿ ä¼ļ
è®© å¯¹æĸ¹
å½ĵ åģļ
ä»Ļ å§ĳ
çģµ èį¯
éĩĳ çĶ²
å¾® åıĺ
Ġåĵ Ģ
Ġåį´ å·²ç»ı
åºĶ å£°
éļ¾ åĲ¬
æĢĿ æ¬£
æµģ éľ²
æİĮ æŁľ
æļĹ ç¬ĳ
åĵª ä¸Ģä¸ª
éļı ä»İ
æĪ¿ çļĦ
çŃĶ å¤į
æĭ³ éģĵ
åıªæĺ¯ ä¸ª
æĬ¥ èŃ¦
Ġæ¸©ä¹Ĳéĺ³ åĴĮ
èĭ± è¯Ń
æĤ¨ äºĨ
æħ¢ äºĨ
æĵ İ
å·¥ äºº
è¿ľä¸ľ ç»Łé¢Ĩ
Ġæľ¬ æľ¬
Ġç¬ĳ åĲŁåĲŁ
éĢı æĺİçļĦ
Ġä»ĸçļĦ èº«ä½ĵ
åĿı èĽĭ
ĠåıĮ èħ¿
ĠçľĭåĪ° åı¶æŀ«
Ġçĭ Ĳ
å¥ĩæĢª äºĨ
çķ¥ æĺ¾
ĠéĶ µ
ĠæľĽ çĿĢä»ĸ
æĺ¥ é£İ
Ġæł¹æľ¬ æ²¡
æ¶Īå¤± ä¸įè§ģäºĨ
å¤§åįİ äºº
é¼ĵ æİĮ
å¢ŀ éķ¿
æıĴ åĺ´
é¾ Į
Ġå¸ĥ åħ°
Ġè£ Ĥ
Ġç»Ŀå¯¹ æĺ¯
éľĩæĥĬ äºĨ
éģĵäºº å½±
èł ķ
Ġæ¡ Į
ĠæĻ® æ¬£
çĸ² åĢ¦
åĺ² è®½
çļĦä¸ĭ åľº
Ġåĸĥåĸĥ èĩªè¯Ń
ĠåŃĶ éĽĢ
åıĻ å·ŀ
æĦŁåıĹ åĪ°äºĨ
Ġç»Ĩ ç»Ĩ
å¾½ å®Ĺ
ĠæĢĿ åłĤ
åıĳçĶŁäºĨä»Ģä¹Ī äºĭæĥħ
Ġçī© è´¨
åħĥåįİ èĢģç¥ĸ
çĤ« èĢĢ
ĠåıĶ åıĶ
ĠçĲ¼åįİ æ´¾
· åĪ»
ĵ è£³
çļĦ åħĦå¼Ł
çļĦ æĪĺå£«
ä¸į æĶ¾
åľ¨ åħ¶ä¸Ń
åĪ° å¤©
Ġè¿Ļ è¾¹
ä¹ĭ å¨ģ
å°ı çŀ§
å± ¹
äºĽ æĹ¥åŃĲ
Ġ...... ,
è´ ²
ç¥ŀ æĹıçļĦ
å®¶ åľ°
çľ¼ è§ģ
Ġå¤ į
å¤ļ äºĨåĩłåĪĨ
æ°Ķ åľ°
æĹł å¿Įæĥ®
æĸ¹ å®¶
èĢģ çĭĲçĭ¸
å¥¹ åľ¨
å±± çŁ³
å±± èħ°
çĻ½ çĮ¿
ĠæĿ ¡
éŃĶ åĬĽ
éŃĶ èĥİ
ç©º çĻ½
çŃī äºĨ
åĽĽ åĪĨ
æİ¥ è¿ĩäºĨ
æľīäºĽ å¤±æľĽ
é¾Ļ åį«
çģ« é¾Ļ
é£ŀ åĪ°äºĨ
çļĦä¸Ģ éĿ¢
åĢĴ ä¹Łä¸į
çī© äºĭ
ç«ĭ çļĦ
æŀģ å¼º
çħ ½
ä¸ĸ äºº
åĨ² æĿ¥
åĶ §
é² ²é¹ı
æļĹ æĥ³
æļĹ æĥĬ
Ġçİ°åľ¨ çľĭæĿ¥
éĹª çĿĢ
çªģçĦ¶ åĩºçİ°
çļĦå¤§ åįİ
é¬¼ éŃĤ
çħ§ æł·
ĠéĢ Ĳæ¸Ĳ
éĺ´ çĭł
æ¿Ģ çĥĪçļĦ
å¿µ å¿µ
Ġä¼ ı
å¥¥ æĸ¯
è¿½ æŁ¥
Ġä¸Ĭ åı¤
æłĳ ä¸ĭ
æ¯Ľ å¤´
æ²Ļ éĹ¨
è¾Ī åŃĲçļĦ
åĵªéĩĮ æĿ¥çļĦ
ĠåĽĽ éĿ¢
Ġéķ¿ å·Ŀ
Ġè¯· ä½¿çĶ¨
èľ ķåıĺ
èĤ¯å®ļ ä¸įä¼ļ
åĽł çī¹
çŀª äºĨä»ĸä¸Ģçľ¼
Ġåľ° ä½į
ä¸´ æŃ»
çĹħ äºĨ
ä»° æħķ
éĹŃ åĺ´
å½ĵçĦ¶ ä¸įä¼ļ
èµŀ éģĵ
Ġåİ» åĲ§
åŃĻ å¥³
éĢ¼ è¿«
ĠæĦŁ æĥħ
å·« æľ¯
éĶĲ åĪ©
çľ¨ çľ¨çľ¼çĿĽ
ĠèĻ «
åĭ¾ å¼ķ
Ġåı¤ çĪ·
ç¥¸ å®³
ĠçĪ¶ çļĩ
æĥĬåĳ¼ éģĵ
Ġæĺ¨ æĹ¥
æ¸Ĭ æºĲ
èĩªå·² çļĦ
ĠæĪ¿ éĹ¨
ĠåĢŁ çĿĢ
åŀ® äºĨ
çĽ¸å·® æĹłåĩł
Ġé¾Ļè¡Ģ æĪĺå£«
èĥĥ åı£
æ© Ļ
Ġåºľ ä¸»
çĭ¬èĩª ä¸Ģäºº
ĠåĨľ åŃĲéģĵ
Ġéĺħ è¯»
ĠèĬ¬ èİ±
Ġ M
ä¸Ģ æĿ¾
ä¸į ä¸º
ä»ĸ èĢģäººå®¶
ç» Ĭ
ä¸Ĭ åĩł
ä¸Ĭ å¥½çļĦ
ĠæĪĳ ä¸įè¦ģ
è¿ĩ å¤´
å¹ ¡
å°ı å£°éģĵ
èĥ½ åĴĮ
èº« çĿĢ
éĽ· èĢģåĽĽ
åĴĮ éĻĪ
å®¶ åł¡
ä¸¤ æĹģ
åīį ä¸Ģ
å¼Ģ éĺĶ
è§ģ é¬¼
èĢģ åĴĮå°ļ
çĶŁ äº§
åıĳ å£®æ±ī
åķ Ĳ
çĭ Ļ
åı£ åŃĲ
Ġä½Ĩ æĪĳä»¬
èĪ Ĩ
çĶ¨ å¿ĥ
æŃ» ä¼¤
æľ¬ çİĭ
åıĪ æĢİä¹Īæł·
è¿Ľ å±ĭ
Ġå¥¹ åį´
åħĪ æĬĬ
æľĽ è¿ĩåİ»
æĢİä¹Ī çŁ¥éģĵ
Ġåį´ æ²¡æĥ³åĪ°
ä¿¡ äºĨ
åĽ½ å¸Ī
åľº ä¸Ń
çļĦä¸Ģ åīĳ
çŁ³ æĿ¿
ç¦» åĲĪ
çİī ä½©
åĨ² æĪĳ
åħĥ çģµ
ĠæĿİ å¤§å¨ĺ
Ġåİ ļ
æĺ¯ä¸Ģ ä½į
æ·¡ çĦ¶ä¸Ģç¬ĳ
Ġä»¥ åħį
åĳ¨ å¤©
æ´¾ äºĨ
æıĲ äºĨ
Ġä¸¤ å¤§
ĠèĢĮä¸Ķ æĺ¯
æĭĽ äºĨ
ä¾Ŀ ä¾Ŀ
çļĦå¤§ åľ°
è§Ĩ éĩİ
Ġèº« ä»½
åĲĦ æł·çļĦ
è®¡ çļĦ
åĹ ľè¡Ģ
Ġäºº äºº
Ġæİ ©
Ġåĩł ç§Ĵç§įåĲİ
é¦Ļ åĽĬ
æģ¶ å¿ĥ
Ġè¿ĺæĺ¯ è¦ģ
ĠåĹ ·
è¿½ è¸ª
ç¤¼ äºĨ
ä¸Ģå®ļ èĥ½
Ġåıªè¦ģ ä»ĸ
æĸ½ ç¤¼
è£Ĥ äºĨ
åĳĬè¯ī äºĨ
èĩ£ æľį
åĿļ å®ļçļĦ
è¹ Ĭ
çĶ» çļĦ
åĩºæīĭ çļĦ
Ġæĺİ æĹ¥
ç½ª åŃ½
Ġåħ¨ åľº
äº§ çĶŁçļĦ
éģį åľ°
éģį éĩİ
åĩ¶ æ®ĭ
è¿· èĮ«
åĩłä¹İ åĲĮæĹ¶
Ġå¼ł å¼Ģ
èĦĳè¢ĭ ä¸Ĭ
é£Ł æĮĩ
ä½įéĿ¢ æĪĺäºī
Ġä¸Ń ä½įç¥ŀ
å°¾ æľ«
Ġç¼ º
è½® åĪ°
Ġéĵ ľ
ä¸įçĶ¨ æĭħå¿ĥ
Ġç½Ĺ åĪļ
è¶ĬæĿ¥è¶Ĭ å¤§
æİ§åĪ¶ çļĦ
Ġè¡Ģ å³°ä¸»ç¥ŀ
å¦Ĥä»Ĭ çļĦ
åŃĺåľ¨ çļĦ
æĽ¿ ä»ĸ
æĵį ä½ľ
æĺĶ å¹´
åĴĴ éªĤ
ç´§ç´§ åľ°
æĿľ æ¡¥
æķı éĶĲ
åĸĺ çĿĢ
Ġçħ Į
Ġæľīä»Ģä¹Ī äºĭæĥħ
å¤§åľĨæ»¡ ä¸Ĭä½įç¥ŀ
ĠçīĩåĪ» åĲİ
Ġæ±Ł æ¹ĸ
éªļ æī°
è§ĦåĪĻ ä¸»å®°
æģ° å¥½
æİłè¿ĩ ä¸Ģä¸Ŀ
æĦıå¿Ĺ å¨ģèĥ½
Ġå« ªæ¯Ĳ
ĠèĢ³ è¾¹
å¯¡ å¦ĩ
Ġå¤§å¤ļ æķ°
èĵĿçĽ¾ å®¶æĹıçļĦ
ĠçĦ ¦
Ġæľį åĬ¡
æµĵæµĵ çļĦ
æĤĦæĹłå£° æģ¯çļĦ
æĦ£äºĨ æĦ£
çĢĳ å¸ĥ
å¹»çŀĳ çķĮ
· ä½Ľ
Ġ äºı
Ļ èĿł
çļĦ æ³ķ
ĠãĢĤ )
ä¸Ģ è®°
ä¸į è¿ľå¤ĦçļĦ
äºº åİ»
éģĵ æ£®åķĨä¼ļ
å¥ ĺ
å¤§ çģ«
å¤§ åĿĹ
å¤§ å£®
ä¹Ł æľīä¸Ģ
ĠæĪĳ æĹ©
ĠæĪĳ ç»Īäºİ
ĠæĪĳ çĪ¶äº²
å°± åĪ°
Ġè¿Ļ ç¾¤
åĩº éŀĺ
å¤© çľŁ
è¦ģ çľĭçľĭ
Ġä»ĸ éĤ£
ä¹ĭ ä»¥
å°ı å¥³åŃ©
Ġä¸į é¡¾
Ġä¸į çŀĴ
ä»Ģä¹Ī äºĨ
å¤ļ è¯´äºĨ
å¾Ī é«ĺåħ´
èĩªå·± äºĨ
åıĳ æĦ£
Ġåı¯ ä½ł
éĹ¨ å®Ĺ
æīĵ äº¤éģĵ
Ġæī §
å·²ç»ı ä¸įæĺ¯
èµ° ä¸Ĭåīį
ĠæŀĹéĽ· æ·¡ç¬ĳéģĵ
å½ĵ åĽŀäºĭ
è½» çģµ
å°±æĺ¯ ä»ĸ
ä»Ļ äººçļĦ
åĲį ä¸į
åĲį çīĩ
æľĢ æĺ¯
é¾Ļ å¤´
é©¬ æµ·äº®
çī¹ æ£®
è·Ł ä½łä»¬
æĶ¾ çĿĢä¸Ģ
å¸¦ èµ·
ĠèĢģ å¤ªå¤ª
çĹ Ĭ
å¼ł æ¸ħ
ç¨ £
ä¸ĥ åįģäºĮ
å¥ĩ äºº
è§£ äºĨ
ĠæĬ Ľ
æļĹ éĩĳ
æľį è£ħ
ä¹± è·³
çł´ åı£å¤§éªĤ
æĶ¶ èµ·
èĮ ¸
çĶµ çĵ¶
çĶµ æ¢¯
éľĩ èį¡
éĤ ĳ
åĨ° éĶ¥
åİī éļıé£İ
æĬ¥ åĲį
éĢĢ å¼Ģ
Ġè§ģ æŀĹæĻļèį£
éª¨ åŃĲéĩĮ
Ġåĺ İ
ç¤¼ ä»ª
åĪº ç©¿
å¼ķ åıĳ
æĶ¯ åĲ¾
ä¸¥ éĩįçļĦ
Ġæīĭ éĩĮçļĦ
Ġå½ĵçĦ¶ ä¸įæĺ¯
éĹ» åĲį
Ġèµ° äºĨ
Ġå¥¥ å¸ĥèİ±æģ©
Ġå¼ł åıĳè´¢
Ġç»Ļ äºº
ĠçĮ ľ
æĿĳ éķ¿
æ·¡æ·¡ åľ°
Ġèİ ²
Ġèį £
Ġæį ı
æĸľ æĸľ
æĸ© æĸŃ
éĻª æĪĳ
æĭĶ åīĳ
å¿§ å¿ĥ
åĽŀå¤´ ä¸Ģçľĭ
Ġè½° éļĨ
è·ª åľ¨åľ°ä¸Ĭ
Ġè£ ´
åĶ¤ éģĵ
çĪ½ æľĹ
ä¾Ľ åºĶ
ä¸Ģä¸ªå°ı å°ı
çļĦè¡Ģ æ¶²
Ġåħĥ åįİ
Ġçħ ŀ
å¤§åĸľ è¿ĩæľĽ
å®īéĿĻ äºĨä¸ĭæĿ¥
éĻĦè¿ĳ çļĦ
ĠæĻļ è¾Ī
ĠæĢİä¹Īä¼ļ è¿Ļæł·
æĶ¾ä¸ĭ å¿ĥæĿ¥
å¼ºæ¨ª çļĦ
å¿ĥä¸Ńä¸Ģ åĩĽ
è¿Ī æŃ¥
åĳ½è¿Ĳ ä¸»å®°
Ġåī© ä¸ĭ
è¾ľ è´Ł
Ġå» ĸæĺĬå¾·
æ¯«ä¸įçĬ¹è±« çļĦ
æ¸Ĺ éĢı
æĶ¾å£° å¤§ç¬ĳ
åĺŁåĽ Ķ
Ġåĸ» åįĹæĿ¾
æĥ¦ è®°
Ľ ä¸ĭçļĦ
çļĦ çĽ¯çĿĢ
è¿Ļ äºĭæĥħ
ä»ĸ äºº
ä¸Ĭ è¯´
åŃĲ åķĬ
åŃĲ æľĶ
ĠæĪĳ ä¿Ŀè¯ģ
å°± ä¸įè¦ģ
è¯´ è¿ĩäºĨ
Ġè¿Ļ ä¸ĸä¸Ĭ
åĴ ¦
éĩĮ åķªåķ¦
Ġä»ĸ å®ŀåľ¨
Ġ?âĢĿ îĢĦ
ä¹ĭ åĳ½
å¿ĥ çĹĽ
ç§ ½
åı¯ éĿł
èį §
æĹł ä¸Ĭ
å·² ä¹ħ
éķ¿ åĩºäºĨä¸Ģåı£æ°Ķ
é«ĺ èĢ¸
Ġå¤§ åı¯æ±Ĺ
å°Ĩ çĽ®åħī
éĹ® åĢĻ
è¿ŀ æİ¥
çĻ «
æĦŁ åĪ°äºĨ
åĨį ä¸į
æĥĬ åĬ¨
ä¿® å»º
ĠæĪĳä»¬ ä¸Ģèµ·
é»ĳ æ¼Ĩæ¼Ĩ
è¿Ļä¹Ī æĥ³
éĢļ æĺİ
æ® ī
åľº æīĢ
ä½ľ èĢħ
èĬ± çļĦ
è½¦ è½¦
å¾· çĻ½
è®¸ è¯º
åħŃ èħĳ
Ġä½łä»¬ æĢİä¹Ī
æķĻ å®¤
éļĲ èĶ½
Ġæĭ ¨
èĵ ĵ
éĢįéģ¥ æ´¾çļĦ
è·³ èĪŀ
æİ¨ å¼ĢäºĨ
èµ¶ è¿ĩæĿ¥
éĥ½ä¸į çĶ±
æ¿Ģ åıĳ
Ġåº Ĭ
éĵ¶ åıĳèĢģèĢħ
Ġæ¯Ķ çĿĢ
çĩ İ
çģŃ äº¡
æĬķ èĥİ
æīĳ æĿ¥
çľ¼åīį ä¸Ģäº®
æĬ½ è°ĥ
å£® ç¡ķ
Ġæİ¥ è¿ŀ
èļ ķ
éĥ½æ²¡ èĥ½
çŃĶåºĶ ä¸ĭæĿ¥
æ¦Ĥ çİĩ
Ġä¸ºä»Ģä¹Ī è¦ģ
Ġä¼ļ è®®
Ġåı« ä½ł
åŃ¤ åĦ¿
ĠæŁ³ éļıé£İ
Ġå¸ĥ ä¸¹
ĠçĮĽ çļĦ
ä¸§ åĳ½
æĦĪ åıĳ
æ³¡ å¦ŀ
ĠåĲį åŃĹ
Ġåħ° æ¾¹
æĽ¹ æĵį
Ġl v
Ġä¹ĥ èĩ³
ä¸Ģæľ¬ æŃ£ç»ı
Ġä¸ĢåŃĹ å®«
åºĩ æĬ¤
Ġå©ī çĽĪ
åĶ¾ æ²«
å¸Ŀç¿¼ åŁİ
çİīéľ² æ¢¨èĬ±éħĴ
Ġ äºĴçĽ¸
çļĦ å¿ĥéĩĮ
è¿Ļ åı¥
æľī éĤ£ä¹Ī
æĿ¥ å¤´
ç» ħ
åľ° å½¢
ä¸Ĭ çıŃ
Ġåı ¥
ĠæĪĳ ä¸Ģå®ļè¦ģ
è¯´ äºĽ
è¯´ èµ·æĿ¥
éĿ ĸ
Ġä½ł çİ°
Ġä½ł æľīæ²¡æľī
å¤© æ°´çģµç²¾
çľĭ éĤ£
å°ı åı£
å°ı å¦ŀ
Ġä¸į ä¸Ģä¼ļ
æİ ³
ĠéĤ£ éĥ½æĺ¯
çī ¡ä¸¹
åı¯ æľī
æĥ³ æĬĬ
æĥ³ å¥½äºĨ
ä¸ī å¯¸
ä¸¤ é¢Ĺ
Ġä¸Ģ æĺ¯
æŀĹ çĿ¿
èĢģ èĦ¸
è¢« åĤħæ¸ħæī¬
åĨĽ ä»¤
å±± èħ¹
åħī èį£
Ġä½Ĩ å¦Ĥæŀľ
Ġè¯ »
ĠæŀĹéĽ· çľīå¤´ä¸Ģçļ±
å°Ĩ æĪĳ
æŃ£ æŃ£
å½ĵ å½ĵ
ç¼ Ģ
é© ¯
äºĳ éĽ¾
çģµ ä¸¹
æľĽ è§ģ
åħ¨ ä½ĵ
ĠæĪĳä»¬ èµ°åĲ§
æİ¥ åºĶ
åĨħ åĬŁ
ĠâĢĿ ãĢģâĢľ
çĽ® çĿ¹
çļĦæĹ¶åĢĻ å°±
æĢĿ ä¹±
ĠèĢģ äºĮ
éĿĴ æĺ¥
Ġåı¶æŀ« åį´æĺ¯
åħ³ èĬĤ
åŃ¦ äºĨ
ä»» åĩŃ
çľĭçĿĢ æĪĳ
Ġæķ ¬
æ´» äºº
çº§ æī§äºĭ
ĠåĨį æĹł
ĠæĹł éĿŀ
çľ¼çĿĽ éĥ½
Ġéĩ ĩ
çľĭåĪ° éĤ£
Ġè¿Ļæĺ¯ æĪĳçļĦ
ä¹¦ ä¿¡
éĤ£ä¹Ī çļĦ
èĴ ľ
éº ½
æľ¨ æ¡©
èµ¶ å¾Ģ
é»ĺ å¿µ
é¡¾ èĻĳ
Ġå§ Ķ
å¾®å¾® é¢¤æĬĸ
è¿ĩäºĨ å¤ļä¹ħ
äºĮåįģ ä½Ļ
è´¹ äºĨ
Ġç¥ŀ æĢģ
Ġæľ¬ çİĭ
ĠåĽĽ æĸ¹
æļ´ æ¶¨
è¾ĥ éĩı
ç©ºéĹ´ è£Ĥç¼Ŀ
åĤ» çĵľ
åľĪ å¥Ĺ
åľĪ åľĪ
æĮī æĳ©
èįĴ éĩİ
Ġä¸Ń åĽ½
æĢİ çļĦ
ä»Ķç»Ĩ çļĦ
è¡Ĺ å¤´
Ġä¸Ģéģĵ éģĵ
ç§ģ è¯Ń
æĩĴ èħ°
èĦı åħŃèħĳ
èºº åľ¨åľ°ä¸Ĭ
ĠçĤ¹ äºĨ
ä¹ĭä¸Ģ çļĦ
Ġåħĥ å¸ħ
Ġé¡º æīĭ
æ¶² ä½ĵ
Ġæ¡ ĳ
ä¾µ åħ¥
åĴ½ åĸī
æĢĴåĲ¼ çĿĢ
è¾¨ åĪ«
æį§ çĿĢ
Ġèĸ °åĦ¿
Ġè·¯ ä¸Ĭ
Ġå°¼ å¨ľ
æĬļæĳ¸ çĿĢ
ĠåĦ Ĵ
ĠãĢĤ[ ]
Ġè´¹ ä¸īåı£
Ġçİ¯ åĦ¿
åı¸å¾Ĵ ç©º
ĠéŃĶåħ½ å±±èĦī
Ġè¯´ä¸įåĩº çļĦ
ç±»ä¼¼ äºİ
æĲĢ æī¶
Ġ çļĨæĺ¯
äº ĺ
çļĦ è½»
çļĦ åŃĺ
ä¸į è¿ĩæĿ¥
ä¸į æĦ§æĺ¯
éģĵ å¤«
å¾ Ĭ
æĿ¥ ä¸´
åľ° éĤ£
å¤§ äºı
è¯´ æľį
ä¸Ń å¸¦çĿĢ
Ġä½ł çľŁæĺ¯
Ġä½ł æ²¡äºĭåĲ§
åĴ Ľ
å¾Ĺ æīĭ
éĽ· åĬ«
å£° åĬ¿
çº ¨ç»Ķ
å¯¹ ä½łçļĦ
å¯¹ æľĽäºĨä¸Ģçľ¼
åĬĽ åĴĮ
ç»ı è¿ĩäºĨ
å¼Ģ éĩĩ
å¦Ĥ éĹªçĶµ
åįģ æĿ¥
é¢ Ķé¦ĸ
æ²¡æľī åĬŀæ³ķ
ä»İ åĽĽéĿ¢åħ«æĸ¹
Ġåıª æĥ³
çľŁ äººçļĦ
æĬĬ äºº
Ġä½Ĩ æĦ¿
æīĵ åĩº
ç»Ļ äºĨä»ĸ
é«ĺ æ°Ķ
ä¸» è§Ĵ
æŃ£ éĹ¨
æŃ£ çĽ´
ä»ĸä»¬ ä¸¤ä¸ª
Ġè¿ĺ è®°å¾Ĺ
ä½ĵ åŀĭ
æĥĬ åĬ¨äºĨ
åħ¬ åĨ¶
ĠæĪĳä»¬ å·²ç»ı
åĨħ å¿ĥçļĦ
é»ĳ äºĨ
ĠæŀĹæĻļèį£ åĵĪåĵĪå¤§ç¬ĳ
æľīäºĽ å°´å°¬
Ġæľī çļĦæĹ¶åĢĻ
é£ŀ èĪŁ
Ġç´ ł
èĲ½ éŃĦ
åįĬ æŃ¥
ä¹Łæĺ¯ ä¸Ģä¸ª
Ġå¦Ĥæŀľ èĥ½
æµģ ä¸ĭ
åĨ² è¿ĩæĿ¥
è¿ĳ çļĦ
è¿ĳ åį«æĹħ
æł¹ èĮİ
å¤± æİª
è®¤ äºĨ
æĭ¿ åĩºäºĨ
åĳ¼ ä¸Ģå£°
Ġçİ°åľ¨ æĺ¯
åĽ¢ çļĦ
çļĦå¤§ æīĭ
Ġè¿Ļæĺ¯ æĪĳä»¬
æĭį æĳĦ
å« ªæ¯Ĳ
åıĬ åĪ°
æĪĲäºĨ ä¸¤
ĠæĮ ģ
æĿ¾ æĿ¾
ç¿» èħ¾
æł¹æľ¬ å°±æ²¡æľī
éĻ¢ èĲ½
åĲ¼ å£°
åĩĨå¤ĩ äºĨ
æļ´ èºģ
å´ Ń
åħ¶ä»ĸ åľ°æĸ¹
èĲ§ çİīéľľ
èģĶ çĽŁ
åļ ħ
ä¸īåįģ å¤ļ
çĹħ æŃ»
Ġæĳ Ķ
Ġç»Ŀ ä¸į
ç«¯ åĢª
èµŀ èµı
è¯´ä»Ģä¹Ī äºĨ
åĩĮ æĻ¨
è¾¾åĪ° ä¸Ĭä½įç¥ŀ
Ġéª Ĺ
éĴ» è¿Ľ
çĪµ çĪ·
æĽ² æĬĺ
éĽ¶ åħ«
éĻ¤ æİī
æķ°åįģ ä¸ª
è¾£ çļĦ
Ġæģ© æĸ¯çī¹
èİİ èİī
çĽĹ å¢ĵ
åĺ¶ å£°
è§Ĥå¯Ł çĿĢ
å¥¸ ç»Ĩ
ä»İæĿ¥æ²¡æľī æĥ³åĪ°
å¤¸ å¥ĸ
æĹłäºº èĥ½
åİ¢ æĪ¿
çļĦå¯¹ è±¡
Ġèĭ± éĽĦ
äºĨåı£ åı£æ°´
Ġæīĳ éĢļ
Ġç¾ŀ æ¶©
Ġå¸ĪåĤħ å§Ĳå§Ĳ
æľ¬èĥ½ çļĦ
å®ĮèĽĭ äºĨ
ĠçĶļ æĺ¯
æĿĢä¼¤ åĬĽ
åª² ç¾İ
ĥ åĦ¿
ĳ èıĩ
ĺ å¾Ĭ
çļĦ è¿ĺæĺ¯
çļĦ æķħäºĭ
çļĦ æĿ¥åİĨ
æĺ¯ éĿŀ
æľī çĲĨ
åľ¨ äºº
åľ¨ éĹ¨åı£
åľ¨ åįĬç©ºä¸Ń
åľ° åĴĮ
Ġè¿Ļ å¥Ĺ
æĭ Ĺ
å¿ĥ æľº
åĲİ èĦĳ
Ġå¤ ·
Ġä¸Ģ å¦Ĥ
æ¸ħ çĻ½
æ¸ħ æ¾Ī
éķ¿ ä¹ħ
åħī åįİ
é«ĺ é«ĺçļĦ
æľ¬ èĲ¥
æī¬ æī¬
èµ° çļĦæĹ¶åĢĻ
ĠæŀĹéĽ· ç¬ĳéģĵ
æĻļ é¤Ĳ
è®© åĪ«äºº
ĠèĢĮ çİ°
åĪĨ åŃĲ
æĪĺ è´¥
ä¸ĩ ä¸Ī
å¤ª è¿ľ
å¤ª ä¹ħ
ĠæŀĹæĻļèį£ å¤§
Ġè¯´ åĲ§
åı« å¥½
åı« èĭ¦
é£ŀ äºĨèµ·æĿ¥
Ġä»ĸä»¬ å·²ç»ı
éĥ½æĺ¯ åľ¨
åĢĴ æµ·
å¹³ åľ°
æľº åĻ¨
å¼ł èĮľèķ¾
ä¸ĸ ä¿Ĺ
å®¹ å¿į
ç»Ŀ ä¼¦
ĠåıĪ ä¸įæĺ¯
è§£ æ¯Ĵ
Ġèµ ŀ
å¾· åįİ
ĠæĬ ĺ
ä»» çļĦ
åĪĢ åħī
å®Ŀ åº§
æµ· å»·æĸ¯
å¹¶ æ²¡
æ²³ æ°´
Ġä»¥ ä½łçļĦ
æĺŁ æ²³
ĠæĹł èĢ»
éļĲ åĮ¿
Ġä¸¤ äººéĥ½
Ġç§ ¯
å¸ĥ æ»¡äºĨ
Ġå± Ĥ
Ġé»ĳ æ²Ļ
éĿŀå¸¸ æ¸ħæ¥ļ
æ³¨ åħ¥
çļ± çº¹
éķ¿èĢģ çļĦ
æķ¬ ä»°
Ġæ¯ı æĹ¥
å·¦ ä¸Ģ
åĳĬè¯ī ä½łä»¬
Ġåįģ åħ«
é£ĺ éĢ¸
åĵĪåĵĪ ç¬ĳéģĵ
Ġåħ¨ åĬĽ
Ġå°±ç®Ĺ ä»ĸ
çľ¼åīį è¿Ļä¸ª
æĬĸ åĬ¨
éĶ¥ åŃĲçļĦ
æį¢ åıĸ
Ġè°¢ æĸĩæĺĬ
å¹¸ åŃĺ
éĶĭ éĶĲ
åŁº ä¸ļ
åĿĲåľ¨ éĤ£éĩĮ
èµµ åº·å®ģ
æµª æ¼«
Ġä¸ºä»Ģä¹Ī ä¸į
ĠæľĢåĲİ è¿ĺæĺ¯
ä¹Łå°± ç®ĹäºĨ
Ġå¥³ åĦ¿
çĽ¯çĿĢ æŀĹéĽ·
Ġ5 20
Ġæ»¡ æĺ¯
Ġå¸ĥ éĽ·åĭĴ
Ġå¼º å¤§çļĦ
åı¦ æľī
è¿ŀå¿Ļ éģĵ
æĲľ å¯»
åĺ´è§Ĵ ä¸Ģä¸Ŀ
æĵħ èĩª
Ġåİī å®³
Ġå¢ Ļ
Ġå¸¸ çºª
Ġèħ ¿
ĠåİŁæĿ¥æĺ¯ è¿Ļæł·
æľīå¤ļ å¤§
åħ³éĶ® æĹ¶åĪ»
çģ¼ çģ¼
**************** ****************
Ġå°ıå¿ĥç¿¼ç¿¼ çļĦ
èİ±éĹ¨ çī¹æ£®
ĠåķĨ å®Ļ
åĪºèĢ³ çļĦ
æ´Ĺæīĭ éĹ´
ĠçŃĶ åºĶ
Ġéĩĳå±ŀ çĶŁåĳ½
Ġåĩłä¹İåľ¨ åĲĮæĹ¶
: âĢľ
¯ åŃĲ
Ġ ****
çļĦ çī¹
çļĦ æŀ¶åĬ¿
ä¸į ç¾ģ
æľī è¿Ļä¸ª
çĿ ½
ç» ¢
åŃĲ åįİ
ĠæĪĳ è¿Ļæīį
æĪĳ æľī
è¯´ å¥½
å£ ¤
çľĭ å¥¹
èº ĩ
ä¹ĭ æĦŁ
ä¹ĭ åħĥç´ł
ä»¥ å¾ħ
åĢ ªæĢĿéĽ¨
å¯¹ å¤ĸ
å®¶ å£°
å¼Ģ ä¸ª
èĢģ å¤©
åıĳ çĭĤ
å¹´ åĲİ
æĺİ çŁ¥
æĺİ ä¹Ŀå¤©
ĠåĲ ©åĴĲ
ä½į ä¸Ĭ
Ġä¹Ł è¢«
ĠæŀĹéĽ· èĦ¸
è¿Ľ çļĦ
åį´ è¿ĺæĺ¯
åģļ é¥Ń
éĩĳ çīĻ
ä¹Ĳ åħ¬
åĽĽ å¾·
äºĶ å½©
é»ĳ èĻİ
Ġåį´ çªģçĦ¶
éĵ ¿éĶµ
æķ° åĢį
Ġè® ¡
æŃ¥ æ³ķ
æī¾ ä¸Ģä¸ª
æī¾ äºĨä¸ª
æĢª äºĨ
Ġä½Ĩæĺ¯ åĤħæ¸ħæī¬
çĲĨ ä»ĸ
ĠéĻ ·
ĠâĢĻ !
å¼ł é¡º
ç¨ ¿
éĶĻ çļĦ
Ġæĥ³ å½ĵåĪĿ
å¹¶ ä¸Ķ
æĹ¶éĹ´ äºĨ
ĠæĹł å¦¨
æł¼ èĤĸ
å·® äºĨ
è¿Ļç§į äºĭ
Ġæĸ¹äºĳ ç«ĭåį³
ç´« çº¹é»ĳçĨĬ
Ġèĭ¥ æĹł
ĠåĽłä¸º å¥¹
èĴĻ éĿ¢
Ġå¾Ĳ å¤§äºº
ĠçĻ½ è¡£
ä¹ī åĬ¡
ç»ĥ æĪĲ
æĻ¶ çŁ³
å®Įåħ¨ æ²¡æľī
çİĦ å¥³
Ġç¬ĳ å¾Ĺ
å°¸ éª¸
ä»»ä½ķ çļĦ
Ġçī Ļ
èĦ± äºĨ
Ġä»Ĭå¤© æĻļä¸Ĭ
ĠèĢĮæĺ¯ åĽłä¸º
åĩ¶ åħī
çł¸ åľ¨äºĨ
å°ıå¿ĥ çĤ¹
åĩŃ ä»Ģä¹Ī
Ġ1 5
ç¾ŀ æĦ§
Ġç¬¬ä¸ī ç«ł
ĠæĪĳä¸į ç®¡
å¥´ æīį
å¥´ å©¢
è¿Ľè¡Į äºĨ
è¯» èĢħ
æħĮ ä¸į
æİ§åĪ¶ äºĨ
è·ª åĢĴåľ¨åľ°
å¼¥ è¡¥
å¤ı éĺ³å¸Ĥ
åĭ¾ å½ĵ
Ġç¬¬åĽĽ æĽ´
æºľ è¾¾
å·®çĤ¹ æ²¡
åħĥç¥ŀ éģĵäºº
Ġé¡º åĬ¿
åĩĦ åĩī
èĢ³è¾¹ åĵįèµ·
æķ°çĻ¾ ç±³
çļĦéĿ¢ åŃĶ
ĠçŁ³ å¤´
åįģå¤ļ å²ģ
æİª æĸ½
èĤĨ æĦı
Ġå¤§æ¦Ĥ æĺ¯
å¤±è´¥ äºĨ
ĠæĦı æĢĿ
åĹ¯ äºĨå£°
åĪ°åºķæĺ¯ æĢİä¹ĪåĽŀäºĭ
Ġèĥ¸ åı£
çį łçīĻ
è¯Ľ æĿĢ
æĤ» æĤ»
ĠéĽ·åħĥæĪĪ éģĵ
åĮĸåĬ² åĲİæľŁ
çĲī æĸ¯
Ġæ°´éķľ åĴĮå°ļ
Ġåı¬ åĶ¤
èĭ¹ æŀľ
« åļħ
Ġ h
çļĦ æģ¶
çļĦ ç»ıéªĮ
ä¸Ģ ç±³
æĺ¯ ä½ķçŃī
äºº åĴĮ
ä»ĸ è¿ĺ
åľ° çĤ¹å¤´
Ġ! (
å°± å¦Ĥ
ä¸ĭ éĻį
Ġè¿Ļ ä¸¤ä¸ªäºº
åĩº ä¸į
è¿ĺ å°ı
è¦ģ ä¸įè¦ģ
å¾Ĺ æĿ¥çļĦ
Ġä»ĸ åı¯ä»¥
ä¹ĭ ä¸¾
ä¸º ä¸Ńå¿ĥ
Ġä¸į ä¹Ĳ
ç¬ĳ äºĨä¸Ģä¸ĭ
ĠéĤ£ æĺ¯ä¸Ģ
çī Ł
éĿ¢ ç§¯
å¤ļ å¤§çļĦ
åĬĽ å£«
ä¸¤ æł¹
Ġåı¯ çİ°
è° ĪçļĦ
çľŁ å¥½
é«ĺ å±±
æľ¬ å¸Ĥ
èĢĮ ä¸Ķ
èĬ ¸
ĠæŀĹéĽ· ä¹Łæĺ¯
åį´ æľī
é£İ éĹ¨
é£İ èĮĥ
åķĬ åķĬ
åģļ äºĨä»Ģä¹Ī
äºĳ åįĹ
éĩĳ çīĮ
Ġå¥¹ åıĪ
Ġå¥¹ çİ°åľ¨
Ġæľī æĹ¶
éĵ ħ
äº² ä¼łå¼ŁåŃĲ
åĽ½ å¯º
åį³ ä¾¿
ç«ĭ ä¸ĭ
åºķ çīĮ
åħ« æĪĲ
åįİ è´µ
æ·± å±±
æĸĩ éĿĻ
ĠåıĪ æĬĬ
è½¦ éĹ¨
ä¹ĭåĲİ å°±
ĠæĬ µ
æľį é¥°
ä½łä»¬ è¿ĻäºĽ
çľĭçĿĢ èĩªå·±
åĵª æĢķ
åħ½ äººçļĦ
çĶ· çĶŁ
åıį åĻ¬
ĠæīĢä»¥ åľ¨
çķĻ ç»Ļ
æ¯Ĵ éĥİåĲĽ
ç¡® æĺ¯
åĮħ åŃĲçļĦ
Ġéļ¾ åħį
ĠéĢ Ĥ
åĨ³ æĸĹ
çİ© çİ©
é¦ĸ èĦĳ
åĲ¸ çº³
ĠåĪ« è¯´æĺ¯
èĻļ æİĮ
Ġéģĵ æ£®
ĠæĬĬ ä½ł
ĠçĻ½ èĸĩèĸĩ
çļĦæīĭ ä¸Ĭ
åĳĨ æ»ŀ
å·¦ è¾¹
åĵ¼ åĵ¼
é¥Ń éĶħ
ĠåŃ Ŀ
Ġçī µ
Ġèı ©
ĠåİŁæĿ¥ è¿Ļ
ç»§ç»Ń è¯´éģĵ
ç¦ı ä¼¯
æĭħå¿ĥ äºĨ
æ²Ī åŃĿå¤©çļĦ
åľ¨ä»ĸ èº«åĲİ
æį¢ æĹ¥
åĭĴ éĽ·
Ġéļıåį³ åıĪ
èµµ çĻ½èĦ¸
èµŀ åı¹éģĵ
å°±ä¼ļ è¢«
Ġçŀ ³
å¤§ç¬ĳ äºĨèµ·æĿ¥
é¢Ħ æµĭ
æĵ¦ äºĨæĵ¦
Ġæ¢¦ éĨĴ
å¯¹çĿĢ æ¸©ä¹Ĳéĺ³
Ġå®ĭ æĺİ
æĭ¦ ä½ıäºĨ
Ġå² ©
Ġçº¢ è¡£
Ġé¡¾ ä¸įå¾Ĺ
èº¯ ä½ĵ
æŃī æĦı
æ½ľ åħ¥
ĠæĮĩ æĮ¥
Ġæ·± æ·±çļĦ
å°Ĩé¢Ĩ ä»¬
å¹ħ çĶ»
åıĹäºĨ ä¼¤
çŃĭ éª¨
èĹ¤ èĶĵ
ĠçŁ³ éĽķ
ç»ĳ æŀ¶
åĨįä¹Ł æĹłæ³ķ
ĠåŃĻ ä¸ĸåłĥ
å«Į å¼ĥ
æī© å¼ł
æĹłå½¢ çļĦ
Ġéªĳ åħµä»¬
è½¿ åŃĲ
Ġä¸įå¾Ĺ ä¸į
å©¢ å¥³
Ġæ£ ®
éľ²åĩºä¸Ģ ç¼ķ
Ġç³ Ł
æ·¬ çĤ¼
è¿·ç³Ĭ ç³Ĭ
Ġè¯¡ å¼Ĥ
Ġéĩįè¦ģ çļĦæĺ¯
ç¼° ç»³
åĸĢ çĲīæĸ¯
Ġæį®æĪĳ æīĢçŁ¥
çĹĬ æĦĪ
¡ èĲĦ
Ġ éģĩ
çļĦ åĬ¿åĬĽ
ä¸Ģ åłĨ
ä¸į å¿«
ä¸į éģĩ
ä¸į å¿ĺ
Ġé ±¼
ä»ĸ æĢĢéĩĮ
æľī æ°Ķ
æľī ä¿¡å¿ĥ
ä½ł å®¶
æĿ¥ åģļ
åľ¨ èº«åĲİ
åľ° åĬŁå¤«
ĠæĪĳ ä»¥ä¸º
ĠæĪĳ è¿ĺè¦ģ
ä¸Ń åĨĽ
è¦ģ æīĵ
ç¬ Ľ
Ġä»ĸ çļĦå£°éŁ³
å¤´ æĻķ
å°ı ä¾¯çĪ·
å°ı å··
äºĭ åħ³
èĩªå·± åľ¨
ä»İ æĢĢä¸Ń
åıª çŁ¥éģĵ
åį´ å¿½çĦ¶
ä»ĸä»¬ åľ¨
å¼º åĬ¿
å¤ª å¹³
å¾® ä¸Ģ
åĲĮ éģĵ
ĠæĪĳä»¬ éĥ½æĺ¯
é»ĳ æ²Ļ
åįĥ äºº
éĢļ éĢļ
çĮ ¥çĲĲ
åĽ½ å®¶çļĦ
æĮĩ å¼ķ
Ġåı¶æŀ« åıªæĺ¯
åĤħæ¸ħæī¬ ç«ŁçĦ¶
åĸľ çĪ±
Ġå¦Ĥæŀľ æĤ¨
Ġæĸ¹ èħĬ
ä½łä»¬ ä¸¤ä¸ª
å¸® æīĭ
åıĮ éĶ¤
Ġçİ°åľ¨ ä»ĸ
åıį æŃ£
æ¶Ī è´¹
åĻ¨ çģµ
å¼Ĥ åı£åĲĮ
ç»ĵ æĪĲ
æĿİ éĽªéĽģ
éľ² åīĳ
çĨ Ķ
å¤ľ ç©º
éĢģ äºĨ
è·³ åĬ¨
å±ķ ç¤º
Ġè°ģ è¯´
Ġè°ģ ä¼ļ
å¼ķ å¯¼
ç¬¬ä¸Ģ æĹ¶éĹ´
ä¸¥ å¯Ĩ
æ¯Ľ å·¾
æ¨¡ ä½ľ
Ġåĵª çŁ¥
åľĨ çĿģ
å°¸ ä¿ĳ
ç£ ħç¤´
Ġåįģ åĩłä¸ª
åħħ åĪĨ
æ´ª æ°´
Ġè®¸ ç¦»çľŁäºº
ç»Ŀå¯¹ çļĦ
å©Ĩ å¨ĺ
ĠèĲ§ å¤§å°ıå§Ĳ
Ġåıªä¸įè¿ĩ ä»ĸ
å¯¼ æ¼Ķ
Ġçł į
æ¼Ķ æĪı
ç»Ħ åĲĪ
æĢ¥å¿Ļ éģĵ
Ġå¾® ç¬ĳ
å¹» åĮĸ
é¢ľ æĻ¯çĶŁ
åĩºäºĨä¸Ģ ä¸Ŀ
éļĲéļĲ æľī
åłª ç§°
é¾ Ĭ
æķ°åįģ ç±³
åĨ·ç¬ĳ äºĨä¸Ģå£°
æĳĶ åĢĴ
æĪĲåĬŁ çļĦ
ä¸ĢåĪĩ éĥ½
ç½¢ ä¼ĳ
æĳĬ æīĭ
Ġå²Ĥ èĥ½
å·¡ é£İåı¸
Ġè¿ĩäºĨ çīĩåĪ»
è¿Ĳæ°Ķ å¥½
Ġä½łæĶ¾å¿ĥ åĲ§
çĮ¿ çİĭ
ĠåĩĮ å¯Ĵ
ĠçĿĢ å®ŀ
Ġå¤ļå°ĳ æľīäºĽ
çĳŀ å¹´
çĽı èĮ¶
å¥¢ åįİ
Ġé½Ĳ é½Ĳ
Ġæ¼« å¤©
æ°´æĻ¶ çĲĥ
è´¡ çĮ®
æŁ³åı¶ å¸®
è¥¿æ´± åŁİ
è´ºåħ° å±±
èµ·å½¼ ä¼ı
İ åįİ
çļĦ è¿Ļä¸Ģ
çļĦ æľĢåĲİ
çļĦ æŃ¦åĬŁ
çļĦ æĹ¶åĪ»
äºĨ å¥½åĩł
ä¸Ģ å¸¦
æĺ¯ è¿Ļ
ä¸į éĹ®
ä¸į èµ·æĿ¥äºĨ
ä»ĸ èº«è¾¹
ä¸ª å°ıæĹ¶
åľ¨ é©¬
ä¹Ł æ¯Ķ
ä¹Ł è®¸
åŃĲ éĥ½
ĠæĪĳ å®ŀåľ¨
æĪĳ ä¸Ģä¸ª
æĪĳ æĬĬ
å°± åĲĳ
è¯´ åĩºäºĨ
Ġè¿Ļ é»ĳ
è¿ĩ ä¸Ģä¸ª
è¿ĩ åĪĨ
è¦ģ åľ¨
å¾Ĺ å¹²å¹²åĩĢåĩĢ
ä¹ĭ é¢ĨåŁŁ
Ġä¸į å±ĳ
ĠéĤ£ çĶ·åŃĲ
å¯¹ éĤ£
å¯¹ æĪĺ
ç¥ŀ ç®Ĺ
ä¸ī äºĶ
æĹł å¼Ĥ
åıĳ åĬĽ
ä»İ è¿Ļ
ä»İ è¿ľå¤Ħ
ä»İ æĢĢéĩĮ
çĻ½ åŁİ
æŃ» è·¯
æľ¬ æľ¬
æľ¬ å°±æĺ¯
æľ¬ è´¨
èµ° èµ°
Ġå¤§ çĪ·çĪ·
å°Ĩ å®ĥ
è¡Į äºĨä¸Ģç¤¼
æ± ¨ç½Ĺå²Ľ
ä»ĸä»¬ äºĨ
åĺ Ī
å¼º äºº
Ġè¿ĺ æľª
ĠèĢĮ çİ°åľ¨
æĪĺ æĪĺåħ¢åħ¢
ä»Ļ éĹ¨
ç®Ĺ å¾Ĺä¸Ĭ
çĽ¸ è¿ŀ
æİ¥ éģĵ
Ġæľī æľ¬äºĭ
ä¼ł åĪ°
æŀĹéĽ· ä¸Ģçľ¼
çļĦä¸Ģ å¤©
æ»¡ å¤©
éĿĴ èī²çļĦ
é¢Ĩ éĺŁ
åĲĥ æİī
å½± ç¥ŀåīĳ
æĹ© äºĽ
ç¼ĵ åĴĮ
æľĿ å¤©
æľīä¸Ģ ä½į
äº® åħī
çŃĶ è¯Ŀ
Ġå¾Ī æľī
åĲĦ èī²
è·³ åĪ°
é¡¶ ç«¯
çĿĢä¸Ģ æł¹
åĩºåİ» åĲ§
åģľ ä½ı
åģľ ä¸ĭæĿ¥
ä¼Ļ ä¼´
åĩĿ è§Ĩ
ç¦ģ åĨĽ
Ġä¼ ģ
ç»´ æĭī
Ġæ²¡æľī ä¸Ģä¸ª
ĠæĽ´ å¤ļ
Ġç¥ŀ éŃĶ
Ġå¤©æ²³ ä¸īäºº
æļ´ æĢĴ
çº¦ æĿŁ
æĿĥ å¨ģ
å¥Ķ æ¶Į
æŀ¶ ä¸Ĭ
æ¹ĸ è¾¹
çľīå¤´ ç´§
è½° è½°
æĿĳ åŃĲéĩĮ
çĮľ æĥ³
Ġä¸Ń åįĪ
Ġå¥³ åŃĲ
æĺĨ çī¹
çļĦåľ° çĽĺ
ĠæĪĳè¦ģ æĺ¯
ç§ĭ ç½Ĺ
æľīäºĽä¸į æ»¡
æĤ¬ ç©º
ĠåĲķ ä¸įéŁ¦
Ġèµ· èº«
åĩºå£° æĿ¥
ĠæĢİ åľ°
Ġèģ ª
ĠæļĹ èĩª
åĵ¦ äºĨä¸Ģå£°
çĭ¡ é»ł
ä¸ŃåĽ½ äºº
ä¸Ľ æŀĹ
æ¸ħéĨĴ è¿ĩæĿ¥
Ġæľ± åħĥçĴĭ
å°ıå¿ĥç¿¼ç¿¼ åľ°
æ£µ å¤§æłĳ
éĥĳéĩį éģĵ
éŃĶæĻ¶ çĤ®
éģµ å®Ī
Ġåı¸å¾Ĵ éĴŁ
åŃķ èĤ²
Ġæ³¨ æĦı
çĽĺé¾Ļ ä¹ĭæĪĴ
Ġéŀ Ń
èµ¤å²© é¢Ĩä¸»
Ġå¥¶ å¥¶
è¿ľå¾ģ åĨĽ
Ġèĩ³é«ĺ ç¥ŀ
å¿ĥçŁ¥ èĤļ
ĠãĢĤ{ }
æĺİä¹Ŀå¤© åĽ¾
Ġ ä¸ªäºº
Ġ äºī
çļĦ æĳĩæĳĩå¤´
çļĦ ç¬ĳæĦı
çļĦ æĢ§åŃĲ
æĺ¯ åĵª
ä¸į æĶ¹
è¿Ļ åŃ©åŃĲ
ä»ĸ éĤ£
åľ¨ åĤħæ¸ħæī¬
å¤§ å¤´
æĪĳ åı¯
å°± åĲ¬è§ģ
ä¸Ń åĮ»
Ġä½ł åı«
éĥ½ è¯´
éĥ½ æľīäºĨ
è¦ģ æľī
è¦ģ è®©
å¾Ĺ æĪĳ
åİ» åĵª
æł ©
Ġä»ĸ åĪļæīį
ä¹ĭ å¾Ĵ
Ġä¸į æŃ»
Ġä¸į å¤ļæĹ¶
å¥½ åħĦå¼Ł
å¥½ çİ©
ĠéĤ£ å¥¹
ĠéĤ£ å°ĳå¥³
ĠæŀĹ åħ¬åŃĲ
å¯¹ åºĶ
ä¸ī äººéĥ½
äºĨä¸Ģ æł¹
Ġä¸Ģ åĬ¨ä¸įåĬ¨
èĢģ çļĦ
å¾Ī åĥı
åıĳ è¨Ģ
æīį æĺİçĻ½
ä»İ å¤ĸéĿ¢
éĹ¨ å¾Ĵ
åĽŀ å¤į
æīĵ æīĵ
æīĵ çĲĨ
æīĵ è½¬
æŃ» ä½ł
æŃ» åŃĹåı·
å·²ç»ı å°Ĩ
ĠæŀĹéĽ· è¿ŀ
ĠæŀĹéĽ· å¤§å¸Ī
Ġå¤§ åĬĽ
Ġå¤§ åıĶ
è¿Ľ å±ķ
è§ī å¯Ł
åĲ¬ è¯Ŀ
åĲ¬ äºĨè¿Ļ
çĥ ĺ
Ġåľ¨ åº§
è¿ŀ çİ¯
åĲį æ°Ķ
åħ¥ éŃĶ
å¤ª å¿«
åĽĽ åĲĪéĻ¢
ä¿® æĪĲ
æİ¥ ä¸ĭ
äºĶ æĮĩ
æķ° æŃ¥
æĶ¾ æīĭ
çİĭ åºŃ
ä¼ł åĩºåİ»
æŃ¥ æŃ¥
éħ Į
éĿŀ æ´²
èĬ± æľµ
æĽ´ ä¸º
å¼ł çº¸
çħ İ
è½¬ åĮĸä¸º
Ġéĥ½ åı¯ä»¥
ĠæĿİ æĸ¯
ä¹Ŀ æĪĲ
ç²¾ çº¯
ç¼ĵ æŃ¥
å¹¶ è®º
åıĮ èĦļ
çĶ· åŃĲçļĦ
è¯Ĩ å¹¿
çĤ¼ åĻ¨
åĳ¼ åĸĿ
å°Ķ éĥ¡åŁİ
Ġç§ į
å¨ģ æŃ¦
é²ģ èİ½
æĭ³ èĦļ
Ġéļı æĦı
ĠåĽłä¸º ä½ł
ç¬ĳçĿĢ çĤ¹å¤´
çľĭäºĨ æŀĹæĻļèį£ä¸Ģçľ¼
æĬĵ åĪ°
éĥ½ä¸į çĶ¨
çĮĽ çļĦä¸Ģ
ĠäºĮ èĥĸ
ĠéĻĪ æ´ĭ
Ġèĥ ĸ
ĠåĲĮ å¿Ĺ
Ġåıªè¦ģ æľī
Ġé£ Ł
Ġæīĭ ä¸ĭ
Ġæīĭ èĩĤ
Ġç¬ĳ äºĨ
æ³¢ æ¾ľ
åĶĲ åĥ§
å®¤ åĨħ
åİļ éĩį
ĠæĢ» çĿ£
Ġç© ·
åį¡ ä¼¦
Ġä»Ĭ å¤ľ
èİ« éĿŀ
Ġå¼ł èĭ±
åĸĦ äºİ
èŀį åħ¥äºĨ
æĢİ åľ°
Ġé£İ åĵ¥
çļĦäºĭ åĦ¿
çº¯ åĩĢ
ĠåºĶè¯¥ å°±æĺ¯
è·ĥ çĻ½
çģ° èī²
Ġåı« äºº
æĶ¿ æĿĥ
å¾ģ æĪĺ
éĩĩ éĽĨ
Ġåģļ äºº
èĢĢ æŃ¦
æī§ çĿĢ
çĶĺ æĥħæĦ¿
Ġè¥¿ åĮĹ
ĠæŃ¦ æĿ¾
æģŃæķ¬ åľ°
æĹłå£° çļĦ
Ġæ·± æ·±
æķ² åĩ»
ĠæĥĬ è®¶
è´Łè´£ äºº
ĠåĨ² çĿĢ
ĠæĬ± çĿĢ
Ġåıĺ æĪĲ
æ»ĭ æ»ĭ
ĠçĽĸ ç½Ĺå¨ĩ
è´ª çĭ¼
æĹ¢ çĦ¶æĺ¯
Ġæ¯« æĹłçĸĳ
å±ı æģ¯
æİĢ å¼Ģ
æŁľ åı°
æĥ³èµ·äºĨ ä»Ģä¹Ī
Ġæ¢ħ å§Ĳ
åķ§ åķ§
å«Ĥ åŃĲ
Ġè¿İ éĿ¢
åı¤èĢģ çļĦ
Ġé¾Ļè¡Ģ åŁİåł¡
åįĹçĶ° çŁ³
åıĪæĥĬåıĪ åĸľ
åĮĹåĨ¥ åīĳ
Ġçŀ³ åŃĶ
â Ĺ
Ġ è¿Ľåİ»
Ġ ä¸»ç¥ŀä¹ĭåĬĽ
Į èºĩ
çļĦ å¿«
çļĦ è®¡åĪĴ
ä¸į è¨Ģ
ä¸į å¤į
ä¸į å®ľ
è¿Ļ æ®µ
è¿Ļ æĶ¯
ä½ł åĨį
åľ¨ èĦ¸ä¸Ĭ
å¤§ ç¥ŀ
çĿĢ åĲ§
ĠæĪĳ ä¹Łæ²¡
ĠæĪĳ å¸®ä½ł
å°± åĪ«
Ġè¿Ļ åŃ©åŃĲ
Ġè¿Ļ ä¸¤äºº
åĩº ä¼Ĺ
Ġä½ł çĪ¹
å¤© ä¸ĬçļĦ
éĥ½ çĶ¨
è¦ģ åĴĮ
Ġä»ĸ èĦ¸ä¸Ĭ
ä¹ĭ çģ¾
èĥ½ å°Ĩ
æ¸ ļ
Ġä¸į è®º
èĩª åĺ²
ĠéĤ£ éģĵ
ĠéĤ£ å²Ĥä¸įæĺ¯
ç¥ŀ åĨľ
å¤ļ è°¢
åĬĽ ç«Ń
æŀĹ äº²çİĭ
æ¸ħ é¦Ļ
æµ Ļ
Ġæľ ´
æĦı åĽ¾
åĩł åĿĹ
æĪĲ ç²īç¢İ
éĹ¨ æĪ·
ç»Ļ åĪ«äºº
è¿Ľ å®«
åĪĨ å¯¸
çª ĺ
æĿĢ æķĮ
å¾® å±±æ¹ĸ
åĪ°äºĨ è¿ĻéĩĮ
æĢİä¹Ī çľĭ
é»ĳ å¸®
æľīäºĽ çĸĳæĥĳ
ä»Ĭ å¤ľ
å¿« åľ°
æĶ¾ çļĦ
ä¼ł äºĨè¿ĩæĿ¥
åįĥ åı¤
é£ŀ äºĨè¿ĩæĿ¥
é¦ Ĵ
åĨ· çļĦ
æĳĩ æĳĩæĻĥæĻĥ
çĲĨ æīĢå½ĵçĦ¶
æľĪ æĻ¶
Ġå· ¡
æķ¢ è¯´
çļĩ çļĦ
ä½¿ äºĨä¸ª
è¿Ļæł· è¯´
è¡¨ å¦¹
Ġå¤© çĶŁ
Ġèµ Ħ
åħŃ ä½į
æľį ä»İ
æĺ¯ä¸Ģ äºĽ
è¯Ĩ è¶£
åĬŀ çļĦ
è¿ĻäºĽ å¤©
ä¸Ģä¸ĭ å°±
ĠæĹł äºº
Ġéĺ İ
åĳĬ çŁ¥
å®Ĺ å¸Ī
åĮħ æīİ
åĲĦ æľī
åŃ© åŃĲçļĦ
éĢĢ ç¼©
åĩºä¸Ģ ç§į
èµ¶ åĽŀ
åħĦå¼Ł å§Ĳå¦¹
éĺ´ æ£®
èĥ¡ æĢĿä¹±
ĠæĮ ¤
èį¯ çī©
Ġä¸Ĭ å¤©
ç¿» è¯ĳ
ĠéĽ· éľĩå²³
åĸĬ äºĨä¸Ģå£°
èĹı èº«
å®Įåħ¨ è¢«
æľĽçĿĢ èĩªå·±
æĺ¯ä¸ª å¾Ī
çľĭçľĭ åĲ§
æĳ¸ ç´¢
å°ģ ç¥ŀ
è®® äºĭ
çļĦéĤ£ ä¸Ģ
å·¦ èĩĤ
Ġå¸Ŀ æĳ©æĸ¯
éĺ¿ åį¡æīİåĽł
æ¨ª æī«
ç¡¬ çļĦ
Ġå®ī å¡ŀå¾·æĸ¯
æĭ¥ æĮ¤
èĥĨ éĩı
èįĴ æ¼ł
æĺ¥ èĹ¤
ĠåŁ ĥ
Ġæł¹æľ¬ æ²¡æľī
æ¶Īå¤± ä¸įè§ģ
å¤§åįİ çļĦ
èµı èµĲ
çĬ¯ ç½ª
æĲŀ å®ļ
ä¹ĸ å·§
ä¼ĳæģ¯ äºĨ
æīĭä¸ĭ çķĻæĥħ
Ġåīĳ åħī
åĲī èĢģå¤§
ä¹¡ ä¸ĭ
åĽĽåĳ¨ çļĦ
Ġåĩłä¸ª çĶµåĻ¨
Ġå¹² ä»Ģä¹Ī
æĴĴ å¨ĩ
Ġæ³ķ åĬĽ
ĠåĶ¯ æģĲ
Ġé¥ ®
ĠæĪ´ å¥ĩ
åĨ¬ çĵľ
Ġå¹½ åĨ¥
Ġçĵ¦ ä¼¦
çļĦè¡Į ä¸º
åĻ© æ¢¦
çľĭåľ¨ çľ¼éĩĮ
çľ© æĻķ
ĠåĪ© çĶ¨
*** ,
æĥ´ æĥ´
ĠåĲ± åĲ±
Ġä»ĵ çĶ°
å·¦ä¸Ģ åı³
Ġ äººçļĦ
çļĦ å®¶
çļĦ èĥ³èĨĬ
æĺ¯ éĤ£
ä»ĸ èĤ©èĨĢ
ä½ł è¿ĺæĺ¯
å· ³
æĪĳ ä¸º
æĪĳ è¿ĺæĺ¯
Ġè¿Ļ å¹´å¤´
åĩº è·¯
è¦ģ æĥ³
å°ı åĮº
æīĭ æĹł
å¿ĥ èįī
Ġä¸į æŃ¢
ä»¥ ä¸ĭ
æĥ³ çľĭçľĭ
å¤ļ å¹´çļĦ
Ġä¸Ģ æĭĽ
æĹł å¿ĥ
Ġå°± å°Ĩ
æ³ķ å¾ĭ
ä»İ é«ĺç©º
Ġä¹Ł å¯¹
Ġä¹Ł éļ¾æĢª
åĦ¿ å¥³
å°ĳ çļĦ
é£İ åº¦
æ°´ æĿ¥
æ°´ æµģ
éĩĳ é¾Ļ
ä¸ĩ åĮĸ
çĽ¸ æıĲ
Ġåı¯æĺ¯ åı¶æŀ«
å¾® çº¢
æİ¥ ä¸Ģä¸ª
æĢİä¹Ī è¿Ļä¹Ī
åħµ éģĵ
è¿ĺæĺ¯ åľ¨
èĪ¬ åľ°
ä¸İ æĪĳä»¬
åĢĴ ä¸įæĺ¯
ä¸Ŀ ä¸įåĬ¨
èĬ± èįī
åº¦ è¿ĩ
åºķ çļĦ
å¼ł å¤§äºĨ
è½¬ äºĨä¸ĢåľĪ
åĮĸ å¦Ĩ
Ġè´ ¥
åħĦ éķ¿
æ¼ ª
Ġè¿Ļä¸ª æĪĳ
ä½Ľ å¯º
ç®¡ åħ¬æĺİ
Ġä¾¿ åĲ¬
èĭ¥ çİ°
æľīä¸Ģ æĿ¡
ç»ĵ äºĨ
æķ´ ä½ĵ
åľ£ æ´ģ
è¾¾ åħĭ
æĭį æīĭ
é¬ ĵ
è·³ ä¸ĭ
éĢĢ åİ»
ç±» éŃĶåħ½
åĬ² çļĦ
èĥ¡ è¨Ģ
å¥¥ å¤«
Ġæ²¡æľī äºĨ
ç¿» äºĨä¸ª
Ġåħ¶å®ŀ ä½ł
åĸľæ¬¢ çļĦ
ĠæĤ¨ çľĭ
èĪĴ å±ķ
Ġåıªè¦ģ æĺ¯
ä¸Ģéĺµ åŃĲ
å¸Į éĩĮ
åį· è½´
ĠæĿ¥ èĩª
åįĩ çº§
åİļ åİļ
Ġåįģ å¹´
Ġè¶ ´
åĲ¬åĪ° è¿ĻéĩĮ
çŀª å¾Ĺ
éŁ ¬
ç¨³ åĽº
çĹħ äºº
ä½¿çĶ¨ ä¸»ç¥ŀä¹ĭåĬĽ
åŁº æģ©
æĻķ çº¢
æįŁ èĢĹ
ä»Ĺ ä¹ī
å·« åĲİ
Ġæ® Ĭ
éĤ£æł· çļĦè¯Ŀ
Ġé¡¹ç¾½ éģĵ
ĠæĪĲ åĬŁ
Ġçº¢ ç»¸
ĠæŃ¤æĹ¶ çļĦ
æī¶ èµ·
åľ°çľĭçĿĢ æŀĹéĽ·
åĵ¼äºĨä¸Ģå£° éģĵ
ä¸Ģä¸ªå°ı æĹ¶
Ġè¶Ĭ å¸Ī
åĬĿ è¯´
åĢ¾ åĲ¬
é©¾ é©Ń
éģ® å¤©
Ġèĭı æħķçĻ½
å®ĩ éĹ´
Ġå© µå¹½
å¦Ħ åĽ¾
éĶ¦ å·Ŀ
æī© å¤§
æĮł å¤´
å·´å·´ çļĦ
Ġä»ĻåŃĲ å§Ĳå§Ĳ
Ġç´«èĲ± éģĵ
çĶ¸ çĶ¸
ĠæĽ¹ æĵį
å¤Ļ çİī
ĠåŃ© åĦ¿
å¯¥ å¯¥
åİĭæł¹ åĦ¿
ĠèĤ²æīį æĸĩæŃ¦åŃ¦æł¡
çĽ´åįĩ æľº
Ġ........ ....
è¹Ĭ è··
´ èĿ¶
çļĦ ä¸»äºº
çļĦ å¤´é¢ħ
æĿ ı
éģĵ æ³ķ
å¾ ĺå¾Ĭ
åľ¨ åİŁåľ°
ä¸Ĭ çĻ¾
ä¸Ĭ åºĬ
ĠæĪĳ è¿ĺçľŁ
æ² ģ
Ġä½ł ä¹Łæĺ¯
è¦ģ æĿ¥
å¾Ĺ çļĦ
æīĭ å¿ĥ
æ¸ İ
ä¸º æĪĳä»¬
éĽ· å¤§å°ıå§Ĳ
ĠéĤ£ æīįæĺ¯
Ġå°± çľĭåĪ°
éķ¿ å¤§äºĨ
ä»İ éĩĮéĿ¢
åı£ æĺ¥èĹ¤
åıª éľĢ
å±± åĿ¡
æīĵ åĿĲ
çĶ¨ è¿Ļç§į
çĻ½ èĸĩèĸĩ
èµ° åĲİ
éĶ ¢
è¡Į å®¶
Ġå°ı å¤©
å½ĵ ä»£
éĩį è´Ł
éĩĳ æ°´
åħ¥ éª¨
çĽ´ åĨ²
ç©º æĹ·
åĲĮ å½Ĵäºİ
ĠæĪĳä»¬ åĨį
æĢİä¹Ī ä¹Ł
ĠæŀĹæĻļèį£ åĺ»åĺ»ä¸Ģç¬ĳ
åħµ åıĺ
Ġæľī äºĨè¿Ļ
ä¹Łä¸į è¡Į
ä¼ł çļĦ
çļĦä¸Ģ åĲį
éĿŀ ä½Ĩ
æĽ´ å¥½çļĦ
ĠåĤħæ¸ħæī¬ åľ¨
ç± ģ
æĸĩ ç«ł
ç»Ŀ æĹł
è¿Ļæł· åģļ
Ġè´ ¤
Ġå¤© çģµåŃĲ
å®Ŀ éĩĳ
Ġä½łä»¬ è¿ĻäºĽ
éĤ£ä¸ª ä»Ģä¹Ī
Ġå°ıéĽ· ç¬ĳäºĨç¬ĳ
çĶ· ä¸Ģ
æ´» èı©èĲ¨
è¿Ļä¸Ģ æĿ¡
Ġä»İ åīį
éļĲ èĭ¥çİ°
Ġä¸¤ çľ¼
Ġè§ Ĩ
Ġç§ ĥ
è·ĳ å¾Ĺ
åħ´ é«ĺéĩĩ
æķ£ ä»Ļ
ç»Ĩ å¾®
Ġåı¶å¤© çļĦ
ĠéĢ Ĩ
åħĦå¼Ł çļĦ
éĺ´ æ°Ķ
é½ ĳ
Ġç¥ ĸ
éĢĥ äºĨ
ĠäºĮ ä½į
ä¸ĢçĽ´ éĥ½æĺ¯
Ġåº ķ
åĸľæ¬¢ ä½ł
ç½ĳ ç«Ļ
è¹ ¿
ĠçĶ¨ æĿ¥
åķĨ å®Ļ
Ġèı ľ
åħħ æ²Ľ
éĹ» åĪ°
ĠåĪĺ æĻĭåħĥ
ä¸ºä»Ģä¹Ī ä¸į
ä¸įåĲĮ æĦı
åĲ« ç¬ĳ
Ġç¬¬äºĮ ç«ł
åĲĲ æ²«
æĮº çļĦ
æĭ¼ æŃ»
è¯´è¿ĩ çļĦè¯Ŀ
Ġä»Ļ åīĳ
ç»Ħ å»º
å²© æµĨ
èĢĹ å°½
çĴĩ çİĳ
ä¼ĺ çĤ¹
é¾ ĩ
åıĺæĪĲ äºĨä¸Ģ
è¿ħéĢŁ åľ°
ĠéŁ ¦
ĠåĨĽ å¸Ī
Ġåį¡ ä¿®åĽł
æĵį å¿ĥ
Ġå®Į äºĨ
åĵĢ åļİ
ĠçİĦ å¥¥
Ġæ±Ĥ æİ¨èįĲ
Ġå¾ħ ä¼ļåĦ¿
åļİ åı«
æĦŁæħ¨ éģĵ
çĤ¼åĮĸ äºĨ
å¦¥ å½ĵ
Ġç§Ģ ç§Ģ
æŃª æŃª
ĠèµµçģµåĦ¿ éģĵ
Ġéľį ä¸¹
æĵĴ æĭ¿
ĠãĢĤãĢĤãĢĤ âĢĿ
Ġè¯ĿéŁ³ åĪļèĲ½
ä¿¯ åĨ²
ç½ķ è§ģ
ĠçľŁæŃ£ çļĦ
Ġè®¤ è¯Ĩ
ĠèĮ «
Ġæħķ å®¹ç´«èĭ±
Ġåĺ»åĺ» ç¬ĳéģĵ
ĠçĹĽ èĭ¦
åĴļ åĴļ
æ»Ķ å¤©
Ġæ²³ ä¸ĺ
Ġå¹´è½» äºº
èĦĸ é¢Ī
åĢŃ å¯ĩ
çĦ¶èĢĮ æŃ¢
å·´è¾¾ ä½įéĿ¢çĽĳçĭ±
ĠæķĪ æŀľ
ĠæĢģ åº¦
, âĢľ
· æħ¨
è ©¹
çļĦ åıĮæīĭ
çļĦ å°ĳå¥³
çļĦ èĦĸåŃĲ
çļĦ åľºæĻ¯
Ġæ Ĩ
è¯ Ĭ
éģĵ è¢į
æľī ä¸Ŀæ¯«
æľī åĬĽçļĦ
æĿ¥ æºĲ
åľ° å¾Ģ
åľ° éľĩ
åľ° å¢ĥ
å¤§ åı«éģĵ
çĿĢ è¯´
å°± æľīäºĽ
æ² ¥
Ġè¿Ļ æĶ¯
Ġä½ł å¯¹
éĥ½ æ¯Ķ
éĤ£ æĹ¥
ä¹ĭ æīĭ
å°ı ä¼ĻåŃĲ
å¥½ åľ°
å¥½ æľĭåıĭ
çĤ¹ çŁ³æĪĲéĩĳ
æĸ¹ é«ĺäºº
æģ ¬
å·² æľī
è§ģ æĢª
è¯Ŀ è¯Ń
éļ į
åıĳ è¯Ŀ
éķ¿ éŀŃ
è¢« çł¸
çľŁ ä»·
éĹ¨ ä¸Ń
æĬĬ çİ©
Ġä¹Ł æľªå¿ħ
çĻ½ çİī
å·²ç»ı åĴĮ
è¿Ľ å±±
åį´ ä¸įæĺ¯
å®ŀ éªĮ
å¼º åº¦
Ġè¿ĺ éľĢè¦ģ
æ°´ ç³»
Ġå¾ ¡
çĽ´ è·³
æ¶ §
çĽ¸ éļĶ
è¿Ļä¸ª ä¸ľè¥¿
ä¿® ä¹ł
Ġåĵ Ł
æİ¥ åıĹäºĨ
çī¹ æľīçļĦ
çİĭ å¯ħ
ĠåĽ ¢
è¿ĺæĺ¯ ä¸į
è¿ĺæĺ¯ æ¯Ķè¾ĥ
ĠãĢı âĢĻ
é£ŀ äºĨè¿ĩåİ»
çĽ® åīįçļĦ
çļĦä¸Ģ éĥ¨åĪĨ
éĥ½æĺ¯ ä¸Ģ
å®ī ä¸ľå°¼é©¬åºĵæĸ¯
ĠèĢģ å®¶ä¼Ļ
ç¿ Ł
ç«ĭ åľº
åĨ² äºĨåĩºæĿ¥
åħĥ éŃĤ
ĠæĿİ å°ıåĩ¡
åĬ¿ åĬĽçļĦ
æļĹ ç¤º
æ²³ æ´Ľ
ä¸įçŁ¥éģĵ ä»Ģä¹ĪæĹ¶åĢĻ
è¿Ļä¸Ģ å¤©
æ¯Ĵ ç´ł
å·¨ åħ½
ĠèĢĮä¸Ķ æĪĳ
å¨ģ åĲį
èĻİ åĵ¥
æľª èĥ½
æĬ¥ ä»·
Ġå¾Ī æĬ±æŃī
æģ¶ åĬ£
æ®¿ ä¸ĭçļĦ
éĢĥ éĢ¸
å¥¥ å¸ĿåĽ½
çº¿ çļĦ
å³° é¡¶
Ġåħ¶å®ŀ è¿Ļ
ä¸įè¦ģ åĨį
ĠåĲĮ æł·çļĦ
Ġç¥ŀ éĢļ
å¼± äºĨ
åī¯ æĢ»
éĻĪ æĽ¦
çºª ä¹Ŀçģ«
å°Ĭ è´µ
Ġå¿« åİ»
Ġéĩĳ çĮ´åŃĲ
æļ´ èµ·
åķĨ åľº
Ġèı ±
éĽķ å¡ĳ
èĦ± èº«
å¾Ĳ å¤§äºº
åį° è®°
ä»ĩ å®¶
åĩ¶ æĤį
åıĳåĩº çļĦ
Ġä¹Łä¸į ç®¡
æ¬² çİħ
Ġä½łè¦ģ çŁ¥éģĵ
åı¹äºĨåı£æ°Ķ éģĵ
ç¬¬äºĮ å±Ĥ
çĻ» é¡¶
Ġå¹³ éĿĻ
Ġè½° çĦ¶
çļĦé»ĳ æļĹ
æľīäºĽä¸į è§£
Ġèĵ ī
Ġåį¡ é¡¿äº²çİĭ
ç«¥ åŃĲ
Ġçī¹ éĽ·è¥¿äºļ
Ġå°½ éĩı
å¿Į è®³
Ġäºĭ å®ŀ
é¡¹ çĽ®
çģ«çĦ° åĲĽçİĭ
åģ·åģ· æĳ¸æĳ¸
ç¬¬ä¸ī å±Ĥ
æľ± éĽĢ
èµ« èµ«
Ġè¿ĩäºĨ è®¸ä¹ħ
Ġå¾®å¾® ä¸Ģç¬ĳ
ĠèĦĳ æµ·ä¸Ń
Ġå´ ©
èħĲ èļĢ
ĠæīĢè°ĵ çļĦ
è·Łåľ¨ åĲİéĿ¢
ä¼ļè®® å®¤
æŃ¹ æ¯Ĵ
ĠçĽĺ é¾Ļ
ĠæĤĦ æĹłå£°
ç¿¼èĽĩ æ¹ĸ
è±ģ çĦ¶
Ġå°¸ ä½ĵ
åĹ· åĹ·
ĠéĨ ī
æĭīäºĨ æĭī
Ġå¦¹ å¦¹
åĶı åĺĺ
æĬ¤å²Ľ æĪĺå£«
çĽ¸æıĲ å¹¶è®º
Ġ éģ¿
ä¸ Ĳ
çļĦ æľĿ
çļĦ éĺ²å¾¡
çļĦ çĽ®çļĦ
ä¸Ģ æĹıçļĦ
ä¸Ģ å±ģèĤ¡
ä¹ ĵ
åĪ ·çļĦ
ä»ĸ å¯¹
æľī æķĪ
ä½ł åı¯
æĿ¥ å¾Ģ
å¤§ é©¬
å¤§ çĲĨ
ĠæĪĳ ä¹Łä¸įä¼ļ
å°± åıĺå¾Ĺ
Ġè¿Ļ åľ¨
Ġè¿Ļ èĪ¬
Ġè¿Ļ çīĩ
åĩº æĪĺ
Ġä½ł è·Ł
Ġä½ł è¿ĺæľī
å¤© éĤª
å¤© ç©ºä¸Ń
éĥ½ åĴĮ
éĥ½ æĿ¥ä¸įåıĬ
çľĭ è¿ĩåİ»
Ġä»ĸ æŃ£
éĤ£ é½Ĳ
ĠéĤ£ è¿ĺ
è´ ¿
å®¶ åĴĮ
çĤ¹ å°ı
ä¸¤ æīĭ
æīį åŃ¦
æĬĬ è¿ĻäºĽ
ĠåĲ ¯
å±± è·¯
åħī åīĳ
åħī äº®
çĻ½ é©¬
è¶ ¾
å¨ Ĩ
äºĮ çĻ¾
ĠæŀĹéĽ· çĽ´æİ¥
åĲĳ å¾Ģ
å¼º æķĮ
å¤ĸ åľ°
Ġæĺ¯ è¿Ļæł·
æ°´ éĽ¾
æ¯Ķ å¾Ĺä¸Ĭ
æ¶ İ
Ġåĵ ĳ
è¡Ģ æµ·
Ġæľī äºĭ
è¥¿ éĥ¨
å¸¦ åĪ°
è¿ĺæĺ¯ æ²¡æľī
çļĦä¸Ģ åıª
è£ Ķ
æĢª ä¸įå¾Ĺ
åĩ» åĩº
ç¦» å±±
æ¥ ·
ĠåĤħæ¸ħæī¬ ä¸ĢåĲ¬
æĢ» ä¼ļçļĦ
æĽ ³
è¶Ĭ å¸Ī
Ġæĥ³ äºĨä¸Ģä¸ĭ
çľĭçĿĢ è¿Ļ
æķĻ çļĦ
æķĻ æİĪ
åıį æĤĶ
ĠæĹł éĿŀæĺ¯
èĮ ¹
è¸ ŀ
çľĭåĪ° æŀĹéĽ·
åľ£ çģµ
Ġå°Ĩ ä»ĸä»¬
è®º éģĵ
é¬¼ ç¥Ł
åİĭ åľ¨
åįĹ æ·®çĳ¾
ĠäºĮ åįģ
åı¯æĺ¯ éĿŀå¸¸
ĠçĻ½ çĮ¿
å¦Ĥä½ķ èĥ½
Ġåħ¶å®ŀ å°±æĺ¯
åĸľæ¬¢ è¿Ļ
åĵªéĩĮ åİ»äºĨ
éĵ¶ åħī
åı³ è¾¹
çºª å¾ĭ
éĢı éľ²
æĥ¨ äºĨ
ĠçĶ¨ æīĭ
çģµéŃĤ åıĺå¼Ĥ
Ġåĳ¨ åķ¸å¤©
ç¡¬ çĶŁçĶŁ
åĩ¶ çĮĽ
æĦ¤ æģ¨
çĺ ´
Ġç¬¬äºĮ åį·
ä¸ĵ å¿ĥ
æĿ¯ éħĴ
æł¡ åľº
éĥ½æ²¡ äºĨ
ä¸Ģéģĵ éģĵ
Ġåĥı ä¸ª
ĠæĹ© åľ¨
ĠäºĶ åįĥ
æ³¨æĦı åĪ°äºĨ
ĠåĶĲ æĸĩè¿ľ
çļĦèĢģ æĿ¿
æĽ´åĬł çļĦ
èµ¤ çĤİ
åĲ¹ çīĽ
å¹´åīį çļĦ
èĿ ĻèĿł
é¸¡ çļ®
çĶĺ èĴĻå»·
æĵį çºµ
åĽº å®ļ
å¿½ æĤł
åľ¨æĪĳ éĿ¢åīį
éĽĢ æĹłå£°
ç»ıåİĨ äºĨ
çĶŁæ°Ķ äºĨ
èĢ³æľµ éĩĮ
å®īéĿĻ ä¸ĭæĿ¥
ä¿®è¡Į ä¹ĭäºº
Ġå¿Ļ éģĵ
Ġs h
ĠèĦĳ åŃĲéĩĮ
ä¸Ľ ä¸Ń
Ġåı¸ æľº
Ġä¼Ĭ å°¼æĪĪ
Ġå´ Ķ
å¸Ĳç¯· éĩĮ
çº¢è¡£ å¤§ä¸»æķĻ
Ġæ¶Ī æģ¯
è¿ĻæĹ¶ éģĵ
Ġæ¢ħ ä¸½çī¹
ç½ķ è§ģçļĦ
å¤§åĳ¨ æľĿ
Ġå¼Ł åħĦ
è´« åĥ§
Ġåı· ç§°
Ġæĵ ħ
Ġæ±ī å¸ĥéĩĮçī¹
éĴ¦ ä½©
è¿¸ åıĳ
çľ¼çľ¸ ä¸Ń
Ġè¿Ł çĸĳ
ç´«éĩĳ éĶ¤
Ġå®īå¾· çĥĪç»´å¥ĩ
ç¦½ åħ½
åģľä½ıäºĨ èĦļæŃ¥
Ġå±ł æĪ®
éĻ¨ èĲ½
ÃĹ ÃĹ
ĲçŁ³ åīĳåľ£
åĲ¸è¡Ģ é¬¼
å¿ĥçŁ¥èĤļ æĺİ
Ã º
Ġ ä¸Ŀæ¯«æ²¡æľī
ĺ èĽĽ
çļ ĳ
çļĦ éħĴ
çļĦ åį´æĺ¯
çļĦ éĺŁä¼į
çļĦ èĥ¸åı£
ä¸Ģ çĶ©
ä½ ŀèĽŁ
åľ° æĦıæĢĿ
å¤§ æķĮ
ä¹Ł è·Ł
åİ ĺ
ĠæĪĳ è¿Ļæĺ¯
åĩº è¿Ļ
åĩº èī²
Ġä½ł å¸¦
Ġä½ł åı¯æĺ¯
éĥ½ å°ī
å¾Ĺ è¦ģ
å¾Ĺ è·Ł
éĩĮ çļĦäºº
ä¹ĭ åĪĥ
å°ı è§ĳ
åĵ ²
å¿ĥ ä¸ĭ
èĩª ä¿Ŀ
ç¥ŀ é¾Ļ
å¤ļ è¯Ĩå¹¿
åīį æĸ¹çļĦ
èĢģ å¦ĸ
Ġåı¯ çİ°åľ¨
æĪĲ ç«ĭ
æĪĲ å½¢
è° ķ
éķ¿ åı¹
éķ¿ ç¦ı
Ġåıª çķĻä¸ĭ
è¢« æĬĵ
æĺİ æĻº
æĺİ æĸ¯åħĭ
æ· ¤
æīĵ äºĨä¸Ģä¸ª
Ġä¹Ł æĺ¯ä¸Ģ
èµ° äºº
èĢĮ äº¡
Ġå¤§ æħĪæĤ²å¯º
åį´ æľīäºĽ
èĦ¸ åĴĮå°ļ
åīĳ è¯Ģ
Ġåľ¨ ä¼Ĺäºº
æ°´ è¡Į
ä»Ļ çģµ
Ġå® ª
çģµ èĦī
éĩĳ éĵ¶
éĩĳ çĮ´åŃĲ
æĪĳä»¬ åľ°
Ġå¥¹ èĻ½çĦ¶
åĲĮ èĥŀ
çŃī ä¸Ģç¾¤äºº
Ġä¸įè¿ĩ å¦Ĥæŀľ
é©¬ çº¢æĺŁ
éĺµ äº¡
ä¹Łä¸į æĢķ
æĶ¾ é¹¤
çģ« çĤ®
æį »
é£ŀ é©°
ç«ĭ è¶³
æĮĩ å¯¼
äººçļĦ è¯Ŀ
Ġåı¶æŀ« å·²ç»ı
Ġå¦Ĥæŀľ ä½łä»¬
å¿Ļ æ´»
æĿ¡ æĸ¯
åĲĥ å®Į
è§īå¾Ĺ æľīçĤ¹
æ¡ Ĩ
åĲĪ åįģ
Ġè¿Ļä¸ª åĺĽ
å®Ŀ çıł
Ġä½łä»¬ åħĪ
æĸŃ çļĦ
èĭ¦ å¤´
åħ½ éŃĤ
åĬŀ çĲĨ
è¿Ļä¸Ģ æİĮ
è¿Ļä¸Ģ è¾ĪåŃĲ
ĠåĨį æĿ¥
æĿİ ç¦ı
åĪĩ çļĦ
é¸ ¾
Ġåı¶å¤© çĤ¹äºĨçĤ¹å¤´
åĲĦ è·¯
æľ¨ äºĳ
çľĭäºĨ çľ¼
ä¼¼ä¹İ æĺ¯
éĵģ æŁ±
èĦ¸ä¸Ĭ æ»¡æĺ¯
ç¾½ æŀĹåĨĽ
å·¥ ç¨ĭ
Ġä»Ģä¹Ī äºĭæĥħ
åĭ¿ä¹ŀ ä¸Ģçľ¼
Ġè¡ ¥
ä¸ĢçĽ´ æ²¡
çĳ ķ
Ġåº ·
Ġåº Ĺ
åĸĬ æĪĳ
ç»ĥ æŃ¦
çĶ² åį«
åı· äºº
å¼± å°ı
è£Ĥ çĹķ
Ġç¬ĳ åĺ»åĺ»
Ġæ¸© ä¸įèįī
æ³¢ æµª
èŃ¦ è½¦
è¯ķ åĽ¾
ĠæģĲæĢķ å°±æĺ¯
è¯º ä¼¯çĪµ
åľ¨è¿ĻéĩĮ äºĨ
Ġåľ° éĿ¢ä¸Ĭ
æĬĹ æĭĴ
çĤ¹çĤ¹å¤´ éģĵ
ĠæľĽ äºĨ
çĮľ åĪ°äºĨ
åŁº åľ°
é¼» åŃĶ
è¿ħ æį·
ĠåºĶè¯¥ ä¸įä¼ļ
è¿Ł è¿Ł
æĻº åķĨ
æ´Ĺ ç¤¼
åĲ´ èĻ¹
ĠæĪĺ é©¬
ĠæŃ¦ åĬŁ
Ġç©º ç©º
Ġå¤´ ä¸Ĭ
æĺ¾å¾Ĺ æľīäºĽ
Ġå¿½ åĲ¬
Ġåİī å¤©
çĤ¼åĮĸ ç¥ŀæł¼
ĠèĲ½ åľ¨
Ġæľ¨ äºĳ
Ġæķ¢ éĹ®
Ġå¹½ èĵĿåºľ
èĢģå¤ª çĪ·
ä¸įä¸Ģæł· äºĨ
äºĶè¡Į å®Ĺ
ä¹ĸä¹ĸ çļĦ
çªĥ ç§ģè¯Ń
ĠåĪĨåĪ« æĺ¯
Ġæĭ³ å¤´
é«ĺçº§ åĨĽå®ĺ
ĠæĹłå£° æĹł
ä¾¦ å¯Ł
ĠæĦŁåıĹ çĿĢ
Ġå°¾ æľ«
éŀĳå¡Ķ æĹı
ä¸įçŁ¥æīĢ æİª
çĮĸ çĭĤ
é½ĳ ç²ī
éļį åºĻ
Ī å¥´
äºº è¯´
æľī æľ¬äºĭ
ä¼ ¶
ä¸Ĭ åįĩ
å¤§ åıĳ
å¤§ éªĤ
ĠæĪĳ è·Łä½ł
å¤© æĦı
æķ ĪçļĦ
ä¹ĭ è¡Į
æ²¡ éĴ±
å°ı å¦¹å¦¹
å°ı å¨Ł
å¿ĥ åı£
è¾ ĳ
äºĨä¸Ģ åĪĩ
æĹł çļĦ
è§ģ è§ģ
æ¸ħ çĲĨ
èĢģ çĹħæŃ»
æĦı æ°Ķ
åĩł åįģä¸ĩ
æīį ç®Ĺ
ä»İ åĵª
è¢« èĩªå·±
åĨĽ åĴĮ
Ġæī ¯
æľ¬ å°±
ĠæŀĹéĽ· çľĭåĲĳ
åıĪ æŃ¢
Ġå°ı æİĮéĹ¨åĪĺæŃ£
Ġåı¶ å°Ķé©¬
è¿ŀ å¤ľ
åĪĨ æ¯«
éĺ³ å®«
åı¶ åŃĲ
çģµ åħ½
æīĢ æĥ³
ĠæĪĳä»¬ ä¼ļ
åħµ æ³ķ
æŁ ¬
çļĦäºº æĺ¯
éĺµ åĽ¾
æį į
çļĦä¸Ģ æ¬¡
è´Ŀ åį¡
Ġä½Ĩæĺ¯ å¯¹
å®ī å®ļ
çĲĨ æĥ³
æ·± éĤĥ
æĢ» ç»Ł
å®ģ åı¯
å®ģ æ®¿ä¸ĭ
ĠåıĪ éģĵ
è¿Ļæł· äºĨ
åĪĢ å±±
ä½Ľ çıł
åĵª èĥ½
æıĲ æĭĶ
éļĲ ä¿®
éļĲ å±ħ
åħ° è¥¿
ç»ĵ æŀĦ
æĺ¾ èµ«
Ġåĭ ¿
åİī é¬¼
éĢģ ç»Ļä½ł
æĮ¥ åĩº
çĿĢä¸Ģ äºĽ
åĩºä¸Ģ çīĩ
Ġæİ Ģ
ĠæĤ ¦
ä¸½ è´Ŀåį¡
èĦ¸ä¸Ĭ ä¸Ģçº¢
æ¥¼ éĺģ
æ¯į å¥³
åı° çļĦ
åģ· æĩĴ
èĹı çļĦ
åŃĺ äº¡
ä»¥åĲİ å°±
åĳµ æ¬ł
ĠåĢĴ ä¸įæĺ¯
ç«Ļåľ¨ åİŁåľ°
Ġä»Ĭå¤© æĺ¯
èº² è¿ĩ
ä¼łæĿ¥ ä¸Ģä¸ª
åįł åįľ
Ġç¬¬äºĮ ä¸ª
ä¸¢ èĦ¸
å§ĵ åĲį
ä¾§ éĿ¢
éĴ» è¿ĽäºĨ
å¦ĩ å¥³
è®¾ å¤ĩ
çĮ´ åŃĲçļĦ
Ġç¬¬åĽĽ ç«ł
èºº çĿĢ
ĠåĮĸ ä½ľ
èľĢå±± å¼ŁåŃĲ
è½¬è¿ĩ å¤´åİ»
Ġä¼Ĺ ç¥ŀå¢ĵåľ°
ä¾µ è¢Ń
Ġä½łæĥ³ æĥ³
çĽĳå¯Ł ä½¿
ĠåĽ½ å®¶
Ġå¤± åİ»äºĨ
å¤§åı« ä¸Ģå£°
Ġè¯´è¯Ŀ éĹ´
Ġç»Ł ç»Ł
æī© æķ£
åİ¨ å¸Ī
æĹº çĽĽ
Ġåºŀ ä¸ĩæĺ¥
è¢ĸåŃĲ éĩĮ
å¡ĳ æĸĻ
Ġä¸¹ å®ģé¡¿
æīĵä¸ª çĶµè¯Ŀ
åŃ¦ä¼ļ äºĨ
ä¼ģ åĽ¾
çī¢çī¢ çļĦ
Ġæīİ æŀľ
Ġå¿ĺ è®°
æ·¹ æ²¡
Ġä¸įåģľ çļĦ
è¿ĳåľ¨ åĴ«å°º
Ġè¾Ľ èĭ¦
å¤´åĪ° å°¾
æ³ªæµģ æ»¡éĿ¢
åĵĳçĦ¶ å¤±ç¬ĳ
Ġæ¯«æĹłçĸĳ éĹ®
) ]
Ġ V
çļĦ æĸ°
ä¸į æķ¬
è¿Ļ ä¸Ģä¸ª
æĿ µ
è¯ «
åľ¨ å®¶
åľ¨ å¸Ŀéĥ½
åľ° ç¬ĳå®¹
å¤§ åľ°ä¸Ĭ
å¤§ åĸĩåıŃ
ĠæĪĳ çĶ¨
æĪĳ åĨĽ
Ġä½ł å¤ª
Ġä½ł çĪ¶äº²
èĩ Ĭ
éĥ½ å¼Ģå§ĭ
å¾Ĺ åĩº
ä¹ĭ åĲį
å¿ĥ æľ¯
ä¼ļ æĪĺ
åĲİ ä»£
ĠéĤ£ éĩĳ
éĿ¢ é¢Ĭ
ä¸Ģä¸ª äººçļĦ
Ġå¤ ¹
çĤ¹ åŃĲ
æĹł ä»¥
æŀĹ éĢļ
å¾Ī æĺ¯ä¸į
åıĳ èµ·
æĪĲ äº²
æīĵ å·¥
äºİ ä½ł
çĻ½ èĭĹ
é«ĺ ä½İ
ä¸įæĺ¯ ä¸Ģä¸ª
Ġå¤§ ç©¿å±±çĶ²
æŃ£ æ°Ķ
æ± °
åĲ¬ ä»İ
Ġè¿ĺ è¯´
æĪĺ åĬŁ
æĦŁ åĨĴ
æ°´ åĩĨ
åĨį çľĭ
åĨį ä¹Łä¸į
åĲį å¼ŁåŃĲ
è¿Ļä¸ª å®¶ä¼Ļ
æīĢ æĸĻ
å¢ ©
Ġçľĭ åľ¨
Ġç¬¬ å¥½åĩł
Ġä¸įè¿ĩ æĹ¢çĦ¶
æĶ¾ å¼ĢäºĨ
å¸¦ ä½ł
ä¿¡ å°ģ
å² Ļ
æĽ´ å¤§çļĦ
éĿĴ çĥŁ
è½¬ åıĺ
ĠæŃ£ åĽłä¸º
ĠæĿİ çĻ½
ä¹Ŀ å¤´
åĩºäºĨ åı£æ°Ķ
åħŃ åįĥ
æĹ© æĻ¨
å¸® æĪĳä»¬
åĪ© æ¶¦
äº¤ ç»ĻäºĨ
Ġå¿ĥ è¯´
æ´» ä¸ĭåİ»
åĽ´ ä½ı
æĲ Ķ
è°ģ æĿ¥
è°ģ æķ¢
Ġä¸ī åĲį
çľī å¼Ģçľ¼
è·ĳ äºĨè¿ĩæĿ¥
è¾¾ æĪĲ
ä¸Ģæ¬¡ æ¬¡
ç´« èī²çļĦ
åģľ è½¦
æİ¨ è¿Ľ
è°¢ éģĵéŁ«
ç¦ģ åį«
äºĨåĩł åı£
åĲ¸ åħ¥
è£ħ ä¿®
å®Ī ä¹ī
ç½® èº«
ä¸įäºĨ ä»Ģä¹Ī
åģ· å¤©
æĻ® é²ģåħĭæĸ¯ä¼ļé¦Ĩ
æ´ŀ ç©´
Ġéĺ¿ æ¢ģ
ç«¹ åŃĲ
æĻ¯ èī²
æĺ¯ä¸ª å¥½
Ġæ¯ı å¹´
åĪ°åºķ æĺ¯è°ģ
åĵŃ å£°
Ġåħ¨ æĸĩåŃĹ
Ġç¬¬ä¸Ģ ç«ł
Ġåľ° ä¸Ĭ
åľ¨ä»ĸ éĿ¢åīį
çĥŁ å°ĺ
æ¶Į æĿ¥
æĭ¥ æľīçļĦ
éĹŃ çĿĢçľ¼çĿĽ
åĪ°è¿ĻéĩĮ æĿ¥
å±ħ å£«
æģŃ åĸľ
åŃĻ åįļ
æ¤ İ
æķĪ å¿ł
ç£¨ çīĻ
å¦® åį¡
åįģäºĮ ç¿¼ç¥ŀå¤©ä½¿
åı¹æģ¯ äºĨä¸Ģå£°
åĨ¥ é¾Ļ
æĵ¦ æĭŃ
æħĮ äºĨ
æ²ĥ å°¼
æĪª éĵģ
çŁ¿ å±±
çŁ¿ çŁ³
Ġè¡Ģ æĹı
çľĭèµ·æĿ¥ å¾Ī
éŁ© èı±çº±
çĪ½ å¿«
è½»æĿ¾ çļĦ
å¼ºå¤§çļĦ åĬĽéĩı
Ġæĭ¿ èµ·
éĥ¨èĲ½ çļĦ
åĬĿ éģĵ
åºĵ æĭī
Ġåħĭ æľĹæĻ®é¡¿
Ġå¾Īå¤ļ äºĭæĥħ
ç¥Ŀ ç¦ı
åĹĵ éŁ³
æīĢåľ¨ çļĦ
åĵ¨ åħµ
éĢĽ éĢĽ
æĭįåįĸ å¸Ī
åĺĢåĴķ éģĵ
å¿ĥæĥĬ èĥĨ
ĠçĤ¼ åĮĸ
ĠéĹŃ åĺ´
ä¹Łä¸įè¿ĩ æĺ¯
Ġåħħ æ»¡
Ġç»Łé¢Ĩ å¤§äºº
ä¼ģ ä¸ļ
Ġéĺ³ åħī
éĤ» å±ħ
çĽĺé¾Ļ æĪĴæĮĩ
åīĶ éĢı
èĺ ĳèıĩ
éĩĳæ°´ æ¯į
e n
Ġ =
Ġ ä¸ľè¥¿
Ġ, ,
äºĨ ä½łçļĦ
ä¸į è®°å¾Ĺ
ä»ĸ éĥ½
ä»ĸ åİ»
æľī æ¯Ĵ
ä¸Ĭ éĥ½
ä¹Ł å¤ļ
ä¹Ł å¿įä¸įä½ı
åĪ° æŃ¤
ĠæĪĳ æī¿è®¤
å°± ç»Ļ
Ġè¿Ļ è¦ģ
åĩº å®¶äºº
Ġä½ł è®©æĪĳ
å¤© éĺµ
åĴ »
å¾Ĺ éģĵ
éĩĮ äºĨ
èº ¯ä¸Ģ
èĥ½ æīĵ
å¿ĥ æĢĢ
ä¸º å¥½
å± Ĭ
ä¼ļ åĳĺ
åĴĮ å°ıéĽ·
åĴĮ éĶ¥åŃĲ
å¥½ è¯´
ç¬ĳ å¾Ĺå¾Ī
ĠéĤ£ ä»ĸä»¬
ĠéĤ£ æĹ¥
æĥ³ è¯´ä»Ģä¹Ī
æĥ³ ä¸įæĺİçĻ½
äºĭ åķĬ
ä¸ī æŃ¥
Ġä¸Ģ åľº
åıĳ çĥŃ
åĮ Ģ
Ġåıª éľĢè¦ģ
çľŁ è¯Ŀ
å¥¹ èĩªå·±
æīĵ åıĳ
Ġä¹Ł å¾Ĺ
Ġè¯ ģ
Ġå¤§ æ±ī
å®ļ å®ļ
Ġå°ı çĻ½
å¤ĸ åŁŁ
é© ¸é©¬
è¿Ļä¸ª åľ°æĸ¹
æĪĳä»¬ è¦ģ
å¤ª å¦¹
Ġå¥¹ å¯¹
æľĢ å¿«
åħ¨ ä¸ĸçķĮ
åĩºæĿ¥ åĲ§
Ġç¬¬ ä¸¤çĻ¾
è·Ł èĩªå·±
çŁ³ å¡Ķ
å¹³ äºĨ
åĲĪ çĲĨ
æİĮ ç®¡
æĭī æĭī
ä½Ľ åħī
è®¤ ä¸»
å®Ŀ å®Ŀ
äº¤ éĽĨ
Ġè° Ń
æ²³ è¾¹
æ´» åĳ½
éĢŁ éĢŁ
æķĻ åłĤ
åıį å°Ħ
ĠæīĢä»¥ ä½ł
å®ĺ éĩİ
Ġæģ ķ
å°Ķ æľ¨
Ġç§ ĺ
èº«ä¸Ĭ äºĨ
åĨ° åĩī
é¸ ¯
Ġæĸ¹äºĳ éģĵ
ç½Ĺ éĤ£é½Ĳ
æĬ¤ æ³ķ
åĩºä¸Ģ åĽ¢
Ġæİ ł
ĠåĽłä¸º è¿Ļ
åģľ åľ¨
è§Ĥ æľĽ
é¡¾ åıĬ
å¿µ éģĵ
èµ·äºĨ çľ¼çĿĽ
ĠéĽ· é¸£
åĲĽ èĩ£
ä¸¥ å³»
ç§ĺ ç±į
çļ± äºĨèµ·æĿ¥
èĪĴ éĢĤ
èĪĴ åĿ¦
Ġåıªè¦ģ æĪĳ
Ġä¹ ¾
æ³¢ æ¶Ľ
èģļ çģµ
å¡ŀ è¿ĽäºĨ
ĠåĲİ èĢħ
çļĦç¥ŀ ç§ĺ
ĠçľĭåĪ° ä»ĸ
åįĸ äºĨ
åħħ å½ĵ
Ġæķ´ æķ´
å¹½ èĵĿåºľ
ä¸įèµ· çľ¼
åĩłä¹İ è¦ģ
Ġå¸Ī å§Ĳ
æĿĳ åºĦ
å¸ĮæľĽ ä½ł
åľ£åŁŁ å·ħå³°
Ġç»Ŀ éĿŀ
è¯´è¿ĩ çļĦ
åĩĮ ä¹±
Ġä¸įçĶ± èĩª
ä¸¢ äºº
æīĺ çĿĢ
ĠæĮī è¯´
æĿ¨ åĽ½
è®Ń æĸ¥
æĬĢ èīº
èµĮ æ³¨
èĿ ´èĿ¶
ĠæĪĲ äºĨ
Ġåĳ¼ åĳ¼
ĠåĪ°åºķ æĺ¯ä»Ģä¹Ī
Ġç¬¬äºĶ ç«ł
åįģåĩł å¹´
Ġå¿ħ å®ļ
ĠçĬ ¯
Ġè½¦ åŃĲ
Ġé©¬ä¸Ĭ å°±
ä½Ĳ ä¼Ĭ
åıĺäºĨ èĦ¸èī²
åĨľ æ°ĳ
æ¯ģçģŃ ä¸»å®°
Ġç»´ æĭī
å¬ī çļ®ç¬ĳèĦ¸
Ġè¡£ æľį
ĠæĬ¤ åį«
Ġj i
å¤ķ éĺ³
æ£ĺ èĥĮéĵģçĶ²é¾Ļ
æĥº æĥº
Ġå¥´ å©¢
åĵİ åĵŁ
ĠåĲĮå¿Ĺ ä»¬
Ġç¬¬å¥½åĩł åı·
³ é¸¯
Ġ çļ±çľīéģĵ
Ġ ä»ĩå¯Į
çļĦ ä¼¤
çļĦ åı£æ°Ķ
çļĦ æīĢæľī
çļĦ æ³ķåĬĽ
ä¸Ģ å¦Ĥ
æĺ¯ èĢģ
ä¸į æģ¯
ç» ļ
åľ° çľ¼ç¥ŀ
å¤§ ä½ľ
æĥ Ł
ä¹Ł å¼Ģå§ĭ
ĠæĪĳ è¯´çļĦ
æĪĳ ä¹Ī
ä¸ĭ æ¯Ĵ
è§ İ
ä¸Ń åİŁ
Ġä½ł è®¤ä¸º
Ġä»ĸ èĩªçĦ¶
éĤ£ å°±
éĤ£ å¤´
Ġ?âĢĿ ãĢĤ
ä¹ĭ äººçļĦ
ä¹ĭ è®¡
Ġä¸į æĥľ
æİ °
è¾ Ļ
æĥ³ åĩº
æĥ³ ä¸įéĢļ
ä¸ī äººçļĦ
äºĨä¸Ģ åı¥è¯Ŀ
Ġä¸Ģ è¨Ģä¸įåıĳ
æĹł ä¸Ģäºº
æĶ ¸
å¼Ģ ä¼ļ
è§ģ å±±
è§ģ ä¸įå¾Ĺ
çĶŁ æĦıçļĦ
å¾Ī éķ¿
æĪĲ ç²¾
ä»İ æĪĳ
çľŁ æĥħ
Ġä¹Ł æľīäºĽ
ä¸įæĺ¯ ä¸ª
äºĮ åŃĹ
ĠæŀĹéĽ· çĽ®åħī
å¥³ å©¿
åıĪ å¼Ģå§ĭ
åıĪ ç¾ŀåıĪ
è¡Į æĿ¥
å¼º ä¸Ĭ
éĴ ³
éĩĳ åŃĲ
çĽ´ åĨĴ
ä¹Ĳ æĦı
æľĢ åħĪ
äºĶ ä¸ªäºº
åĵ¥ åĦ¿
æĸ¯ æĸĩ
é£ŀ è¿ĩ
å®Į ç¾İçļĦ
Ġå½ĵ æĪĳ
Ġå¯¹ ä½ł
Ġå¯¹ æĸ¹çļĦ
èĲ½ å¯ŀ
åįĬ æľĪ
åĢĴ å¡Į
æĢª åı«äºĨä¸Ģå£°
å®ī å®ģ
Ġæ²¡ éĹ®é¢ĺ
èĬ± çº¹
åı¯ä»¥ çĶ¨
å¼ł èĻİ
ĠåĤħæ¸ħæī¬ æ²¡æľī
å¤§çļĦ èĥĨåŃĲ
Ġçº ³
åħŃ çĻ¾
çľĭçĿĢ å°ıéĽ·
çł´ çļĦ
ç¾İ å¥½çļĦ
çªģçĦ¶ è§īå¾Ĺ
å¸ĥ æ£®
éĤ ĵ
æĿİ å°ıåĩ¡
å¨ģ æħĳ
å®Ĺ å®¤
åĮħ éĩĮ
ä¸įåĪ° çļĦ
ĠåİŁ åħĪ
åºĶè¯¥ ä¸įä¼ļ
æ¿Ģ æĢĴ
å¥¥ æŀĹåĮ¹äºļ
Ġä¸Ĭ ä¸ĭ
å®Ī çĿĢ
Ġé«ĺ åħ´
Ġéĺ¿ å¼¥éĻĢä½Ľ
è¢į åŃĲ
çľĭçľĭ æĪĳ
å¼Ħ æ¸ħæ¥ļ
åĩĨå¤ĩ å¥½
ĠæĿ¥ åĲ§
Ġåĩº çİ°åľ¨
éĺ¿ å¦¹
é£ĺ æķ£
Ġé¾Ļ èĻİ
ç¼ĵç¼ĵ åľ°
ç®Ń éĽ¨
è§ģåĪ° ä»ĸ
çł¸ åľ¨
ĠæĢ¥ éģĵ
Ġä¼¼ä¹İ åľ¨
ĠæĪĳä¹Ł ä¼ļ
ä½¿çĶ¨ çģµçŀ³
ĠæĻıèĸĩ éģĵ
åºĬ è¾¹
Ġä¹Łä¸į çĶ¨
çºµ è·ĥ
ĠæľīäºĽ äºº
ä¸įåıĬ éĺ²
Ġç´«å·Ŀ å®¶çļĦ
çºł ç»ĵ
èħ¹ éĥ¨
å¿ħé¡» å¾Ĺ
Ġå¤ĸ éĿ¢çļĦ
ĠçĤ¹ çĤ¹å¤´
ĠéļĲ çº¦
å®īåħ¨ çļĦ
Ġè¡¨ ç¤º
çĽĹ å¾Ĺç»ı
Ġç¬¬åħŃ ç«ł
å¼Ĥå¸¸ çļĦ
æĢĴåĲ¼ ä¸Ģå£°
çŀ¬ ç§»
Ġæĭľ æľĪæķĻä¸»
å¥ĳ åĲĪ
Ġä¹¦ ä¸Ńä»Ļ
ĠåĩĮ æŃ¥èĻļ
éĿĻéĿĻ åľ°
Ġè½¬çľ¼ éĹ´
èĢ¶ çĲ³å¨ľ
èººåľ¨ åºĬä¸Ĭ
Ġæ¿Ģ åĬ¨
éªĨ æĹºæł¹
Ġè´µ æĹı
æ·±åĪ» çļĦ
Ġæ®µ æĻ¯ä½ı
Ġå¤Ł äºĨ
ĠçĲ´ å§¬
èĢ¸èĢ¸ èĤ©èĨĢ
ĠèĿ İåŃĲ
æĩĬ æģ¼
Ġç¿¼ èĽĩ
èµĽè¯Ĺ ä¼ļ
Ġèµ¤å²© é¢Ĩä¸»
é¾Į é¾Ĭ
é¦Ĵ å¤´
è ¤Ĳ
Ĵ å°
çļĦ ä¼¤åĬ¿
ĠãĢĤ âĢĻ
ĠãĢĤ ãĢį
ä¸Ģ èµ°
æľī åĲįçļĦ
ç» ¯
åľ° å°±
å¤§ åĳ¼
å¤§ éħĴåºĹ
ä¹Ł éĿŀå¸¸
ä¹Ł åĲĮæł·
ä¸ĭ å±ŀ
Ġè¿Ļ æĢİä¹Ī
ä¸Ń æŃ£
è¿ĺ è¯´
è¿ĺ å¸¦çĿĢ
Ġä»ĸ ä¸İ
Ġä»ĸ æĹ©å°±
ä¹ĭ åīĳ
ç¥ Ģ
åĲİ åĭ¤
ĠéĤ£ å½ĵçĦ¶
æĥ³ ä¸įåĩº
ç¥ŀ åĥı
ä¸ī éģĵ
ä¸ī å£°
ä¸¤ å¼ł
æĹł åĮ¹
æģ ĥ
æŀĹ é»Ľ
æĥħ æľī
Ġåį °
èĩªå·± åİ»
è¢« åı¶å¤©
çľŁ æĦı
æ· ³
æīĵ æī«
èĢĮ åĲİ
äºĮ è¯Ŀä¸įè¯´
è®© è¿Ļ
Ġå°ı å¸Īå¼Ł
å½ĵ ä¼Ĺ
éĩį ä»»
ĠæŃ ª
æ°´ äºĨ
ä»Ļ èįī
ĠæĢ Ķ
å¤ª é«ĺ
æīĢ ä½ľ
æľĢ éĩįè¦ģçļĦ
è¡Ģ æĿ¥
é©¬ è¹Ħ
ĠâĢĿ !
ĠåĽ °
é£ŀ èº«
Ġå¯¹ ä¸įå¯¹
çļĦä¸Ģ ç¾¤
è£ Ĩ
åįĬ è¾¹
ĠèĢģ å©Ĩ
åħ³ æĢĢ
Ġéĥ½ å·²ç»ı
çļĩ åĨł
ç»Ŀ å³°
ĠåıĪ æĪĸèĢħ
è§£ èį¯
æĹ© äºĨ
äº¤ åĩ»
Ġå¼ ¹
éĤ£ä¸ª å®¶ä¼Ļ
Ġå¿ĥ ç¥ŀ
æĹ¶éĹ´ çļĦ
åĳ¨ çİ²çİ²
è¿ĻäºĽ è¯Ŀ
éĽª çĻ½çļĦ
ç»ĵ èĪĮ
å°Ķ æĸ¯
çľĭåĪ° åı¶æŀ«
åħĭ å¨ģ
èĦĳ åĲİ
èĤ¡ ç¥¨
çļĦæĺ¯ ä¸Ģä¸ª
å¤ľ æĢ»ä¼ļçļĦ
Ġå¾Ī ç®Ģåįķ
æĬ¤ ä½ĵ
Ġèĭ¥ æľī
ĠæŃ¤ è¨Ģ
éº ĴéºŁ
é¬¼ éŃħ
æĤ¨ æĿ¥
ĠåİŁ åĽł
äºĨåĩł ç§ĴéĴŁ
Ġç¥ ģè¿ŀ
Ġè°ģ éĥ½
æ£® çī¹
Ġä¸Ĭ å¸Ŀ
æķĳ ä»ĸ
æ¯Ľ ç¬Ķ
Ġéļ¾éģĵ ä»ĸ
ä¸ĭäºĨ è½¦
Ġéĺ¿ åį¡æīİåĽł
èĩªçĦ¶ çļĦ
è´Ł æĭħ
å§ĳ å°Ħéĥ¡ä¸»
Ġé© ±
ĠçªģçĦ¶ éĹ´
ĠçªģçĦ¶ è§īå¾Ĺ
çĿ¡ çļĦ
æĬķ è¯ļ
å¹½ æĢ¨
å¾Ĳ å¾Ĺé¾Ļ
Ġå¥¥ å¸ĥèİ±æģ©å¸ĿåĽ½
æį¢ æĪĲ
ç¢° è§¦
Ġä¸ĩ äºº
Ġåı¯ä»¥ è¯´æĺ¯
æĪı å¼Ħ
ĠãĢĭ ãĢĤ
Ġæį Ĥ
çļĦèĢģ èĢħ
çĪµ ä½į
åį¢ å»ºæĸ°
åįĥä¸ĩ åĪ«
éļĶ ç»Ŀ
æķ°åįģ åĲį
åĭ¾ æĲŃ
Ġåį¢ å»ºæĸ°
Ġåīĳ æ°Ķ
å´© å¡Į
ä»ĭç»į éģĵ
æĦĪ åĲĪ
åŀĤ å¤´
æĮ¯ å¥ĭ
åĩ¤ èĪŀ
Ġä¸įçĦ¶ çļĦè¯Ŀ
æĻ¨ èĵĵ
è¯§å¼Ĥ éģĵ
ĠéĢŁ éĢŁ
æĪĲäºĨä¸Ģ çīĩ
Ġç¬ĳçĿĢ è¯´éģĵ
å¦¥ åįı
ĠèĪ į
Ġæĥħ ä¸įèĩªç¦ģ
Ġæ³¢ èĴĻçī¹
å¼Ĺ å°Ķç¿°
Ġè¸ ©
Ġä¼ł ä»¤
éĴī æĪªéĵģ
ĠéĤ£æĪĳä»¬ å°±
Ġå½¢ æĪĲ
Ġå¨ĩ å£°éģĵ
ç»Ĩç»Ĩ çļĦ
Ġä»İæĿ¥ æ²¡æľī
è·ĭ æ¶ī
çªģåħĢ åľ°
æ°´çģ« èİ²èĬ±
Ġæ»´ æ°´
ĠåĴ¬çīĻ éģĵ
å¤©åīĳ å®Ĺ
Ġèĥ¡è¯´ åħ«éģĵ
åĮħåĲ« åĽ¾çīĩ
ä¸ĢæĹłæīĢ çŁ¥
æ°ĶæĢ¥ è´¥åĿı
åĩºç§Ł è½¦
Ġè¯¥ç«łèĬĤ åĮħåĲ«åĽ¾çīĩ
ĠåŃĿ å¤©
Ãº n
Ĵå° Ľ
¨ çĦ¶
Ĥ èº
ĸ ł
Ġå ³
çļĦ ç¬ĳäºĨ
çļĦ å·¥ä½ľ
çļĦ çľ¼åħī
çļĦ åĨ²åĬ¨
äºĨ è®¸ä¹ħ
ä¸Ģ æľĽ
ä¸Ģ è¯Ń
ä¸Ģ åį·
ä¸į å½ĵ
ä¸į æĥĬ
æī Īä¸īå¨ĺ
ç» İ
åľ° å°±æĺ¯
çĿĢ èĦĳè¢ĭ
ä¹Ł æĦŁåĪ°
èµ ĺ
åĪ° ä½ł
ĠæĪĳ æŃ£
ĠæĪĳ æĹ¥
ĠæĪĳ åı¯ä¸į
ä¸ĭ æĸ¹çļĦ
Ġä½ł æīį
Ġä½ł èİ«è¦ģ
Ġä»ĸ èĩª
å¤´ ä¹Łä¸įåĽŀ
éĤ£ ç¾¤
éĤ£ å¥³åŃĲ
ä¸º ä»ĸä»¬
åĴĮ æ°´éķľ
Ġä¸į ä¸Ģä¼ļåĦ¿
ä¸ī æľĪ
å¾Ī å°ı
åıĳ å°Ħ
è¢« éľĩ
èĭ Ľ
Ġä¹Ł ç½¢
çĶ¨ ä»Ģä¹Ī
æŃ» å¿ĥ
æľ¬ æĥ³
èµ° ä¸ĢæŃ¥
æŃ£ å®Ĺ
Ġå°ı æīĭ
Ġå°ı ä¼ĻåŃĲ
Ġå°ı èĲĿèİī
éĩį éĢ¢
çĻ¾ æĪĺ
æĪĳä»¬ äºĨ
å¾® ç¬ĳçĿĢè¯´éģĵ
åĽĽ ç§į
é»ĳ å¤ľ
è¡Ģ æĹıçļĦ
Ġä¸įè¿ĩ èĻ½çĦ¶
é©¬ å®¶
æķ° çļĦ
æį Ĳ
åĨ· åĵ¼
èĬ± å®¶
èĬ± æł·
æľĪ èĪŀ
Ġåı¶æŀ« æ·¡æ·¡éģĵ
åºķ æ°Ķ
åĲĥ ä¸į
ä¸ĸ äºĭ
å¹² åĲĹ
Ġå¤© ä¸Ĭ
åŃ¦ å®¶
å¾· æĺĨ
ç²¾ æ·±
Ġè¿Ļä¸ª å®¶ä¼Ļ
ç«Ļ ä½ıäºĨ
è¨Ģ åıĪæŃ¢
åĸĿ äºĨä¸Ģåı£
Ġä»İ èĢĮ
å·´ çĻ»é¡¶
çļĦå¤§ äºĭ
Ġè¿Ļæĺ¯ ä½ł
æĪĳçļĦ æīĭ
åĲĦ å¤§
ĠçŃī äºİ
ç¦ģ éĶ¢
Ġé»ĳ è¢į
èĻļ ä¼ł
èµ°äºĨ è¿Ľåİ»
ç»ĥ çļĦ
å®Įåħ¨ ä¸įåĲĮ
åı· ä»¤
Ġæīĭ æľº
åį· èµ·
æŃ¢ ä½ı
èľ ĺèĽĽ
åĿļ æ¯ħ
æĺ¯ä¸į åı¯
çģŃ åı£
éĺ¿ éĩĮå¥İæģ©
Ġè®¸ ä¹ħ
ç»Ŀå¯¹ ä¸į
ĠèĦ¸ä¸Ĭ åį´
ĠéĶ ģ
åĲĲ çĿĢ
éĤª æľ¯
Ġæł¹æľ¬ å°±ä¸į
ĠéĿ¢ å®¹
æ¼Ķ åĳĺ
æ¢ħ å§Ĳ
åĩĮ å¯Ĵ
åŃĶ éĽĢ
Ġæį ¢äºĨ
æħķ å®¹ç´«èĭ±
åĬĪ ä¸ĭ
ä¹Į é¸¦å²Ń
çłģ åŃĹ
Ġæ°´ æ°´
æĬ¹ åİ»
æºĲ æºĲ
Ġæ°Ķ æģ¯
Ġå¦Ĥä»Ĭ çļĦ
æĲŀ ä»Ģä¹Ī
Ġåĺ´ ä¸Ĭ
å¹³éĿĻ ä¸ĭæĿ¥
Ġç©º ä¸Ń
èµ¢ å¾Ĺ
ç¼Ŀ éĩĮ
Ġè§ģåĪ° åı¶å¤©
çĽŁ åıĭ
æĥĬåĳ¼ ä¸Ģå£°
ä»į åľ¨
Ġåľ¨ä»ĸ çľĭæĿ¥
ĠæļĹ éģĵ
ĠéĹ¨ å¤ĸ
çļĦçģµ èĥ½
è¦ĨçĽĸ äºĨ
èĤĨ èĻĲ
Ġçľ¼ç¥ŀ ä¸Ń
Ġéĵģ æľ¨åįł
ç¬¨ èĽĭ
Ġæĭľ åİĦ
éĥ¨ä¸ĭ ä»¬
æķ´é½Ĳ é½Ĳ
ĠåĢŁ åĬ©
æĹ±éŃĥ äºĶåĵ¥
èĢ¶ ç¨£
éĴ¦ å·´çĻ»é¡¶
Ġèŀ į
Ġä¹ħ ä¹ħ
Ġçı ĤåĦ¿
ĠçĶ» åŁİ
è´¸ æĺĵ
Ġé¼» åŃĲ
ä¸Ģçŀª çľ¼
çİĭèĢħ å½ĴæĿ¥
ä¼łéĢģ éĺµ
Ġåį± éĻ©
ĠæĺĶ æĹ¥
ĠæľĹ å£°éģĵ
äºµ æ¸İ
Ġåª Ľ
Ġå¹¼ åħ½
Ġç¬¬å¥½åĩłåı· å½ĵéĵº
Ĥèº ı
3 00
Ġ ä»·åĢ¼
çļĦ åĨ²
çļĦ æĭ³å¤´
ä¸Ģ çľĭåĪ°
è¿Ļ æĭĽ
è¿Ļ æŀļ
äºº ä¸Ń
éģĵ ç¥ĸ
åľ¨ ä¸ŃéĹ´
ä¸Ĭ èº«
çĿĢ éģĵ
çĿĢ èĦļ
ĠæĪĳ è¿Ļæ¬¡
Ġè¿Ļ è¿ĺ
Ġè¿Ļ äºĮäºº
Ġè¿Ļ ä¼ļåĦ¿
Ġè¿Ļ æĢİä¹Īåı¯èĥ½
åĩº åŁİ
è¿ĩ æīĭ
å¤© çģµ
Ġä»ĸ ä¸įæĥ³
Ġä»ĸ è¿Ļæīį
ä¹ĭ è¨Ģ
è¡ ²
èĥ½ ä»İ
èĥ½ å¾ĹåĪ°
çŁ ľ
æīĭ ç»Ń
èº« åĳ¨
å¿ĥ çĶĺæĥħæĦ¿
äºĽ è®¸
åı¯ æĢĸ
ç¥ŀ éĩĩ
äºĨä¸Ģ ä»½
Ġä¸Ģ å¯¹
æĸ¹ å¤ĸ
æŀĹ åħ¬åŃĲ
æŀĹ å®¶çļĦ
å¦Ĥ æĦı
çĶŁ æĵĴ
åıĳ çº¢
è¢« åŃĲ
éĹ¨ è§Ħ
æĬĬ æĪı
äºĮ ä¸īåįģ
éĹ® èµ·
åĲ¬ å¥¹
å¤ĸ åĽ½äºº
æŀľ åŃĲ
æ¯Ķ ä¾ĭ
åħ¬ éģĵ
çļĦäºº æīį
äº² åı£
åĪ« åľ°
éļ¾ åłª
é£ŀ äºĨåĩºæĿ¥
éĥ½æĺ¯ æľī
éĥ½æĺ¯ äºĽ
Ġä½Ĩæĺ¯ å¯¹äºİ
ç§Ģ ç§Ģ
æŃ¦ ç©Ĩ
è½¬ åĳĬ
ä½¿ åĩºæĿ¥
åĬł åĿ¡
Ġå¤© éģĵ
ä¹ĭåĲİ çļĦ
åħŃ å¹´
æĸŃ åĸĿ
éĤ£ä¸ª å¥³äºº
åĽ´ å¢Ļ
æ¨ Ĭ
åħ° èĬ±
ĠéĽ ¾æ°Ķ
çľĭåĪ° è¿Ļä¸Ģå¹ķ
æĿİ æµĶéĺ³
åĪĩ æł¼æ¸©
æķ£ çļĦ
æķ£ ä¹±
Ġä¸º äºº
å®Ĺ ç¥ł
ĠçľŁ è¦ģ
éĢģ çļĦ
è®¡ è°ĭ
æ¸© å®¶çļĦ
è·³ äºĨåĩºæĿ¥
Ġèĭ¥ æĺ¯ä¸į
Ġæ¸©ä¹Ĳéĺ³ å¿ĥéĩĮ
ĠæŃ¤ åľ°
åĩºä¸Ģ äºĽ
æľ¨ åīĳ
Ġèĩªå·± ä¹Ł
æľĹ å£°éģĵ
è§Ĥ æĪĺçļĦ
å±ķ çİ°
å±ķ åİħ
Ġç§¦ åĵ¥
æ®¿ ä¸Ń
ĠäºĮ åŃĹ
è£ħ äºĨ
ç¿» æīĭ
åĪº åħ¥
ĠéĽ· èĢģåĽĽ
æłĳ å¹²
å®ŀåĬĽ çļĦ
éķĩ éĿĻ
Ġæľ¬ èº«
Ġä¹ į
Ġä¹ ĺ
Ġéĺ¿ åı²åĭĴ
è£Ĥ çļĦ
ĠéĤ£ä¸ª å£°éŁ³
æĦ£ ä½ı
Ġæ¯ı äºº
åıªèĥ½ çĶ¨
Ġåıį åĢĴæĺ¯
åĶĲ åº¸
ĠçĪ ¬
åİļ éĩįçļĦ
é£ĺ æī¬
Ġæķ´ å¤©
æ´ª æµģ
åį¡ ä¿®åĽł
éĹ¹ çĿĢ
Ġä½łè¯´ æĪĳ
å®ĭ æĺİ
Ġåĥ µ
åĩŃ çĿĢ
åºĹ éĩĮ
æµĳ èº«ä¸Ĭä¸ĭ
ĠçĶŁ æ´»
åľ¨ä¸Ģèµ· çļĦ
è®¨ ä¼Ĳ
å°ĺ åŃĲ
èģĮ åĬ¡
æµ© çĢļ
å¹¿ å¤§
Ġè¯Ŀ è¿ĺæ²¡è¯´å®Į
ĠæĿ¨ è°¦
Ġåį¡ æĸ¯ç½Ĺçī¹
å¯¹æĪĳ è¯´
éĹ¯ èį¡
å®ļäºĨ ä¸»æĦı
æĮ¤ åĩºä¸Ģä¸Ŀ
ĠåŁİ åł¡
çĻ¾å¹´ æĿ¥
éªĩ äºº
åĩĽ åĨ½
èĦĳæµ· éĩĮ
Ġæµĳ èº«ä¸Ĭä¸ĭ
Ġè¿ĩäºĨ å¥½
ĠéĻĨ ç¾½
Ġä¸ĸ éĹ´
å¾Ģåīį èµ°
çĭ°çĭŀ çļĦ
ç»£ çŃł
Ġå¦Ī å¦Ī
éĹ¨äºº å¼ŁåŃĲ
Ġn v
åįĬçĤ¹ åĦ¿
ĠèĻļ ç©ºä¸Ń
Ġç±³ åĭĴ
Ġæ®µ å¤©çĭ¼
åĨĽåĬ¡ å¤Ħ
Ã² ng
Ġç¨³ ç¨³
ĠãĢĤãĢĤãĢĤãĢĤãĢĤ ãĢĤâĢĿ
âĹ İ
é¬¼ç¥Ł ç¥Ł
é¸¡çļ® çĸĻçĺ©
Å į
æ ¿
Ġ ä»°
Ġ ä»·æł¼
Ģ å¨ľ
Ĭ è§İ
çļĦ è¦ģæ±Ĥ
äºĨ è¿Ļä¹Īä¹ħ
ä¸Ģ ä½ĵ
ä¸Ģ çĵ¶
ä¸į è§īå¾Ĺ
ä¸į åĲĪ
ä¸į æĸ¹ä¾¿
Ġé ³
éģĵ åħ¨
æľī ä½ł
æľī ç¥ŀ
åľ¨ åľºçļĦ
å¤§ åłĨ
çĿĢ åľ°
ĠæĪĳ è¯´äºĨ
è¯´ æ¸ħæ¥ļ
Ġè¿Ļ å£°éŁ³
Ġè¿Ļ åıªæĺ¯
è¿ĩ å¤Ħ
Ġä½ł åĲ¬
å¤© ç¥ŀ
éĤ£ å°±æĺ¯
ä¹ĭ é¦ĸ
å°ı ç¢Ĺ
å°ı å½±é¼ł
å£° å£°
åĴĮ ç´¢èı²äºļ
çľ¼ åľĪ
çŁ¥ å·±
ä¸ī åħ¬
ä¸ī ä¸Ī
Ġä¸Ģ æĥ³åĪ°
Ġä¸Ģ ç¾¤äºº
æŀĹ éĥİ
å¦Ĥ çģ«
Ġå°± åħĪ
å¾Ī è¿ľ
åıĳ éĹ®
åĮ ¾
åĬ¨ å®¹
Ġæĺ Ĥ
éĹ¨ æ§Ľ
åĽŀ åĲĪ
åĽŀ åĵį
èĥ Ħ
Ġä½Ĩ ä¸įçŁ¥
æīĵ ä¸į
åĦ¿ éĥİ
ç»Ļ å¯¹æĸ¹
é«ĺ å¤Ħ
é«ĺ æ¡¥
åīĳ éģĵ
åĲĳ ä»ĸä»¬
å¼º åĬĽ
è½» å£°è¯´éģĵ
ĠèĢĮ æĺ¯ä¸Ģ
æ°´ æŀľ
æĿĢ ç»Ŀ
åĪ°äºĨ ä»Ģä¹Ī
Ġçľĭ ä¸įåĩº
åħ¨ åĽ½
æİ¥ ä½ı
äºĶ å¤§
é»ĳ æ°Ķ
åĵ¥ æĺĤæĹı
æĸ¯ åºķ
çģ« çĪĨ
çģ« çĤĻ
ä¸İ ä»ĸä»¬
Ġå¯¹ åĲ§
çļĦä¸Ģ æĭ³
å¹³ åı°
Ġå¦Ĥæŀľ çľŁæĺ¯
åĮĸ èº«
æµģ éĩĳçģ«éĵĥ
åıĹ èĭ¦
ĠåıĪ çľĭäºĨçľĭ
ä¹ŀ ä¸Ĳ
è¡¨ æĢģ
åħĥ è¾°
åħĥ ä¹ĭåĪĥ
Ġåİ ħ
ç«Ļ åĩºæĿ¥
æĭī åĽ¾
å¸® ä¸įä¸Ĭ
åĪ© åĻ¨
åı¤ å¢ĵ
æľĿ ä¸ĭæĸ¹
æĶ¶ åĽŀäºĨ
çķĻ æĥħçļĦ
Ġæģ įçĦ¶
Ġä¸¤ è¾¹
ç³» åĪĹ
åįķ ä½į
ç»Ī èº«
éĢģ åĪ°äºĨ
æĬ¤ çĿĢ
æĢĢ å¿µ
çĿĢä¸Ģ åĿĹ
æģ¶ äºº
å¯Ĩ æŀĹ
çĥŃ æ³ª
åºĶè¯¥ å°±æĺ¯
Ġç¥ Ń
ĠçĽ´ å¥Ķ
è´µ åĽ½
è´µ å®¢
æĬ± èµ·
èĬĤ çĽ®
Ġä¸Ĭ äºĨ
åı· çļĦ
ĠèĤ ļ
ĠæĦ Ī
åĳĬè¯ī å¥¹
è°Ī ç¬ĳ
åıĤ è§Ĥ
Ġå¿« éĢŁ
å®ŀåľ¨ æľīäºĽ
é¥Ń åĲĥ
å¡ŀ å°Ķ
Ġä¸ĭ æĦıè¯Ĩ
ĠçŁ ¿
å¼ı çļĦ
å¹½ é¦Ļ
æ¹ĸ æ³Ĭ
ç»Ŀå¯¹ ä¸įåı¯èĥ½
Ġåľ° ä¸Ģå£°
å£«åħµ çļĦ
çł¸ äºĨ
Ġèµµ åĮ¡èĥ¤
Ġèµµ ä¼¯è¨Ģ
ĠèĩªçĦ¶ è¦ģ
åĲĲ äºĨ
Ġæĳ ©
ĠåŁ ĭ
ĠéĿ¢ ä¸Ĭ
èµŀ æĪĲ
æ¡Ī åŃĲ
åłª åłª
éŃĶç¥ŀ åĤĢåĦ¡
åĨĽåĽ¢ çļĦ
ĠéĤ ĵ
å¿«çļĦ éĢŁåº¦
é»ĳæļĹ è®®ä¼ļ
ĠæİĮ æŁľ
åĲĥæĥĬ éģĵ
Ġæĳĩ äºĨæĳĩå¤´
ç¬¼ç½© åľ¨
ĠæĪĳæĢİä¹Ī ä¼ļ
å¯¿ éĺ³
Ġä»» çĶ±
ä¸ĸçķĮä¸Ĭ æľĢ
ä¸įå±ĳ çļĦ
Ġè¿ħ çĮĽ
èı© æıĲ
Ġçº¨ç»ĶæīįåŃĲ çİĭèĢħå½ĴæĿ¥
ĠæĬĵ ä½ı
çĭĲçĭ¸ ç²¾
Ġå¤Ļ çİī
èĬ¬ èĬ³
Ġå¤©åľ° éĹ´
å®ı èī¯
åıĪæĺ¯ä¸Ģ éĺµ
èīºæľ¯ åĵģ
æ²Ł éĢļ
ĠåĳĨ ä¼ļåĦ¿
ä¸Ģç¿» æīĭ
ĠæĪĳå°±ä¸į ä¿¡
èī¾ æ¢µåº¦
è½¨ è¿¹
Ġçº¨ç»ĶæīįåŃĲéļĲèĢħ ä¸įéģĩ
Ġç§Ģå·Ŀ å¤§äºº
ç¨» èįī
åĺĪ æĿĤ
Ġèı± ç´Ĺ
Ġå¼ŁåħĦ ä»¬
å ¶
Į å¤§çļĦ
çļĦ ä¹¦
çļĦ åį±éĻ©
çļĦ ç¨ĭåº¦
æĺ¯ ä»¥
æĺ¯ æŃ»
æĺ¯ ä½ķ
ä¸į å¸¦
æľī æĿ¡
ä½ł çľĭ
æĿ¥ è¦Ĩ
åľ¨ è¿Ļç§į
åľ° éĤ£ä¸ª
å¤§ æĳĨ
Ġ! ......
è¯´ äºĨåĩłåı¥
å¤© çģµåŃĲ
è¡ ·çļĦ
å°ı èĲĿèİī
èĥ½ åģļåĪ°
èº« åıĹéĩįä¼¤
å¿ĥ å¢ĥ
éĽ· å¾·
Ġä¸į æĦ§æĺ¯
å¯¹ æĪĳçļĦ
ä¸Ģä¸ª æĺŁæľŁ
åĬĽ åľ°
ä¸ī å®¶
ä¸ī æĿ¡
ä¸¤ äººéĥ½
æĹł è·¯
åĩł ç§ĴéĴŁ
Ġåı¯ ç¬ĳ
Ġçľ ¸
æĪĲ åħ¨
ç´ Ĭ
è¢« ç§°ä¸º
éĹ¨ å®¢
å±± åĢĴæµ·
æīĵ èµ·æĿ¥
ç»Ļ å¤§å®¶
ĠæŀĹéĽ· çĤ¹äºĨçĤ¹å¤´
ĠåĪ Ľ
æŃ¤ èµ·å½¼ä¼ı
Ġåľ¨ ç©ºä¸Ń
æĪĺ äºĭ
åĨį æľī
çģµ æ°ĶçļĦ
å¾® åŀĭ
Ġå¥¹ æīį
åħ¬ æĸĩ
äºĶ åĲį
é»ĳ çĥŁ
é»ĳ çº¹äºĳè±¹
Ġåį´ ä¾ĿçĦ¶
è¡Ģ ä¸Ŀ
ç² ª
Ġä¸įè¿ĩ æŀĹéĽ·
é©¬ æĸ¯
çī¹ çº§æī§äºĭ
åľº åľ°
çº¢ åĶĩ
Ġå¥½ å¥ĩ
å®ī å¡ŀå¾·æĸ¯
è·¯ åı£
ç§Ģ èĬĿ
ä¸Ŀ çº¿
ç¬¬ åįģä¸Ģ
çļĩ éĻĽä¸ĭ
æ·± æĥħ
åĨ² ä»ĸ
å¦ĸ èº«
Ġè´ ´
ĠæĬ ¹
æĹ© é¤Ĳ
æĭī èµ·
æĭī èı²
äº¤ åĩº
åıĮ æĭ³
ç¾İ æĻ¯
æĢĴ æĦı
æľĿ ä»£
æ¶Ī äºĨ
æıĲ åıĬ
Ġè§ ¦
æĿİ å°ıæ³ī
å³ ¦
èĳ ¡èĲĦ
Ġåĩł å¤©
æ±Ĥ åĬ©
Ġè¿ĻäºĽ å¹´
åįĹ çİĭ
é¦ĸ åºľ
ĠçĽ´ çĽ´
çīĻ èĪŀ
Ġä¼ Ł
çĽ´æİ¥ ä»İ
èĢ³ èĨľ
ç¿» æ¶Į
ç¬¬ä¸Ģ å±Ĥ
å®Ī åľ¨
Ġèĥ½ è®©
èĹı èĻļæİĮ
éķĩ åŃĲ
å¯Ĵ æļĦ
èĩªçĦ¶ ä¹Ł
ç½ĳ ç»ľ
åľĨ å½¢
æİĴ æĸ¥
å°Ĭ å´ĩ
Ġä¸įæĺ¯ è¯´
çĨŁ äºĨ
è°Ī ä¸įä¸Ĭ
ĠåıĮ èĩĤ
èĲ§ èį£
Ġé©¬ æµ·äº®
éĺ¿ å§¨
Ġå°±ç®Ĺ æĪĳ
çŁŃ æĹ¶éĹ´åĨħ
èĭĹ ä¹¡
è§ģåĪ° ä½ł
èİ« åĲįçļĦ
æĭ¥ æľīäºĨ
å°ıå¿ĥ ä¸ĢçĤ¹
éĻį èĲ½
æĿĳ çļĦ
è·ŁçĿĢ ä»ĸ
ä»Ķç»Ĩ è§Ĥå¯Ł
è¯ļ å¿ĥ
ĠæŃ¤åĪ» çļĦ
Ġåķ ¸
æ¼« éķ¿
Ġæķ° ä¸ĩ
è¡¥ åģ¿
Ġæ¸ħ æĺ¶åħ¬ä¸»
åłĨ ç§¯
è¾Ĩ é©¬è½¦
ĠçĮĽ ä¸įä¸ģ
éĿ¢èī² ä¸Ģåıĺ
éŁ© æŀĹ
æĦ¤æĢĴ åľ°
æºľ çĥŁ
èĢĥèĻĳ ä¸Ģä¸ĭ
è´§ çľŁä»·
é³ ĸ
åĨ·åĨ· ä¸Ģç¬ĳ
æīĵéĩı äºĨ
è¾ŀ èģĮ
åħ¸ åĨĽ
åįģåĩł ç±³
å¤©é¾Ļ ä¹ĭåĬĽ
æĺĨä»ĳ æ´¾
è®°å¿Ĩ ä¹ĭéĹ¨
æ±Łæ¹ĸ è°£ä¼ł
ĠåĤ ²
ĠåŃĻ åįļ
å¼Ĺ æľĹè¥¿æĸ¯
Ġçº¨ç»ĶæīįåŃĲ çĤ¹çŁ³æĪĲéĩĳ
Ġçº¨ç»ĶæīįåŃĲ è®°å¿Ĩä¹ĭéĹ¨
Ġçº¨ç»ĶæīįåŃĲ æ±Łæ¹ĸè°£ä¼ł
åıł åıł
æĸ§ å¤´
Ġå·´åħĭ äºĶåħĦå¼Ł
Ġn t
è´« éģĵ
è´¤ æĺİ
Ġæħ¢æħ¢ çļĦ
ĠåĽ¾ å¡ĶåĲŀå¿Ĵ
è·ĭ æī
ä¹Ķ å®īéĻĽä¸ĭ
è¸īè·Ħ è·Ħ
Ġæ¥ļ çĭĤ
éĹº å¥³
æ®· åĭ¤
å®Įæķ´ çļĦ
æĥĬå¤© åĬ¨åľ°
æĢ¦ æĢ¦
è¾¹éĺ² åĨĽ
Ġä¸Ńå¤® åĨĽ
ĠåľĪåľĪ åıīåıī
æ¶Įä¸Ĭ å¿ĥå¤´
ĠæĮ£ æīİ
çīĻèĪŀ çĪª
Ġ ä¹Ī
Ġ ä¸ĸçķĮ
ļ çľ¦
çļĦ ä¼Ĺäºº
çļĦ èº«åĲİ
çļĦ å¥³åŃ©
ä¸Ģ æľµ
ä¸į æĤ¦
è¯ ı
ä»ĸ æ²¡æľī
éģĵ æĺİ
æľī å¼Ĥ
ä¸Ĭ åı¸
æĥ ¬
ä¹Ł åĴĮ
ä¹Ł æ¸Ĳæ¸Ĳ
åĪ° ä»Ģä¹Ī
åŃĲ å¥³
æĪĳ ä¹Łä¸į
Ġè¿Ļ åĢĴæĺ¯
è¿ĩ å¤´æĿ¥
Ġä½ł éĹ®
Ġä½ł æĥ³è¦ģ
Ġä½ł ä»Ģä¹ĪæĹ¶åĢĻ
å¤© åłĤ
è¦ģ å¥½
è¦ģ å¹²ä»Ģä¹Ī
Ġä»ĸ èº«ä¸Ĭ
æ²¡ è¯´å®Į
å°ı åħĦå¼Ł
åĵ ©
ä¸Ģä¸ª éĹ®é¢ĺ
åĬĽ éŃĦ
ä¸¤ çĤ¹
åīį åĩłå¤©
Ġä¸Ģ æĹģ
æĹł å¥ĩ
æĹł è¯Ŀåı¯è¯´
ç»ı åħ¸
å¾Ī åį±éĻ©
åĩł æł¹
æ³ķ è¯Ģ
åĬ¨ äºİ
éķ¿ çĿĢ
Ġåħ ¸
æīĵ çł´äºĨ
ĠæŀĹéĽ· å½ĵåį³
å°Ĩ èĩªå·±çļĦ
éĶ Ń
åį´ èĥ½
ä¾¿ æľī
å½ĵ ä¸ĸ
å¼º åĮĸ
è½» æııæ·¡åĨĻ
Ġç¬ ¼
Ġæ² ¹
æĪĳä»¬ éĥ½
åħ¨ èº«ä¸Ĭä¸ĭ
è¡Ģ äº²çİĭ
æľīäºĽ çĬ¹è±«
æħ ·æħ¨
Ġè¯´ å¾Ĺ
éĢļ å¸¸
è¿ĺæĺ¯ æľīçĤ¹
Ġéļ Ĩ
çļĦä¸Ģ ä¸¾ä¸ĢåĬ¨
çªģ å¦Ĥåħ¶
ç¬¬ åįģ
åºķ éĥ¨
æŃ¦ æĬĢ
ĠåĤħæ¸ħæī¬ èĻ½çĦ¶
å¾Ģ åĲİéĢĢ
æµģ åĩº
åĨ² è¿ĩåİ»
åĶ ł
å¹² ç¬ĳ
å¹² æ´»
åħĥ çŁ³çŁ¿èĦī
ĠæĿİ éĢµ
å¾· é²ģ
Ġè¿Ļä¸ª ä¸ĸçķĮ
è®¤ å®ļ
æµ· åºķ
æµ· å²Ľ
çĶ· çļĦ
æĢĴ åĸĿéģĵ
Ġä¾¿ è¯´
æĢ§ æĥħ
æ¶Ī åĮĸ
éĽª åľ°
ĠæĢİä¹Ī ä¸į
çĶµ é¥ŃéĶħ
çľī çĽ®
åĽ¢ éķ¿
æĺ¾ çľ¼
æĿİ éĢµ
çĸĳ å¿ĥ
çļĦå¤§ éĺµ
èįī æľ¨
Ġè· ¨
Ġè°ģ çŁ¥
Ġç§¦ çĲ¼
Ġä»Ģä¹Ī äºº
åĭ¿ä¹ŀ åĴĮ
ĠåĢ ¾
ĠéĹ ²
Ġé«ĺ æīĭ
Ġé«ĺ æ¹Ľ
æī¿ å½±åīĳ
åı· è§Ĵ
Ġéĺ¿ å®ģ
ĠåĽĽ åıĶ
æŀª åı£
æı¡ äºĨ
å§ĳ å§ĳ
å²ģ çļĦå°ı
æ³¢ èĴĻçī¹
é¡º ç«ł
å®ŀåľ¨ åľ¨
ä¸Ģä¸ªäºº å½±
å¡ŀ åħĭæĭī
Ġç´« è¡Ģè½¯åīĳ
èģĶ ç»ľ
æ³ª åħī
åļ ı
å¿įä¸įä½ı éģĵ
Ġèı±çº± ç¬ĳéģĵ
å£® å¤§
æŁĦ é£ŀåīĳ
æŁĦ éķ¿åīĳ
Ġä½łè¿Ļ æ¬¡
Ġå£ ®
æĶ¹ äºĨ
å¼Ģåı£ éĹ®éģĵ
Ġå¼ł èĻİ
ä¹Łæľī çĿĢ
ä¸ĬæĿ¥ è¯´
æĬ¢ èµ°
å½ĵçĦ¶ çŁ¥éģĵ
çĿģ çľ¼
ĠæĹ© ä¸Ĭ
Ġèİ İ
å¤º åıĸ
å¯¹ä»ĺ ä»ĸ
æ¼Ķ åĶ±
å²© æ´ŀ
æķĪ åĬĽ
ä¹Į æĽ¼
æīŃ åĬ¨
Ġä¿ ©
çļĦåľ° ä¸ĭ
ç§¯ æŀģ
çĻ» éĹ¨
Ġæ¸ħ èĦĨ
åħ¶å®ŀ æĺ¯
è´´ åľ¨
åı¦ ä¸Ģè¾¹
å®īæİĴ çļĦ
åĲī å°Ķé»ĺ
ç´§å¼ł çļĦ
æĴĩ æĴĩåĺ´
çĽ¸å½ĵ çļĦ
çŃĸ çķ¥
Ġæµģé£İ å®¶
Ġç¬¬ä¸ĥ ç«ł
èĤĨ æĹłå¿Įæĥ®
ĠåĪĢ çĪ·
èħĲ çĥĤ
ĠæĪĳåı¯ æ²¡
Ġå¿ħé¡» è¦ģ
Ġå¸® åĬ©
Ġä¼¯ çº³æĢĿ
èŁĴ èĽĩ
Ġéľĩ å¾Ĺ
åĵĩ åĵĩ
ĠçĭĤ é£İ
ç¥ĸå¸Ī çĪ·
æĶ¶æķĽ äºĨ
ä¹Ķ æ²»
Ġçľ¨çľ¼ éĹ´
æ²¡å¥½ æ°ĶçļĦ
ĠéĻĪå¢¨å¾Ī æĹłè¯ŃçļĦ
Ġå¸ĥç½Ĺ è¿ª
Ġæµ© æµ©
çĭłæīĭ è¾£
Ġè´Ł è´£
ç¥ŀå¥³ å³°
çĶµçĵ¶ è½¦
1 1
± åĲĽ
Ġ çļĦæĹ¶åĢĻ
Ġ è¿ľå¤ĦçļĦ
Ġ ä»°å¤´
Ī çª
Ľ èĭ¥
çļĦ åĢĴ
ä¸Ģ è¨Ģä¸įåıĳ
Ġè ¦Ĩ
è¿Ļ éģĵ
è¿Ļ å°±
è¿Ļ å¯¹
è¿Ļ éĹ¨
éģĵ è¡Į
æĿ¥ çļĦæĹ¶åĢĻ
åľ¨ çº¿
å¤§ æīĵ
å¤§ ä¼Ł
æĥ ĺ
ä¹Ł æĮº
åŃĲ ä¸Ģæł·
æĪĳ æīį
å¤© å¤§
å¤© äº®
éĤ£ å¸®
åº Ĳ
ä¹ĭ ä¸ĬçļĦ
Ġä¸į åĲĮ
èĩª å¹¼
å¯¹ åı¶æŀ«
å¯¹ æ¸©ä¹Ĳéĺ³
ç¥ŀ åŁŁ
çĤ¹ éĴ±
ä¸ī æ¬¡
Ġä¸Ģ åĽ¢
éĻ Ľä¸ĭçļĦ
å¾Ī åİīå®³
éķ¿ è£Ļ
è¢« çłį
åı£ æľį
çľŁ æĥ³
çľŁ åģĩ
Ġä½Ĩ åĩ¡
æīĵ ä½ł
èµ° å¼Ģ
èĢĮ å°½
ĠæŀĹéĽ· åį´
ä¾¿ èĥ½
èĦ¸ éĥ½
æ± ²
å°ĳ å¦ĩ
åīĳ ä¸Ĭ
Ġæĺ¯ åľ¨
åģļ äºĨä¸Ģä¸ª
åĨį è¿ĩ
éĺ³ å·®
æ¯Ķ è¿Ļ
æ¶ Ł
çĽ¸ éģĩ
å¤ª åı¤
Ġå¥¹ å¿½çĦ¶
ä¿® æĸ¯
Ġåĵ ģ
åĨħ èĦı
è¡Ģ æ·ĭæ·ĭ
ĠæŀĹæĻļèį£ æĳĩå¤´
é¾Ļ å¨ģ
Ġä¸įè¿ĩ åı¶å¤©
Ġæľī éĴ±
å¸¦ å¤´
ä¿¡ ä½¿
çº¢ æ¶¦
çļĦä¸Ģ å¤Ħ
Ġå¥½ å¥½çļĦ
èĲ½ åľ¨åľ°ä¸Ĭ
Ġä½Ĩæĺ¯ å¦Ĥæŀľ
çŁ³ å£ģ
ç§Ģ ä½³
ĠéĻ į
åĮĸ ä¸ºäºĨ
å®¹ çº³
ç»Ŀ ä¸įæĺ¯
ä¼Ĺ ä½į
è§£ éĻ¤
å¹² ç³»
å¦ĸ çļĩ
çļĦè¯Ŀ é¢ĺ
è¶Ĭ è¿ĩ
Ġä½łä»¬ åı¯
Ġä½łä»¬ ä¸īä¸ª
Ġåıªæĺ¯ æĥ³
åĵª äºĽ
Ġå¼ ±
é¡¿ äºĨé¡¿
Ġåĳ ³
ä½İ ä½İ
Ġä»İ ä»ĸ
ĠæĹł æ¯Ķ
è°ģ æĺ¯
æľīä¸Ģ ä»¶
ĠèĻ½çĦ¶ è¯´
ç»ĵ äº¤
ĠæĻ ıåįĹ
çļĦå¤§ æ±ī
æĸĹ æ³ķ
ä¸įä½ı åľ°
ç«ŁçĦ¶ ä¼ļ
å¿į ä½ıäºĨ
çĿĢä¸Ģ åıª
æ°ĳ ä»¬
æģ¶ çļĦ
çľĭäºĨ ä¸ĭ
åĵģ å°Ŀ
åįĹ éĿŀ
çĥŃ çĥĪçļĦ
ĠåĪ« æĢ¥
Ġå§ ¥
èĥ¡ äººçļĦ
åıĸ åĩºäºĨä¸Ģ
éĢĥ çĶŁ
ä¸įè¦ģ èĦ¸
å¯Ĵ é£İ
Ġå®ŀ åĪĻ
æľīä»Ģä¹Ī å¥½
Ġéķ¿ å¾Ĺ
Ġä¸įæĺ¯ ä½ł
Ġé© »
åĳĬè¯ī æĪĳä»¬
Ġæ¯Ķ æĪĳ
è¹ ĭ
æļ´ åĸĿ
Ġä¸ĭ æĸ¹
ä¼¸ åĩºä¸Ģ
ĠåįĹ æ·®çĳ¾
èµĦ æľ¬
çĽ¸ä¿¡ æĪĳ
ç»Ŀå¯¹ æ²¡æľī
Ġåħ¨ æĺ¯
Ġåħ¨ èº«ä¸Ĭä¸ĭ
ç¡¬ æĺ¯
Ġè¿Ļä¹Ī å¤§çļĦ
è®² è§£
çĽĸ æĸ¯éĽ·æ£®
åıĳçĶŁ è¿ĩ
æ¡Į ä¸ĬçļĦ
éĻį ä¸ĭ
åĪĺ æ¸ħå½¦
ĠæĶ¾ å¼Ģ
Ġä¼Ĺäºº éĥ½
ĠæĪĳæĥ³ ä½ł
æĬ¢ è¿ĩ
åĲ¯ ç¨ĭ
åĸ· äºĨåĩºæĿ¥
Ġ1 9
ç²Ĺ ç»Ĩ
Ġäºĳ éĽħçĲª
è¿ĺä¸į æĺİçĻ½
Ġå¥³ å¨²
ä¹Į é¾Ł
æģ¶éŃĶ åŁİåł¡
éĻ· å®³
åĪ¤ å®ļ
æĤł çĦ¶
åľ°ä¸Ģ åĪĩ
æĸ¯çī¹æŀĹ çļĦ
æħĪ åĸĦ
åºĦ ä¸¥
æŃ»äº¡ ä¸»å®°
éŃı æĪĲè½©
ĠåĬ¨ æīĭ
ä¸ĢæĹģ çļĦ
ä½İæ²ī çļĦ
åŁİå¢Ļ ä¸Ĭ
åĮĸä½ľ ä¸Ģéģĵ
æ§ Ĳ
ĠåľŁ ä¹ĭåħĥç´ł
å¤´å¤§ æ±Ĺ
å©¶ å©¶
å§¥ å§¥
åľ¨æĥ³ ä»Ģä¹Ī
æĺ¯ä¸įåı¯èĥ½ çļĦ
ç¿© ç¿©
Ġå®īå¾· çĽĽ
ä¸ĭæĦıè¯Ĩ çļĦ
Ġé»ĳçĻ½ å²Ľ
èµ·ä¹ī åĨĽ
æĶĺ æĶĺ
ĠèĢģåħĶå¦ĸ ä¸įä¹Ĳ
Ġçº¨ç»ĶæīįåŃĲéļĲèĢħ æĹłæķĮ
çļ±äºĨ çļ±çľī
æ½®æ°´ èĪ¬
èĭ¥æľī èĭ¥æĹł
æĴĩäºĨ æĴĩåĺ´
éº»è¡£ ä¸ĢèĦī
çļĦ åĳ½
æĺ¯ åı¯ä»¥
ä¸į å·®
ä¸į æĶ¾å¿ĥ
ä»ĸ åıĪ
æĿ¥ åıĤåĬł
Ġ: ,âĢľ
åľ° çģ«
åľ° å®Ŀ
åľ° è£Ĥ
åĪ° æīĭ
åŃĲ é¾Ļ
ĠæĪĳ çĪ¹
æĪĳ æľįäºĨ
åĩº ä¸ĸ
éĿ ´
è¦ģ ä½ł
åİ» æĥ³
éĩĮ æĺĤ
Ġä»ĸ çľŁçļĦ
Ġä»ĸ åıĳçİ°
Ġä»ĸ ç«ĭåĪ»
ä¹ĭ çļĦ
æ²¡ éĹ®é¢ĺ
èĥ½ çĶ¨
èº« ä¸ĭ
æ¸ į
Ġä¸į è§ģ
å½ ¤
ĠéĤ£ å°±ä¸į
éĿ¢ çº¢èĢ³èµ¤
ä¿ Ĳ
äºĨä¸Ģ å¤ľ
è§ģ å¤ļè¯Ĩå¹¿
Ġå°± ä¸į
Ġå°± æ²¡æľī
è° Ń
Ġåıª å·®
åı£ ä¸ŃçļĦ
çľŁ æ°´
æĬĬ å¤´
æīĵ ä¼¤
çĶ¨ åĬĽçļĦ
çĻ½ èµ·
æŃ» ä»ĸ
ç»Ļ äºĨæĪĳ
é«ĺ æĺĤ
é«ĺ åı¤çİī
å·²ç»ı åıĺæĪĲäºĨ
åıĪ æģ¢å¤įäºĨ
æŃ£ åĴĮ
èĦ¸ åŃĶ
å¼º ç¡¬
å°±æĺ¯ åĽłä¸º
åĲį åı·
æĿĢ æŃ»çļĦ
æīĢ çĶ¨
ä¿® åħ»
æİ¥ åĪ°äºĨ
é»ĳ æīĭ
Ġåį´ ä¸įçŁ¥
Ġåį´ çľĭè§ģ
çĸ ®
æľīäºĽ æĭħå¿ĥ
[...]
