{"<s>":0,"<pad>":1,"</s>":2,"<unk>":3,"<mask>":4,"!":5,"\"":6,"#":7,"$":8,"%":9,"&":10,"'":11,"(":12,")":13,"*":14,"+":15,",":16,"-":17,".":18,"/":19,"0":20,"1":21,"2":22,"3":23,"4":24,"5":25,"6":26,"7":27,"8":28,"9":29,":":30,";":31,"<":32,"=":33,">":34,"?":35,"@":36,"A":37,"B":38,"C":39,"D":40,"E":41,"F":42,"G":43,"H":44,"I":45,"J":46,"K":47,"L":48,"M":49,"N":50,"O":51,"P":52,"Q":53,"R":54,"S":55,"T":56,"U":57,"V":58,"W":59,"X":60,"Y":61,"Z":62,"[":63,"\\":64,"]":65,"^":66,"_":67,"`":68,"a":69,"b":70,"c":71,"d":72,"e":73,"f":74,"g":75,"h":76,"i":77,"j":78,"k":79,"l":80,"m":81,"n":82,"o":83,"p":84,"q":85,"r":86,"s":87,"t":88,"u":89,"v":90,"w":91,"x":92,"y":93,"z":94,"{":95,"|":96,"}":97,"~":98,"¡":99,"¢":100,"£":101,"¤":102,"¥":103,"¦":104,"§":105,"¨":106,"©":107,"ª":108,"«":109,"¬":110,"®":111,"¯":112,"°":113,"±":114,"²":115,"³":116,"´":117,"µ":118,"¶":119,"·":120,"¸":121,"¹":122,"º":123,"»":124,"¼":125,"½":126,"¾":127,"¿":128,"À":129,"Á":130,"Â":131,"Ã":132,"Ä":133,"Å":134,"Æ":135,"Ç":136,"È":137,"É":138,"Ê":139,"Ë":140,"Ì":141,"Í":142,"Î":143,"Ï":144,"Ð":145,"Ñ":146,"Ò":147,"Ó":148,"Ô":149,"Õ":150,"Ö":151,"×":152,"Ø":153,"Ù":154,"Ú":155,"Û":156,"Ü":157,"Ý":158,"Þ":159,"ß":160,"à":161,"á":162,"â":163,"ã":164,"ä":165,"å":166,"æ":167,"ç":168,"è":169,"é":170,"ê":171,"ë":172,"ì":173,"í":174,"î":175,"ï":176,"ð":177,"ñ":178,"ò":179,"ó":180,"ô":181,"õ":182,"ö":183,"÷":184,"ø":185,"ù":186,"ú":187,"û":188,"ü":189,"ý":190,"þ":191,"ÿ":192,"Ā":193,"ā":194,"Ă":195,"ă":196,"Ą":197,"ą":198,"Ć":199,"ć":200,"Ĉ":201,"ĉ":202,"Ċ":203,"ċ":204,"Č":205,"č":206,"Ď":207,"ď":208,"Đ":209,"đ":210,"Ē":211,"ē":212,"Ĕ":213,"ĕ":214,"Ė":215,"ė":216,"Ę":217,"ę":218,"Ě":219,"ě":220,"Ĝ":221,"ĝ":222,"Ğ":223,"ğ":224,"Ġ":225,"ġ":226,"Ģ":227,"ģ":228,"Ĥ":229,"ĥ":230,"Ħ":231,"ħ":232,"Ĩ":233,"ĩ":234,"Ī":235,"ī":236,"Ĭ":237,"ĭ":238,"Į":239,"į":240,"İ":241,"ı":242,"Ĳ":243,"ĳ":244,"Ĵ":245,"ĵ":246,"Ķ":247,"ķ":248,"ĸ":249,"Ĺ":250,"ĺ":251,"Ļ":252,"ļ":253,"Ľ":254,"ľ":255,"Ŀ":256,"ŀ":257,"Ł":258,"ł":259,"Ń":260,"ä¸":261,"Ġ,":262,"äº":263,"Ġå":264,"çļ":265,"çļĦ":266,"âĢ":267,"ãĢ":268,"ĠãĢ":269,"ĠãĢĤ":270,"ä»":271,"Ġæ":272,"è¿":273,"čĊ":274,"å¤":275,"äºĨ":276,"ä¸Ģ":277,"æĺ":278,"ä¹":279,"æĺ¯":280,"ä½":281,"ä¸į":282,"åı":283,"æľ":284,"åľ":285,"âĢĿ":286,"âĢľ":287,"å°":288,"..":289,"Ġè":290,"åĲ":291,"Ġç":292,"åĪ":293,"è¿Ļ":294,"åħ":295,"æĿ":296,"å®":297,"Īĳ":298,"äºº":299,"æī":300,"è¯":301,"éģ":302,"Ġé":303,"æĹ":304,"ä»ĸ":305,"éģĵ":306,"æľī":307,"åĩ":308,"çľ":309,"å¾":310,"ä½ł":311,"åį":312,"æĿ¥":313,"ä¸ª":314,"ĥ½":315,"åŃ":316,"Ġ:":317,"å¥":318,"ä¼":319,"çĿ":320,"åľ¨":321,"ç»":322,"å·":323,"Ġ:âĢľ":324,"åĬ":325,"åľ°":326,"éĩ":327,"ä¸Ĭ":328,"å¤§":329,"å¿":330,"ĠâĢľ":331,"çĿĢ":332,"Ĥ£":333,"æĥ":334,"å¼":335,"ä¹Ł":336,"Ġåı":337,"Ġ?":338,"èµ":339,"Ġ!":340,"åĨ":341,"æĢ":342,"åĪ°":343,"åİ":344,"åŃĲ":345,"ĠæĪĳ":346,"ä»¬":347,"ä¹Ī":348,"ĠãĢĤâĢĿ":349,"æŃ":350,"çĶ":351,"æĪĳ":352,"éĹ":353,"æĸ":354,"....":355,"å°±":356,"Ħ¶":357,"è¯´":358,"ä¸ĭ":359,"æŀ":360,"æ²":361,"èĢ":362,"çĦ¶":363,"Ġè¿Ļ":364,"è§":365,"åĩº":366,"åĽ":367,"éĽ":368,"¦ģ":369,"éĿ":370,"ä¸Ń":371,"è¿ĩ":372,"å¸":373,"å£":374,"æĬ":375,"Ġä½ł":376,"è®":377,"å¤©":378,"è¿ĺ":379,"å¯":380,"èĩ":381,"æ°":382,"åĴ":383,"éĥ½":384,"å¹":385,"è¦ģ":386,"çľĭ":387,"åī":388,"åĳ":389,"å¾Ĺ":390,"æĪ":391,"ç¬":392,"Ġå°":393,"çİ":394,"åİ»":395,"éĩĮ":396,"çĽ":397,"æĦ":398,"æĹ¶":399,"æł":400,"æķ":401,"Ġä»ĸ":402,"å¤´":403,"èº":404,"éĤ£":405,"éĢ":406,"å¦":407,"Ġ?âĢĿ":408,"åº":409,"ä¹ĭ":410,"è¡":411,"éĺ":412,"æ²¡":413,"æĭ":414,"å°ı":415,"èĥ½":416,"èµ·":417,"çŁ":418,"æīĭ":419,"ĠčĊ":420,"èº«":421,"åĵ":422,"å¿ĥ":423,"æ¸":424,"çĤ":425,"ä¸º":426,"å±":427,"ä¼ļ":428,"Ġ!âĢĿ":429,"éĽ·":430,"å£°":431,"ç¥":432,"åĴĮ":433,"Ġä¸į":434,"ç§":435,"åĲİ":436,"å¥½":437,"èĩª":438,"çº":439,"æİ":440,"è¾":441,"è½":442,"ç¬ĳ":443,"ç«":444,"æ³":445,"å½":446,"ĠéĤ£":447,"ä»¥":448,"Ġæŀ":449,"èĦ":450,"äºĽ":451,"çī":452,"éĿ¢":453,"......":454,"åı¯":455,"æĻ":456,"ä»Ģ":457,"è·":458,"ä»Ģä¹Ī":459,"ä¿":460,"æĥ³":461,"ĠæŀĹ":462,"æ¯":463,"åĢ":464,"Ġ......":465,"è´":466,"å¯¹":467,"ä¸Ģä¸ª":468,"Ļ½":469,"ç¥ŀ":470,"äºĭ":471,"å®¶":472,"çľ¼":473,"Ġå¤":474,"å§":475,"çĤ¹":476,"å¤ļ":477,"ä¾":478,"æ°Ķ":479,"çŁ¥":480,"æĮ":481,"åĬĽ":482,"çģ":483,"è¢":484,"ä¸ī":485,"äºĨä¸Ģ":486,"é£":487,"æł·":488,"ä¸¤":489,"èį":490,"åīį":491,"Ġä¸Ģ":492,"æĹł":493,"æĸ¹":494,"ç»ı":495,"å·±":496,"æĶ":497,"æ¬":498,"çĪ":499,"æģ":500,"éķ":501,"å¼Ģ":502,"æŀĹ":503,"å·²":504,"ĠâĢ":505,"è§ģ":506,"Ġå¥":507,"è¯Ŀ":508,"æ¸ħ":509,"èĢģ":510,"å¦Ĥ":511,"æµ":512,"æĥħ":513,"åģ":514,"éĻ":515,"Ġä½":516,"Ġæľ":517,"Ġåį":518,"æĦı":519,"ĠãĢģ":520,"çĶŁ":521,"Ġå°±":522,"ĠèĢ":523,"å¾Ī":524,"ç®":525,"åįģ":526,"åĸ":527,"é¢":528,"åĩł":529,"éļ":530,"èĩªå·±":531,"æ²¡æľī":532,"åıĳ":533,"æ³ķ":534,"æ´":535,"èī":536,"Ġåı¯":537,"åķ":538,"æīį":539,"åĮ":540,"Ġçľ":541,"é»":542,"çŃ":543,"å¹´":544,"éŃ":545,"çŁ¥éģĵ":546,"æĪĲ":547,"è°":548,"åĬ¨":549,"ç´":550,"èĤ":551,"éķ¿":552,"éĹ´":553,"ä»İ":554,"Ġåıª":555,"Ġåħ":556,"çĭ":557,"è¢«":558,"åı£":559,"åıª":560,"ç©":561,"èĭ":562,"«ĺ":563,"çİ°":564,"çľŁ":565,"Ġæĺ":566,"åĿ":567,"æĺİ":568,"éĹ¨":569,"åĽŀ":570,"æĬĬ":571,"èĥ":572,"ĠåĲ":573,"å¥¹":574,"æ·":575,"é¡":576,"åĨĽ":577,"ä½ı":578,"å±±":579,"åĦ":580,"ä½į":581,"åħī":582,"Ġä½Ĩ":583,"èĪ":584,"æīĵ":585,"éľ":586,"Ġä¹Ł":587,"çĶ¨":588,"äºİ":589,"çĻ½":590,"èī²":591,"åĦ¿":592,"æŃ»":593,"è¶":594,"Ġåľ":595,"ç»Ļ":596,"Ġæī":597,"é«ĺ":598,"åĲ§":599,"æĹı":600,"Ġè¯":601,"Ĥħ":602,"ä¸įæĺ¯":603,"æľ¬":604,"å·²ç»ı":605,"æī¬":606,"ç¾":607,"èµ°":608,"å¨":609,"åĢĻ":610,"èĢĮ":611,"äºĮ":612,"ä¸»":613,"èĬ":614,"ĠæŀĹéĽ·":615,"æĳ":616,"å¥³":617,"Ġå¤§":618,"å°Ĩ":619,"æĻļ":620,"åıĪ":621,"å®ļ":622,"æŃ£":623,"éĶ":624,"è¿Ľ":625,"åŁ":626,"è¾¹":627,"İä¹Ī":628,"èĲ":629,"ç½":630,"å§Ĳ":631,"åį´":632,"éĹ®":633,"çķ":634,"è¡Į":635,"ä¾¿":636,"è®©":637,"è§ī":638,"èĦ¸":639,"ç§į":640,"æ±":641,"ĠåĪ":642,"å®ŀ":643,"æ¬¡":644,"æĹ¶åĢĻ":645,"Ġå°ı":646,"åĲ¬":647,"å°ĳ":648,"ä¸ľ":649,"ä»ĸä»¬":650,"çĥ":651,"åĺ":652,"èµ·æĿ¥":653,"æ¸ħæī¬":654,"Ĥħæ¸ħæī¬":655,"Ġ,âĢľ":656,"æ»":657,"é£İ":658,"åīĳ":659,"å½ĵ":660,"Ġåı¶":661,"åĲĳ":662,"æŃ¤":663,"Ľ´":664,"å¼º":665,"èį£":666,"Ġè¿ĺ":667,"ç¼":668,"è½»":669,"å°±æĺ¯":670,"ĠèĢĮ":671,"éª":672,"æĤ":673,"åķĬ":674,"åĥ":675,"Ġåľ¨":676,"è¿ŀ":677,"Ġå¦":678,"âĢĶ":679,"å¤ĸ":680,"æŀľ":681,"åĪĨ":682,"éĩį":683,"è¿ľ":684,"é©":685,"çĻ":686,"Ł³":687,"ä½ĵ":688,"Ġç¬":689,"æĪĺ":690,"Ġå¿":691,"éĥ":692,"ĠæŃ":693,"Ġæĺ¯":694,"ĠæĿ":695,"æĦŁ":696,"åģļ":697,"æ°´":698,"æĻļèį£":699,"å¤Ħ":700,"ä»Ļ":701,"çª":702,"åĨį":703,"éĺ³":704,"åĲį":705,"ĠæĹ":706,"Ġæ²":707,"Ġå®":708,"å¸Ī":709,"åı¶":710,"æŀ«":711,"éŃĶ":712,"¾Ļ":713,"Ġ.":714,"äºĳ":715,"æ¯Ķ":716,"ç®Ĺ":717,"ĠæĢ":718,"éĴ":719,"çģµ":720,"çĻ¾":721,"Ġå¾":722,"éĩĳ":723,"èĻ":724,"ä¸ĩ":725,"æĿĢ":726,"åħ¥":727,"åĥı":728,"çĽ´":729,"æ¶":730,"çĽ¸":731,"è¿Ļä¸ª":732,"æĪĳä»¬":733,"å·Ŀ":734,"Ġçİ":735,"å¤ª":736,"Ġåı¯æĺ¯":737,"æīĢ":738,"çĲ":739,"å¾®":740,"Ġå¥¹":741,"åĪ°äºĨ":742,"èĢħ":743,"ç©º":744,"Ġ......âĢĿ":745,"åĲĮ":746,"å¢":747,"çŃī":748,"æĥĬ":749,"çł":750,"ä¹Ĳ":751,"¥¿":752,"åħ¬":753,"åĽĽ":754,"æľĢ":755,"åħĪ":756,"æı":757,"ä¿®":758,"Ġçľĭ":759,"Ġåĵ":760,"æľĽ":761,"åħ¨":762,"ĠæĪĳä»¬":763,"æİ¥":764,"ç¦":765,"Ġå¦Ĥ":766,"äºĶ":767,"åĨħ":768,"æĢİä¹Ī":769,"é»ĳ":770,"Ġæĸ":771,"åĩºæĿ¥":772,"Ġåį´":773,"è¡Ģ":774,"åĳ¢":775,"åıĺ":776,"çĸ":777,"ĠæŀĹæĻļèį£":778,"åĵ¥":779,"æļ":780,"æľīäºĽ":781,"å¼Ł":782,"é¾Ļ":783,"åħµ":784,"Ġç¬¬":785,"ä»Ĭ":786,"åĪ»":787,"ç²":788,"æĢķ":789,"Ġä¸įè¿ĩ":790,"æŁ":791,"æĸ¯":792,"Ġå½":793,"Ġæľī":794,"åŁİ":795,"éŁ³":796,"é©¬":797,"å¿«":798,"è¿Ļä¹Ī":799,"æħ":800,"Ġèĩ":801,"Ġå¯":802,"Ġè¯´":803,"èİ":804,"éĵ":805,"çī¹":806,"è·Ł":807,"å£«":808,"çļĦäºº":809,"äº²":810,"éĺµ":811,"æķ°":812,"ä¹Łä¸į":813,"åºĶ":814,"è¥¿":815,"æĶ¾":816,"ä½ķ":817,"çģ«":818,"åı«":819,"çİĭ":820,"åĪ«":821,"ĠåĨ":822,"ä¼ł":823,"äºĭæĥħ":824,"ĠâĢĶ":825,"åįĥ":826,"Ġç»":827,"æį":828,"éĢļ":829,"åĭ":830,"åħ¶":831,"æ®":832,"ĠâĢĿ":833,"éļ¾":834,"ĠâĢĶâĢĶ":835,"ĠåĽ":836,"Ļ½çĦ¶":837,"Ġè®":838,"éĥ¨":839,"èħ":840,"å¸¦":841,"è¿ĺæĺ¯":842,"åĳ½":843,"ĠãĢı":844,"çĪ·":845,"çĮ":846,"é£ŀ":847,"åĪļ":848,"å®Į":849,"åĲĹ":850,"èĪ¬":851,"«å·Ŀ":852,"Ġç´":853,"ä¿¡":854,"Ġåĩ":855,"åĽ½":856,"ä¸İ":857,"æŃ¥":858,"Ġéļ":859,"åľº":860,"ĠãĢİ":861,"çĽ®":862,"æĹ¥":863,"æī¾":864,"æŀĹéĽ·":865,"éħ":866,"çº¢":867,"Ġå½ĵ":868,"Ġå¯¹":869,"Ġä»ĸä»¬":870,"çļĦä¸Ģ":871,"çŀ":872,"Ġå¥½":873,"èĲ½":874,"Ġå¸":875,"è£":876,"åįĬ":877,"è´Ŀ":878,"çļĦæĹ¶åĢĻ":879,"éĥ½æĺ¯":880,"åĢĴ":881,"æĢª":882,"Ġä½Ĩæĺ¯":883,"ĠçĶ":884,"æ»¡":885,"ä½ľ":886,"é¦":887,"ä¼¼":888,"å®ī":889,"Ġæĥ":890,"è·¯":891,"çŁ³":892,"ç§Ģ":893,"å²":894,"å¸¸":895,"ä¸Ŀ":896,"æĢĿ":897,"éĿŀ":898,"Ġç«":899,"åĨ·":900,"èģ":901,"Ġæ²¡":902,"åĩ»":903,"èĬ±":904,"æĳĩ":905,"Ġæ¯":906,"ç«ł":907,"åį³":908,"ĠèĢģ":909,"ç¿":910,"çī©":911,"æĽ´":912,"ç«ĭ":913,"æĮĩ":914,"çĲĨ":915,"éĿĴ":916,"çĹ":917,"éĩı":918,"ĠéĻ":919,"å°ıå§Ĳ":920,"ç¦»":921,"è±":922,"ĠâĢĻ":923,"ä¹İ":924,"åı¯ä»¥":925,"Ġæ¸":926,"ä»ĸçļĦ":927,"äººçļĦ":928,"æľĪ":929,"çªģ":930,"çİī":931,"ç«Ł":932,"éĺŁ":933,"åº¦":934,"æģ¯":935,"èĽ":936,"æŀģ":937,"Ġåı¶æŀ«":938,"ä¼¤":939,"ç¢":940,"Ġå·":941,"ç³":942,"æĢ¥":943,"å¹³":944,"çİ°åľ¨":945,"æ¥":946,"ç¬ĳéģĵ":947,"ç¬¬":948,"ä¹Łæĺ¯":949,"æľº":950,"åºķ":951,"è¯´éģĵ":952,"å¼ł":953,"åĤħæ¸ħæī¬":954,"é¢Ĩ":955,"æŃ¦":956,"ĠåĤħæ¸ħæī¬":957,"ä¸Ģæł·":958,"åħ³":959,"çħ":960,"ç¨":961,"æķ¢":962,"è½¬":963,"åĸľ":964,"Ġèĩª":965,"ĠâĢĺ":966,"ĠåĴ":967,"Ġå¦Ĥæŀľ":968,"åħ«":969,"å¿Ļ":970,"åĬŁ":971,"å¤§çļĦ":972,"è¯¥":973,"Ġéĥ½":974,"åįİ":975,"åĮĸ":976,"æĿ¡":977,"çļĩ":978,"©ä¹Ĳ":979,"ç±":980,"æ·±":981,"ä½¿":982,"åĲĥ":983,"ä¸ĸ":984,"å¾Ģ":985,"çīĩ":986,"©ä¹Ĳéĺ³":987,"åŃĹ":988,"åĬł":989,"łä¸º":990,"ä¸ĥ":991,"æµģ":992,"ĠæīĢ":993,"æĢ»":994,"Ġçº":995,"å½±":996,"å®¹":997,"å¥ĩ":998,"åıĹ":999,"æĸĩ":1000,"ç»Ŀ":1001,"åĨ²":1002,"åĶ":1003,"æ¢":1004,"å®ģ":1005,"è¿ĩæĿ¥":1006,"Ġè½":1007,"Ġæĸ¹":1008,"ĠåıĪ":1009,"ä¼Ĺ":1010,"è¿Ļæł·":1011,"ä¸¤ä¸ª":1012,"è§£":1013,"ä»¶":1014,"è¿ĻéĩĮ":1015,"Ġè¦ģ":1016,"ĠæŃ£":1017,"ä¹ŀ":1018,"è¿ĳ":1019,"çĤ¹å¤´":1020,"åł":1021,"Ġèĭ":1022,"ç¡":1023,"åı¥":1024,"å¹²":1025,"å¦ĸ":1026,"è¡¨":1027,"¿ä¹ŀ":1028,"è½¦":1029,"åħĥ":1030,"æł¹":1031,"è§īå¾Ĺ":1032,"å®«":1033,"åĻ":1034,"Ġè´":1035,"Ġå¹":1036,"çļĦè¯Ŀ":1037,"æĴ":1038,"ĠæĿİ":1039,"æ¡":1040,"Ġå¤©":1041,"ä¹ĭåĲİ":1042,"Ġåİ":1043,"åŃ¦":1044,"å©":1045,"ä¹Ŀ":1046,"é²":1047,"Ġèµ":1048,"å¾·":1049,"ä¸ĭæĿ¥":1050,"åĲĪ":1051,"åĬ¿":1052,"ĠæĬ":1053,"å¤±":1054,"éĶĻ":1055,"æİĮ":1056,"åħĦ":1057,"ç´§":1058,"æ¼":1059,"åĩºäºĨ":1060,"èĩ³":1061,"ä¸Ģå£°":1062,"æĽ":1063,"å¸Ŀ":1064,"Ġçİ°":1065,"ä¸Ķ":1066,"æļĹ":1067,"ç²¾":1068,"è®¸":1069,"ä»»":1070,"åħŃ":1071,"Ġè¿Ļä¸ª":1072,"æĹ©":1073,"¨Ģ":1074,"æľį":1075,"Ġåħ¶":1076,"åĵį":1077,"ç«Ļ":1078,"åĪĢ":1079,"æĺ¯ä¸Ģ":1080,"æ£":1081,"è¶Ĭ":1082,"ä¸įä¼ļ":1083,"å¤«":1084,"«å·Ŀç§Ģ":1085,"çĶ±":1086,"æĭī":1087,"ä¸ĬçļĦ":1088,"ä½Ľ":1089,"è®¤":1090,"Ġæĥ³":1091,"ä½łä»¬":1092,"è¨Ģ":1093,"å®Ŀ":1094,"Ġä½łä»¬":1095,"å¸®":1096,"Ġåıªæĺ¯":1097,"æ·¡":1098,"çľĭçĿĢ":1099,"æµ·":1100,"åĵª":1101,"ä¸įèĥ½":1102,"åı¹":1103,"æĸŃ":1104,"åĿĲ":1105,"ä¹±":1106,"åĪ©":1107,"çł´":1108,"ç¼ĵ":1109,"äºļ":1110,"äº¤":1111,"Ġå¼":1112,"å¹¶":1113,"å¤Ł":1114,"è¡£":1115,"åı¤":1116,"å¤§äºº":1117,"éĤ£ä¸ª":1118,"èĭ¦":1119,"åİŁ":1120,"åħ½":1121,"è¶³":1122,"Ġæķ":1123,"ç¤":1124,"åıĮ":1125,"Ġå¿ĥ":1126,"Ġè°":1127,"çı":1128,"Ġå°ıéĽ·":1129,"å½¢":1130,"çķĮ":1131,"ç¾İ":1132,"å¡":1133,"é¡¿":1134,"çĶ·":1135,"æ²³":1136,"ä¸ľè¥¿":1137,"ä¸ŃçļĦ":1138,"çĿĽ":1139,"æĢĴ":1140,"åĸĿ":1141,"æ´»":1142,"åı¯èĥ½":1143,"èı":1144,"æĭ¿":1145,"åĪĻ":1146,"è¯Ĩ":1147,"å»":1148,"åĬŀ":1149,"éĢŁ":1150,"å£°éŁ³":1151,"ĠæĪ":1152,"æľĿ":1153,"çĬ":1154,"èĦļ":1155,"æ²ī":1156,"æĶ¶":1157,"å§ĭ":1158,"çĤ¼":1159,"èĩªå·±çļĦ":1160,"Ġåĳ":1161,"Ġä»¥":1162,"æĺŁ":1163,"åĳ¼":1164,"åĵĪ":1165,"æĹ¶éĹ´":1166,"çº§":1167,"ä¸įçŁ¥éģĵ":1168,"åĽ´":1169,"Ġé»":1170,"ä»¤":1171,"åĳ¨":1172,"ä¸¹":1173,"è®°":1174,"æķĻ":1175,"è¿Ļä¸Ģ":1176,"è¿ĻäºĽ":1177,"åĩłä¸ª":1178,"Ġçİ°åľ¨":1179,"ç®¡":1180,"éĿĻ":1181,"å¿ħ":1182,"åıį":1183,"ä¿Ŀ":1184,"**":1185,"æ´¾":1186,"Ġä¾¿":1187,"æĲ":1188,"éģ¥":1189,"æĢ§":1190,"åĺ´":1191,"Ġè®©":1192,"æ¶Ī":1193,"ä¸Ģä¸ĭ":1194,"è¿ĩåİ»":1195,"å®³":1196,"Ġèī":1197,"Ġé¡":1198,"èĭ¥":1199,"é¥":1200,"äºĨèµ·æĿ¥":1201,"ä½İ":1202,"éļı":1203,"éŃĤ":1204,"æıĲ":1205,"Ġ[":1206,"ĠæīĢä»¥":1207,"Ġçľ¼":1208,"éĴ±":1209,"ä¸Ģçľ¼":1210,"Ġä»İ":1211,"ĠåĨį":1212,"ĠéĿ":1213,"å®ĺ":1214,"ĠæĹł":1215,"éĽª":1216,"çķĻ":1217,"å¿ĥä¸Ń":1218,"éļĲ":1219,"æ¨":1220,"è°ģ":1221,"ĠæĢİä¹Ī":1222,"å¦ĤæŃ¤":1223,"éĹª":1224,"ä»£":1225,"Ġæģ":1226,"æľīä¸Ģ":1227,"èĮ":1228,"åı¶æŀ«":1229,"ĠçĽ":1230,"æĺİçĻ½":1231,"æĦŁè§ī":1232,"çĶµ":1233,"ĠèĦ":1234,"Ġä¸¤":1235,"åħ°":1236,"çľŁçļĦ":1237,"çľ¼çĿĽ":1238,"åĻ¨":1239,"éľĩ":1240,"èº«ä½ĵ":1241,"Ġéĩ":1242,"é¼":1243,"çĪ¶":1244,"æľ¯":1245,"Ġä¸ī":1246,"ĠèĻ½çĦ¶":1247,"æ¯Ĵ":1248,"æ¬¢":1249,"å·¨":1250,"ĠéĽ":1251,"ä¹ħ":1252,"èĻ½çĦ¶":1253,"å¼Ĥ":1254,"åºľ":1255,"ç³»":1256,"Ġè§":1257,"æĹģ":1258,"è¸":1259,"çªģçĦ¶":1260,"å·´":1261,"ç»ĵ":1262,"éħĴ":1263,"½çĦ¶":1264,"Ġæĭ":1265,"æķ´":1266,"å°Ķ":1267,"èĸ":1268,"Ġä¸Ģä¸ª":1269,"Ġç§":1270,"çľī":1271,"ĠèĢĮä¸Ķ":1272,"åįķ":1273,"å¸ĥ":1274,"è¯Ń":1275,"æĪ¿":1276,"åĪ¶":1277,"ä½ıäºĨ":1278,"æĳĩå¤´":1279,"åĽ¢":1280,"è·ĳ":1281,"çľĭåĪ°":1282,"å°½":1283,"éĤ":1284,"åľ£":1285,"æł¼":1286,"æĭĽ":1287,"ä¾Ŀ":1288,"æĺ¾":1289,"æĿİ":1290,"å®¶æĹı":1291,"ç»Ī":1292,"çĸĳ":1293,"Ġå°±æĺ¯":1294,"Ġ]":1295,"éľ²":1296,"åħĭ":1297,"ĠæĻ":1298,"æĿ¥çļĦ":1299,"èĦĳ":1300,"è¾¾":1301,"æĺĵ":1302,"Ġèº":1303,"æĸ°":1304,"åı£æ°Ķ":1305,"åĤ":1306,"åħ´":1307,"èº«ä¸Ĭ":1308,"Ġè´Ŀ":1309,"Ġéĺ":1310,"ç¾¤":1311,"æİī":1312,"æĶ»":1313,"çļĦå¤§":1314,"åĪĩ":1315,"å¨ĺ":1316,"æĿ¥äºĨ":1317,"å¨ģ":1318,"é²ģ":1319,"ä¸Ģèµ·":1320,"æĥ³åĪ°":1321,"Ġè¿Ļæĺ¯":1322,"äº®":1323,"Ġèī²":1324,"çŃĶ":1325,"çĨ":1326,"å¤ĩ":1327,"Ġå°Ĩ":1328,"åĨ°":1329,"æķ£":1330,"įéģ¥":1331,"æĭ³":1332,"æĪĳçļĦ":1333,"Ġä¸º":1334,"ç»Ĩ":1335,"åıªæĺ¯":1336,"åĳĬ":1337,"è¿ĺæľī":1338,"ä¸įè¿ĩ":1339,"ç¡®":1340,"å·®":1341,"å®Ĺ":1342,"å³":1343,"èĤ¡":1344,"æĭį":1345,"ä¹¦":1346,"ä¸Ģæ¬¡":1347,"æĸĹ":1348,"ç©¿":1349,"è¿Ļç§į":1350,"çļĦæĺ¯":1351,"é¬":1352,"åľ°æĸ¹":1353,"ĠçĦ¶":1354,"é¸":1355,"äºĨä¸Ģä¸ĭ":1356,"æ¥ļ":1357,"Ġåĭ":1358,"ä¸įä½ı":1359,"å±Ĥ":1360,"Ġæĸ¹äºĳ":1361,"çĭł":1362,"ä½łçļĦ":1363,"ĠæľĢ":1364,"å¤ľ":1365,"ĠçŃ":1366,"åİ»äºĨ":1367,"åİī":1368,"ç½Ĺ":1369,"è®º":1370,"ç´«":1371,"ä»Ĭå¤©":1372,"èĻİ":1373,"ªå®ģ":1374,"è§Ĩ":1375,"èĥĮ":1376,"åĩĨ":1377,"ĠçľŁ":1378,"Ġåı¶å¤©":1379,"åı¶å¤©":1380,"Ġèº«":1381,"å¢ĥ":1382,"æľª":1383,"åĮħ":1384,"èĨ":1385,"åĿĹ":1386,"Ġéļ¾":1387,"éĤ£äºĽ":1388,"æĮģ":1389,"æĬ¥":1390,"éĢģ":1391,"èĵ":1392,"å¤į":1393,"éĢįéģ¥":1394,"åıĭ":1395,"Ġå¾Ī":1396,"åĲĦ":1397,"Ġè¿ŀ":1398,"åŃ©":1399,"è®¡":1400,"éĨ":1401,"éĤ£ä¹Ī":1402,"æĬ¤":1403,"å¿ĥéĩĮ":1404,"èĳ":1405,"å«":1406,"é¢ĺ":1407,"æ¸©":1408,"ä»¿":1409,"ä»½":1410,"è·³":1411,"Ġèĭ¥":1412,"Ġæ¸©ä¹Ĳéĺ³":1413,"äºĨä¸Ģå£°":1414,"ç»Ń":1415,"ç»Ł":1416,"è¯·":1417,"ä¸įå¾Ĺ":1418,"ĠæŃ¤":1419,"èĴ":1420,"åĹ":1421,"åıĬ":1422,"è§Ĵ":1423,"ĠåĶ":1424,"åıĳçİ°":1425,"çļĦäºĭæĥħ":1426,"éĢĢ":1427,"ç«ŁçĦ¶":1428,"å¿į":1429,"Ġéļı":1430,"ĠçŃī":1431,"ä¸įåĪ°":1432,"éº":1433,"é¡¶":1434,"åį´æĺ¯":1435,"Ġç´«å·Ŀç§Ģ":1436,"é¬¼":1437,"æĮ¥":1438,"ä¸ĢèĪ¬":1439,"æĢĢ":1440,"å®¢":1441,"ĠåĲ¬":1442,"çĿĢä¸Ģ":1443,"æľīäºº":1444,"æº":1445,"çħ§":1446,"è¯´è¯Ŀ":1447,"çĭĤ":1448,"åĩºåİ»":1449,"æľīçĤ¹":1450,"ĠçĦ¶åĲİ":1451,"åº§":1452,"Ġäºº":1453,"éĽĨ":1454,"èĭ±":1455,"å¯¹æĸ¹":1456,"ç±»":1457,"è±¡":1458,"æĪĲäºĨ":1459,"ãĢĤ":1460,"æľŁ":1461,"æĤ¨":1462,"åĩºä¸Ģ":1463,"Ġæİ":1464,"éĹ®éģĵ":1465,"ĠéĢ":1466,"çļ®":1467,"ĠæĤ":1468,"ĠçļĦ":1469,"ĠåĽłä¸º":1470,"åħĪçĶŁ":1471,"æ¯«":1472,"åģľ":1473,"ä»¿ä½Ľ":1474,"ç¬ĳçĿĢ":1475,"Ġå±":1476,"æľ¨":1477,"Ġåĩł":1478,"åį«":1479,"æ°ĳ":1480,"åľ¨äºĨ":1481,"éĿ¢åīį":1482,"æķĮ":1483,"ĠåĪ°":1484,"æ±Ĥ":1485,"çĹĽ":1486,"æİ¨":1487,"å¼Ģå§ĭ":1488,"èĹ":1489,"å·§":1490,"è°¢":1491,"Ġèĩªå·±":1492,"ĠåİŁ":1493,"Ġåĭ¿ä¹ŀ":1494,"é¦Ļ":1495,"èĦī":1496,"èįī":1497,"èµ¶":1498,"Ġè¿":1499,"å¾ħ":1500,"æħ¢":1501,"åĨµ":1502,"åİĭ":1503,"æģ¶":1504,"çľĭäºĨ":1505,"ä¼Ļ":1506,"ħçĦ¶":1507,"æľĹ":1508,"èĤ¯":1509,"åĵģ":1510,"ä¸Ģç¬ĳ":1511,"çĵ":1512,"åħĦå¼Ł":1513,"åĽłä¸º":1514,"ä¼¼ä¹İ":1515,"åĬ²":1516,"Ġåģ":1517,"åĨ³":1518,"¿Ģ":1519,"âĢĶâĢĶ":1520,"è§Ĥ":1521,"å£°éģĵ":1522,"Ġç«Ł":1523,"ĠâĢĶâĢĶâĢĿ":1524,"çĴ":1525,"ĪçļĦ":1526,"åĩĿ":1527,"çİ©":1528,"Ġè¿ĻäºĽ":1529,"æĬĵ":1530,"åįĹ":1531,"çĪ±":1532,"ä¸½":1533,"ĠåĮ":1534,"ç¦ģ":1535,"å¦¹":1536,"Ġæ´":1537,"å¯Ĩ":1538,"Ġè¿ĺæĺ¯":1539,"æ¹":1540,"ĠåĴĮ":1541,"å®ĥ":1542,"æĦıæĢĿ":1543,"çĥŃ":1544,"çĽ®åħī":1545,"ĠèĦ¸":1546,"åºĶè¯¥":1547,"Ġçª":1548,"é»ĺ":1549,"éĺ´":1550,"ç§¦":1551,"é½":1552,"ä¼Ĺäºº":1553,"ĠåĹ":1554,"äºĨåĩł":1555,"æ®µ":1556,"Ġåī":1557,"æĵ":1558,"Ġè´Ŀè´Ŀ":1559,"éŃĶæĹı":1560,"Ġè§ģ":1561,"ĲæĢķ":1562,"éĥ½ä¸į":1563,"é¦ĸ":1564,"å±ķ":1565,"Ġç¥":1566,"é¡¾":1567,"Ġè·":1568,"Ġé»ĳ":1569,"å°ıéĽ·":1570,"æĩ":1571,"ĠçĽ´":1572,"åĲ¸":1573,"æ··":1574,"ä¸»ç¥ŀ":1575,"éĵģ":1576,"ĠåĪ«":1577,"Ġå§":1578,"çīĻ":1579,"èĥ¡":1580,"Ġè¿ĺæľī":1581,"èĦ¸ä¸Ĭ":1582,"ĠæĮ":1583,"æ¸©ä¹Ĳéĺ³":1584,"è¯´çļĦ":1585,"Ġè°ģ":1586,"èį¯":1587,"è´µ":1588,"éĩĮçļĦ":1589,"æ¿Ģ":1590,"åıĸ":1591,"Ġç§¦":1592,"ä¸ĢçĤ¹":1593,"æ®¿":1594,"éª¨":1595,"æĬ±":1596,"ä»ħ":1597,"Ġåĺ":1598,"æĿ¾":1599,"å¿µ":1600,"ĠåĪļ":1601,"éĿŀå¸¸":1602,"éĽ¨":1603,"Ġä¼":1604,"éĢĥ":1605,"å¥¥":1606,"ç´¢":1607,"èĻļ":1608,"Ġå·²":1609,"ķĬ":1610,"åŃĲçļĦ":1611,"çĮĽ":1612,"Ġéģĵ":1613,"åıĶ":1614,"ç¾½":1615,"èĬĤ":1616,"å·¥":1617,"çº¿":1618,"æ£®":1619,"è¿½":1620,"Ġä»Ģä¹Ī":1621,"ĠæĬĬ":1622,"ĠäºĮ":1623,"å¼ĢäºĨ":1624,"çıł":1625,"Ġä¸Ĭ":1626,"åŀ":1627,"Ġæīį":1628,"èĴĻ":1629,"å³°":1630,"éĿł":1631,"ç»´":1632,"ĠéĻĪ":1633,"ä¾¯":1634,"çĽ´æİ¥":1635,"è£ħ":1636,"Ġæ²¡æľī":1637,"åĭ¿ä¹ŀ":1638,"Ġå¾Ĳ":1639,"ĠåĬ":1640,"Ń¦":1641,"å¢¨":1642,"èĤī":1643,"éĨĴ":1644,"åı¯æĺ¯":1645,"ĠçĻ½":1646,"å¦Ļ":1647,"éº»":1648,"Ġçªģ":1649,"ä¸ĭåİ»":1650,"ç¤¼":1651,"æ¸ħæ¥ļ":1652,"æ¥¼":1653,"åı¸":1654,"æ¯į":1655,"å¾®å¾®":1656,"èĢ³":1657,"æĭħ":1658,"è¿ľä¸ľ":1659,"ĠåĢ":1660,"Ġè¡":1661,"ä¸¾":1662,"çĦ¶æĺ¯":1663,"ç¿»":1664,"Ġèĥ":1665,"ä¸ĢçĽ´":1666,"èµ°äºĨ":1667,"ç®Ģ":1668,"åľ°ä¸Ĭ":1669,"åı°":1670,"åĪº":1671,"èµ·äºĨ":1672,"å¥½åĥı":1673,"æ¸Ĳ":1674,"ä¸ªäºº":1675,"å¯Ł":1676,"å¦Ĥä½ķ":1677,"çĳ":1678,"å¼ķ":1679,"ĠéĽ·":1680,"Ġåħ¶å®ŀ":1681,"¢äºĨ":1682,"æł·åŃĲ":1683,"æłĳ":1684,"èĸĩ":1685,"æķĳ":1686,"æ±ī":1687,"ĠæĽ´":1688,"åŁŁ":1689,"ä¸įè¦ģ":1690,"åĲĽ":1691,"æĶ¯":1692,"ç¬¬ä¸Ģ":1693,"åĪĿ":1694,"çº±":1695,"ä¸¥":1696,"å®Ī":1697,"Ġèĥ½":1698,"ç½®":1699,"èĲ¥":1700,"åľŁ":1701,"æ¯Ľ":1702,"ä¸Ģå®ļ":1703,"åĳ³":1704,"æ¢¦":1705,"å¤ļå°ĳ":1706,"Ġåĸ":1707,"è¿Ĳ":1708,"ä¸ĭçļĦ":1709,"Ġåº":1710,"ä¸įäºĨ":1711,"æ²Ļ":1712,"å¥³äºº":1713,"éĿ¢çļĦ":1714,"éľĢ":1715,"!âĢĿ":1716,"ç±³":1717,"ä¿®çĤ¼":1718,"ĠæĶ":1719,"æ³¨":1720,"åĸľæ¬¢":1721,"ä¸ºäºĨ":1722,"åģ·":1723,"ç§ĺ":1724,"Ġæ°":1725,"ç¢İ":1726,"éĹ®é¢ĺ":1727,"èº«è¾¹":1728,"ç»§":1729,"æ¨¡":1730,"åĸĬ":1731,"ä¹ī":1732,"ä»¥ä¸º":1733,"åĺ¿":1734,"èĹı":1735,"ĠæĤ¨":1736,"å®ŀåĬĽ":1737,"ĠéĹ":1738,"Ġéķ":1739,"çļĦæīĭ":1740,"çļ±":1741,"è¯ī":1742,"è¾Ī":1743,"éģĩ":1744,"æĳĨ":1745,"å¸¦çĿĢ":1746,"æł¹æľ¬":1747,"å½Ĵ":1748,"èĽĩ":1749,"æĦ¿":1750,"æģ©":1751,"çļĦå£°éŁ³":1752,"ç»ĥ":1753,"Ġæµ":1754,"ļèĩ³":1755,"¢çĦ¶":1756,"èĪĴ":1757,"è¿ĩäºĨ":1758,"æ±Ĺ":1759,"çĶ²":1760,"åĳĨ":1761,"äºī":1762,"åĩºçİ°":1763,"å¼ŁåŃĲ":1764,"åĽ¾":1765,"éĻ©":1766,"çĦ":1767,"å¥½äºĨ":1768,"æĹłæ³ķ":1769,"Ġéļ¾éģĵ":1770,"Ġè¢":1771,"ä»·":1772,"éªĳ":1773,"å¿½çĦ¶":1774,"å¼ºèĢħ":1775,"èĦ¸èī²":1776,"æĻ¶":1777,"ĠĠ":1778,"ĠåĲĮ":1779,"è´¥":1780,"åĵªéĩĮ":1781,"çļĦå°ı":1782,"Ġ,âĢĿ":1783,"é»Ħ":1784,"å±ŀ":1785,"Ġé«ĺ":1786,"çľŁæĺ¯":1787,"å®Įåħ¨":1788,"èı²":1789,"æĻ®":1790,"äºĮåįģ":1791,"ä¹ĭä¸Ń":1792,"åıªæľī":1793,"ĠéŃ":1794,"éķĩ":1795,"Ġåıªè¦ģ":1796,"Ġ.âĢĿ":1797,"Ġå·²ç»ı":1798,"Ġè½»":1799,"è¢ĭ":1800,"Ġçºªå®ģ":1801,"è´¹":1802,"æī¿":1803,"±çº±":1804,"ä¸ĬäºĨ":1805,"éĺ²":1806,"åı·":1807,"ä¸ĭäºĨ":1808,"åĬ¡":1809,"æľĽçĿĢ":1810,"åĳĺ":1811,"ç®Ĺæĺ¯":1812,"ĠèĲ":1813,"å¨ĩ":1814,"¤äºĨ":1815,"Ġç¥ŀ":1816,"æĸ½":1817,"Ġæľ¬":1818,"ä¸įæķ¢":1819,"Ġé£":1820,"å¯Ĵ":1821,"æ´ŀ":1822,"éķ¿èĢģ":1823,"ä¸Ģéĺµ":1824,"å¼±":1825,"èĥ½å¤Ł":1826,"è´¨":1827,"èĥ¸":1828,"èĥľ":1829,"æķ¬":1830,"Ġä¹":1831,"çĽĺ":1832,"åŃĺ":1833,"ķç«Ł":1834,"å°ļ":1835,"¬éĹ´":1836,"åī¯":1837,"éĵ¶":1838,"Ġéĺ¿":1839,"ç¿¼":1840,"è°ĥ":1841,"åĪļæīį":1842,"èĩªçĦ¶":1843,"Ġåĵª":1844,"éĻ¢":1845,"ĠåĽĽ":1846,"ç¥ĸ":1847,"æĢģ":1848,"é½Ĳ":1849,"è¢į":1850,"Ġèĩ³":1851,"ç«¹":1852,"åħ¬åŃĲ":1853,"æŀª":1854,"çİĦ":1855,"Ġæīĭ":1856,"ç½ĳ":1857,"å°ĨåĨĽ":1858,"æĻ¯":1859,"Ġå®ŀ":1860,"éĻĪ":1861,"è£Ĥ":1862,"æ¯ı":1863,"éĻĨ":1864,"ä»ĺ":1865,"æĺ¯ä¸ª":1866,"Ġç«ĭ":1867,"å¸Į":1868,"å¤§åĵ¥":1869,"Ġè¿Ļä¸Ģ":1870,"åĮº":1871,"00":1872,"åı³":1873,"è¯´äºĨ":1874,"åĮĹ":1875,"åİĨ":1876,"ä¹ĭåīį":1877,"ĠéĤ£ä¸ª":1878,"åĬĽéĩı":1879,"æľīä»Ģä¹Ī":1880,"ĸåŃĲ":1881,"åı¥è¯Ŀ":1882,"æķħ":1883,"Ġç¬ĳ":1884,"çºª":1885,"Ġå½ĵçĦ¶":1886,"è´Ł":1887,"è½»è½»":1888,"åľĨ":1889,"åį·":1890,"æĦ£":1891,"ĠæĿİéĢįéģ¥":1892,"æı¡":1893,"æŃ¢":1894,"çľĭçľĭ":1895,"Ġéķ¿":1896,"æİĴ":1897,"Ġæ¯ı":1898,"ĠèĤ":1899,"Ġæł":1900,"--":1901,"Ġè¯·":1902,"åĽŀæĿ¥":1903,"ä¹ĭéĹ´":1904,"å§ĳ":1905,"èĤ©":1906,"å¸Ĥ":1907,"å¾Īå¤ļ":1908,"é¢¤":1909,"å°Ħ":1910,"å°Ĭ":1911,"Ġå¹¶":1912,"å¼Ħ":1913,"Ġä¸įæĺ¯":1914,"å§Ĳå§Ĳ":1915,"éĢł":1916,"ä¹Łæ²¡":1917,"æĳ¸":1918,"åıªèĥ½":1919,"åĲ¼":1920,"ç§°":1921,"åĲĮæĹ¶":1922,"å°¸":1923,"æĥ³è¦ģ":1924,"æĿ¿":1925,"Ġåıį":1926,"ĠæĦ":1927,"èľ":1928,"Ġåıªè§ģ":1929,"æ±Ł":1930,"Ġæ¸©":1931,"å²ģ":1932,"æ³¢":1933,"èŃ¦":1934,"ä»¥åĲİ":1935,"éĴŁ":1936,"å°ģ":1937,"Ġé©":1938,"Ġç®":1939,"åĩĨå¤ĩ":1940,"éĢī":1941,"å®¶çļĦ":1942,"åĶĲ":1943,"Ġéľ":1944,"äºĨä¸ª":1945,"çĨŁ":1946,"æŁ¥":1947,"æĸĻ":1948,"åĬŀæ³ķ":1949,"è®®":1950,"éĩĮéĿ¢":1951,"èİī":1952,"ĠæĿ¥":1953,"Ġè¢«":1954,"ä¸ĢäºĽ":1955,"çļĦéĤ£":1956,"çĥ¦":1957,"å°±ä¸į":1958,"å·¦":1959,"Ġçģ":1960,"å®¤":1961,"åĳĬè¯ī":1962,"è¿Ľåħ¥":1963,"ä¸Ĭåİ»":1964,"å®¶ä¼Ļ":1965,"å°¼":1966,"ç«ĭåį³":1967,"éľĢè¦ģ":1968,"éĢı":1969,"è°Ī":1970,"èĩ£":1971,"æĺ¯ä»Ģä¹Ī":1972,"Ġå¤©æ²³":1973,"åĿļ":1974,"åĵ¼":1975,"ĠçĪ":1976,"ä¸įçŁ¥":1977,"Ġæ¯Ķ":1978,"åıĤ":1979,"åłĤ":1980,"ĠçªģçĦ¶":1981,"è¹":1982,"èģļ":1983,"ç´«å·Ŀç§Ģ":1984,"äºĮäºº":1985,"è¯ķ":1986,"Ġå¿«":1987,"æĥ¨":1988,"äºĨä¸Ģçľ¼":1989,"Ġ(":1990,"é¡º":1991,"å¡Ķ":1992,"çĩ":1993,"ç»Īäºİ":1994,"ç¨ĭ":1995,"çĶ»":1996,"Ġçİī":1997,"ä½įç¥ŀ":1998,"åĴ¬":1999,"Ġä»ĸçļĦ":2000,"æĽ¾":2001,"åįĩ":2002,"åħ³ç³»":2003,"ĠçĶ¨":2004,"æĶ»åĩ»":2005,"Ġéĩĳ":2006,"ä¸ļ":2007,"çĿ¡":2008,"ĭåıĭ":2009,"æĬ¬":2010,"æĺ¯ä¸į":2011,"å®ŀåľ¨":2012,"å¥³åŃĲ":2013,"Ġçİĭ":2014,"æļ´":2015,"åĿı":2016,"ĠæĪĸ":2017,"æ½":2018,"ç¦»å¼Ģ":2019,"é¥Ń":2020,"ä¸Ģä¸ªäºº":2021,"ç£":2022,"ä½Ļ":2023,"åİīå®³":2024,"ä¼¯":2025,"èº«åĲİ":2026,"å¾Ĵ":2027,"å´":2028,"çī¹æŀĹ":2029,"çħĮ":2030,"çģŃ":2031,"å¡ŀ":2032,"æŃ»äºĨ":2033,"Ġæ³":2034,"ĠæģĲæĢķ":2035,"åĩºæīĭ":2036,"æĬķ":2037,"èī²çļĦ":2038,"Ġä¸ĭ":2039,"èĬĴ":2040,"ä¸ľæĸ¹":2041,"åķĨ":2042,"çº¦":2043,"åĲĵ":2044,"åķ¦":2045,"ĠåĲİ":2046,"ä¼¸":2047,"äºĨåı£æ°Ķ":2048,"åŃ©åŃĲ":2049,"Ġç«ŁçĦ¶":2050,"è¶ħ":2051,"èı²äºļ":2052,"ä¹°":2053,"å»·":2054,"ĠéŃĶ":2055,"è¯º":2056,"ä¹ĭåĬĽ":2057,"ĠåŃ":2058,"åĳµ":2059,"åİħ":2060,"çº·":2061,"æŀĹæĻļèį£":2062,"åĬ©":2063,"å¥½çļĦ":2064,"ç»ĻæĪĳ":2065,"ç«ĭåĪ»":2066,"Ġæ·":2067,"çľĭè§ģ":2068,"é»Ľ":2069,"åħ¶ä»ĸ":2070,"åį±":2071,"åİļ":2072,"éĢŁåº¦":2073,"ä»»ä½ķ":2074,"±ä»¬":2075,"çļĦç¥ŀ":2076,"åĪ°åºķ":2077,"æľĭåıĭ":2078,"Ġè¿Ļæł·":2079,"è¿ľå¤Ħ":2080,"Ġçī":2081,"Ġæĺİ":2082,"èĤ¯å®ļ":2083,"æĹ§":2084,"Ġæ²Ī":2085,"èħ¿":2086,"ç¬ĳäºĨ":2087,"ç¥¨":2088,"æŁĶ":2089,"æ¸¸":2090,"åĽł":2091,"Ġå¸Ŀ":2092,"ĠåıĮ":2093,"ä¸įå°ĳ":2094,"é«ĺæīĭ":2095,"ĠæĢ»":2096,"è¡¨æĥħ":2097,"æģ¨":2098,"ĠçŁ":2099,"çİ¯":2100,"Ġä¹Łæĺ¯":2101,"åĳĢ":2102,"åľ¨è¿ĻéĩĮ":2103,"Ġç´«":2104,"èĲ§":2105,"ĠçľĭåĪ°":2106,"åĺĽ":2107,"Ġåĩº":2108,"äºĨä¸ĭæĿ¥":2109,"äº¡":2110,"åįĸ":2111,"é¢Ĺ":2112,"è¯ģ":2113,"Ġåį³":2114,"ä¸įå¥½":2115,"å¨ħ":2116,"Ġé©¬":2117,"ĠåįĹ":2118,"ä¼ļåĦ¿":2119,"è§Ħ":2120,"æīĢæľī":2121,"åĵŃ":2122,"ç½ª":2123,"çķª":2124,"æĪĺå£«":2125,"éĺ¿":2126,"æ¦":2127,"èį¡":2128,"ĠåĢĴ":2129,"å°ıåŃĲ":2130,"æĿĥ":2131,"å¥¹çļĦ":2132,"åĽŀåİ»":2133,"Ġèı":2134,"æ»ļ":2135,"èģĶ":2136,"å¿ĺ":2137,"è½¯":2138,"Ġåįģ":2139,"é£ĺ":2140,"äººéĥ½":2141,"Ġé¡¿":2142,"åħħ":2143,"å¥Ķ":2144,"å»º":2145,"èµĦ":2146,"æīĳ":2147,"éĽķ":2148,"æľºä¼ļ":2149,"åĪĴ":2150,"ä¸ĸçķĮ":2151,"Ġåħī":2152,"Ġæķ´":2153,"éĩİ":2154,"Ġ)":2155,"å°ĸ":2156,"ĠéĤ£æĺ¯":2157,"æ³ª":2158,"çĬ¹":2159,"åļ":2160,"ĠèĬ":2161,"æ´ª":2162,"Ġå¤§äºº":2163,"Ġä½łæĺ¯":2164,"ç¬ĳå®¹":2165,"ªèİī":2166,"ªèİīå¨ħ":2167,"çĪĨ":2168,"æŀ¶":2169,"å¼ı":2170,"ıèĸĩ":2171,"çĽ¸ä¿¡":2172,"çŀ¬éĹ´":2173,"Ġè¶":2174,"å¹½":2175,"èĦ±":2176,"ĠåħĪ":2177,"æĮ¡":2178,"Ġé¾Ļ":2179,"ä¸īä¸ª":2180,"æĹģè¾¹":2181,"ĠåİŁæĿ¥":2182,"ç»§ç»Ń":2183,"åľ°è¯´":2184,"åĲ¬åĪ°":2185,"å¾Ĳ":2186,"é¡¿æĹ¶":2187,"çĥĪ":2188,"æ°ı":2189,"éĹ»":2190,"Ġç½":2191,"Ġæ±":2192,"åį°":2193,"åĵĪåĵĪ":2194,"Ġè®¸":2195,"ä¹ĭä¸ĭ":2196,"Ġæīĵ":2197,"æ¹ĸ":2198,"è¿ĺæ²¡":2199,"è¾ĥ":2200,"éªĤ":2201,"ç¼ĵç¼ĵ":2202,"Ġè¿Ļç§į":2203,"çģµéŃĤ":2204,"ç»Ŀå¯¹":2205,"çĭ¬":2206,"ĠåĹ¯":2207,"ä»ĩ":2208,"è¿Ļæł·çļĦ":2209,"å®«çħĮ":2210,"ç«Ļåľ¨":2211,"ä¸įåĩº":2212,"ä¸įåı¯":2213,"çŃł":2214,"¦å¤ĸ":2215,"æľĢåĲİ":2216,"Ġåħ¨":2217,"åĺ»":2218,"èĢĥ":2219,"Ġèµ°":2220,"Ġå°±ç®Ĺ":2221,"æ²»":2222,"ä¸Ģä¸Ŀ":2223,"çľ¼åīį":2224,"¹ç¾½":2225,"çľ¼ä¸Ń":2226,"Ġéĥ½æĺ¯":2227,"ç®Ń":2228,"åĪ«äºº":2229,"Ġçĭ":2230,"å°±è¦ģ":2231,"çŀª":2232,"éŁ":2233,"äº§":2234,"Ġè¿Ļæīį":2235,"ä»ĻåĦ¿":2236,"æģĲ":2237,"å¯»":2238,"æĩĤ":2239,"Ġä»Ĭå¤©":2240,"èŀ":2241,"ç»Ļä½ł":2242,"Ġåĵ¦":2243,"Ġ?!âĢĿ":2244,"æĥħåĨµ":2245,"çĭ¸":2246,"åħ»":2247,"æİ¢":2248,"ĠæĹ¢çĦ¶":2249,"ç»Łé¢Ĩ":2250,"å±Ģ":2251,"ä¸Ģçīĩ":2252,"èĪŀ":2253,"æĹĭ":2254,"çŁŃ":2255,"Ġç©":2256,"é¡»":2257,"éĩĬ":2258,"ä¸¤äºº":2259,"å¢Ļ":2260,"Ġç¬¬ä¸Ģ":2261,"çļĦèº«":2262,"å¥ĭ":2263,"Ġå¿½çĦ¶":2264,"æ¨ª":2265,"ĠèĢĮæĺ¯":2266,"Ġå¿ĥä¸Ń":2267,"è¿ĽäºĨ":2268,"æĬĸ":2269,"å¤ļäºĨ":2270,"åį¡":2271,"Ġåľ°":2272,"æĪĸ":2273,"Ġä»Ĭ":2274,"è¿Ľåİ»":2275,"Ġåĳ¨":2276,"åİ¥":2277,"ĠåĵĪ":2278,"ä¸Ŀæ¯«":2279,"Ġ;":2280,"ç©ºéĹ´":2281,"æĻĥ":2282,"éľľ":2283,"åĤ»":2284,"ç´«å·Ŀ":2285,"ç¦ı":2286,"ç®Ģåįķ":2287,"æīİ":2288,"éĹ¹":2289,"å¿įä¸įä½ı":2290,"Ġæł¹":2291,"ĠåķĬ":2292,"Ġåį´æĺ¯":2293,"è·Ŀ":2294,"ä¸īåįģ":2295,"åĨĴ":2296,"èĭĹ":2297,"Ġèĭ¥æĺ¯":2298,"èĩĤ":2299,"æµ®":2300,"¯çĿĢ":2301,"å«£":2302,"ç¡¬":2303,"æĬ½":2304,"Ġè·Ł":2305,"æĿĤ":2306,"å¼¹":2307,"åĢĴæĺ¯":2308,"çĴĥ":2309,"Ġåıĳ":2310,"æĭħå¿ĥ":2311,"ä¸«":2312,"å±ĭ":2313,"ĠåĲĮæĹ¶":2314,"éĶ¥":2315,"è¿ĺè¦ģ":2316,"èº²":2317,"ä¸īäºº":2318,"å©Ĩ":2319,"ä¿®ä¸º":2320,"èĽĭ":2321,"åĲŀ":2322,"ĠèĦ¸ä¸Ĭ":2323,"æ²Ī":2324,"èĵĿ":2325,"çĭ¼":2326,"ç©¶":2327,"Ġå¥¥":2328,"èĢĮå·²":2329,"çĪ¶äº²":2330,"æ´Ľ":2331,"èİ²":2332,"Ġ3":2333,"Ġè¿Ļä¹Ī":2334,"å¦Ĥæŀľ":2335,"Ġå¤ļ":2336,"åľ¨ä»ĸ":2337,"å£«åħµ":2338,"äºĨä»ĸ":2339,"åıĺå¾Ĺ":2340,"ä¼łæĿ¥":2341,"æĹĹ":2342,"å¥Ĺ":2343,"å¥ĩæĢª":2344,"çĶ·äºº":2345,"ä¸įçĶ±":2346,"ç¨³":2347,"Ġèı±çº±":2348,"ĠåĪĺ":2349,"æĴŀ":2350,"Ġå®ī":2351,"è®²":2352,"å±ħçĦ¶":2353,"ĠçľĭçĿĢ":2354,"çļĦåľ°æĸ¹":2355,"æį¢":2356,"çīĽ":2357,"å¾ĹåĪ°":2358,"ä¸´":2359,"çŃīäºº":2360,"ä¸įéĶĻ":2361,"çĥŁ":2362,"éĽ¾":2363,"Ġå¤§å®¶":2364,"ĠåĽŀ":2365,"ä¸įèµ·":2366,"æĤŁ":2367,"èħ¾":2368,"æĥľ":2369,"çĽĸ":2370,"å£®":2371,"åľĪ":2372,"æŁĦ":2373,"æ´ĭ":2374,"è§ģåĪ°":2375,"Ġæİ¥":2376,"åŃĲéĩĮ":2377,"ĠéĤ£äºĽ":2378,"éŃĶæ³ķ":2379,"Ġåīį":2380,"éģį":2381,"éĥ½æ²¡æľī":2382,"ĠåĪļæīį":2383,"å¾¡":2384,"èİ±":2385,"åĢ¼":2386,"åĨĽéĺŁ":2387,"ç¤º":2388,"æĭľ":2389,"çĶ·åŃĲ":2390,"çĬ¶":2391,"ä¸ģ":2392,"åıĳçĶŁ":2393,"çļĦæł·åŃĲ":2394,"åĩ¶":2395,"çĸ¯":2396,"è¿ĽæĿ¥":2397,"åĲįåŃĹ":2398,"æĬĹ":2399,"è¿·":2400,"èĩ´":2401,"æĮī":2402,"æİ§":2403,"è§ģè¿ĩ":2404,"Ġä½łè¯´":2405,"Ġç»Ī":2406,"ww":2407,"æ¶Īæģ¯":2408,"ä¹Łæ²¡æľī":2409,"æĦ¤":2410,"ĠåĿ":2411,"Ġä»¿ä½Ľ":2412,"Ġä½łè¿Ļ":2413,"æĹ©å°±":2414,"åĩłä¹İ":2415,"çķ¥":2416,"ç¢°":2417,"ç«¹çŃł":2418,"Ġå£":2419,"åĭĴ":2420,"Ġå¥½åĥı":2421,"Ġåįĥ":2422,"Ġè°¢":2423,"ĠæľĪ":2424,"è¿İ":2425,"æĮĳ":2426,"è®©ä»ĸ":2427,"å¹¸":2428,"Ġé¡¿æĹ¶":2429,"å¹¶ä¸į":2430,"è´£":2431,"æĶ¹":2432,"åģĩ":2433,"åľ¨è¿Ļ":2434,"Ġåĵ¼":2435,"ĠéĿĴ":2436,"èİ«":2437,"ĠçĶļèĩ³":2438,"ĠæĪĳå°±":2439,"éŀ":2440,"è®©äºº":2441,"çĹħ":2442,"Ġæ¢":2443,"åĴĮå°ļ":2444,"ä»Ķ":2445,"åı¯æĢķ":2446,"å¼Ģåı£":2447,"ĠéĶ":2448,"æ¶Į":2449,"Ġä¸ĩ":2450,"Ġæ»":2451,"çł¸":2452,"æ¡Į":2453,"ä¸ºä»Ģä¹Ī":2454,"äºĨä¸Ģä¸ª":2455,"çľīå¤´":2456,"çĺ":2457,"çĥ§":2458,"Ġåı¯ä»¥":2459,"è½°":2460,"æĭ¥":2461,"Ġåħ¬":2462,"å¤©åľ°":2463,"èĥĨ":2464,"èħ°":2465,"åĬŁå¤«":2466,"Ġä¸¤äºº":2467,"ĠèĬ±":2468,"ĠæĿĢ":2469,"éĹ·":2470,"å°ıå¿ĥ":2471,"Ġå¼ł":2472,"ĠåįĹå®«çħĮ":2473,"é²ľ":2474,"Ġä¸İ":2475,"ä¼ĳ":2476,"çĭ±":2477,"ä¸įåĲĮ":2478,"ä¹Łæľī":2479,"åĸĦ":2480,"ä¸įè§ģ":2481,"ç³Ĭ":2482,"Ġå¸Ī":2483,"å¥Ī":2484,"Ġç»Ļ":2485,"****":2486,"æī«":2487,"è¶£":2488,"ĠæĢ¥":2489,"éĻį":2490,"æŃ£åľ¨":2491,"æĹłæķ°":2492,"Ġè½¬":2493,"æķ´ä¸ª":2494,"ä¸įæĸŃ":2495,"çĤ¹çĤ¹å¤´":2496,"è®¤è¯Ĩ":2497,"æĸ¹äºĳ":2498,"è±«":2499,"åĨĻ":2500,"å¤§å®¶":2501,"æĢĶ":2502,"Ġå¤§å°ıå§Ĳ":2503,"Ġä¼¼ä¹İ":2504,"åįł":2505,"éĤ£éĩĮ":2506,"åĲ«":2507,"Ġæ´Ľ":2508,"ĠèĲ§":2509,"Ġå¼Ģ":2510,"ç»¿":2511,"ĠæĪĳæĺ¯":2512,"åħ¬ä¸»":2513,"Ġç¬¬äºĮ":2514,"æĹłæ¯Ķ":2515,"éĩįè¦ģ":2516,"èī¯":2517,"è¢Ń":2518,"ĠæŃ£æĸĩ":2519,"Ġèµµ":2520,"çĶ°":2521,"æ®ĭ":2522,"ä¸ĵ":2523,"ĠèĩªçĦ¶":2524,"åĳ¨åĽ´":2525,"åĪĺ":2526,"ç´ł":2527,"åĩłåĪĨ":2528,"ĠçĮ":2529,"å¹´çļĦ":2530,"æĻ®éĢļ":2531,"çľģ":2532,"Ġè¿Ļæ¬¡":2533,"èįĴ":2534,"ĠåºĶ":2535,"éĥ¨éĺŁ":2536,"ĠçĽ®":2537,"çīĮ":2538,"é²ģçī¹":2539,"åĲĲ":2540,"æĿĳ":2541,"Ġåıªæľī":2542,"è¿¹":2543,"å®ĭ":2544,"èĨĢ":2545,"Ġä¸įçŁ¥éģĵ":2546,"ĠæĶ¾":2547,"Ġåıªä¸įè¿ĩ":2548,"ĠçľĭæĿ¥":2549,"åģı":2550,"åĢŁ":2551,"¦åĪĻ":2552,"Ġèĩ³äºİ":2553,"Ġæ¯ķç«Ł":2554,"å®¹æĺĵ":2555,"Ġæŀľ":2556,"æĶ¾å¿ĥ":2557,"åĵįèµ·":2558,"æ·¡æ·¡":2559,"ĠçĽ´æİ¥":2560,"ä¹ł":2561,"è·ŁçĿĢ":2562,"äºĨåĩºæĿ¥":2563,"åł¡":2564,"èĦĳè¢ĭ":2565,"Ġè¿ĻéĩĮ":2566,"çļĦå¿ĥ":2567,"çĶµè¯Ŀ":2568,"å¸ĮæľĽ":2569,"Ġä¸įè¦ģ":2570,"éĤª":2571,"Ġäºİ":2572,"ĠæľĽ":2573,"æľ¬æĿ¥":2574,"éĻħ":2575,"åıĳåĩº":2576,"å¯Į":2577,"æľīäºĨ":2578,"æŁ³":2579,"Ġåĥ":2580,"Ġèĥ¡":2581,"Ġå¨":2582,"ĠåĲ¦åĪĻ":2583,"å¹´è½»":2584,"æĿ¯":2585,"ĠæĪĳä¹Ł":2586,"èļ":2587,"éĽĦ":2588,"éĶĭ":2589,"å¤©ä¸ĭ":2590,"çĤ¹äºĨ":2591,"ĠçĽ¸":2592,"æ»´":2593,"å²Ľ":2594,"Ġå¿ĥéĩĮ":2595,"æł¡":2596,"éŃĦ":2597,"æĥĳ":2598,"éĥ½æ²¡":2599,"åĽŀçŃĶ":2600,"è°ĵ":2601,"ä½ĵåĨħ":2602,"ĠéĻ¤äºĨ":2603,"Ġéļıåį³":2604,"å°±èĥ½":2605,"æĺ¥":2606,"å¿Ĩ":2607,"èŀį":2608,"ä»°":2609,"ä½¿çĶ¨":2610,"æĮº":2611,"æµħ":2612,"çļĩå¸Ŀ":2613,"æĺ¯åľ¨":2614,"ä¸ĬæĿ¥":2615,"ä¸Ģéģĵ":2616,"åĩŃ":2617,"è´Ŀè´Ŀ":2618,"ä¸įæĥ³":2619,"Ġæĳ":2620,"éĹŃ":2621,"å§ļ":2622,"çĮľ":2623,"ĠâĢĻ,":2624,"Ġä¼Ĺäºº":2625,"è·Ŀç¦»":2626,"ĠæĪĳæĥ³":2627,"ĠåĲĳ":2628,"å¯¼":2629,"é£Ł":2630,"åľ£åŁŁ":2631,"èĢģå¤´":2632,"æĬ¢":2633,"ç¬Ķ":2634,"å¤§éĻĨ":2635,"åĲŁ":2636,"å¤§å°ıå§Ĳ":2637,"è®©æĪĳ":2638,"æĤ²":2639,"ĠåŁ":2640,"åħ·":2641,"å¤«äºº":2642,"æĹ¦":2643,"æĦŁåĪ°":2644,"åĬ«":2645,"åŁº":2646,"å½ĵçĦ¶":2647,"çŃĶåºĶ":2648,"é¹":2649,"ĠæĻıèĸĩ":2650,"åħīæĺİ":2651,"åĭĩ":2652,"åŀĭ":2653,"Ġç»Ŀ":2654,"ä¸Ģçľĭ":2655,"ä½įéĿ¢":2656,"åºĬ":2657,"çºªå®ģ":2658,"ä¸Ī":2659,"åĪļåĪļ":2660,"çĭĹ":2661,"Ġä¸Ń":2662,"æĭ¼":2663,"åĿĲåľ¨":2664,"æĢİ":2665,"æį®":2666,"é¼»":2667,"ç«¯":2668,"åĲ¯":2669,"éķľ":2670,"å©·":2671,"åĩ¡":2672,"Ġæĺ¾":2673,"èµµ":2674,"Ġåĥı":2675,"åĪ°è¿ĻéĩĮ":2676,"å£ģ":2677,"Ġé£İ":2678,"ä»ĸä»¬çļĦ":2679,"ç©ºä¸Ń":2680,"ä¿®å£«":2681,"ĠéĤ£å°±":2682,"Ġ~":2683,"åºĹ":2684,"è®¸å¤ļ":2685,"çİĩ":2686,"ħåŃĲ":2687,"å¹ķ":2688,"åĽŀäºĭ":2689,"Ġ2":2690,"ç¼ĺ":2691,"åª":2692,"äººå®¶":2693,"åĩºæĿ¥çļĦ":2694,"Ġå±ħçĦ¶":2695,"Ľä¸ĭ":2696,"Ġ..":2697,"å±ģ":2698,"çĪ¹":2699,"ĠT":2700,"Įçĭ¸":2701,"çĿģ":2702,"çľŁæŃ£":2703,"çİīåħ°":2704,"è¯´è¿ĩ":2705,"éĽħ":2706,"å±ħ":2707,"æµĳ":2708,"ä¾ĿæĹ§":2709,"çľ¼ç¥ŀ":2710,"æĮĤ":2711,"çº³":2712,"èĮ¶":2713,"æµª":2714,"¥éģĵ":2715,"çĽĳ":2716,"Ġè¿Ļä½į":2717,"ĠæĹ©":2718,"çĸ¼":2719,"Ġå¸ĿæŀĹ":2720,"çļĦäºĭ":2721,"åħ¨éĥ¨":2722,"åĦ¿åŃĲ":2723,"è¿ħ":2724,"è¡£æľį":2725,"çĬ¹è±«":2726,"åĸ·":2727,"è¿Ļæīį":2728,"åį¿":2729,"Ġx":2730,"Ġ1":2731,"åķ¸":2732,"Ġè¯´éģĵ":2733,"çº¯":2734,"éķ¿çļĦ":2735,"Ġæł¹æľ¬":2736,"æ¬º":2737,"Ġæĸ¯":2738,"ĠéĿ¢":2739,"ç¾ŀ":2740,"èĻĳ":2741,"æ¦Ĥ":2742,"ä»¥åīį":2743,"ĠåºĶè¯¥":2744,"æĸ¹åĲĳ":2745,"åī§":2746,"å§ĳå¨ĺ":2747,"¢å¤į":2748,"ç¬¦":2749,"çĵ¶":2750,"è·ĥ":2751,"ä»Ķç»Ĩ":2752,"åĢį":2753,"ĠäºĶ":2754,"äººç±»":2755,"æĬµ":2756,"Ġèİ":2757,"å°¾":2758,"è¿Ļæ¬¡":2759,"çģ¯":2760,"æĺ¯æĪĳ":2761,"ä¼¼çļĦ":2762,"äºĨè¿ĩæĿ¥":2763,"Ġç¼":2764,"ä¸Ĭä¸Ģ":2765,"æģŃ":2766,"å®°":2767,"æłĩ":2768,"Ġçł":2769,"é©¬ä¸Ĭ":2770,"è¯ļ":2771,"å¹²ä»Ģä¹Ī":2772,"è¾ķ":2773,"æ³¨æĦı":2774,"çĽĽ":2775,"Ġä¹Łä¸į":2776,"æħ§":2777,"çĳ¶":2778,"ĠçĤ":2779,"Ġä¸¤ä¸ª":2780,"çº¸":2781,"æĻķ":2782,"æ¬²":2783,"èº«åŃĲ":2784,"éĤ£ç§į":2785,"ä¸Ģè¾¹":2786,"èµŀ":2787,"æŃ¤åĪ»":2788,"Ġä¸ºä»Ģä¹Ī":2789,"ç¾Ĭ":2790,"åħį":2791,"ä¿Ĭ":2792,"åħ¥äºĨ":2793,"å¤º":2794,"èĦĨ":2795,"æ¯Ķè¾ĥ":2796,"å¤§äºĨ":2797,"ä¸«å¤´":2798,"Ġä»Ļ":2799,"èįĲ":2800,"æĪı":2801,"å¯¹ä»ĺ":2802,"äºĨè¿ĩåİ»":2803,"è¯´ä»Ģä¹Ī":2804,"Ġåİ»":2805,"©è¾ķ":2806,"ç²ī":2807,"Ġå¸¦":2808,"åĲ¦":2809,"Ġå¤ª":2810,"è²":2811,"ĠçĶŁ":2812,"çľĭåĲĳ":2813,"æ¼Ķ":2814,"æĿĲ":2815,"çģ°":2816,"éŃĶåħ½":2817,"æ¢ħ":2818,"ĠéĤ£ä¹Ī":2819,"éĹ¨åı£":2820,"ĠæŃ»":2821,"ç²Ĺ":2822,"è¯¯":2823,"åĲ¬è§ģ":2824,"èĪĴå©·":2825,"æ¨¡æł·":2826,"äºĨåĲ§":2827,"Ġèį":2828,"åĲ¬å¾Ĺ":2829,"åĩĮ":2830,"Ġä½łæĢİä¹Ī":2831,"æĬĺ":2832,"å°ıçļĦ":2833,"éľ²åĩº":2834,"Ġä½İ":2835,"åĸĿéģĵ":2836,"çĦ°":2837,"Ġäºĳ":2838,"åŃĻ":2839,"ç»Ħ":2840,"åĸĥ":2841,"çļĦå¾Ī":2842,"åŃĶ":2843,"å²©":2844,"å¹¶æ²¡æľī":2845,"Ġä¸įçĶ±":2846,"ä¸¢":2847,"æľīçĿĢ":2848,"åı²":2849,"è´¢":2850,"è¡Ĺ":2851,"æ¤":2852,"ĠæĪĳçļĦ":2853,"åī©":2854,"æīĺ":2855,"æĪĴ":2856,"åıįåºĶ":2857,"ĠæĹłè®º":2858,"å¤©çļĦ":2859,"äº¬":2860,"±¼":2861,"Ġç»Īäºİ":2862,"ĠæľĢåĲİ":2863,"åľ¨ä¸Ģèµ·":2864,"èµĽ":2865,"å½©":2866,"çĩķ":2867,"æ¶Īå¤±":2868,"Ġc":2869,"Ġé¢":2870,"Ġå®ĥ":2871,"æ°ĶçļĦ":2872,"æĿŁ":2873,"å§ĵ":2874,"æī¾åĪ°":2875,"æŁĲ":2876,"æĿ¥è¶Ĭ":2877,"å¤ĸéĿ¢":2878,"©è¾ķé£İ":2879,"èĪį":2880,"éģ¿":2881,"Ġéĩį":2882,"ä¹ĺ":2883,"æ°Ķæģ¯":2884,"æĸ½å±ķ":2885,"Ġä¼ļ":2886,"çĤ¹äºĨçĤ¹å¤´":2887,"åľ°éĿ¢":2888,"è¯¸":2889,"è¿ĺä¸į":2890,"è½®":2891,"çļĦä¸Ģå£°":2892,"æ¾":2893,"éĺ»":2894,"çº¹":2895,"ĠåĶĲ":2896,"è§£éĩĬ":2897,"æģ¢å¤į":2898,"Ġéĵ":2899,"åĮ»":2900,"çªģåİ¥":2901,"ç¨į":2902,"ĠæŃ¤åĪ»":2903,"ä¹Łå°±":2904,"Ġä½łè¦ģ":2905,"åį±éĻ©":2906,"ĠæĪĳè¯´":2907,"Ġåį³ä½¿":2908,"åĬĽçļĦ":2909,"éº»çĥ¦":2910,"Ġæĸ¯çī¹æŀĹ":2911,"Ġç§¦æľĹ":2912,"ĠãĢĭ":2913,"èķĬ":2914,"å°±ä¼ļ":2915,"ç´¢èı²äºļ":2916,"è¿ĺåľ¨":2917,"Ġè¯´çĿĢ":2918,"ç¯":2919,"æĢ¥å¿Ļ":2920,"Ġç¾":2921,"åĬ¨æīĭ":2922,"éĤ¦":2923,"åı¹äºĨåı£æ°Ķ":2924,"å¼ĥ":2925,"éĤ£ä¸Ģ":2926,"ĠçŁ¥éģĵ":2927,"è®¨":2928,"ĠæŃ£æĺ¯":2929,"ä¸įå®ļ":2930,"è¾¾åĪ°":2931,"å¿Ĺ":2932,"Ġå¾·":2933,"åºŀ":2934,"è¾ĵ":2935,"ĠéĻĪå¢¨":2936,"ä½Ĩ":2937,"Ġå¥³":2938,"æĺ¯è°ģ":2939,"å¢ĥçķĮ":2940,"ä¹ĭäºº":2941,"èĪ¹":2942,"å©ļ":2943,"æĿĢäºĨ":2944,"Ġè¯´å®Į":2945,"ĠåİŁæľ¬":2946,"è°ĭ":2947,"Ġåı«":2948,"è¿Ł":2949,"ä¸įä¸Ĭ":2950,"åįģåĪĨ":2951,"ä¸ĢæĿ¡":2952,"å½»":2953,"æķĪ":2954,"åĨįæ¬¡":2955,"Ġå¾®":2956,"Ġæį":2957,"åĲİéĿ¢":2958,"æīĭä¸Ń":2959,"èĭį":2960,"çĭłçĭł":2961,"æħķ":2962,"å¯¹æīĭ":2963,"Ġå§ļ":2964,"æĦ¿æĦı":2965,"é±¼":2966,"æĥ§":2967,"æ»¡äºĨ":2968,"Ġä½ķ":2969,"æĸľ":2970,"éĢ¼":2971,"éĩįçļĦ":2972,"ĠæĻ¯":2973,"å¤§åįİ":2974,"çºµ":2975,"Ġå¤§åĵ¥":2976,"åħ¬åı¸":2977,"åĩĢ":2978,"éĻĲ":2979,"ĠæĦŁ":2980,"æĪ¿éĹ´":2981,"ĠåĲ¬åĪ°":2982,"ĠåĵĪåĵĪ":2983,"Ġéª":2984,"èº«ä»½":2985,"ç§»":2986,"åıĽ":2987,"çĤ¸":2988,"ĠåĲĦ":2989,"æĺ¯ä¸Ģä¸ª":2990,"æīįèĥ½":2991,"Ġçŀ":2992,"Ġ**":2993,"çļĦä¸ľè¥¿":2994,"èĽ®":2995,"Ġè¿ªèİīå¨ħ":2996,"è¿Ļä½į":2997,"ä¹ĭå¤ĸ":2998,"Ġæĥ³è¦ģ":2999,"åĤħ":3000,"ä¾§":3001,"âĢĶâĢĶâĢĶâĢĶ":3002,"åĬĪ":3003,"æīĭéĩĮ":3004,"ç²¾ç¥ŀ":3005,"ĠæŁ":3006,"è¾°":3007,"æĻ´":3008,"Ġ...":3009,"ä¸ĢæĬĬ":3010,"å¤§åľ°":3011,"æĢ¨":3012,"ĠæľīäºĽ":3013,"çļĨ":3014,"åħ¶ä¸Ń":3015,"æĺ¾çĦ¶":3016,"Ġç«ĭåį³":3017,"æĸ©":3018,"çĽ¯çĿĢ":3019,"è¿ľè¿ľ":3020,"èĻ«":3021,"ä¹Į":3022,"ç£¨":3023,"å·ŀ":3024,"å¦®":3025,"æĪĲä¸º":3026,"éªĹ":3027,"æĿ¥è¯´":3028,"Ġå¸Į":3029,"ä¸įçĶ¨":3030,"ç»ķ":3031,"æĽ¼":3032,"äºı":3033,"ä¸įåıĬ":3034,"è¸ı":3035,"æįŁ":3036,"éħį":3037,"çľĭæĿ¥":3038,"Ġå¯¹äºİ":3039,"ä¼ı":3040,"çĶŁåĳ½":3041,"æŀĹä¸ī":3042,"ĥæĺ¯":3043,"æµĭ":3044,"éĴ»":3045,"æĶ¿":3046,"ĠæĹ¶":3047,"éĻª":3048,"æŀģä¸º":3049,"æīŃ":3050,"ĠæĮī":3051,"ä½įç½®":3052,"Ġå®ŀåľ¨":3053,"Ġç½Ĺ":3054,"ä»ĭ":3055,"åħ±":3056,"æ¼ł":3057,"ä»Ĺ":3058,"åĪĹ":3059,"éģĵçĲĨ":3060,"èĤ©èĨĢ":3061,"æĭ©":3062,"Ġç¬¬ä¸ī":3063,"å¤§ç¬ĳ":3064,"éªĮ":3065,"å°ĳçĪ·":3066,"æĦŁè§īåĪ°":3067,"Ġä¿":3068,"èıľ":3069,"æĻº":3070,"Ġç»ĵ":3071,"æĦıçļĦ":3072,"é¼ĵ":3073,"ç§¦æľĹ":3074,"åŃĿ":3075,"ç¥Ń":3076,"åįģäºĮ":3077,"çłģ":3078,"è°·":3079,"åħ¨èº«":3080,"°è®¡":3081,"ä¸»å®°":3082,"åħ´å¥ĭ":3083,"å°ĺ":3084,"æ¯įäº²":3085,"è§¦":3086,"æĽ´æĺ¯":3087,"åĩºçļĦ":3088,"įçĦ¶":3089,"ä¸ĢæŃ¥":3090,"çļĦèĢģ":3091,"ĠåĴ±ä»¬":3092,"æĺĨ":3093,"è¿Ļä¹Īå¤ļ":3094,"é«ĺåħ´":3095,"ĠéŃĶæĹı":3096,"åºŁ":3097,"äºĨä¸Ģåı¥":3098,"Ġç´«å·Ŀ":3099,"èĻŀ":3100,"æİ¨èįĲ":3101,"çĪµ":3102,"æľµ":3103,"é¸£":3104,"çºł":3105,"å¢ŀ":3106,"Ġæ°´":3107,"æĽ´åĬł":3108,"æİĮéĹ¨":3109,"èµ·èº«":3110,"å·¨å¤§çļĦ":3111,"Ġæ¬":3112,"ä¸įå½Ĵ":3113,"å¸Ĳ":3114,"éĺ¶":3115,"éĴĪ":3116,"èģĮ":3117,"ä¼½":3118,"çļĦåľ°":3119,"æµ©":3120,"Ġåĺ¿":3121,"åįģä¸ĩ":3122,"æ³ķå®Ŀ":3123,"éĿĴå¹´":3124,"Ġ5":3125,"çĤİ":3126,"åı¹æģ¯":3127,"è®¶":3128,"æĺ¯ä¸įæĺ¯":3129,"æģ¼":3130,"ç´¯":3131,"äºĨä¸¤":3132,"åĽ°":3133,"æģ¶éŃĶ":3134,"å¹¿":3135,"æķĮäºº":3136,"è²Į":3137,"èģª":3138,"ĠåĨ·":3139,"Ġæľ¬æĿ¥":3140,"Ġåĩłä¹İ":3141,"ĠæĪĳä¸į":3142,"æ¯ģ":3143,"Ġåıªèĥ½":3144,"è¶ĬæĿ¥è¶Ĭ":3145,"åŃ¤":3146,"ĠæŁ³":3147,"ä¸įå¤ļ":3148,"ç§¯":3149,"æĬ¹":3150,"è±ª":3151,"ä»İæĿ¥":3152,"ä¾¿æĺ¯":3153,"æĤĦ":3154,"å¹»":3155,"Ġä¸įçŁ¥":3156,"åĨ¥":3157,"çļĦæĦŁè§ī":3158,"é¢Ħ":3159,"å·«":3160,"ä¸Ĭåīį":3161,"æ´Ĺ":3162,"å¾ģ":3163,"æľ¬äºĭ":3164,"å¸ħ":3165,"éĶģ":3166,"èĢĹ":3167,"æĭĶ":3168,"å¥½å¥½":3169,"çĨĬ":3170,"ĠæĻ¯å¤©":3171,"éĻ·":3172,"é¢ľ":3173,"ĠåĬł":3174,"è®¤ä¸º":3175,"ä¾į":3176,"ä¸Ģäºº":3177,"åıĮæīĭ":3178,"Ġå°±åľ¨":3179,"ç»Ļä»ĸ":3180,"ç¬¬äºĮ":3181,"æģĲæĢķ":3182,"Ġæµģ":3183,"ĠæĪĳçŁ¥éģĵ":3184,"åĩłå¤©":3185,"æĵ¦":3186,"æĿ¨":3187,"èµ¤":3188,"è®Ń":3189,"è®©ä½ł":3190,"èĪ¬çļĦ":3191,"èĳĹ":3192,"çĿĢä»ĸ":3193,"ĠæŀľçĦ¶":3194,"ĠæĪĳè¦ģ":3195,"èĸĦ":3196,"Ġåģ·":3197,"å¦Ī":3198,"å¥´":3199,"Ġå£°":3200,"æĺı":3201,"åĲ¹":3202,"åĩī":3203,"ç¼ł":3204,"ĠåĲ´":3205,"æ¬£":3206,"éģĩåĪ°":3207,"èĢģéģĵ":3208,"é¦Ĩ":3209,"æľīçļĦ":3210,"é»İ":3211,"ĠãĢĬ":3212,"éģĹ":3213,"å¹´åīį":3214,"å°ĳå¥³":3215,"çĪ·çĪ·":3216,"Ġåħ¶ä¸Ń":3217,"Ġåķ":3218,"çļĦçĽ®åħī":3219,"è¾¹çļĦ":3220,"Ġæķ´ä¸ª":3221,"éĩĩ":3222,"éĢĤ":3223,"å¦ĩ":3224,"åĩºäºĨä¸Ģ":3225,"ĠâĢĿ,":3226,"è¾ī":3227,"æĪĺæĸĹ":3228,"è¸ª":3229,"ç¬¼":3230,"çĻ»":3231,"Ġç¼ĵ":3232,"è¿ĺèĥ½":3233,"æĪĲçļĦ":3234,"Ġä»¥åĲİ":3235,"Ġä¸ºäºĨ":3236,"ä»ħä»ħ":3237,"åĥıæĺ¯":3238,"èģĬ":3239,"æ¼«":3240,"æĽ¾ç»ı":3241,"Ġ33":3242,"æ¡Ī":3243,"èµı":3244,"éĥ½åľ¨":3245,"æĽ²":3246,"çĴĩ":3247,"æĪ·":3248,"ä¸ĢåĬ¨":3249,"ä¿©":3250,"äº²èĩª":3251,"ä¿ĿæĬ¤":3252,"è®°å¾Ĺ":3253,"å¿§":3254,"ĠéĹ®":3255,"å¸ĿæŀĹ":3256,"æŃ»çļĦ":3257,"ç»´äºļ":3258,"åĪ©ç»´äºļ":3259,"éĶĲ":3260,"çħŀ":3261,"çĬ¯":3262,"å¿ĥåºķ":3263,"éĥ½æľī":3264,"åĤħæ¸ħæī¬çļĦ":3265,"æºĲ":3266,"ĠåĶī":3267,"çľ¨":3268,"åĮĨ":3269,"æŀļ":3270,"Ġæ®":3271,"éģŃ":3272,"Ġçľ¼ä¸Ń":3273,"éļ¾ä»¥":3274,"åĽŃ":3275,"éĽ¶":3276,"å¸ĪåħĦ":3277,"åį¢":3278,"åİŁæľ¬":3279,"è¿Ľè¡Į":3280,"åĴĮä½ł":3281,"Ġæ¢¦":3282,"å¯¹çĿĢ":3283,"è¯»":3284,"Ġæ°Ķ":3285,"çĲĥ":3286,"æĺİçĻ½äºĨ":3287,"æĨ":3288,"èĶ":3289,"æĿ¥åĪ°":3290,"èĥ½åĬĽ":3291,"Ġè¾":3292,"æĥ¹":3293,"è¢«äºº":3294,"åĨĽå®ĺ":3295,"è´¼":3296,"å¾®ç¬ĳ":3297,"Ġæļ":3298,"Ġå¦Ļ":3299,"Ġå¦Ĥä»Ĭ":3300,"æĲŀ":3301,"ç¢§":3302,"Ġä½łçļĦ":3303,"æµĵ":3304,"æİ©":3305,"åĽŀå¤´":3306,"ç¨Ģ":3307,"è¿ª":3308,"èĻ½":3309,"ä¼ĺ":3310,"å°±åľ¨":3311,"Ġç´¢":3312,"çľ¸":3313,"Ġå¹³":3314,"Ġæķ°":3315,"éĤ£æł·":3316,"åĨ³å®ļ":3317,"äºĴ":3318,"å¥³åĦ¿":3319,"Ġç´«èĭ±":3320,"ä¸Ĭä½įç¥ŀ":3321,"åĲķ":3322,"çĶļèĩ³":3323,"Ġæ»¡":3324,"åĪĨèº«":3325,"Ġæħ":3326,"éĺģ":3327,"æĬĢ":3328,"ç§ĭ":3329,"ç«łèĬĤ":3330,"é¼ł":3331,"Ġç¦":3332,"åľ¨åľ°ä¸Ĭ":3333,"è¯´å®Į":3334,"èµĮ":3335,"Ġä¸Ģå®ļ":3336,"åĶĩ":3337,"Ġäºİæĺ¯":3338,"å¨ľ":3339,"Ġé¡¹ç¾½":3340,"è¡¥":3341,"æıĴ":3342,"å¿ĥçļĦ":3343,"å¤©æ²³":3344,"æĤī":3345,"å¯º":3346,"åı¹éģĵ":3347,"æħĮ":3348,"åı¦å¤ĸ":3349,"èĿ":3350,"å°ĳå¹´":3351,"æŃ¦èĢħ":3352,"éļĲéļĲ":3353,"è®¾":3354,"æĹłå¥Ī":3355,"Ġå°ĳ":3356,"èĢģå¤§":3357,"Ġè½°":3358,"ç½©":3359,"Ġå·´":3360,"åĴĮæĪĳ":3361,"ä¸įåľ¨":3362,"åĲ´":3363,"ä¼ļæľī":3364,"åĢ©":3365,"Ġä¸Ģéģĵ":3366,"éªĳåħµ":3367,"æİīäºĨ":3368,"æĢľ":3369,"åħīèĬĴ":3370,"çļĦå¥½":3371,"ç§ģ":3372,"¯ä¸Ģ":3373,"æ²ĥ":3374,"è·ŁæĪĳ":3375,"å¦»":3376,"æ²¡æĥ³åĪ°":3377,"é¼İ":3378,"èģªæĺİ":3379,"å¿ł":3380,"éĻµ":3381,"Ġçģµ":3382,"ä»¶äºĭ":3383,"Ġè¯Ŀ":3384,"Ġå°ıè¯´":3385,"éĽªå¨ĩ":3386,"Ġä¸įç®¡":3387,"Ġæĸ¹ç«¹çŃł":3388,"ä¹ĭä¸Ĭ":3389,"æĥĬè®¶":3390,"Ġåģļ":3391,"èµ°åĪ°":3392,"åĤ²":3393,"éĥ½è¦ģ":3394,"çĶŁçļĦ":3395,"Ġå®ĭ":3396,"ĠæĪĲ":3397,"æįı":3398,"èĢĲ":3399,"åıĪæĺ¯":3400,"ä¸Ģä¸ĭåŃĲ":3401,"ĠçĽ®åħī":3402,"æ°¸":3403,"Ġç«ĭåĪ»":3404,"æİ§åĪ¶":3405,"äºĨæĪĳ":3406,"æĪª":3407,"å°±ç®Ĺ":3408,"ç½¢äºĨ":3409,"è£¹":3410,"çľĭäºĨä¸Ģçľ¼":3411,"Ġè¦ģæĺ¯":3412,"åĪ¤":3413,"åĳ½ä»¤":3414,"èķ":3415,"æĭ¦":3416,"ĠèĢģå¤§":3417,"ä¸įå¦Ĥ":3418,"å®½":3419,"å½ĵä¸Ń":3420,"Ġ~~":3421,"ä¸įè¯´":3422,"Ġç«Ļ":3423,"çīĩåĪ»":3424,"éĻĦ":3425,"åıĺæĪĲäºĨ":3426,"åłª":3427,"æĢİä¹Īæł·":3428,"æĶ¾åľ¨":3429,"åĪ«çļĦ":3430,"çļĦèº«ä½ĵ":3431,"æĦ§":3432,"æľĪå¦Ĥ":3433,"å¸Ŀéĥ½":3434,"çĥĤ":3435,"å·¥ä½ľ":3436,"æĥ¯":3437,"ä¹Łä¸įæĺ¯":3438,"çŁ¿":3439,"æĤł":3440,"åħĪå¤©":3441,"ĠãĢĤâĢľ":3442,"Ġå°±è¿ŀ":3443,"ĠæĿ¨":3444,"Ġåĺ´":3445,"Ġçºª":3446,"çļĦé»ĳ":3447,"çĥĪçļĦ":3448,"æĢĢéĩĮ":3449,"ĠèĻ":3450,"Ġå²":3451,"åľ°æĹ¶åĢĻ":3452,"ä¸Ńå¹´":3453,"Ġçº¢":3454,"Ġç¼ĵç¼ĵ":3455,"éļĨ":3456,"ç¥ŀéĢļ":3457,"åįĥä¸ĩ":3458,"ä»¶äºĭæĥħ":3459,"äºĨæĳĩå¤´":3460,"æī¹":3461,"æ¸Ĳæ¸Ĳ":3462,"è¾ĪåŃĲ":3463,"äºĨè¿Ļ":3464,"ç¼º":3465,"çłį":3466,"Ġè¡Ģ":3467,"æĪ´":3468,"åīįéĿ¢":3469,"èĳ£":3470,"æĹ©å·²":3471,"īå¼º":3472,"æĪĳä»¬çļĦ":3473,"æĳĩæĳĩå¤´":3474,"åľ°ä¸Ģ":3475,"éĥ½è¢«":3476,"æ¼Ĥ":3477,"Ġè½»è½»":3478,"åºŃ":3479,"Ġæ¸ħ":3480,"éĺ²å¾¡":3481,"Ġæĭī":3482,"æ²¹":3483,"ĠéĤ£æĪĳ":3484,"ç¼©":3485,"åĴĲ":3486,"è·ª":3487,"é¢¤æĬĸ":3488,"åįĪ":3489,"çľĭèµ·æĿ¥":3490,"ä¼¦":3491,"è½½":3492,"ä¼į":3493,"æľīäºĽä¸į":3494,"çªĹ":3495,"éĢīæĭ©":3496,"Ġç®Ĺ":3497,"ĠåįĬ":3498,"åįģä¸ī":3499,"åģļä»Ģä¹Ī":3500,"é¸Ł":3501,"éĢĴ":3502,"é¾":3503,"å¦Ĥä»Ĭ":3504,"èħ¹":3505,"Ġè´Ŀé²ģçī¹":3506,"¦Ĩ":3507,"èĢĢ":3508,"å¤´ä¸Ĭ":3509,"çĮ´":3510,"åłĨ":3511,"å°ıèĻİ":3512,"ä»»åĬ¡":3513,"è¿Ļæĺ¯":3514,"éħĭ":3515,"è¾Ĩ":3516,"æī¯":3517,"æĥ³æ³ķ":3518,"åħ¶å®ŀ":3519,"èĤļ":3520,"Ġå®¶":3521,"Ġä¸ĥ":3522,"ä¸ĢæĥĬ":3523,"Ġèĳ":3524,"çĶļ":3525,"çªľ":3526,"Ġåĵ¥":3527,"åĬ¨äºĨ":3528,"æ¯ķç«Ł":3529,"Ġå®ģ":3530,"åĪĻæĺ¯":3531,"ĠåĪĨ":3532,"ä½©":3533,"éĻ¤":3534,"åĬ²æľŁ":3535,"é¢ĩ":3536,"æī§":3537,"æ³°":3538,"éļĶ":3539,"Ġåħ¶ä»ĸ":3540,"çĦ¦":3541,"å¸ĿåĽ½":3542,"æĲŃ":3543,"ĠåıįæŃ£":3544,"·æĻ´":3545,"åĴĮä»ĸ":3546,"å¥¹ä»¬":3547,"èĭ¦ç¬ĳ":3548,"éĥ½ä¼ļ":3549,"èĤĥ":3550,"èĥĸåŃĲ":3551,"åıĺæĪĲ":3552,"åĬ³":3553,"é¸¡":3554,"åĬ¨ä½ľ":3555,"å¼¥":3556,"è¿ħéĢŁ":3557,"ä½łäºĨ":3558,"æ¸Ń":3559,"ĠéĤ£ä½ł":3560,"æĢªçī©":3561,"Ġä¸Ģè¾¹":3562,"Ġè®°":3563,"å¨ģåĬĽ":3564,"ĠæĪĸèĢħ":3565,"çĸ¯çĭĤ":3566,"ä¹ĺé£İ":3567,"ĠæĪĳçľĭ":3568,"è¯¡":3569,"ĠæŃ¤æĹ¶":3570,"ĠéŁ":3571,"ĠåĨĽ":3572,"çļĦå¤©":3573,"ä¸Ģåıª":3574,"æīĶ":3575,"åıĺåĮĸ":3576,"æĹ¥åŃĲ":3577,"æķ°åįģ":3578,"Ġå¸ĥ":3579,"åĨ·ç¬ĳ":3580,"åı«éģĵ":3581,"ç¬¬ä¸Ģæ¬¡":3582,"å¸ĪçĪ¶":3583,"Ġçºµ":3584,"å¤ı":3585,"Ġè£":3586,"Ġèĵ":3587,"åįģåħ«":3588,"Ġé²":3589,"èĮĥ":3590,"å¼ºå¤§":3591,"çģµåŃĲ":3592,"å®ľ":3593,"è´´":3594,"å¾Īæľī":3595,"åªļ":3596,"éĥ¨åĪĨ":3597,"ä¸Ģç§į":3598,"çģµåĦ¿":3599,"çıį":3600,"åŃĺåľ¨":3601,"ä¸įæĪĲ":3602,"ĠéĩĮ":3603,"ä¹ĸ":3604,"äºĨåįĬ":3605,"Ġå¾Ĺ":3606,"Ġç»ı":3607,"æĹıçļĦ":3608,"çĻ¾ä¸ĩ":3609,"è¿«":3610,"è¦ģæĺ¯":3611,"éĵľ":3612,"å¨ĥ":3613,"çķĻä¸ĭ":3614,"----":3615,"Ġæ²¡æĥ³åĪ°":3616,"æĿ°":3617,"Ġå¼º":3618,"äºĨåĩºåİ»":3619,"å¾Īå¿«":3620,"åĮĸä¸º":3621,"é²ľè¡Ģ":3622,"Ġèİ«":3623,"Ġä½łå°±":3624,"æĤ¬":3625,"æĺ¨":3626,"ä¸»äºº":3627,"çĹķ":3628,"æĳĩäºĨæĳĩå¤´":3629,"Ġco":3630,"Ġç»ĵæŀľ":3631,"ä¼ĳæģ¯":3632,"Ġ!!":3633,"åĴ±ä»¬":3634,"åĺ¿åĺ¿":3635,"å¸Ń":3636,"æ³ķæľ¯":3637,"å¿ħé¡»":3638,"ä¹Łä¸įçŁ¥éģĵ":3639,"æĸ¹éĿ¢":3640,"ĠéĿŀ":3641,"ä¸Ģæł·çļĦ":3642,"ĠçĮĽ":3643,"çĤ®":3644,"å¯¹äºİ":3645,"Ġéľ²":3646,"ĠæĪĸè®¸":3647,"çī¢":3648,"Ġèº«ä½ĵ":3649,"è¾£":3650,"å¥³åŃ©":3651,"åıĹåĪ°":3652,"Ġä¾Ŀ":3653,"æľīæīĢ":3654,"æīĭä¸ĭ":3655,"éĻĽä¸ĭ":3656,"åĭ¾":3657,"çļĦåĬĽéĩı":3658,"ä¸įåģľ":3659,"å°¸ä½ĵ":3660,"ä¹Łè¦ģ":3661,"æ²¡æľīä»Ģä¹Ī":3662,"çĶŁæ´»":3663,"æŃ£æĺ¯":3664,"äº¿":3665,"åĬª":3666,"åľ°çļĦ":3667,"æīĭä¸Ģ":3668,"åĽŀåĪ°":3669,"æĽ¿":3670,"å®¶æĹıçļĦ":3671,"åĩºæĿ¥äºĨ":3672,"å¤§åĨĽ":3673,"Ġç¨":3674,"Ġåį¡":3675,"ä¸įåı¯èĥ½":3676,"éĻ¶":3677,"Ġä¸įçĶ¨":3678,"çĪª":3679,"çľŁäºº":3680,"ĠæĹģ":3681,"Ġ?!":3682,"çĶĺ":3683,"æĺİæĺ¾":3684,"Ġå°¤":3685,"çĶŁæŃ»":3686,"è¦Ĩ":3687,"èĢĮåİ»":3688,"çĪ¬":3689,"å½ĵåĪĿ":3690,"ĠçĻ½å·Ŀ":3691,"Ġå¿į":3692,"éĥİ":3693,"éĶħ":3694,"æĺĬ":3695,"åĥ§":3696,"æ¿ĢåĬ¨":3697,"çļĦè¯´éģĵ":3698,"éĿ¢èī²":3699,"çļĦè¯´":3700,"èĬ·æĻ´":3701,"æĦķ":3702,"ä»Ļäºº":3703,"ç¥ŀèī²":3704,"éª¤":3705,"åŃĿå¤©":3706,"é¢Ŀ":3707,"æĸ¯çī¹æŀĹ":3708,"æķĻå»·":3709,"ä»£è¡¨":3710,"æī¶":3711,"ä¹Łä¸įä¼ļ":3712,"å¹³éĿĻ":3713,"åľ°äºº":3714,"æ±ł":3715,"ç«¥":3716,"çİĭåĽ½":3717,"èĦļæŃ¥":3718,"æĢ§åĳ½":3719,"Ġè¥¿":3720,"è¿ĺæ²¡æľī":3721,"æĩĴ":3722,"åħĶ":3723,"æĸ¹çļĦ":3724,"èĢĮåĩº":3725,"åı¦":3726,"Ġçķ":3727,"æĺĤ":3728,"çľ¯":3729,"æĢĢçĸĳ":3730,"Ġå±±":3731,"Ġæı":3732,"ç¬ĳäºĨèµ·æĿ¥":3733,"¶é²ģ":3734,"åı¤æĢª":3735,"ĠçľŁæĺ¯":3736,"å¾Ĺå¾Ī":3737,"éĹ¨çļĦ":3738,"å½ĵå¹´":3739,"åħ´è¶£":3740,"çĨŁæĤī":3741,"Ġä¹±":3742,"å¤´æĿ¥":3743,"æ³¥":3744,"Ġçī¹":3745,"æĪĸèĢħ":3746,"èĢĮè¨Ģ":3747,"Ġcom":3748,"ä¸įåĬ¨":3749,"çĶľ":3750,"éĹ²":3751,"æĵį":3752,"ç»ĻäºĨ":3753,"éŁ©":3754,"Ġè®¸èĪĴå©·":3755,"ĠæĪĺ":3756,"çļĦä¸Ģä¸ª":3757,"Ġåħ¬åŃĲ":3758,"¼æŃ¤":3759,"æĿĢæŃ»":3760,"åĬ¿åĬĽ":3761,"åħ½äºº":3762,"Ġåı¦å¤ĸ":3763,"å±±èĦī":3764,"Ġç´§":3765,"åĶ¤":3766,"Ġåį¢":3767,"æ³ķåĬĽ":3768,"é¡¹ç¾½":3769,"èīº":3770,"èĮ«":3771,"æĦıè¯Ĩ":3772,"éľĦ":3773,"æĻļä¸Ĭ":3774,"éĹªè¿ĩ":3775,"èĥĮåĲİ":3776,"ä¸¤ä½į":3777,"ĠæŃ¦":3778,"Ġåīĳ":3779,"çļĦç¡®":3780,"ĠçĶ±":3781,"å®īæİĴ":3782,"Ġæģ©":3783,"éŃĶç¥ŀ":3784,"åĲĦç§į":3785,"æ²īé»ĺ":3786,"Ġé¡¾":3787,"çļ±çľī":3788,"Ġèĳ£":3789,"éĢĶ":3790,"é¢Ĭ":3791,"çŀ§":3792,"åĲī":3793,"Ġå®Į":3794,"Ġç¬¬åĽĽ":3795,"æīįæĺ¯":3796,"å®¢æ°Ķ":3797,"åľ°çľĭçĿĢ":3798,"Ľå¦Ĥ":3799,"äºĨä¸ĭ":3800,"åĮ¹":3801,"çĮª":3802,"ĠåĵªéĩĮ":3803,"Ġww":3804,"çŀ³":3805,"Ġä¼¸":3806,"åįļ":3807,"æĦıå¤ĸ":3808,"æĪĺåľº":3809,"Ġå¦ĤæŃ¤":3810,"ĠæĢ¥å¿Ļ":3811,"åº·":3812,"æ³ķåĪĻ":3813,"ç¬ĳäºĨç¬ĳ":3814,"äºĨè§£":3815,"ĠèĦ¸èī²":3816,"Ġçģ«":3817,"æĥ³èµ·":3818,"æĳ©":3819,"æĿİéĢįéģ¥":3820,"æĹ¢çĦ¶":3821,"çĸ¾":3822,"ä¸ĢåĿĹ":3823,"ĠæŀĹä¸ī":3824,"æĮ£":3825,"æĶ¯æĮģ":3826,"ç»ıè¿ĩ":3827,"ĠæĽ":3828,"ĠéŁ©":3829,"ä¹Łä¼ļ":3830,"äºĨåĲĹ":3831,"ç»į":3832,"æµĳèº«":3833,"éĥ½èĥ½":3834,"æµħéĽª":3835,"ä¸°":3836,"åľ°è¯´éģĵ":3837,"è¯´çĿĢ":3838,"Ġç¬ĳéģĵ":3839,"æĦ¤æĢĴ":3840,"Ġç²":3841,"å¥ķ":3842,"è·¯ä¸Ĭ":3843,"æºľ":3844,"æħ¢æħ¢":3845,"æīĭæĮĩ":3846,"åĶĲé»Ľ":3847,"å¯Ĥ":3848,"Ġä¸Ģå£°":3849,"å¦ĸæĢª":3850,"Ġè°¢è°¢":3851,"çĺ¦":3852,"ĠæľĽçĿĢ":3853,"è¯Ģ":3854,"Ġwww":3855,"åĽĽä¸ª":3856,"ä»ĳ":3857,"äºĨä¸ĭåİ»":3858,"éĢĨ":3859,"èĢģèĢħ":3860,"æ»ĳ":3861,"ĠæĿľ":3862,"æľīä¸ª":3863,"ĠæŀĹå¤§äºº":3864,"å¼©":3865,"æĳĶ":3866,"éĥģ":3867,"Ġå¤ĸ":3868,"Ġåı¤":3869,"Ġä½łåı¯":3870,"å¤®":3871,"Ġåĵİ":3872,"è¸¢":3873,"å·¦åı³":3874,"Ġæ²ī":3875,"èĵī":3876,"çĪ¸":3877,"åĨĽçļĦ":3878,"Ġå¦Ļå«£":3879,"åıªè¦ģ":3880,"å¸Īå¸Ī":3881,"ht":3882,"åįģäºĶ":3883,"å±±çļĦ":3884,"Ġæĺ¯ä¸įæĺ¯":3885,"Ġé£ŀ":3886,"Ġæİ¥çĿĢ":3887,"Ġåĺ¿åĺ¿":3888,"Ġç´¢èı²äºļ":3889,"è¿ŀå¿Ļ":3890,"èĤ¤":3891,"ç¥¸":3892,"ä¸»æĦı":3893,"çļĦæĹ¶éĹ´":3894,"æ®¿ä¸ĭ":3895,"åīįçļĦ":3896,"åĲĮæł·":3897,"ä¸ĺ":3898,"ä¼Ĭ":3899,"èº¯":3900,"ĠèĤĸ":3901,"èª":3902,"Ġå§Ĳ":3903,"æĥ³çĿĢ":3904,"èİ·":3905,"èĦı":3906,"åģļçļĦ":3907,"ĠåĮħåŃĲ":3908,"å¯¹æĪĳ":3909,"çĪ½":3910,"è½»æĿ¾":3911,"æĢİä¹ĪåĬŀ":3912,"éĹ¯":3913,"èı±çº±":3914,"ãĢĤãĢĤ":3915,"çĽĪ":3916,"ç¤¾":3917,"æĬ¬å¤´":3918,"åľ¨åľ°":3919,"æģŃæķ¬":3920,"¤Ĳ":3921,"åĴ¯":3922,"ç©´":3923,"Ġå½ĵåĪĿ":3924,"ĠèĴ":3925,"Ġä¸īäºº":3926,"èĭı":3927,"ĠéĽª":3928,"Ġåı²":3929,"Ġåįĥåįĥ":3930,"å¹´çºª":3931,"å¼ºå¤§çļĦ":3932,"æŃ¦åĬŁ":3933,"åİŁåĽł":3934,"Ġæ¢¦çĴĥ":3935,"èºº":3936,"å¦ĤåĲĮ":3937,"åĨĽåĽ¢":3938,"æµģé£İ":3939,"å®ļäºĨ":3940,"å¯¹ä»ĸ":3941,"æŃ¤æĹ¶":3942,"ç´§å¼ł":3943,"âĢĺ":3944,"èĲ¨":3945,"¡çĦ¶":3946,"å½ķ":3947,"æĪĺäºī":3948,"å¤§éĩı":3949,"æĺĶ":3950,"Ġéĥ":3951,"åĽº":3952,"çĥģ":3953,"å¿½":3954,"å¯¸":3955,"éĵº":3956,"åĴĴ":3957,"ĠçľŁçļĦ":3958,"Ġä¸ĢçĽ´":3959,"ç´§ç´§":3960,"å®Ŀè´Ŀ":3961,"çĵ¦":3962,"Ġè½©è¾ķé£İ":3963,"Ġç©º":3964,"ĠçĤ¹":3965,"ĠéĤ":3966,"æĮ¥æīĭ":3967,"ĠéĶ¥":3968,"ä¸įå¯¹":3969,"Ġä½łä¹Ł":3970,"åĺ»åĺ»":3971,"ĠèĢģåŃĲ":3972,"åĴ¬çīĻ":3973,"Ġå°½":3974,"åĬĽæ°Ķ":3975,"æİ¥çĿĢ":3976,"å¿«çļĦ":3977,"çĹĽèĭ¦":3978,"å·ħ":3979,"ä¸ĬéĿ¢":3980,"Ġåı£":3981,"Ġåľ£":3982,"èĢĮæĿ¥":3983,"Ġåĳ¼":3984,"ä¹¡":3985,"äººäºĨ":3986,"çĭĲ":3987,"è¯´æĺ¯":3988,"èµ°åİ»":3989,"åĽĽåĳ¨":3990,"ĠæĪĳè¿Ļ":3991,"çľĭåİ»":3992,"è¡¨çİ°":3993,"Ġåħīæĺİ":3994,"æĬĬä»ĸ":3995,"Ġä¹Ŀ":3996,"ĠçĻ":3997,"å¿Į":3998,"åľĨæ»¡":3999,"åĩĳ":4000,"å¾ĹäºĨ":4001,"çĿĢçļĦ":4002,"æĤį":4003,"å´©":4004,"éĻ¤äºĨ":4005,"ĠéļĲ":4006,"Ġä»ĬæĹ¥":4007,"ä¸ĢåĲ¬":4008,"æĭ¾":4009,"Ġåħ³":4010,"è¡ĮäºĨ":4011,"Ġå¹¸":4012,"å½»åºķ":4013,"èĢĥèĻĳ":4014,"æĮ¤":4015,"åįģä¸Ģ":4016,"åĪĽ":4017,"æĪĪ":4018,"å°ıè¯´":4019,"è¿ŀè¿ŀ":4020,"çĿ£":4021,"æ¢ģ":4022,"è´§":4023,"é³":4024,"çº·çº·":4025,"ä»ĭç»į":4026,"çļĦèĦ¸":4027,"å¾ĹæĦı":4028,"ç¾İå¥³":4029,"æķħæĦı":4030,"è¿ĺçľŁ":4031,"èĲ§å®¶":4032,"æħ°":4033,"å¤ļå¹´":4034,"ä¹Łèĥ½":4035,"éĺµæ³ķ":4036,"èĽŁ":4037,"Ġåģ·å¤©":4038,"æīĭä¸Ĭ":4039,"ç¥ŀåħ½":4040,"èĭĮçĭ¸":4041,"åĵ¥åĵ¥":4042,"èµ¢":4043,"å¿ĥæĢĿ":4044,"æĪĲåĬŁ":4045,"Ġå·¦":4046,"ä¸§":4047,"ä¸Ģåı¥":4048,"Ġå¤´":4049,"åŁİåł¡":4050,"ĠçĪ¶":4051,"è½¬å¤´":4052,"Ġæĭ¿":4053,"Ġè¿ĩ":4054,"å§Ķ":4055,"å·®çĤ¹":4056,"èŁ":4057,"æŃī":4058,"Ġè¿ĻæĹ¶":4059,"åĭīå¼º":4060,"èĢģçĪ·":4061,"çĸĳæĥĳ":4062,"Ġå°¤åħ¶":4063,"Ġä¸įèĥ½":4064,"ä»Ģä¹ĪæĹ¶åĢĻ":4065,"æĤĶ":4066,"æĢİä¹ĪåĽŀäºĭ":4067,"Ġå£°éŁ³":4068,"©åĴĲ":4069,"æİł":4070,"ä¾Ľ":4071,"ĠæĹłæķ°":4072,"ä¹ĭèī²":4073,"ä¼łè¯´":4074,"å¦¹å¦¹":4075,"Ġç»Ŀå¯¹":4076,"éĦ":4077,"ç§ĳ":4078,"æĮĩæĮ¥":4079,"æ·±æ·±":4080,"èµĭ":4081,"åįģä¹Ŀ":4082,"çĶ¨çļĦ":4083,"çļĦè¡¨æĥħ":4084,"æĿľ":4085,"æİı":4086,"éľ¸":4087,"å¢ĵ":4088,"éĥ¨èĲ½":4089,"ĠåĪ°åºķ":4090,"æ²¡ä»Ģä¹Ī":4091,"åĨ·åĨ·":4092,"Ġ-":4093,"çľ¼éĩĮ":4094,"åĲĳäºĨ":4095,"ç¼ķ":4096,"æ½ľ":4097,"ĠéĻ¶":4098,"Ġå·§":4099,"æ®µæĹ¶éĹ´":4100,"æīĭæ®µ":4101,"åĵĢ":4102,"åıĤåĬł":4103,"Ģå±±":4104,"åĵ¼äºĨä¸Ģå£°":4105,"å°Ŀ":4106,"Ġä½¿":4107,"çļĩä¸Ĭ":4108,"èĢĮèµ·":4109,"å¼¯":4110,"åİ®":4111,"æīĵç®Ĺ":4112,"æĹłå£°":4113,"ä»ĻåŃĲ":4114,"ä¸Ģå®ļè¦ģ":4115,"Ġä»ĸæĺ¯":4116,"ä¹ĭä¸Ģ":4117,"Ġå¹´":4118,"ĠäºĮäºº":4119,"Ġç®Ģ":4120,"çļĦéģĵ":4121,"å¾ĭ":4122,"éĢĲ":4123,"Ġä¸ĢæĹ¦":4124,"æīĵéĩı":4125,"ç¼Ŀ":4126,"Ġä¸įä¼ļ":4127,"Ġæī¾":4128,"îĢ":4129,"µ®":4130,"æĭ³å¤´":4131,"Ġå¿įä¸įä½ı":4132,"å½±åĵį":4133,"è¯§":4134,"çľĭå¾Ĺ":4135,"èĥģ":4136,"åĺ´å·´":4137,"æ··ä¹±":4138,"ĠæľĿ":4139,"çľĭäºĨçľĭ":4140,"ĠåĮĹ":4141,"åĬŁæ³ķ":4142,"ĠæĮīçħ§":4143,"Ġæľª":4144,"èĪĮ":4145,"çŁ³å¤´":4146,"îĢĦ":4147,"æ¸¯":4148,"è¿Ļä¹Īä¸Ģ":4149,"çľĭåĪ°äºĨ":4150,"éĿ¢ä¸Ĭ":4151,"Ġå¯¹äºĨ":4152,"è½¬èº«":4153,"å·§å·§":4154,"ĠåŁİ":4155,"è´º":4156,"æ¸ħæĻ":4157,"è¾±":4158,"ä¸Ģä¸ªå°ı":4159,"Ġå¥½äºĨ":4160,"äºĨå£°":4161,"Ġè¦ģä¸į":4162,"ĠæĮĩ":4163,"ä¸ĢåĪĩ":4164,"ç©·":4165,"Ġè¡Į":4166,"Ġäºĭ":4167,"æĻĵ":4168,"Ġåįķ":4169,"ĠçŃīåĪ°":4170,"åŃĲä¸Ĭ":4171,"ĠåĲĥ":4172,"è¯į":4173,"ä»ĸä¸Ģçľ¼":4174,"çŁ©":4175,"è¾ŀ":4176,"çĿĢæĢ¥":4177,"é»ĳæļĹ":4178,"å¼ĵ":4179,"ä¼¸æīĭ":4180,"Ġæĺ¾çĦ¶":4181,"çĻ¾å¹´":4182,"Ġé»Ħ":4183,"çľŁæ°Ķ":4184,"é½¿":4185,"æ¼Ĥäº®":4186,"ĠèĴĻ":4187,"ä¹Łå¾Ī":4188,"å»¶":4189,"çļĦè¡Ģ":4190,"æĺ¯ä½ł":4191,"åľ¨ä¸Ģ":4192,"è¿ĩçļĦ":4193,"ĠéĤ£å°±æĺ¯":4194,"äººçī©":4195,"å¤§å¸Ī":4196,"å½ĵæĹ¶":4197,"äºĳé£İ":4198,"è¯Ńæ°Ķ":4199,"åĮħåŃĲ":4200,"è¿ªèİīå¨ħ":4201,"åĩºçİ°åľ¨":4202,"å±Ī":4203,"æ»¡æĺ¯":4204,"ç¾İä¸½":4205,"ĠåĪ°äºĨ":4206,"ĠåĲİæĿ¥":4207,"æŃ£å¸¸":4208,"æŁ±":4209,"Ġç»§":4210,"ĠåĻ":4211,"é¡¹":4212,"Ġåĩłä¸ª":4213,"Ġåħ«":4214,"å®īåħ¨":4215,"ĠåıįèĢĮ":4216,"é£ŀåīĳ":4217,"ä¸»åĬ¨":4218,"ĠåħŃ":4219,"çģµæ°Ķ":4220,"æļĤ":4221,"å¦Ļå«£":4222,"å°±æľī":4223,"æĦĪ":4224,"æ´ģ":4225,"éķ¿åīĳ":4226,"Ġå¹²":4227,"æ¯«ä¸į":4228,"Ġè¡¨":4229,"èŀįåĲĪ":4230,"æĭĸ":4231,"åŁĭ":4232,"æĴĴ":4233,"Ġæ·±":4234,"Ġè¶Ĭ":4235,"æŀľçĦ¶":4236,"æĬ¤åį«":4237,"æķı":4238,"éĥ¡":4239,"çļĦæ°Ķ":4240,"æļĸ":4241,"çļĦçľĭçĿĢ":4242,"åħ¸":4243,"èķ´":4244,"å¼ĢæĿ¥":4245,"æĳĨæīĭ":4246,"ĠçĿ":4247,"å¼ĺ":4248,"Ġç¬¬äºĶ":4249,"æĿ¡ä»¶":4250,"æľ«":4251,"ä¸Ĭä¼ł":4252,"Ġçİĭå°ıèĻİ":4253,"ä¸įå¤ª":4254,"åŃ½":4255,"åĬĿ":4256,"Ġæľīäºº":4257,"ä¸ĢéĹª":4258,"è¯¢":4259,"åĲİéĢĢ":4260,"ä½İå£°":4261,"Ġè¿Ļä¸Ģæ¬¡":4262,"åĲ¯èĩ£":4263,"æī°":4264,"ĠçİĦ":4265,"ĠçĽ´åĪ°":4266,"èĤ²":4267,"æ¶Ĥ":4268,"è¯¡å¼Ĥ":4269,"æĸ¥":4270,"Ġåı¯æĥľ":4271,"ĠåĲķ":4272,"ĠæĢ§":4273,"éĹªçĥģ":4274,"åįģåĩł":4275,"å°º":4276,"Ġè¿Ļå°±æĺ¯":4277,"èĥİ":4278,"ĠæĢķ":4279,"åľ¨æĪĳ":4280,"æ®Ĭ":4281,"Ġæ´ĽåĩĿ":4282,"åºĵ":4283,"èİİ":4284,"ä¸Ģåı£æ°Ķ":4285,"å®¶éĩĮ":4286,"æīĢè°ĵ":4287,"ä¸ĥåħ«":4288,"éª¤çĦ¶":4289,"æĢİæł·":4290,"æł¸":4291,"åħĥç¥ŀ":4292,"éľĩæĥĬ":4293,"ĠåĮĸ":4294,"ĠåĸĿ":4295,"è¯Ĺ":4296,"çŁ¥éģĵäºĨ":4297,"æ¡¥":4298,"æħ¨":4299,"é¤Ĳ":4300,"å®£":4301,"é«ĺçļĦ":4302,"è½»æĺĵ":4303,"æ¶©":4304,"ä»ĬæĹ¥":4305,"Ġè§ģåĪ°":4306,"Ġå¨ģ":4307,"Ġå·§å·§":4308,"ä¸ĢèĤ¡":4309,"å±ĳ":4310,"ä¸Ģçķª":4311,"Ġåħĥ":4312,"é©¬è½¦":4313,"åįĥå¹´":4314,"æĸ¯å¡Ķ":4315,"Ġè¶³":4316,"Ġæ¶":4317,"æŀĹéĽ·çļĦ":4318,"éĺŁä¼į":4319,"æ£į":4320,"èĵ¬":4321,"éģĵäºº":4322,"Ġä¸įéĶĻ":4323,"åĽŀæĿ¥äºĨ":4324,"Ġå°±åĥı":4325,"æīįåŃĲ":4326,"éĩĳå±ŀ":4327,"ĠâĢĻãĢĤ":4328,"Ġçĸ":4329,"çĽĹ":4330,"ä¸Ģå¤©":4331,"Ġéħ":4332,"Ġä½łä¸į":4333,"èĤĮ":4334,"ä¼łéŁ³":4335,"è§£åĨ³":4336,"æĴķ":4337,"Ġå§Ĳå§Ĳ":4338,"çļĦæĦıæĢĿ":4339,"èĢ»":4340,"æĭĵ":4341,"ä¾ĭ":4342,"å°Ĩé¢Ĩ":4343,"éĥĳ":4344,"æ»¡èĦ¸":4345,"æŃ¦åĻ¨":4346,"Ġå¾Ģ":4347,"çģ«çĦ°":4348,"ä»ĻéŁ³":4349,"å¿ĺè®°":4350,"åįģåħŃ":4351,"çłĶ":4352,"èº«ä¸ĬçļĦ":4353,"çĿĢèĦ¸":4354,"çĽ¾":4355,"å¼ºçļĦ":4356,"Ġå½ĵæĹ¶":4357,"åİ»æī¾":4358,"å¤ªå¤ļ":4359,"Ġ200":4360,"åĴ³":4361,"çŀĴ":4362,"ĠĠĠ":4363,"æ¬ºè´Ł":4364,"ç¥ŀç§ĺ":4365,"éĿĴæĹĭ":4366,"Ġè¿ľä¸ľ":4367,"çªģçł´":4368,"å®³æĢķ":4369,"Ġçĥ":4370,"éªĩ":4371,"å§ļèķĬ":4372,"åĲ©åĴĲ":4373,"å¤įæĿĤ":4374,"Ġçİīä¼½":4375,"Ġä½łçľĭ":4376,"ĠèĤ¯":4377,"ĠåĤħ":4378,"Ġä¸ĢèĪ¬":4379,"å·ħå³°":4380,"å¥½å¥ĩ":4381,"åĨįè¯´":4382,"ä»Ĩ":4383,"æĺ¯æľī":4384,"çĽŁ":4385,"Ġé¡º":4386,"çĩĥ":4387,"æ½®":4388,"æħĪ":4389,"ĠéĻ¤":4390,"Ġåĳ¨åĽ´":4391,"èĦĸåŃĲ":4392,"åĤ¬":4393,"ç¡®å®ŀ":4394,"èĳµ":4395,"å¸®å¿Ļ":4396,"éŀŃ":4397,"ĠC":4398,"åľ°çĭ±":4399,"äºĨä¸ĢäºĽ":4400,"æı´":4401,"ç¢Ĺ":4402,"æĴĩ":4403,"çļĦå°±æĺ¯":4404,"åĸĺ":4405,"ç©¿çĿĢ":4406,"æķ²":4407,"å¿ĥå¤´":4408,"Ġä¹Łä¸įçŁ¥éģĵ":4409,"Ġé¦":4410,"è¡Įçľģ":4411,"ç¦»å¼ĢäºĨ":4412,"åī©ä¸ĭ":4413,"Ġå¸¦çĿĢ":4414,"æīĢä»¥":4415,"éĢļè¿ĩ":4416,"çĹ´":4417,"ä¸ĭéĿ¢":4418,"å§¬":4419,"Ġè¯¸":4420,"éĿłè¿ĳ":4421,"å¤§å£°":4422,"é¥°":4423,"ĠåĶĲé»Ľ":4424,"æĺ¯è¦ģ":4425,"æĪĳå°±":4426,"æŀĿ":4427,"Ġå¿ħ":4428,"ä¹ĥæĺ¯":4429,"æ³Ľ":4430,"æĭ¥æľī":4431,"æŁĵ":4432,"æĴĳ":4433,"è¦ģæ±Ĥ":4434,"åĶ±":4435,"æĭīä½ı":4436,"Ġèº«åŃĲ":4437,"ĠåĿĲ":4438,"å¥ī":4439,"æĭĴ":4440,"èĥ¸åı£":4441,"åĴ§":4442,"èĨĬ":4443,"ä¹ĭæŀģ":4444,"æ²¡äºĭ":4445,"Ġè¯¥":4446,"å°±è¢«":4447,"ä¸Ńå¤®":4448,"éľŀ":4449,"ĠåĩĿ":4450,"ç»ĩ":4451,"åĢ¾":4452,"æĸŃäºĨ":4453,"ä¸¹çĳ¶":4454,"ä½łæĺ¯":4455,"ç½¢":4456,"é²ģåħĭ":4457,"Ġæ¸©æħ§":4458,"ĠèĤ¯å®ļ":4459,"åŀĤ":4460,"ä¸Ģç¾¤":4461,"ä¸įè¡Į":4462,"å¤©é¾Ļ":4463,"ĠæĥĬ":4464,"çĶŁæĦı":4465,"èī³":4466,"éļıçĿĢ":4467,"Ġå¾Ĳå°ıå§Ĳ":4468,"æīĭä¸ŃçļĦ":4469,"ä¸ľå¹³":4470,"ĠæİĮ":4471,"Ġä¼°è®¡":4472,"éĩįæĸ°":4473,"ç²®":4474,"ä¸įæĺİçĻ½":4475,"ç§Ĵ":4476,"è¾Ľ":4477,"æĬĬæı¡":4478,"éĶĻäºĨ":4479,"Ġè§ī":4480,"ĠåĢĴæĺ¯":4481,"ä¸Ģè·¯":4482,"å°±åĥı":4483,"è§ģä»ĸ":4484,"æ¶²":4485,"ä¸įæ¸ħ":4486,"çĶ¨åĬĽ":4487,"è§ĦçŁ©":4488,"Ġä¹Łå°±æĺ¯":4489,"Ġæ´ª":4490,"æĭ¬":4491,"ä¸ºéļ¾":4492,"åĲ¬äºĨ":4493,"å°ıæĹ¶":4494,"æ³Ħ":4495,"çķı":4496,"èĢģå©Ĩ":4497,"è¿Ļè¯Ŀ":4498,"çīµ":4499,"Ġè®©ä»ĸ":4500,"åıĭä¸Ĭä¼ł":4501,"hu":4502,"ĠæĪĳåĴĮ":4503,"åı¯å°±":4504,"Ġé»İ":4505,"é«":4506,"è¿ĻèĪ¬":4507,"å¨ģèĥģ":4508,"æ¯«æĹł":4509,"æĢģåº¦":4510,"åİĨåı²":4511,"æĬļ":4512,"Ġå¤«":4513,"æĮĩçĿĢ":4514,"éŃĶæ³ķå¸Ī":4515,"åĩĦ":4516,"è±¹":4517,"æ¢¦çĴĥ":4518,"å±ģèĤ¡":4519,"åĹ¤":4520,"Ġç§¦ä»ĻåĦ¿":4521,"èº«æĹģ":4522,"å¿ĥæĥħ":4523,"å·®ä¸įå¤ļ":4524,"æĬĵä½ı":4525,"ç®ĢçĽ´":4526,"è´Łè´£":4527,"æŁ¯":4528,"³èĨĬ":4529,"çļĦæĥħ":4530,"Ġç¡":4531,"Ġæ±Ĥ":4532,"åĳ³éģĵ":4533,"äº§çĶŁ":4534,"¾æ°Ķ":4535,"ä¼´":4536,"æīĵäºĨä¸ª":4537,"çİĦå¥¥":4538,"Ġå¡":4539,"ä¸įåģļ":4540,"äºĨä½ł":4541,"ä¸ĢçĻ¾":4542,"åħĥç´ł":4543,"ä¸»ç¥ŀä¹ĭåĬĽ":4544,"ä¸ºä½ķ":4545,"********":4546,"éĢļéģĵ":4547,"æĬ¬èµ·":4548,"éĽĢ":4549,"èįīåİŁ":4550,"åĵĹ":4551,"Ġèĥ¡ä¸įå½Ĵ":4552,"èĢģå¸Ī":4553,"Ġä½ľ":4554,"æ·±å¤Ħ":4555,"Ġxi":4556,"è¢ĸ":4557,"çĽ¸å½ĵ":4558,"æ°¸è¿ľ":4559,"åŁİçļĦ":4560,"ĠæĪĳä¼ļ":4561,"åºĻ":4562,"Ġæĺ¥":4563,"ĠåĨ²":4564,"çĽ®çļĦ":4565,"æľĢè¿ĳ":4566,"Ġæ³ķ":4567,"Ġé«ĺéħĭ":4568,"Ġå®Įåħ¨":4569,"åıĭä¸Ĭä¼łç«łèĬĤ":4570,"æ³ī":4571,"ä¾¿å®ľ":4572,"Ġå½ĵå¹´":4573,"ĠåĴ¦":4574,"ĠèĭĮçĭ¸":4575,"åı¬":4576,"å±±ä¸Ĭ":4577,"ç¿¼ç¿¼":4578,"å¹´è½»äºº":4579,"æ´Ĵ":4580,"æĶ¹åıĺ":4581,"çİīèĭ¥":4582,"ç»ĵæŀľ":4583,"åħµä»¬":4584,"Ġç¬¬åħŃ":4585,"è´µæĹı":4586,"ä¹ĭå¤Ħ":4587,"æĲľ":4588,"Ġçľ¼çľĭ":4589,"éļıä¾¿":4590,"èł":4591,"ĠåĽł":4592,"äºĨä»Ģä¹Ī":4593,"çªĿ":4594,"Ġå¯¹æĸ¹":4595,"å§Ĺ":4596,"Ġè§īå¾Ĺ":4597,"ç¥ŀè¯Ĩ":4598,"åįģå¹´":4599,"æĭ¼åĳ½":4600,"ä¸Ģä»¶":4601,"ä¹Łä¸įæķ¢":4602,"å¿µå¤´":4603,"ä¼ļçļĦ":4604,"ä¸Ģä¸ªä¸ª":4605,"å£¶":4606,"è¶Ł":4607,"ĠéĶ¥åŃĲ":4608,"çµ®":4609,"Ġå°±ç®Ĺæĺ¯":4610,"æĹıéķ¿":4611,"åĥµ":4612,"ĠæĬ±":4613,"æĺĨä»ĳ":4614,"Ġåı¯æĺ¯ä»ĸ":4615,"åĨħçļĦ":4616,"åıĹä¼¤":4617,"æĭĽåĳ¼":4618,"ä»ª":4619,"èº«çļĦ":4620,"äºĨä¸Ģéĺµ":4621,"èĢģæĿ¿":4622,"æĦŁæĥħ":4623,"ĠçļĦç¡®":4624,"è¿Ķ":4625,"æĬĽ":4626,"éĿ¢åŃĲ":4627,"Ġæĥĳ":4628,"Ġå·®":4629,"ä¸¤ä¸ªäºº":4630,"Ġåĳµ":4631,"Ġèĥ½å¤Ł":4632,"è¢«ä»ĸ":4633,"æĥĬåĳ¼":4634,"Ġæ·¡":4635,"æ¸ħæĻ°":4636,"ç»µ":4637,"å®ĮäºĨ":4638,"ç´«èĭ±":4639,"ç¨ĭåº¦":4640,"Ġçĩ":4641,"æīĵå¼Ģ":4642,"ä¸įåĨį":4643,"ĠæŀĹæľĪå¦Ĥ":4644,"Ġå¹¶ä¸Ķ":4645,"è¶³å¤Ł":4646,"çľĭçļĦ":4647,"çĮ´åŃĲ":4648,"çļĦå®ŀåĬĽ":4649,"å¹ħ":4650,"å¤´çļĦ":4651,"çŃĸ":4652,"æĺ¾å¾Ĺ":4653,"èĭ±éĽĦ":4654,"ĠåĪ°æĹ¶åĢĻ":4655,"Ġä¸ľæĸ¹":4656,"èĥ³èĨĬ":4657,"ç¿ł":4658,"ä¿Ŀè¯ģ":4659,"æºĥ":4660,"Ġå¾Ĳæ¸Ń":4661,"å¾®å¾®ä¸Ģç¬ĳ":4662,"Ġåıĺ":4663,"æĢĸ":4664,"ä¸ŃéĹ´":4665,"å¤©ä½¿":4666,"éĤ£è¾¹":4667,"Ġæĺ¨":4668,"æĥĬåĸľ":4669,"ç§ĺå¯Ĩ":4670,"åĩı":4671,"æŃ£æĸĩ":4672,"å¸ģ":4673,"åºĦ":4674,"ä¿Ĺ":4675,"Ġå¾ħ":4676,"é»ĳçĻ½":4677,"åįĬåħ½äºº":4678,"ä¹ŁçŁ¥éģĵ":4679,"è·Łä½ł":4680,"éĩįä¼¤":4681,"çŃīçĿĢ":4682,"Ġèµ·":4683,"æĪĴæĮĩ":4684,"å°¬":4685,"Ġçħ":4686,"åĴķ":4687,"éĤ£ä¹Īå¤ļ":4688,"æ¸Ĭ":4689,"Ġå·¨":4690,"ä»į":4691,"åĿĢ":4692,"é©¾":4693,"åĳµåĳµ":4694,"çļĦåīĳ":4695,"ä»ĸæĺ¯":4696,"åįģä¸ĥ":4697,"éĶ®":4698,"å°ĳçĤİ":4699,"èħķ":4700,"ĠåĪļåĪļ":4701,"åİĮ":4702,"´å°¬":4703,"äºĭåĦ¿":4704,"åĲ¬è¯´":4705,"å·²ç»ıæĺ¯":4706,"çģµçŀ³":4707,"Ġæľīä»Ģä¹Ī":4708,"Ġè¿ŀå¿Ļ":4709,"ĠåĶ¯":4710,"èľĢå±±":4711,"åĩĽ":4712,"å¸®åĬ©":4713,"åį¦":4714,"Ġ:âĢĿ":4715,"ĠæĪĳè¿ĺ":4716,"æĬĬæĪĳ":4717,"åĩłä¸ªäºº":4718,"é¥¶":4719,"çļĦé«ĺ":4720,"ä¸įæĩĤ":4721,"åľ°éģĵ":4722,"¹ģ":4723,"æĻĮ":4724,"æ¬ł":4725,"æľ¨åħ°":4726,"æĥ¨åı«":4727,"Ġå¥¥åĪ©ç»´äºļ":4728,"ä¸ĢæĦ£":4729,"å¥¶":4730,"æĥ³äºĨ":4731,"Ġå°ıå¿ĥ":4732,"çļĦäººçī©":4733,"èĨĿ":4734,"æ»ĭ":4735,"æĸ¯é»İ":4736,"æĶ¶æĭ¾":4737,"ç»ıåİĨ":4738,"è´Ŀé²ģçī¹":4739,"Ġä»¤":4740,"èĢ³è¾¹":4741,"é³ŀ":4742,"çº§çļĦ":4743,"æĿ¥å¾Ĺ":4744,"æĭ¨":4745,"æĮ¯":4746,"é¾Ļè¡Ģ":4747,"çıŃ":4748,"åĩºå£°":4749,"è§ģäºĨ":4750,"è®©å¥¹":4751,"Ġåį´åıĪ":4752,"çĦ¶éģĵ":4753,"åīįè¿Ľ":4754,"æĸ¹ç«¹çŃł":4755,"åħ¨åĬĽ":4756,"éªĳå£«":4757,"èİ±å¾·":4758,"Ġæ¡":4759,"åĿĬ":4760,"åĻ¬":4761,"å¼Ĥå¸¸":4762,"äºĨäºĽ":4763,"ä¸ĢèĦ¸":4764,"çĤ¹å¤´éģĵ":4765,"èĩ³é«ĺ":4766,"èĦĳæµ·":4767,"èº¬":4768,"èĩªå·²":4769,"éĶ¤":4770,"é©»":4771,"Ġçľĭèµ·æĿ¥":4772,"æ¡ĥ":4773,"Ġèµ¶":4774,"èĥ¡äºº":4775,"ä»·åĢ¼":4776,"èĮĥåĽ´":4777,"ĠæĺŁ":4778,"Ġæ®¿":4779,"å¤´åıĳ":4780,"åĪĥ":4781,"ĠéĴ":4782,"ç¬ĳç¬ĳ":4783,"å·²ç»ıè¢«":4784,"åĲįçļĦ":4785,"è½¬è¿ĩ":4786,"åĺ´è§Ĵ":4787,"Ġä¼Ĺ":4788,"å¤´é¡¶":4789,"ĠåĨħ":4790,"éĶ¥åŃĲ":4791,"ä¹ĭäºĭ":4792,"å¥½å¤Ħ":4793,"Ġä½ĵ":4794,"çĶŁæ°Ķ":4795,"å½¼æŃ¤":4796,"äºĨä¸Ģä¸Ŀ":4797,"åĩºä¸Ģä¸Ŀ":4798,"·çļĦ":4799,"äº«":4800,"åĩ¤":4801,"æŃĮ":4802,"é¼»åŃĲ":4803,"Ġåħĭ":4804,"ç´«å·Ŀå®¶":4805,"ä¸Ńä½įç¥ŀ":4806,"æĳĬ":4807,"å²¸":4808,"è¶³æľī":4809,"Ġç©¿":4810,"æ³½":4811,"ä¾µ":4812,"å¤ªè¿ĩ":4813,"å¤ĦçĲĨ":4814,"Ġè®°ä½ı":4815,"ä¸Ģåº§":4816,"å¤§æ¦Ĥ":4817,"çĲĨè§£":4818,"Ġä¹Į":4819,"ĠåıĪæĺ¯":4820,"å¹¶ä¸įæĺ¯":4821,"è¸©":4822,"ĠéĢļ":4823,"èĢģä¸ī":4824,"å¾Īéļ¾":4825,"åĺ¶":4826,"æĤ¦":4827,"çĲ¼":4828,"Ġçľ¼çĿĽ":4829,"ĠæĻ®":4830,"çľŁæŃ£çļĦ":4831,"Ġä¸įçĦ¶":4832,"æķ°çĻ¾":4833,"Ġå¾Īå¤ļ":4834,"ä¸ĢåĲį":4835,"éģ®":4836,"Ġè¯´ä¸įå®ļ":4837,"åĲĥæĥĬ":4838,"éĽĨåĽ¢":4839,"èĢģåŃĲ":4840,"è¿Ļä¹Īè¯´":4841,"åŃ¦æł¡":4842,"åıĮçľ¼":4843,"æĬ«":4844,"å¤´åİ»":4845,"èº«å½¢":4846,"åĵĳ":4847,"çī¹æ®Ĭ":4848,"å§¿":4849,"200":4850,"æľīæ²¡æľī":4851,"æĪ®":4852,"è®°å¿Ĩ":4853,"æ¯Ľçºł":4854,"æľīä¸Ģä¸ª":4855,"Ġæ²Īéĺ³":4856,"çĽĴ":4857,"ĠåĪĻ":4858,"å¼Łå¼Ł":4859,"èº«å½±":4860,"æĻ¨":4861,"æĥ³è±¡":4862,"çĻ½çļĦ":4863,"Ġè¿ĻæĹ¶åĢĻ":4864,"å°ĳåį¿":4865,"è¯§å¼Ĥ":4866,"æĵħ":4867,"åģļåĪ°":4868,"Ġæ²ĥ":4869,"å¹²åĩĢ":4870,"ä¸Ńå¹´äºº":4871,"ä¼Ł":4872,"é»ĳèī²":4873,"åĳĬè¯īä½ł":4874,"åĲĵå¾Ĺ":4875,"©æ¯Ľçºł":4876,"æĸ¤":4877,"åİ»çļĦ":4878,"ä¸Ģåı£":4879,"æĢ»éķ¿":4880,"åĶ¯ä¸Ģ":4881,"ä¿ĥ":4882,"ĠèĢ¶é²ģ":4883,"åıĹäºĨ":4884,"ç»ĵæĿŁ":4885,"Ġæĳĩ":4886,"åı£ä¸Ń":4887,"çļĦä¸į":4888,"Ġä½łæĥ³":4889,"èµ·æĿ¥äºĨ":4890,"Ġæµĳ":4891,"éĩįéĩį":4892,"ĠæĹ¥":4893,"æĿĢæīĭ":4894,"ŀå°ĳåį¿":4895,"ä¸įç¦ģ":4896,"ç»ıéªĮ":4897,"æĬĬè¿Ļ":4898,"Ġåľ¨ä»ĸ":4899,"Ġå¯¹çĿĢ":4900,"åĳ¼åĲ¸":4901,"ĠéļıåĲİ":4902,"Ġç¾İ":4903,"æµİ":4904,"åĬªåĬĽ":4905,"Ġåįİ":4906,"ç¼ĸ":4907,"è¿Ļä¸ªäºº":4908,"éĨī":4909,"ĠçĬ":4910,"å¤§éĺµ":4911,"ä¾ĿçĦ¶":4912,"Ġä½łè¿ĺ":4913,"éĤ£ä½į":4914,"çİ©ç¬ĳ":4915,"åĮª":4916,"ĠæĢİ":4917,"çĮĽçĦ¶":4918,"Ġå¾ĲèĬ·æĻ´":4919,"ĠåıĮæīĭ":4920,"Ġèģ":4921,"ä¸Ĭç¬¬ä¸Ģ":4922,"æ±ĩ":4923,"åı¶æŀ«çļĦ":4924,"å±ŀäºİ":4925,"éħ¸":4926,"ĠçĽĸ":4927,"å°±åı¯ä»¥":4928,"æ¶¦":4929,"ç±į":4930,"èĭ¥æĺ¯":4931,"èĤĸ":4932,"Ġå¦ĸ":4933,"æĴ¤":4934,"å¯»æī¾":4935,"æ·¡æ·¡çļĦ":4936,"ĠåħĦ":4937,"çľŁåľ°":4938,"éĵĥ":4939,"è§ĨçĿĢ":4940,"åģ·åģ·":4941,"Ġæ²ĥé¡¿":4942,"å¤ļä¹ħ":4943,"ç½ļ":4944,"èĢ³æľµ":4945,"æľĽäºĨ":4946,"ä¸ĢèĪ¬çļĦ":4947,"ç¹ģ":4948,"ĠI":4949,"çº§å¼ºèĢħ":4950,"ĠéĿł":4951,"åĩºçİ°äºĨ":4952,"Ġ_":4953,"ĠäºĨ":4954,"ä¸Ģä¼ļåĦ¿":4955,"æĪĳæĺ¯":4956,"éĴ¢":4957,"èªĵ":4958,"ä¸Ģåľº":4959,"æł·çļĦ":4960,"æĹłè®º":4961,"ĠèĦļ":4962,"è§Ĥå¯Ł":4963,"ä¹łæĥ¯":4964,"Ġä»ĸä¹Ł":4965,"Ġä¸įæķ¢":4966,"ç¥ŀæĥħ":4967,"å®¶äºº":4968,"ĠæĹĭ":4969,"èĦļä¸ĭ":4970,"å¥¸":4971,"çĶ©":4972,"å¦ŀ":4973,"èįĨ":4974,"æľªå¿ħ":4975,"æĬ±çĿĢ":4976,"Ġåı³":4977,"åīįæĸ¹":4978,"Ġä¸ĢèĤ¡":4979,"æŃ»äº¡":4980,"Ĩåĵ":4981,"ä¸Ģå¤´":4982,"ä¸ĢæĢĶ":4983,"å¤ĸçļĦ":4984,"è®¡åĪĴ":4985,"ĠéļıçĿĢ":4986,"éĺħ":4987,"å¥½åĩł":4988,"è¡ĮåĬ¨":4989,"Ġåıĳçİ°":4990,"ç¬¼ç½©":4991,"åįĬä¸ª":4992,"å¿ħè¦ģ":4993,"æĺ¯ä»ĸ":4994,"åĲĥé¥Ń":4995,"æĭ¿çĿĢ":4996,"Ġç¬¬äºĮåįģ":4997,"è¡«":4998,"Ġå¿½":4999,"åįĥåįĥ":5000,"ç¬¬ä¸ī":5001,"Ġè¦ģçŁ¥éģĵ":5002,"ĠåįĹå®«çħĮéģĵ":5003,"Ġåı²ä¸Ĭç¬¬ä¸Ģ":5004,"å¤§åĸľ":5005,"äºĨä¸Ģä¼ļåĦ¿":5006,"Ġä¼¼":5007,"ĠæĪĳæĢİä¹Ī":5008,"åĿĳ":5009,"ä¹Łä¸įèĥ½":5010,"Ġæµģé£İ":5011,"éĿ¢å¯¹":5012,"Ġæĺ¯æĪĳ":5013,"æĶ¾å¼ĥ":5014,"æĭīçĿĢ":5015,"æīĢæľīçļĦ":5016,"ä¸Ģå¼ł":5017,"çĥŃéĹ¹":5018,"Ġæ¯Ķå¦Ĥ":5019,"å°´å°¬":5020,"åħĢ":5021,"çģ¾":5022,"è®©ä»ĸä»¬":5023,"èĲ½åľ¨":5024,"ĠæīĢæľī":5025,"Ġçł°":5026,"Ġç»§ç»Ń":5027,"çļĦéĤ£ä¸ª":5028,"çļĦæĥħåĨµ":5029,"åģ¶":5030,"Ġä»¥åīį":5031,"ä¿ĿæĮģ":5032,"åļİ":5033,"äº¬åŁİ":5034,"ĠæļĹ":5035,"èĥ½éĩı":5036,"åı¯ä¸įæĺ¯":5037,"å²Ĥ":5038,"æĺŁæģ¶éŃĶ":5039,"ĠçºµçĦ¶":5040,"è¯±":5041,"Ġå°Ħ":5042,"æļĹæļĹ":5043,"Ġå®Ŀ":5044,"ç©ºæ°Ķ":5045,"ç´«åºľ":5046,"Ġä»ĻéŁ³":5047,"æŃĩ":5048,"äºĭçļĦ":5049,"æīĢæľīäºº":5050,"ä½ľçĶ¨":5051,"ç«ĻäºĨèµ·æĿ¥":5052,"çļĦéĩĳ":5053,"çĮİ":5054,"å¡Į":5055,"ĠéĢŁ":5056,"Ġæīįèĥ½":5057,"éĻĪå¢¨":5058,"Ġå¼Ģå§ĭ":5059,"æķĽ":5060,"Ġä¾¿æĺ¯":5061,"ä¸įè¿ĩæĺ¯":5062,"äºĨåĩłåĪĨ":5063,"ĠèĻ½":5064,"çł´äºĨ":5065,"å¾Ĺä¸Ĭ":5066,"Ġæŀģ":5067,"æĢ»æĺ¯":5068,"å¾Īå¥½":5069,"ĠçĪ¶äº²":5070,"nc":5071,"Ġåı¦":5072,"æĪĳäºĨ":5073,"å¯¹ä½ł":5074,"çĲ®":5075,"èģļéĽĨ":5076,"Ġçŀ¬éĹ´":5077,"åľ¨åĵªéĩĮ":5078,"ĠæĪĳåıª":5079,"çĽĬ":5080,"çŃĭ":5081,"èģĶç³»":5082,"ri":5083,"ĠæĲ":5084,"ç¬ĳæĦı":5085,"åĽŀäºĨ":5086,"ĠéĩĮéĿ¢":5087,"èĩªä¿¡":5088,"åĬłä¸Ĭ":5089,"ĠĠĠĠĠ":5090,"å¿ĺäºĨ":5091,"çĬ¶æĢģ":5092,"è´ª":5093,"ĠCo":5094,"åįģåĽĽ":5095,"å«ģ":5096,"æĮ£æīİ":5097,"Ġå°¤åħ¶æĺ¯":5098,"2008":5099,"åĲ»":5100,"åįĴ":5101,"åĽĬ":5102,"æ»¡æĦı":5103,"ä¸¥èĤĥ":5104,"Ġèĩ³å°ĳ":5105,"ä½³":5106,"å®Ľå¦Ĥ":5107,"ght":5108,"ä¸Ģäº®":5109,"èº«åīį":5110,"æ³¡":5111,"å¤ļçļĦ":5112,"èĹ¤":5113,"åĸĬéģĵ":5114,"ä¸²":5115,"å¤¹":5116,"åıī":5117,"Ġä¸ĢåĪĩ":5118,"æģĭ":5119,"æ¹¿":5120,"çĽĳå¯Ł":5121,"Ġxs":5122,"Ġåĳµåĳµ":5123,"py":5124,"çļĦæ°´":5125,"è¯¦":5126,"åĽĽäºº":5127,"æľĽåĲĳ":5128,"Ġåı¯èĥ½":5129,"Ġå°ıè¯´æİ¨èįĲ":5130,"Ġ2002":5131,"ĠInc":5132,"right":5133,"ĠĠĠĠĠĠčĊ":5134,"ĠCopy":5135,"ĠCopyright":5136,"ä¸ĢæĹ¶":5137,"çĿĢå¤´":5138,"Ġæĺ¯åķĬ":5139,"å¾·æ£®":5140,"ĠæĴ":5141,"è§ģè¯Ĩ":5142,"å¾Īæĺ¯":5143,"ĠçļĦä¸Ģå£°":5144,"èµĸ":5145,"å§ļéĽªå¨ĩ":5146,"ç¯·":5147,"ĠçĻ¾":5148,"æ¬¾":5149,"è¶ģ":5150,"çŀ¥":5151,"èĭ¥é¦Ļ":5152,"åı¯æĢķçļĦ":5153,"çİīåħ°å¤§éĻĨ":5154,"è°¦":5155,"å²³":5156,"æ±Łæ¹ĸ":5157,"æĺķ":5158,"åı¯ä¸į":5159,"æ¼Ĩ":5160,"é»Ħéĩĳ":5161,"¾ä¸½":5162,"Ġä½łçŁ¥éģĵ":5163,"äºĨä¸Ģåı£æ°Ķ":5164,"å§ĭçļĩ":5165,"Ġç¬¬ä¸ĢçĻ¾":5166,"Ġç®ĢçĽ´":5167,"åıĳçļĦ":5168,"åĿ¦":5169,"Ġåľ¨è¿Ļ":5170,"Ġç«¥":5171,"å¯¹æĸ¹çļĦ":5172,"æī¿è®¤":5173,"Ġçīĩ":5174,"Ġå¾Īå¿«":5175,"Ġå²Ĥ":5176,"èĻ¹":5177,"Ġç¿":5178,"ĠåŁº":5179,"å®īéĿĻ":5180,"ä»İæĿ¥æ²¡æľī":5181,"éĻĦè¿ĳ":5182,"ä¸Ĭä¸ĭ":5183,"çŃ¾":5184,"æĪĲäºĨä¸Ģ":5185,"ç³Ł":5186,"ä¸ĵéĹ¨":5187,"¾ä¸½æĸ¯":5188,"ä»¥åıĬ":5189,"éĻħä¸Ĭ":5190,"å¾Ħ":5191,"æĹ¶ä¾¯":5192,"ä¿®è¡Į":5193,"ĠæĹĭåį³":5194,"ao":5195,"è¿°":5196,"æ¯ķ":5197,"æĸ¹æīį":5198,"Ġåİī":5199,"å·¨å¤§":5200,"ç¢§å¦Ĥ":5201,"å¯¿":5202,"å¦¨":5203,"Ġå¦Ĥæŀľä½ł":5204,"ĠéĹ¨":5205,"çłĶç©¶":5206,"©¹":5207,"åĿł":5208,"å®ŀè¯Ŀ":5209,"æĦŁæħ¨":5210,"æ£Ģ":5211,"åķĨéĩı":5212,"æľ±":5213,"å®¿":5214,"åĸĩ":5215,"ä¸ĭåŃĲ":5216,"çľĭåĩº":5217,"å¼Ģå¿ĥ":5218,"èĬĻ":5219,"Ġå¿Ļ":5220,"åĵªä¸ª":5221,"èµļ":5222,"Ġæĸĩ":5223,"Ġè½¦":5224,"æĳĩå¤´éģĵ":5225,"ĠæĽ´æĺ¯":5226,"ĠåĤħåħĪçĶŁ":5227,"åĵ¦":5228,"Ġè®©äºº":5229,"çļĦéĿ¢":5230,"è¯´åĩº":5231,"å¤©æīį":5232,"çĮ«":5233,"ĠæĻļ":5234,"å®ĥä»¬":5235,"çĮĽåľ°":5236,"è¿Ļåı¥è¯Ŀ":5237,"åĨł":5238,"è±Ĩ":5239,"å¸®ä½ł":5240,"éĹªçĶµ":5241,"Ġæħ¢":5242,"ç»ª":5243,"çĭŀ":5244,"èĥĸ":5245,"Ġæķħ":5246,"è¿Ļè¾¹":5247,"ä¸ŃäºĨ":5248,"éĶĢ":5249,"èĢ¸":5250,"ĠèĢĮåĲİ":5251,"åħµé©¬":5252,"ĠåĮħ":5253,"ä¹ĭåĨħ":5254,"æ¶¨":5255,"åĲĥäºĨ":5256,"çļĦç¬ĳå®¹":5257,"çºªæ°ı":5258,"åĩłäºº":5259,"å¸®æĪĳ":5260,"Ĩåĵ®":5261,"ä¸įå·²":5262,"ĠæĬ¬":5263,"Ġæĥ³ä¸įåĪ°":5264,"æĮīçħ§":5265,"ĠåħĦå¼Ł":5266,"éģĵçļĦ":5267,"ä¹ĭæīĢä»¥":5268,"è´Ń":5269,"åģļäºĨ":5270,"å©ī":5271,"åĨ°åĨ·":5272,"ĠäºĳæµħéĽª":5273,"å¹¼":5274,"çŃ¹":5275,"Ġæ²ĪåŃĿå¤©":5276,"Ġç²¾":5277,"ĠçŁ³":5278,"ĠæĿİäºĳé£İ":5279,"åıĶåıĶ":5280,"æ´»çĿĢ":5281,"çļĦçľ¼ç¥ŀ":5282,"ĠéĤ£äºº":5283,"ç®±":5284,"Ġèĭı":5285,"Ġå¢":5286,"çŁĽ":5287,"åĲİæĿ¥":5288,"ä¹Ĳåħ¬ä¸»":5289,"ĠçĶ·":5290,"æıĲéĨĴ":5291,"äººé©¬":5292,"æľĽåİ»":5293,"ĠåĲ¬è¯´":5294,"æĭĴç»Ŀ":5295,"å¤§åľĨæ»¡":5296,"åĴ½":5297,"ä¿ı":5298,"æĮĸ":5299,"åĬ¨çļĦ":5300,"æĲ¬":5301,"shu":5302,"åľ¨å¥¹":5303,"å°±æ²¡":5304,"Ġåı¯æĺ¯æĪĳ":5305,"æįķ":5306,"ç¦ģåĪ¶":5307,"åĲĵäºĨä¸Ģ":5308,"å¤©ç©º":5309,"åĩłä½į":5310,"çļĦäºĨ":5311,"Ġy":5312,"å·¡":5313,"æľĢå¤§çļĦ":5314,"æĹ¢":5315,"åľ¨éĤ£":5316,"åĦĴ":5317,"éĤ¸":5318,"ä¸Ģå®ļä¼ļ":5319,"Ġé©¬ä¸Ĭ":5320,"çļĦéķ¿":5321,"çī¹åĪ«":5322,"åĭ¤":5323,"èĽĬ":5324,"Ġäººå®¶":5325,"éĺģä¸ĭ":5326,"åī²":5327,"ç¥ŀæł¼":5328,"æľĪåįİ":5329,"å¤±æľĽ":5330,"Ġå¸ĮæľĽ":5331,"Ġä»»":5332,"èµ«":5333,"åĲĳçĿĢ":5334,"ĠæĹ¢":5335,"ĠåĩĨ":5336,"çĤ¼åĮĸ":5337,"èĨĽ":5338,"ç°":5339,"ä»ĵ":5340,"ç»³":5341,"èĥ½ä¸įèĥ½":5342,"Ġè¿Ļäºº":5343,"è¿ĺçľŁæĺ¯":5344,"èĢģç¥ĸ":5345,"çĸ²":5346,"é¢ĨæĤŁ":5347,"æ¢¯":5348,"Ġä¸Ģä¸ªä¸ª":5349,"ĠæĪĳçİ°åľ¨":5350,"æĹ¶åĪ»":5351,"ä¹ĭæĹ¶":5352,"åĦ¡":5353,"èĪĴæľį":5354,"ĠæľĪåįİ":5355,"ĠåĬłä¸Ĭ":5356,"çļĦçľ¼çĿĽ":5357,"ä¸įè¶³":5358,"åľ°ä¸ĭ":5359,"è®¿":5360,"å¸Īå¼Ł":5361,"Ġé»İåĲ¯èĩ£":5362,"ãĢģ":5363,"æī£":5364,"è¯´æĪĳ":5365,"éļ¾éģĵ":5366,"âĢĶâĢĶâĢĶâĢĶâĢĶâĢĶâĢĶâĢĶ":5367,"Ġ~~âĢĿ":5368,"ä¿¡å¿ĥ":5369,"Ġä¸įçĶ±å¾Ĺ":5370,"çļĦé£İ":5371,"æĹ¶è¾°":5372,"åį¢ä¹ĺé£İ":5373,"±éŃ":5374,"ç«ĸ":5375,"Ġç¬ĳçĿĢ":5376,"åħħæ»¡äºĨ":5377,"çļĦèº«ä»½":5378,"ä¸ĳ":5379,"åĩºä¸Ģä¸ª":5380,"è½©è¾ķé£İ":5381,"è§ģéĿ¢":5382,"Ġçł´":5383,"ç¥Ńåı¸":5384,"Ġè¿ĩäºĨ":5385,"ĠçĲ":5386,"å®´":5387,"æĹłè¯Ń":5388,"ä¹Ĳç¾Ĭ":5389,"ĠåĪĺéĤ¦":5390,"èł¢":5391,"ä¼°è®¡":5392,"åĩºåıĳ":5393,"å¢ħ":5394,"ä¸įç®¡":5395,"éķĸ":5396,"å®ļçļĦ":5397,"æģĲæĢĸ":5398,"Ġä»ĻåĦ¿":5399,"äºĨè®¸å¤ļ":5400,"æĿ¥åĪ°äºĨ":5401,"å¦¥":5402,"çªŁ":5403,"åı°ä¸Ĭ":5404,"æ´¾çļĦ":5405,"ĠèĲ½":5406,"Ġs":5407,"éģĵå£«":5408,"éĻ¡çĦ¶":5409,"ä¼¤åı£":5410,"Ġèĩªä»İ":5411,"Ġçī¹åĪ«":5412,"é¥¿":5413,"Ġæ¼":5414,"ĠçĶ°":5415,"ĠâĢĿãĢĤ":5416,"Ġçĭł":5417,"åĪ·":5418,"è¯´åľ°":5419,"Ġç§Ģ":5420,"çļĦçĻ½":5421,"ĠçķĻ":5422,"±éŃĥ":5423,"¨ç»":5424,"æĹłçĸĳ":5425,"éĽ¨æĺĶ":5426,"Ġç¬¬ä¸īçĻ¾":5427,"åįģå¤ļ":5428,"Ġå§ļèķĬ":5429,"è¯´ä¸įåĩº":5430,"è´Ŀå®«":5431,"¨ç»Ķ":5432,"ä¹ĥ":5433,"æĿ¥çľĭ":5434,"å°±è¿Ļä¹Ī":5435,"è¯´ä¸į":5436,"åĺ±":5437,"åı«åģļ":5438,"éĢļçº¢":5439,"æłĳæŀĹ":5440,"ĠæĶ¶":5441,"Ġç¦»":5442,"ä¹ĭæ°Ķ":5443,"æĸ¹æ³ķ":5444,"ĠéĻĨ":5445,"å¤§æĥĬ":5446,"Ġæľ¨":5447,"Ġå¾®å¾®":5448,"çĿĢä¸Ģä¸ª":5449,"åīįè¾Ī":5450,"Ġè¿ĺè¦ģ":5451,"æĦŁæ¿Ģ":5452,"è¶ħè¿ĩ":5453,"éĤ£æĺ¯":5454,"åĪĨéĴŁ":5455,"éľ²åĩºäºĨ":5456,"çĪĨåıĳ":5457,"èµĲ":5458,"Ġä¹Łè®¸":5459,"ĠæŃ£åľ¨":5460,"éģģ":5461,"æŃª":5462,"æĹ¶ä»£":5463,"ä¼¤åĬ¿":5464,"ĠéĽªè§ģ":5465,"Ġåı¹":5466,"ç¥¥":5467,"ĠæĹģè¾¹":5468,"Ġxiao":5469,"é»¯":5470,"åĪ©çļĦ":5471,"Ġä¸»":5472,"æĥ¶":5473,"åĨ²åĩ»":5474,"ĢåĦ¡":5475,"çļĦéŃĶæĹı":5476,"Ġéļ¾æĢª":5477,"Ġä¸ª":5478,"ĠãĢı,":5479,"Ġå¸ĪçĪ¶":5480,"äºĨä¸įå°ĳ":5481,"ä½ľä¸º":5482,"ç¢į":5483,"æĹħ":5484,"é£ŀè¡Į":5485,"åĿĲä¸ĭ":5486,"Ġçľ¼åīį":5487,"éĦĻ":5488,"æ°Ľ":5489,"Ġä¹Łå°±":5490,"æİ¥åıĹ":5491,"ç¬¬ä¸Ģä¸ª":5492,"æĢĴåĲ¼":5493,"éļıé£İ":5494,"ä¸įå¤§":5495,"åĪ°è¿Ļ":5496,"åı¯æĢľ":5497,"Ġåı¶æĢ»":5498,"æįī":5499,"èµ¶ç´§":5500,"åºĶè¯¥æĺ¯":5501,"ĤåĦ¿":5502,"èĩŃ":5503,"æīĭæİĮ":5504,"æĻıèĸĩ":5505,"éĹ®ä½ł":5506,"åĬŀåħ¬":5507,"åĴĨåĵ®":5508,"ĠæĢĴ":5509,"è¿Ļä¸ªæĹ¶åĢĻ":5510,"ĠæĢİä¹Īä¼ļ":5511,"ç³Ĭæ¶Ĥ":5512,"ä¹ŁæľīäºĽ":5513,"æĹıäºº":5514,"Ġå¸¸":5515,"Ġæµ·":5516,"åļ£":5517,"ä¸Ģä½į":5518,"æĶ¾ä¸ĭ":5519,"ĠåĽ½":5520,"äºĨåįĬå¤©":5521,"æļĤæĹ¶":5522,"ä¸įèĤ¯":5523,"åĲ¸å¼ķ":5524,"ç§°åĳ¼":5525,"Ġçĩķ":5526,"å¬":5527,"å¾Īä¹ħ":5528,"èĲĿ":5529,"è§ĳ":5530,"éĺĶ":5531,"ä»¥æĿ¥":5532,"Ġæ¯«":5533,"çĪ¶æ¯į":5534,"èĽ®äºº":5535,"éĥ½å·²ç»ı":5536,"æİĪ":5537,"ä¸»çļĦ":5538,"åĪ«å¢ħ":5539,"ĠæĦŁè§ī":5540,"ä¹Łå¥½":5541,"ç¥ŀä»Ļ":5542,"åħµåĻ¨":5543,"åŃ¦éĻ¢":5544,"ä¸ĭæĿ¥çļĦ":5545,"ĠåĸĤ":5546,"åĢ©åĢ©":5547,"Ġä¼¸æīĭ":5548,"ä¸įçĿĢ":5549,"èµ·çļĦ":5550,"æĸ¯æĻ¶":5551,"æıĲåįĩ":5552,"çħ§é¡¾":5553,"Ġå¦Ĥæŀľä¸įæĺ¯":5554,"Ġå¤©ä¸ĭ":5555,"æľīä¸Ģç§į":5556,"ä¸įèĩª":5557,"ç¬ĳå£°":5558,"éŃı":5559,"åĬ¨éĿĻ":5560,"éĺ³åŃĲ":5561,"Ġç¬¬ä¸ĥ":5562,"ç¦»åİ»":5563,"çĵľ":5564,"åİ®æĿĢ":5565,"æĬĳ":5566,"Ġä¹ĥæĺ¯":5567,"æ²¿":5568,"éĥ½çŁ¥éģĵ":5569,"çĭ¡":5570,"Ġè®©æĪĳ":5571,"å¤Ń":5572,"æľīç§į":5573,"å±ł":5574,"å°Ĩè¿Ļ":5575,"ĠåĽłæŃ¤":5576,"å¤¸":5577,"æĺ¯åĽłä¸º":5578,"æī®":5579,"æİ¥è¿ĩ":5580,"è·Łä»ĸ":5581,"è¶³ä»¥":5582,"åĸĥåĸĥ":5583,"åĲĵäºĨä¸Ģè·³":5584,"ä¸ŃåĽ½":5585,"Ġä½łä¸įæĺ¯":5586,"æĹłäºº":5587,"æĢ»çĿ£":5588,"èµĦæł¼":5589,"åºĬä¸Ĭ":5590,"æģ¢å¤įäºĨ":5591,"ä½©æľį":5592,"Ġæ·¡æ·¡":5593,"çļĦèº«å½±":5594,"ĠèĪ":5595,"è¦ģåİ»":5596,"éĩĳåħī":5597,"å¹¶éĿŀ":5598,"èµĶ":5599,"ĠæŀĹéĽ·å¿ĥä¸Ń":5600,"çĮ®":5601,"Ġä»ĸä»¬çļĦ":5602,"æĦ£äºĨä¸Ģä¸ĭ":5603,"ä¸Ģåīĳ":5604,"äººåĳĺ":5605,"ä¹ĭåľ°":5606,"èĢģåħŃ":5607,"çĶ¨äºĨ":5608,"çĸĹ":5609,"éĵ¶åŃĲ":5610,"ä»ĸåľ°":5611,"åĲİçļĦ":5612,"ä¾ł":5613,"æ±¤":5614,"æĪĺçļĦ":5615,"æįĤ":5616,"åľºçļĦ":5617,"åĩĿèģļ":5618,"ä¸įå¤Ł":5619,"å£°è¯´éģĵ":5620,"éĩĳåĪļ":5621,"çİīéľľ":5622,"æ¸©æŁĶ":5623,"ĠèµµçģµåĦ¿":5624,"Ġå§ļéĽªå¨ĩ":5625,"ĠçīĩåĪ»":5626,"ä¸ĢæĹ¦":5627,"å±ı":5628,"æİª":5629,"æĪĲä¸Ģ":5630,"è°¨":5631,"ä½İå¤´":5632,"åıĤæĺŁ":5633,"Ĳå°ĳçĪ·":5634,"åįı":5635,"å°ıéĿĴ":5636,"æĿĢäºº":5637,"ä¸įæŃ»":5638,"åľ¨èĩªå·±":5639,"Ġä¸įè¿ĩä»ĸ":5640,"åĺ´éĩĮ":5641,"55":5642,"Ġèħ":5643,"ĠèĽ":5644,"å°±å·²ç»ı":5645,"åºĨ":5646,"è¡į":5647,"ĠéĻĽä¸ĭ":5648,"Ġé¥":5649,"Ġå°±å¥½åĥı":5650,"åĤĢåĦ¡":5651,"èŃ¦å¯Ł":5652,"åĿļæĮģ":5653,"ç»ĳ":5654,"å¤§åİħ":5655,"Ġç´«å·Ŀå®ģ":5656,"shuo":5657,"çļĦè¿Ļ":5658,"çļĦæľĽçĿĢ":5659,"ä¸įåİ»":5660,"Ġéº":5661,"ä½łè¿Ļ":5662,"åľ°ä½į":5663,"å¾Ĺç½ª":5664,"è®¸èĪĴå©·":5665,"é¥®":5666,"ç´«æĻ¶":5667,"ä¸»ç¥ŀåĻ¨":5668,"èĥ¡åŃĲ":5669,"å®ĩ":5670,"åħ¬æĺİ":5671,"å®ĿåĦ¿":5672,"Ġè·ŁçĿĢ":5673,"èĵ¬çµ®":5674,"æĺ¯åĲ¦":5675,"ä¸įä¸ĭ":5676,"ĠåĩŃ":5677,"çŀ¬":5678,"æ±īåŃĲ":5679,"æ°ĶåĬ¿":5680,"ĠæŀĹéĽ·ä¹Ł":5681,"Ġå¤§åľ°":5682,"åı¤æĸ¯å¡Ķ":5683,"è¿Ļä¸Ģæ¬¡":5684,"æ¬¢åĳ¼":5685,"çļĦçģµ":5686,"èī°":5687,"çĲĨä¼ļ":5688,"Ġåķª":5689,"çĦ¦æĢ¥":5690,"çľ¼çļĦ":5691,"çĽ¯":5692,"æ³ķåĻ¨":5693,"å¥¥åĪ©ç»´äºļ":5694,"çļĦç¥ŀèī²":5695,"æ²ĪçĪ·":5696,"å¸ĺ":5697,"åİ»åĲ§":5698,"Ġé»ĳæļĹ":5699,"åĪĺéĤ¦":5700,"çļĦæľºä¼ļ":5701,"çļĦæ¨¡æł·":5702,"äºĽä»Ģä¹Ī":5703,"å¯¹éĿ¢":5704,"çļĦä¸ĢåĪĩ":5705,"å¿Ĩå¦Ĥ":5706,"ä¸ĢèĦļ":5707,"å°ĨéĤ£":5708,"æķ´ä¸ªäºº":5709,"é¦ĸé¢Ĩ":5710,"Ġå£«":5711,"åıªè§īå¾Ĺ":5712,"ĠåĲį":5713,"Ġçªģåİ¥":5714,"åĳĬè¯īæĪĳ":5715,"æķĪæŀľ":5716,"å¤§å°ı":5717,"äºĭäºĨ":5718,"åĨįä¹Ł":5719,"åĨħéĥ¨":5720,"Ġåĩ¡":5721,"å¹²èĦĨ":5722,"äº¤ç»Ļ":5723,"è¿ĻäºĽäºº":5724,"ç´«å·Ŀå®ģ":5725,"èİ«åĲį":5726,"å¹³æĹ¶":5727,"åĹ¦":5728,"Ġéľį":5729,"ĠåĻĹ":5730,"ĠåĤ":5731,"ä¸įç®Ĺ":5732,"è¯´å¾Ĺ":5733,"æĢİä¹Īä¼ļ":5734,"å°Ķåħĭ":5735,"è¦ĨçĽĸ":5736,"äºĨä¸Ģä¼ļ":5737,"äºĨä¸Ģéģį":5738,"èĤĨ":5739,"Ġè¯Ń":5740,"æľĢå¥½":5741,"åĽ½å®¶":5742,"åİŁåľ°":5743,"Ġä¸ĬéĿ¢":5744,"åħ¶ä»ĸäºº":5745,"è¯¯ä¼ļ":5746,"èĬĻå¦®":5747,"ī´":5748,"çº½":5749,"è¿ĩåİ»äºĨ":5750,"éļıæĦı":5751,"Ġçľ¼ç¥ŀ":5752,"ä¸Ģçļ±":5753,"ä¸Ģåı¥è¯Ŀ":5754,"æ·ĭ":5755,"æİ¥è§¦":5756,"å®ĹçļĦ":5757,"Ġ/":5758,"ä¸Ģå·Ŀ":5759,"åı¯æ±Ĺ":5760,"è·Į":5761,"æ¯ĶèµĽ":5762,"ĠèĦĳ":5763,"å¦»åŃĲ":5764,"Ġåı£ä¸Ń":5765,"ä¹Łåľ¨":5766,"éĤ£äºº":5767,"åĿĽ":5768,"æĢĴéģĵ":5769,"ĠåİŁæĿ¥æĺ¯":5770,"ä¸Ģæĸ¹":5771,"æİĢ":5772,"åĬ¨çĿĢ":5773,"ä¸ľåįĹ":5774,"Ġæĸ°":5775,"çīĻåĦ¿":5776,"ĠéĢŁåº¦":5777,"æĿ¥æī¾":5778,"ĠæīĢæľīäºº":5779,"è·ĳäºĨ":5780,"ç¡®å®ļ":5781,"åıĳçİ°äºĨ":5782,"æ´²":5783,"åĽĽå¤Ħ":5784,"çŁ³éĽķ":5785,"ä¼¤å®³":5786,"æĬ¥ä»ĩ":5787,"èĭįçĻ½":5788,"æ²ĥçī¹":5789,"Ġç¢":5790,"ä¹Łéĥ½":5791,"æŀĹæŁ¯":5792,"é©±":5793,"èħĬ":5794,"ĠæĹłè®ºæĺ¯":5795,"Ġéĵģ":5796,"Ġxiaoshuo":5797,"æŀĹæŁ¯æ²ĥçī¹":5798,"ä¸Ľ":5799,"Ġ!âĢĿâĢľ":5800,"è½©":5801,"ä¸¤å¤©":5802,"Ġè¿ĺæ²¡":5803,"Ġèĭ¦":5804,"çļ®èĤ¤":5805,"èµ·èº«æĿ¥":5806,"Ġæ®¿ä¸ĭ":5807,"==":5808,"æīĵäºĨ":5809,"å®īæħ°":5810,"Ġç¬¬äºĮçĻ¾":5811,"åĪ¹":5812,"ĠæŀĹæĻļèį£å¿ĥéĩĮ":5813,"æĹģè¾¹çļĦ":5814,"ä½Ĳ":5815,"ç¬¨":5816,"æļĹèĩª":5817,"ĠéĽ·è¯º":5818,"å«©":5819,"Ġçĭłçĭł":5820,"æīĩ":5821,"å¤©èµĭ":5822,"æģįçĦ¶":5823,"åıĳå±ķ":5824,"çĽ®æłĩ":5825,"ä¸¹èį¯":5826,"ä¿Ŀéķĸ":5827,"Ġ*":5828,"Ġåı¸":5829,"è¯´æĺİ":5830,"å®¶ä¸ģ":5831,"ç©Ĩ":5832,"å°Ĩä»ĸ":5833,"ĠçĶµ":5834,"æ¶ĪèĢĹ":5835,"æ²¡æľīäºº":5836,"æİ¥è¿ĳ":5837,"åĨħäºļ":5838,"é»ĳè¡£":5839,"æŁľ":5840,"Ġæĥħ":5841,"ä¸Ģæł¹":5842,"å°±æĬĬ":5843,"å¾Īå¤§":5844,"éľĩåĬ¨":5845,"Ġä¸īäºĶ":5846,"çĵ·":5847,"æĹĹæľ¬":5848,"éŃĶç¥ŀçļĩ":5849,"ä¸Ģåıĺ":5850,"äººéĹ´":5851,"Ġä¸ĢæĬĬ":5852,"éĩĳéĻµ":5853,"éļ¾å¾Ĺ":5854,"ç¾İäºº":5855,"æĺł":5856,"åľ°äºĭæĥħ":5857,"æ²¾":5858,"Ġå°±èĥ½":5859,"Ġå¤§æ¦Ĥ":5860,"ä¸ľæµ·":5861,"å¯Łè§ī":5862,"äºĨæĭį":5863,"åĵĦ":5864,"éĹ¨å¤ĸ":5865,"éħĴåºĹ":5866,"Ġå©":5867,"çļĦéĢŁåº¦":5868,"Ġè¿Ļå°±":5869,"æīĭèĩĤ":5870,"æĮ¨":5871,"èī²éģĵ":5872,"åĺ²":5873,"éĿĴçĴĩ":5874,"Ġè¿·":5875,"å´ĩ":5876,"Ġåı²ä¸Ĭç¬¬ä¸Ģæ··ä¹±":5877,"æľĶ":5878,"çĤ¯":5879,"éĿ¢çĽ¸":5880,"Ġä¸įè¿ĩæĪĳ":5881,"æľĪç¥¨":5882,"æĴ¼":5883,"å°ıè¯´ç½ĳ":5884,"æīĭæľº":5885,"å§ĭç»Ī":5886,"æĢ§åŃĲ":5887,"å±Ĥæ¬¡":5888,"çĳŁ":5889,"ãĢİ":5890,"è¿ĻæĹ¶åĢĻ":5891,"è¯Ħ":5892,"Ġä»ĸå°±":5893,"æ¸ħéĨĴ":5894,"è¹Ħ":5895,"ä¸Ŀæ¯«ä¸į":5896,"æĦķçĦ¶":5897,"è¿ĩç¨ĭ":5898,"è¿ĽæĶ»":5899,"èķ´åĲ«":5900,"çļĦä¸ĭ":5901,"å¥ĸ":5902,"åĨĮ":5903,"é«ĺä¸½":5904,"æŀģéĢŁ":5905,"éģĵä¸Ĭ":5906,"çĻ½èİ²":5907,"åĲĳåīį":5908,"ĠæĿİéĢįéģ¥éģĵ":5909,"åİīå®³çļĦ":5910,"ä¸ĸçķĮä¸Ĭ":5911,"çĹĴ":5912,"çĲ¼åįİ":5913,"ä¸ĢåĪ»":5914,"ä¸Ģé¡¿":5915,"åİ¢":5916,"è¾¨":5917,"åĽŀå®¶":5918,"ç¿¡":5919,"å©´":5920,"åĮħè£¹":5921,"ĠèĥĮ":5922,"ç½ĳåĿĢ":5923,"Łå¿ĥ":5924,"äº¦":5925,"å®¾":5926,"äº¤ä»£":5927,"èĸĩåħ°":5928,"Ġç®¡":5929,"è®¢":5930,"æĦģ":5931,"ĠåĪĢ":5932,"åıĺäºĨ":5933,"åİĭåĬĽ":5934,"åĮºåŁŁ":5935,"çŁ®":5936,"èĩªè¯Ń":5937,"äºĨä¸Ģåı£":5938,"åıĳåĬ¨":5939,"å¤±åİ»äºĨ":5940,"Ġæķ¢":5941,"ä¸įæĢķ":5942,"å¤§å¤ļ":5943,"åįĬç©º":5944,"ç»½":5945,"æĥĬäºº":5946,"Ġæĸ¹æīį":5947,"Ġå®ŀåĬĽ":5948,"åĮĨåĮĨ":5949,"èĤļåŃĲ":5950,"âĢ»":5951,"åį§":5952,"æĸ¯åĭĴ":5953,"éĵ¾":5954,"ä¸¹åĬ²æľŁ":5955,"Ġä¸¤ä½į":5956,"åºľéĤ¸":5957,"ĠçĹ":5958,"æĿ¥ä¸įåıĬ":5959,"è´ŀ":5960,"ĠæŀĹéĽ·å¿ĥåºķ":5961,"åŁİå¸Ĥ":5962,"æľįäºĨ":5963,"æķĻè®Ń":5964,"ç¨įå¾®":5965,"ä»¬éĥ½":5966,"ä½ıä»ĸ":5967,"ä½¿èĢħ":5968,"éŃĤéŃĦ":5969,"Ġæ··":5970,"æŁ³æ¢ħ":5971,"Ġå¤«äºº":5972,"çļĦå¥³äºº":5973,"è¿Ŀ":5974,"è¿Ļå°ıåŃĲ":5975,"ç¥Ŀ":5976,"åı¯æĥľ":5977,"èĢģå®ŀ":5978,"Ġåģı":5979,"å´ĸ":5980,"æ¬§":5981,"çĻ½å·Ŀ":5982,"å¾Ĵå¼Ł":5983,"°çĭŀ":5984,"åĲµ":5985,"æ¶Ľ":5986,"Ġä¼Ĭ":5987,"ĠåĬ¨":5988,"æĬµæĮ¡":5989,"äºķ":5990,"Ġçľī":5991,"åĽ½çļĦ":5992,"ä½łä»¬çļĦ":5993,"é¥±":5994,"Ġéĺ´":5995,"åĵĪåĵĪå¤§ç¬ĳ":5996,"åºŁè¯Ŀ":5997,"çļĦèĦ¸èī²":5998,"Ġä¹Łæľī":5999,"å°¼æĸ¯":6000,"å¦Ħ":6001,"ä¾ĥ":6002,"é¢ħ":6003,"å¼ºæ¨ª":6004,"åľ£åŁŁå¼ºèĢħ":6005,"Ġæľ±":6006,"æ²¡æľīæĥ³åĪ°":6007,"ç»Ħç»ĩ":6008,"Ġ4":6009,"ä¸įåłª":6010,"ĠæĪĳåıªæĺ¯":6011,"çİĳ":6012,"è½²":6013,"Ġå°±è¦ģ":6014,"Ġä¹Ķ":6015,"Ġæķ´ä¸ªäºº":6016,"çĿģå¼Ģ":6017,"Ġå¤±":6018,"ĠåıªåĲ¬":6019,"Ġæ±Ł":6020,"æįŁå¤±":6021,"è®Ńç»ĥ":6022,"ä¸ĢæĿ¥":6023,"åĨ¤":6024,"Ġçľĭçľĭ":6025,"äº²çİĭ":6026,"å¤§æ±ī":6027,"æ²¡äºº":6028,"è¡Įäºº":6029,"èĲ½ä¸ĭ":6030,"æ»¡éĿ¢":6031,"æĢĢä¸Ń":6032,"è¾Ľèĭ¦":6033,"ä¸įå±ĳ":6034,"èĦ¾æ°Ķ":6035,"å¨¶":6036,"è£¤":6037,"ĠæĪ´":6038,"æľŁå¾ħ":6039,"ç¬ĳçĿĢè¯´éģĵ":6040,"Ġè¿ħ":6041,"Ġä¸ĸ":6042,"å¯¹èĩªå·±":6043,"æħİ":6044,"ĠæĿİå¸Īå¸Ī":6045,"åĸĿä¸Ģå£°":6046,"ĠæģŃ":6047,"é»ĺé»ĺ":6048,"ä¹ĭéĹ´çļĦ":6049,"ĠåŃĻ":6050,"èĢį":6051,"åĭĥ":6052,"ä»¤äºº":6053,"äºĨå¤§":6054,"Ġä¸įè¡Į":6055,"Ġä¸ĢæĹ¶éĹ´":6056,"æį§":6057,"ĠåĨįè¯´":6058,"ĠæĪĳå·²ç»ı":6059,"Ġå¥ĩ":6060,"å¹´æĿ¥":6061,"çķĻåľ¨":6062,"åĹ½":6063,"ç²īç¢İ":6064,"Ġ555":6065,"Ġä½ľä¸º":6066,"æ³£":6067,"æŃ£ç»ı":6068,"éŃĶæĹıçļĦ":6069,"æľīå¤ļ":6070,"Ġ!!âĢĿ":6071,"éľī":6072,"Ġå½ĵåį³":6073,"æ°ĳè¾ī":6074,"åħīæĺİæķĻå»·":6075,"Ġé¦ĸ":6076,"çĢ":6077,"Ġå´":6078,"çļĦå±±":6079,"ä¸įå®ī":6080,"åĪĳ":6081,"å¤§åı«":6082,"å¤©ä»Ļ":6083,"çĤī":6084,"åĲİæĤĶ":6085,"æĺİæµ·":6086,"æīĵå¾Ĺ":6087,"åº¦å°¼æĸ¯":6088,"åĵ¼ä¸Ģå£°":6089,"Ġé¾Ļåĵ¥":6090,"Ġäºĭæĥħ":6091,"Ġè¿ľè¿ľ":6092,"åģ¥":6093,"æĺİçļĦ":6094,"åĳ½çļĦ":6095,"çĲĨçĶ±":6096,"äºļåº¦å°¼æĸ¯":6097,"Ġæĺİå¤©":6098,"åºŀå¤§çļĦ":6099,"ĠæŁĶ":6100,"ä¸ĢæĹģ":6101,"å°±è¡ĮäºĨ":6102,"çŁ¥éģĵçļĦ":6103,"åĨ²å¤©":6104,"åĺ´åĶĩ":6105,"Ġæĭľ":6106,"Ġå°½ç®¡":6107,"é¢Ī":6108,"Ġåį´è§ģ":6109,"èħĲ":6110,"èº«è¾¹çļĦ":6111,"æ´ªéĹ¨":6112,"Ġè¿ĳ":6113,"æŀ¯":6114,"è¿ĺä¼ļ":6115,"çĿĢéĤ£":6116,"ĠæĢª":6117,"ĠèµĽ":6118,"ĠæľĢç»Ī":6119,"ĠéħĴ":6120,"ä¸įè§£":6121,"ä¸¤åĲį":6122,"å®Ĺæ´¾":6123,"çŃĳ":6124,"ç¦Ģ":6125,"æĶ¾è¿ĩ":6126,"è¡¡":6127,"Ġä½Ĩä»ĸ":6128,"èİ¹":6129,"åĨ·æ¼ł":6130,"æĺŁè¾°":6131,"Ġæīĭä¸Ń":6132,"æ¯ıå¤©":6133,"éĹªè¿ĩä¸Ģä¸Ŀ":6134,"Ġè®°ä½ıç½ĳåĿĢ":6135,"Ġä¸īäºĶå°ıè¯´ç½ĳ":6136,"Ġå®ļ":6137,"æķħäºĭ":6138,"å¢Ļå£ģ":6139,"å¸Ĳç¯·":6140,"Ġç»ıè¿ĩ":6141,"¨ç»ĶæīįåŃĲ":6142,"ng":6143,"åĪ°ä»ĸ":6144,"æĥ³æĥ³":6145,"Ġä¸ĢåĲį":6146,"åŃ¦çĶŁ":6147,"æ¨¡ç³Ĭ":6148,"æĸĳ":6149,"çļĦä¸ĢäºĽ":6150,"Ġæĥ³åĪ°è¿ĻéĩĮ":6151,"éĤĢ":6152,"ĠèĲ§çİīèĭ¥":6153,"è¯¸ä½į":6154,"Ġçļĩå¸Ŀ":6155,"æīįè¡Į":6156,"Ġå½ĵä¸ĭ":6157,"å½±åŃĲ":6158,"æĺ¯ä¸Ģç§į":6159,"ĠåĵªæĢķ":6160,"Ġå®ŀéĻħä¸Ĭ":6161,"Ġæ³¢":6162,"èĩ³é«ĺç¥ŀ":6163,"åĩ¯":6164,"åĨľ":6165,"è·¨":6166,"éħ·":6167,"èı©":6168,"åıįåºĶè¿ĩæĿ¥":6169,"ĠæĹ¶éĹ´":6170,"æĿ¥å¾ĹåıĬ":6171,"æĿ¥èĩª":6172,"çıĤåĦ¿":6173,"åĹĵ":6174,"å£®æ±ī":6175,"Ġçħ§":6176,"éī´":6177,"ä¸įç¾¤":6178,"æŃ£å¥½":6179,"æĿĢæ°Ķ":6180,"åľ°éĿ¢ä¸Ĭ":6181,"Ġå¾·æĸ¯é»İ":6182,"ĠæĿ¨å¼ĺ":6183,"ä¸Ģç¬ĳéģĵ":6184,"åįľ":6185,"å¤§æ®¿":6186,"éĢ¸":6187,"éªĦ":6188,"æīĢåľ¨":6189,"Ġå¥¹çļĦ":6190,"è¡ĢæĹı":6191,"åħ³éĶ®":6192,"åħĥæ°Ķ":6193,"åı¶å¤©çļĦ":6194,"½éĿŀ":6195,"äºĨå¾Īå¤ļ":6196,"å¤§éĹ¨":6197,"å°±æ²¡æľī":6198,"å¾Ģåīį":6199,"ĠäºĮå°ıå§Ĳ":6200,"ĠæĶ¾å¿ĥ":6201,"ä½łåľ°":6202,"ä¸ĭå±±":6203,"ä¹ĭç±»":6204,"å°Ĩå£«":6205,"èĥ¸åīį":6206,"æĺ¯å¾Ī":6207,"å¼Ĺ":6208,"æĪĳä¹Ł":6209,"å§Ĳå¦¹":6210,"Ġå¥¹ä»¬":6211,"çŀİ":6212,"Ġåĳ½":6213,"çķ¥å¾®":6214,"Łå¿ĥå®¶":6215,"äºĨä¸ī":6216,"Ġåħ°":6217,"å¤±è´¥":6218,"ä¼Ĳ":6219,"Ġä¸Ģè·¯":6220,"åı£åĳĨ":6221,"æ¯ĶæĪĳ":6222,"è·Łåīį":6223,"çº¢èī²":6224,"éļĲèĹı":6225,"æķ£åıĳ":6226,"åģ·è¢Ń":6227,"çĭłçĭłçļĦ":6228,"Ġ:âĢľ......":6229,"ĠæĪĳåı¯":6230,"ĠæĪĳæĬĬ":6231,"éĥ½å¾Ī":6232,"åĵ¨":6233,"çĽ¸æ¯Ķ":6234,"æıı":6235,"Ġå¥½åĲ§":6236,"è£ģ":6237,"æ¸©å®¶":6238,"èĥ¸èĨĽ":6239,"åħģ":6240,"æľ¬èº«":6241,"å¸ĪåĤħ":6242,"Ġè¦ģä¸įæĺ¯":6243,"ĠçĦ¶èĢĮ":6244,"åĿıäºĨ":6245,"Ġçĭ¬":6246,"æ¡ĮåŃĲ":6247,"è¿Ļäºº":6248,"ĠæĪĳåľ¨":6249,"çĲ¢":6250,"å¸ĥéĩĮ":6251,"æĪ¿åŃĲ":6252,"ç»ľ":6253,"å¸ķ":6254,"çľĭä¸Ĭåİ»":6255,"ç¥ŀåĪĨèº«":6256,"åĽŀè¿ĩ":6257,"åį´æ²¡æľī":6258,"Ġè¯´è¯Ŀ":6259,"ä¼Ĺå¤ļ":6260,"ĠçĪ¹":6261,"æģĲæĥ§":6262,"èĤĮèĤī":6263,"æĺ¯æĢİä¹Ī":6264,"ĠæĪĳè§īå¾Ĺ":6265,"è§ģçļĦ":6266,"åįģä¸ª":6267,"è¡ĮçļĦ":6268,"æ±¹":6269,"ä¼łæī¿":6270,"åĩ»è´¥":6271,"çİ°åľ¨çļĦ":6272,"ĠåĪ«äºº":6273,"Ġå¹¶æ²¡æľī":6274,"ĠæĦı":6275,"Ġåį¢ä¹ĺé£İ":6276,"çļĦçģ«":6277,"ĠãĢĤ(":6278,"çİĭçĪ·":6279,"åĳ¼åķ¸":6280,"è¿Ĳæ°Ķ":6281,"Ġè½¬èº«":6282,"Ġç¡®":6283,"ĠçĬ¹":6284,"è¿ĺæľīä¸Ģ":6285,"åķª":6286,"çŀªåı£åĳĨ":6287,"Ġå®īç¢§å¦Ĥ":6288,"åİ¿":6289,"è´¯":6290,"åīĳä»Ļ":6291,"Ġç»Ł":6292,"Ġæĥ³å¿ħ":6293,"Ġäººç±»":6294,"Ġè¯¸ä½į":6295,"éĥ½ä¸įçŁ¥éģĵ":6296,"ä¸¤å£°":6297,"ç»ıå¸¸":6298,"ç»ıçĲĨ":6299,"åĨįåº¦":6300,"å¿ĥä¸Ńä¸Ģ":6301,"æĵĴ":6302,"Ġä½ķåĨµ":6303,"ĠéļĲéļĲ":6304,"æĪĳåľ°":6305,"èĩªçĦ¶æĺ¯":6306,"çĥĽ":6307,"ä¿¡ä»»":6308,"æ´ĭæ´ĭ":6309,"åĽ°éļ¾":6310,"ĠãĢĤîĢĦ":6311,"Ġä½łåĪ«":6312,"Ġå¦ĪçļĦ":6313,"çº¢è¡£":6314,"æŀģåħ¶":6315,"Ġçº¨ç»ĶæīįåŃĲ":6316,"Ġåħ¨éĥ¨":6317,"ä¸Ģåĩº":6318,"ä¸įåĩºæĿ¥":6319,"å°ī":6320,"éĻĢ":6321,"åĲ¬çĿĢ":6322,"åĲĪä½ľ":6323,"èļ©æ¯Ľçºł":6324,"äºĴçĽ¸":6325,"£ä¹Ĳåħ¬ä¸»":6326,"è¿Ī":6327,"Ġä¸įå¥½":6328,"å¥½æ±ī":6329,"ĠåıªæĢķ":6330,"éĶ¦":6331,"ä¿®ä»Ļ":6332,"Ġå¦Ĥä½ķ":6333,"åįĥéĩĮ":6334,"å®¢äºº":6335,"Ġæ¶Ī":6336,"Ġå°ģ":6337,"ç¥ŀçļĩ":6338,"éķ¿ä»Ĭ":6339,"åıįæĬĹ":6340,"å«Į":6341,"Ġåģ·å¤©æŃ£æĸĩ":6342,"Ġå¿ħé¡»":6343,"å¤´é¢ħ":6344,"åĽĽå¤§":6345,"Ġç¬¬åħ«":6346,"æī¾åĪ°äºĨ":6347,"åĨ·ç¬ĳéģĵ":6348,"æĢ»ä¼ļ":6349,"è§īå¾Ĺèĩªå·±":6350,"æ¬¢åĸľ":6351,"Ġå°ĨåĨĽ":6352,"Ġè¾¾":6353,"ä¸ĢåĲĮ":6354,"åľ°æĺ¯":6355,"çĦ¶çļĦ":6356,"çľ¼åħī":6357,"è°İ":6358,"çķħ":6359,"éªļ":6360,"å¤ĦçļĦ":6361,"åħ¶ä»ĸçļĦ":6362,"æĸ°çļĦ":6363,"æ¹Ľ":6364,"åľ¨éĤ£éĩĮ":6365,"æĭ±":6366,"ä¿±":6367,"è½»çģµåŃĲ":6368,"ĠæŃ£è¦ģ":6369,"Ġå¿ĥéģĵ":6370,"çĿĢä¸Ģä¸Ŀ":6371,"éĥģéĹ·":6372,"ä¸ĢåįĬ":6373,"æī©":6374,"éĽį":6375,"èĥĮä¸Ĭ":6376,"æİ¨èįĲç¥¨":6377,"ĠçģµéŃĤ":6378,"Ġ~~~":6379,"Ġå®ģéĽ¨æĺĶ":6380,"Ġèĵ¬":6381,"åĪ°æĿ¥":6382,"èĢģäºº":6383,"ç¼ļ":6384,"çİīä¼½":6385,"åı¤çİ©":6386,"è¾¾åĪ°äºĨ":6387,"Ġå·®çĤ¹":6388,"æĦŁåĬ¨":6389,"æĦŁåºĶ":6390,"éĺŁéķ¿":6391,"åĬŀåħ¬å®¤":6392,"äºĨä¸Ĭåİ»":6393,"Ġè¿Ļä¸įæĺ¯":6394,"çİ²":6395,"åħīå¤´":6396,"çĤ¼åĪ¶":6397,"ĠéĽ·åĲ¼":6398,"ĠåŃ¦":6399,"Ġä»ĸçŁ¥éģĵ":6400,"æīĭéĩĮçļĦ":6401,"æīĵåĩ»":6402,"äºĶä¸ª":6403,"å®ĮæĪĲ":6404,"æĪ¿éĹ¨":6405,"åĮħåĽ´":6406,"äºĨåĩłä¸ĭ":6407,"Ġæį®":6408,"çĩĥçĥ§":6409,"è¿ģ":6410,"ä¸įæ»¡":6411,"Ġé¬":6412,"é«ĺé«ĺ":6413,"èµ°åĩº":6414,"Ġå¹¸å¥½":6415,"å®Ļ":6416,"ä½łå°±":6417,"æĥ³èµ·äºĨ":6418,"Ġä¹Łä¸įçŁ¥":6419,"çĻ¾å¤ļ":6420,"èİ½":6421,"å¹¸ç¦ı":6422,"Ġç«¥çİĩ":6423,"çļĦæ°Ķæģ¯":6424,"æĺ¯è¢«":6425,"åĲĬ":6426,"ä¸Ĭç©º":6427,"Ġè¿Ļä¸ĭ":6428,"Ġä»ĸåľ¨":6429,"æľ¬äºº":6430,"åı«å£°":6431,"åħ¶å¦Ļ":6432,"Ġå¸®":6433,"Ġèµ¤":6434,"Ġä¼¯":6435,"åŃĲå¼Ł":6436,"èµ°åĲ§":6437,"èĲ±":6438,"Ġè®º":6439,"åĪ©çĶ¨":6440,"ĠçŁŃ":6441,"Ġ)]":6442,"ľè¡Ģ":6443,"ä»ģ":6444,"Ġä½łæĶ¾å¿ĥ":6445,"å·¨åĵį":6446,"å²ģçļĦ":6447,"å°ıå¿ĥç¿¼ç¿¼":6448,"æľīåı¯èĥ½":6449,"åģļåĩº":6450,"æī¾ä¸įåĪ°":6451,"ĠæĪĪ":6452,"Ġè¿ľ":6453,"ä¸Ģå¹´":6454,"ä¸ĭæĸ¹":6455,"ç¥ŀåĬĽ":6456,"çĭ°çĭŀ":6457,"æĬĬèĩªå·±":6458,"Ġä¸įè¿ĩè¿Ļ":6459,"çº¢çļĦ":6460,"æ²īåĲŁ":6461,"å°ĶæĽ¼":6462,"éŀĭ":6463,"ĠæŁ³æ¢ħ":6464,"æĥ³äºĨæĥ³":6465,"éĿ¢çĽ¸è§ĳ":6466,"æľīåĩłåĪĨ":6467,"å¸ĪåıĶ":6468,"ĠåĵĹ":6469,"çº¢äºĨ":6470,"åĸĿéħĴ":6471,"å¸ĥç½®":6472,"Ġä¸Ģä¸ĭåŃĲ":6473,"åıĳæĮ¥":6474,"éĥ¨ä¸ĭ":6475,"åıįèĢĮ":6476,"çªģåİ¥äºº":6477,"ĠãĢĤãĢĤãĢĤ":6478,"åľ°éĹ®":6479,"Ġå°ıæĺĵ":6480,"åĽĽéĿ¢":6481,"èİ²èĬ±":6482,"Ġè¯ĿéŁ³":6483,"æľīæĦı":6484,"Ġä¸Ģéĺµ":6485,"èĤ¢":6486,"æĬĬä½ł":6487,"åĲ¸æĶ¶":6488,"ĠéĹ®éģĵ":6489,"è¿ĩæĿ¥çļĦ":6490,"æ¤ħåŃĲ":6491,"Ġä¸Ģå®ļè¦ģ":6492,"å¯ĤéĿĻ":6493,"ç¿¡ç¿ł":6494,"ä»¬çļĦ":6495,"äºĨä¸ĢçĤ¹":6496,"ä½İæ²ī":6497,"ä»·æł¼":6498,"èľĤ":6499,"ä¸įè§ģäºĨ":6500,"åħĶå¦ĸ":6501,"ä¸Ģçº¢":6502,"ä¸įè§ī":6503,"å¾ĹåĪ°äºĨ":6504,"Ġä¸ĢçĤ¹":6505,"å¼ºæĤį":6506,"é©°":6507,"åı«æĪĳ":6508,"ĠèĭĹ":6509,"è¶³è¶³":6510,"æĭįäºĨæĭį":6511,"Ġè¿ĻäºĽäºº":6512,"Ġæ²ĪçĪ·":6513,"è¯ģæĺİ":6514,"éĹ»è¨Ģ":6515,"è¿ĻæĹ¶":6516,"è®ª":6517,"æĥ³çļĦ":6518,"å¥³åŃ©åŃĲ":6519,"åĳ½è¿Ĳ":6520,"åĨ·æ±Ĺ":6521,"æĽ´å¤ļ":6522,"è¿ĩæĿ¥äºĨ":6523,"ĠåĬĽ":6524,"Ġèĸ":6525,"Ġä»ĸå·²ç»ı":6526,"éĽķåĪ»":6527,"åĢ¼å¾Ĺ":6528,"æ²ĥé¡¿":6529,"ĠçİĦéľĦ":6530,"æŀĦ":6531,"Ġè¿Ļå°ı":6532,"èº«ä¸º":6533,"Ġä¸įä½Ĩ":6534,"æ³ķéĹ¨":6535,"Ġé²ģ":6536,"ä¸Ģå¤§":6537,"ä¸Ģä¼ļ":6538,"åĲģ":6539,"çĽ¼":6540,"å§ľ":6541,"ä¹ĭæĦı":6542,"è¯Ŀé¢ĺ":6543,"çŃīå¾ħ":6544,"åŁİéĹ¨":6545,"æĪĸè®¸":6546,"Ġéĵ¶":6547,"ä¹¾":6548,"ä½£":6549,"æĹ¶çļĦ":6550,"Ġä¸įä»ħ":6551,"åĲ¬è¯´è¿ĩ":6552,"ĠæŀĹæĻļèį£åĺ¿åĺ¿":6553,"ä¸İä½ł":6554,"ĠæīĢè°ĵ":6555,"æľįåĬ¡":6556,"åĲĦèĩª":6557,"åı³æīĭ":6558,"Ġçİĭèĵ¬çµ®":6559,"é¢ĩä¸º":6560,"ç¤¾ä¼ļ":6561,"åĨ¬":6562,"è¯´ä½ł":6563,"æĮª":6564,"çĻ¾å§ĵ":6565,"ä¸ĢåĲĳ":6566,"ä¸Ĭæ¬¡":6567,"Ġè¿Ļåı¯æĺ¯":6568,"é«ĺäºº":6569,"Ġæ²¡äºĭ":6570,"çļĦç¥ŀæĥħ":6571,"Ġä¿ŀå°ĳåį¿":6572,"ĠæıĲ":6573,"Ġä¸¾":6574,"Ġæ¥":6575,"Ġè¸":6576,"ĠéĤ£ç§į":6577,"æĸ¹ä¾¿":6578,"é£İæ°´":6579,"åħ¨éĥ½":6580,"Ġå¹½":6581,"è§ĦåĪĻ":6582,"çº³éĹ·":6583,"Ġåĺ´è§Ĵ":6584,"ıéķ¿":6585,"ĵèİİ":6586,"çļĦä½įç½®":6587,"Ġè±":6588,"Ġå¤ľ":6589,"åīįæĿ¥":6590,"Ġå°±ä¼ļ":6591,"Ġè¿ĺä¸į":6592,"å¸Īç¥ĸ":6593,"åħ¬çĪµ":6594,"çĽ®çŀªåı£åĳĨ":6595,"ĠæĢİä¹ĪäºĨ":6596,"Ġæĭį":6597,"ç¢°åĪ°":6598,"é¢Ŀå¤´":6599,"Ġæ¨":6600,"ä¸Ģåĩ»":6601,"ä¸Ģéľĩ":6602,"ĠæĪĳä¸įæĺ¯":6603,"å¤ªéĺ³":6604,"ç¦ħ":6605,"ç£ķ":6606,"Ĳæ¸Ĳ":6607,"ĵ¦":6608,"æĿĨ":6609,"åīĬ":6610,"éĽ·åĲ¼":6611,"Ġä¸įå¦Ĥ":6612,"åĸī":6613,"Ġæĸ½":6614,"åľºéĿ¢":6615,"Ġéĥ½å¸Ĥ":6616,"åĮĸåĬ²æľŁ":6617,"çļĦåĲİ":6618,"æĥķ":6619,"Ġä½łä¸įè¦ģ":6620,"æĹłå½¢":6621,"ĠéĢģ":6622,"è¿ľå¤ĦçļĦ":6623,"Ġèį¡":6624,"Ġå¥³äºº":6625,"æĨ¾":6626,"å¿ĥä¸ŃçļĦ":6627,"ĠæŀĹéĽ·ä»ĸä»¬":6628,"æľĽäºĨä¸Ģçľ¼":6629,"æĸ¯éĽ·":6630,"è£³":6631,"Ġç½ĳ":6632,"æĤ¬æµ®":6633,"æĭĵæĸľ":6634,"èĦĳæµ·ä¸Ń":6635,"çļĦå¯¹":6636,"ä¸įä¹ħ":6637,"çģĮ":6638,"Ġä¹Łæ²¡":6639,"åħµåĬĽ":6640,"è½¯åīĳ":6641,"ĠæĽ¾":6642,"åĴ³åĹ½":6643,"æĸ¯éĽ·æ£®":6644,"Ġä¸»ç¥ŀ":6645,"éĢĽ":6646,"èĦ¸é¢Ĭ":6647,"æ³¢åĬ¨":6648,"ä¸Ģè½¬":6649,"ĠæĬĵ":6650,"èİ±æģ©":6651,"åħ®":6652,"å¤§äºĭ":6653,"Ġè¿Ļä¹Łæĺ¯":6654,"çļĦéĤ£äºĽ":6655,"æĺ¯æĥ³":6656,"å¥ĳ":6657,"ĠæĪĳåİ»":6658,"Ġä¸ºä½ķ":6659,"èĳĽ":6660,"å®¡":6661,"åįĳ":6662,"ä¸ĭä¸Ģ":6663,"ä¸Ńäºº":6664,"Ġåı¶ä¸ľå¹³":6665,"æľĢç»Ī":6666,"Ġæ²¡ä»Ģä¹Ī":6667,"äº®çļĦ":6668,"åİ¨":6669,"èĩªå·±åľ°":6670,"åĽŀåĪ°äºĨ":6671,"åħ³å¿ĥ":6672,"ĠæĪ¿":6673,"ç¾¤äºº":6674,"ç½®ä¿¡":6675,"Ġç«Ļåľ¨":6676,"äºĨä¸ĬæĿ¥":6677,"æĸ¹å¼ı":6678,"èĩ³äºİ":6679,"çİ©æĦı":6680,"Ġéĩĳå°ĳçĤİ":6681,"Ġä¸ĭå®ĺ":6682,"ĠåıĮæĸ¹":6683,"æĺĬå®«":6684,"éĢĲæ¸Ĳ":6685,"ä¸ĭæīĭ":6686,"èºģ":6687,"çĽ¸äºĴ":6688,"è·Łåľ¨":6689,"Ġå®ŀåľ¨æĺ¯":6690,"ĠåĩĨå¤ĩ":6691,"çļĦèĦ¸ä¸Ĭ":6692,"è¿ĻçĤ¹":6693,"åľ°æŃ¥":6694,"Ġæ²Ļ":6695,"åİŁæĿ¥":6696,"æĢ§æł¼":6697,"åıł":6698,"ä¼ļè®®":6699,"Ġä¸ĢæĹ¶":6700,"çĶŁçģµ":6701,"æ±½":6702,"æİĮæı¡":6703,"ĠåĳĬ":6704,"æµ®çİ°":6705,"è®¯":6706,"å¤´éģĵ":6707,"æĮł":6708,"ç®ĹäºĨ":6709,"Ġä½Ĩæĺ¯ä»ĸ":6710,"æģ¯çļĦ":6711,"æ¼ı":6712,"æ´¾äºº":6713,"Ġèº«ä¸Ĭ":6714,"Ġæ´»":6715,"éĺ´éĺ³":6716,"ä¸įå¥½æĦıæĢĿ":6717,"Ġå®¶æĹı":6718,"å°±å¥½":6719,"å½¹":6720,"çĮ¿":6721,"è·ĳåĪ°":6722,"Ġåī©":6723,"é¹°":6724,"å®ł":6725,"ä¹ĭè·¯":6726,"Ġæ¯Ľ":6727,"åĩºäºĨä¸Ģä¸ª":6728,"ç«Ļèµ·æĿ¥":6729,"æķ´é½Ĳ":6730,"ĠéľĢ":6731,"Ġé¾Ļèĳµ":6732,"å¼©åĦ¿":6733,"ĠéĻ¤éĿŀ":6734,"Ã¨":6735,"Ġä¼ł":6736,"ä¸Ģè¶Ł":6737,"æĪĳä¸į":6738,"ä¹ĭå¿ĥ":6739,"å®ŀçļĦ":6740,"Ġå¯¹ä¸įèµ·":6741,"åłµ":6742,"Ġåĸľ":6743,"Ġåı¯ä»¥è¯´":6744,"é¾Ħ":6745,"ä¸įå®¹æĺĵ":6746,"è¿ĻæĿ¡":6747,"äººç¾¤":6748,"æ²¡äºĨ":6749,"Ġä¹Łæ²¡æľī":6750,"è¶´":6751,"çļĦè¯ĿåĲİ":6752,"é¸¿":6753,"Ġæ³ª":6754,"ĠyÃ":6755,"Ġä¹¦":6756,"è¯¾":6757,"çĽĨ":6758,"èº«æĿĲ":6759,"åŁİå¢Ļ":6760,"Ġæĥ³åĪ°":6761,"å°ıæĺĵ":6762,"å¥½ç¬ĳ":6763,"è¯Ŀè¯´":6764,"ĠæľīçĤ¹":6765,"èħ¥":6766,"ç¬ĳçĿĢéģĵ":6767,"éĵģæłĳ":6768,"åī§æ¯Ĵ":6769,"å¢ŀåĬł":6770,"è¯¢éĹ®":6771,"©¹å°¼":6772,"Ġé¬¼":6773,"æĹłåĬĽ":6774,"éĵł":6775,"æĢĿèĢĥ":6776,"Ġç»ĻæĪĳ":6777,"è¿Ļä¸¤":6778,"ĠåıĹ":6779,"å½ª":6780,"æ»ŀ":6781,"æľĿçĿĢ":6782,"è¿½æĿĢ":6783,"åİļçļĦ":6784,"ĠåĽŀå¤´":6785,"Ġä»ħä»ħ":6786,"ä¸įä½Ĩ":6787,"ĠæĪĳæľī":6788,"åºı":6789,"å¼ĢçļĦ":6790,"èĢģå¤ª":6791,"æĥħçļĦ":6792,"Ġç¬¬ä¸īåįģ":6793,"åħ«åį¦":6794,"åļ·":6795,"æĻ®éĢļçļĦ":6796,"åŁºæľ¬":6797,"åįģä¸Ģç«ł":6798,"å£°åĸĿéģĵ":6799,"åĩłæŃ¥":6800,"æĺİå¤©":6801,"èĪŁ":6802,"åīĳåĨ°":6803,"å½ĵåį³":6804,"æ¶ī":6805,"éĢļçŁ¥":6806,"åĨ·éĿĻ":6807,"æĮĩçĤ¹":6808,"èĮ¨":6809,"Ġä¸ĩä¸Ģ":6810,"Ġå¡ŀ":6811,"Ġæµĳèº«":6812,"Ġä½łåħĪ":6813,"å®¶ä¿Ĭ":6814,"åĽĽç¥ŀåħ½":6815,"æºħ":6816,"è°¢çİīåħ°":6817,"Ġç¥ŀèī²":6818,"å®ŀåľ¨æĺ¯":6819,"ä¸įçĶ±å¾Ĺ":6820,"ä¸Ģèº«":6821,"ä¸Ģåī¯":6822,"ä¸įåĥı":6823,"æĥ©":6824,"Ġè¿Ļäºĭ":6825,"Ġè¿Ļå°ıåŃĲ":6826,"éĢĬ":6827,"éĿ¢éĿ¢çĽ¸è§ĳ":6828,"åŁ¹":6829,"Ġè¿ĺè¯·":6830,"éĴī":6831,"ĠæľīçļĦ":6832,"æĲĤ":6833,"è¢įäºº":6834,"åĮºåĪ«":6835,"åļ£å¼ł":6836,"//":6837,"Ġä¾ĿæĹ§":6838,"ç»£":6839,"æīĭéģĵ":6840,"æģ°":6841,"å®ŀä¸Ĭ":6842,"éĩĳå¸ģ":6843,"æĤ¨çļĦ":6844,"ä¸¥éĩį":6845,"èŁĴ":6846,"æľ´":6847,"è®½":6848,"çľĭä¼¼":6849,"Ġæĺ¯ä½ł":6850,"ç²¾éĶĲ":6851,"èĴĤ":6852,"Ġæ°¸":6853,"Ġå¨ĺ":6854,"Ġæ¬¢":6855,"æµģé£İéľľ":6856,"ĠéĤ£æĪĳä»¬":6857,"åįģç«ł":6858,"åķ¥":6859,"æīįä¼ļ":6860,"ĠåĲī":6861,"æĦŁè°¢":6862,"éª¨å¤´":6863,"æĻ®éĢļäºº":6864,"ä¸įè¯Ń":6865,"æ°²":6866,"ä»İå°ı":6867,"è¡Įç¤¼":6868,"æ¬£åĸľ":6869,"åĲķä¸¹çĳ¶":6870,"åįģäºĶç«ł":6871,"å¤§å±±":6872,"æĭ¢":6873,"éļıæĹ¶":6874,"Ġä¸īä¸ª":6875,"æ¤ħ":6876,"Ġåħ¬åŃĲçĲ®":6877,"ä¸ĢéĿ¢":6878,"åı¯çĪ±":6879,"éĹ´çļĦ":6880,"åĪĨåĪ«":6881,"åı¹ä¸Ģå£°":6882,"åľ¨äºĨåľ°ä¸Ĭ":6883,"åį°è±¡":6884,"ĠèĻŀ":6885,"Ġèİ«éĿŀ":6886,"Ġçļĩä¸Ĭ":6887,"Ġåł":6888,"çī©è´¨":6889,"å·´å·´":6890,"å³¨":6891,"æ¸ħæ¥ļäºĨ":6892,"æĬµæĬĹ":6893,"Ġé¼":6894,"èĢ½":6895,"å¥½äºº":6896,"ĠéĤ£å¥½":6897,"éĹ®æĪĳ":6898,"Ġæĺ¯çļĦ":6899,"å²ļ":6900,"åį³ä½¿":6901,"åĬłæĸĩ":6902,"Ġæķ£":6903,"å¸ĥèİ±æģ©":6904,"æ°ıéĽĨåĽ¢":6905,"Ġå¤ĸéĿ¢":6906,"çº¤":6907,"çĭ®":6908,"Ġåİĭ":6909,"ç½ĳåıĭä¸Ĭä¼łç«łèĬĤ":6910,"æ½Ń":6911,"Ġä½İå£°éģĵ":6912,"åįģä¸īç«ł":6913,"Ġåģ·å¤©ç½ĳåıĭä¸Ĭä¼łç«łèĬĤ":6914,"Ķè´ŀ":6915,"ä¹Łè¢«":6916,"çŁ¢":6917,"å£«åįĴ":6918,"æĴŃ":6919,"Ġéĥ½å¸Ĥçģµçŀ³":6920,"Ķè´ŀçĪ±":6921,"ä¸įç»Ŀ":6922,"ä¸įä½ıäºĨ":6923,"Ġä¸Ģåıª":6924,"åĩłæ¬¡":6925,"èĬ¦":6926,"å°±æĺ¯äºĨ":6927,"åĽ½äºº":6928,"æī¾ä¸ª":6929,"åįĬå¤©":6930,"ĠåĹ¤":6931,"Ġä¸Ĭæ¬¡":6932,"è¾ĵäºĨ":6933,"éĢĤåĲĪ":6934,"ç§ĴéĴŁ":6935,"Ġæµģé£İéľľ":6936,"çļĦåĬŁå¤«":6937,"ä¸ºäºº":6938,"æµĨ":6939,"åįĥå¤ļ":6940,"Ġå¼ķ":6941,"æĿİå¸Īå¸Ī":6942,"ĠåĹĸ":6943,"éº»éº»":6944,"éħįåĲĪ":6945,"åįģäºĮç«ł":6946,"æĩĴå¾Ĺ":6947,"ĠæĺŁçĴĩ":6948,"Ġèľ":6949,"éĥ½ä¸įä¼ļ":6950,"èĩªçĶ±":6951,"æĥĬæģĲ":6952,"ç¾İçļĦ":6953,"Ġè¿½":6954,"Ġéļ¾éģĵä½ł":6955,"æ´ĽåĩĿ":6956,"Ġæ¢ħ":6957,"ĠéĿ¢å¯¹":6958,"åľ°è¯Ŀ":6959,"æĬ¼":6960,"ä¼ļä¸įä¼ļ":6961,"çĤ¹çļĦ":6962,"çŃīçŃī":6963,"Ġæİ¨":6964,"èģĶæīĭ":6965,"åįģåĽĽç«ł":6966,"Ġä¹ĭåīį":6967,"æ²Į":6968,"è·º":6969,"ç¥ŀéŃĶ":6970,"çľ¼çıł":6971,"åĿĩ":6972,"èµ°çļĦ":6973,"Ġå°ıåŃĲ":6974,"å¤Ħäºİ":6975,"æ£µ":6976,"æ³¨æĦıåĪ°":6977,"æ²¸":6978,"æ¸¡":6979,"æĥ³ä¸įåĪ°":6980,"ĠæŀĹåĨ°":6981,"ä¸īä½į":6982,"Ġæĥ³æĿ¥":6983,"çĿ¡è§ī":6984,"Ġç¬¬åĽĽçĻ¾":6985,"¤æ°²":6986,"äºĨå¥¹":6987,"åŁİæ±ł":6988,"ĠåĨįåĬłä¸Ĭ":6989,"åħĭèİ±å¾·":6990,"Ġåį³ä¾¿":6991,"Ġéĥĳ":6992,"æĹłå°½":6993,"éŃģ":6994,"ĠéĿĻ":6995,"Ġè¿Ļæĺ¯ä»Ģä¹Ī":6996,"å¼ķèµ·":6997,"çİ¯å¢ĥ":6998,"çºłç¼ł":6999,"ä¼ĺåĬ¿":7000,"æĺ¨å¤©":7001,"Ġä»Ķç»Ĩ":7002,"å®ħ":7003,"æĪĳè¿Ļ":7004,"è¿ŀéģĵ":7005,"ĠãĢıãĢĤ":7006,"ĠåºĶè¯¥æĺ¯":7007,"ĠåĲĦä½į":7008,"ä¸įä¸Ģæł·":7009,"Ġç¤":7010,"åĨ»":7011,"Ġè¿Ļä¸¤":7012,"å°ıåĨĽ":7013,"å¤ĸäºº":7014,"æıī":7015,"äºĶè¡Į":7016,"Ġç¬¬ä¹Ŀ":7017,"Ġä»¥åıĬ":7018,"èµĦæĸĻ":7019,"äº«åıĹ":7020,"ĠæĪĳä¹Łä¸į":7021,"ä¿¯":7022,"è´¦":7023,"ĠæĢĢ":7024,"Ġå½¢":7025,"éĺµéĺµ":7026,"åĲĥäºĨä¸Ģ":7027,"çļĦæīĭæ®µ":7028,"è¯ķè¯ķ":7029,"çĪĨçĤ¸":7030,"èı©èĲ¨":7031,"ä»ĸåľ¨":7032,"åľ°éĹ®éģĵ":7033,"åĵ§":7034,"å®ĥçļĦ":7035,"ĠåħĪçĶŁ":7036,"äººå¿ĥ":7037,"èĤ¥":7038,"æį¢äºĨ":7039,"Ġä½Ĩæĺ¯åį´":7040,"ç¢Į":7041,"æĢĴçģ«":7042,"æ»ļæ»ļ":7043,"åįģåħ«ç«ł":7044,"--------":7045,"åįģåħŃç«ł":7046,"ä¸Ģé¢Ĺ":7047,"å¥ĩéģĵ":7048,"æĢ§çļĦ":7049,"äºĨåĩłå£°":7050,"äºĨåĩłåı¥":7051,"è´µçļĦ":7052,"éŁ¦":7053,"åĪĺæŃ£":7054,"æĤĦæĤĦ":7055,"åįģä¸ĥç«ł":7056,"åľ¨æŃ¤":7057,"åľ°æľĽçĿĢ":7058,"Ġä¹Łä¸įæĺ¯":7059,"çľīå¤´ä¸Ģçļ±":7060,"çĮľæµĭ":7061,"å½¦":7062,"åĩłå¹´":7063,"çĭĦ":7064,"åĲĮæĦı":7065,"çĬĢ":7066,"æº¢":7067,"å¯Ĩéº»éº»":7068,"ĠåĢŁ":7069,"çĽĺåı¤":7070,"ĠåĵĪåĵĪåĵĪ":7071,"æ²ĪåŃĿå¤©":7072,"çľ¨çľ¼":7073,"æħĪæĤ²":7074,"Ġä»ĸè¯´":7075,"éļľ":7076,"åı£æ°´":7077,"å¾®ç¬ĳéģĵ":7078,"ä½ľåĵģ":7079,"æ£Ĵ":7080,"ĠæĢİä¹Īåı¯èĥ½":7081,"Ġåĺ»":7082,"é«ħ":7083,"ç´«åºľä¿®å£«":7084,"èİ«åĲįåħ¶å¦Ļ":7085,"çĲ¢ç£¨":7086,"åĨĽä¸Ń":7087,"ä¿®åħĥ":7088,"ĠåĩĮ":7089,"ç¿ħ":7090,"ĠæĿİå¿Ĩå¦Ĥ":7091,"è¿Ľåħ¥äºĨ":7092,"æĿĲæĸĻ":7093,"ĠçĿĢ":7094,"Ġæ½":7095,"ä¸ºä»ĸ":7096,"ç«Ń":7097,"å¾®ç¬ĳçĿĢ":7098,"æľīäºĽåıĳ":7099,"åºķä¸ĭ":7100,"åħ«æĸ¹":7101,"åĲĦä½į":7102,"ĠåĪ«è¯´":7103,"Ġåĸĥ":7104,"Ġè½»çģµåŃĲ":7105,"åĩłåı¥":7106,"éĹ¨æ´¾":7107,"Ġä¹Łè¦ģ":7108,"æĿĢæĪ®":7109,"å¤ªå²©":7110,"äº²äºº":7111,"åĪ«äººçļĦ":7112,"åį³å°Ĩ":7113,"Ġå¦Ĥæŀľæĺ¯":7114,"Ġèĭ±":7115,"ĠåĨįæ¬¡":7116,"ĠèĲ¨":7117,"èľľ":7118,"å®ŀåľ¨å¤ª":7119,"Ġ10":7120,"Ġéªĳ":7121,"Ġæ»¡èĦ¸":7122,"é¾Ł":7123,"ĠåĩĿåĦ¿":7124,"æĪĳæĿ¥":7125,"çģ¿":7126,"èĦ¸ä¸ĬçļĦ":7127,"åĺĢ":7128,"æĸ¯ç½Ĺ":7129,"ĠèĩªçĦ¶æĺ¯":7130,"èĻļç©º":7131,"ĠåĲİéĿ¢":7132,"é£ĺé£ĺ":7133,"Ġåħ¨èº«":7134,"ç©¶ç«Ł":7135,"å¤§å¤§çļĦ":7136,"åĪ°çİ°åľ¨":7137,"å°±åİ»":7138,"æĭĤ":7139,"æ»¨":7140,"æĢİä¹Īè¯´":7141,"äº²çľ¼":7142,"å¼ĤçļĦ":7143,"åĿļå®ļ":7144,"æµªè´¹":7145,"Ġåĸĥåĸĥ":7146,"äºĨçĤ¹":7147,"äºĨä»ĸçļĦ":7148,"æľīéĴ±":7149,"æīĭçļĦ":7150,"çĻ½èī²":7151,"Ġå°ıå¼º":7152,"Ġåı¯æĺ¯è¿Ļ":7153,"çłĸ":7154,"è¥¿äºļ":7155,"ä¸İä»ĸ":7156,"æĬĵä½ıäºĨ":7157,"åįĩèµ·":7158,"è¥¿åĮĹ":7159,"ĠåĽłä¸ºä»ĸ":7160,"å¼±çļĦ":7161,"èº«åĲİçļĦ":7162,"ç²¾ç¥ŀåĬĽ":7163,"Ġéº»":7164,"Ġä½łåľ¨":7165,"ĠçľĭäºĨ":7166,"èħĶ":7167,"èĦĳåŃĲ":7168,"æĬ±æĭ³":7169,"è¿Łçĸĳ":7170,"Ġç´§ç´§":7171,"·é«ħ":7172,"äºĪ":7173,"è¿Ļäºĭ":7174,"äººå½±":7175,"ä½łä¹Ł":7176,"å¤§æĪĺ":7177,"å°±èµ°":7178,"è¯´è¯´":7179,"è¯´åĩºæĿ¥":7180,"ä»Ģä¹ĪçļĦ":7181,"è§Ħæ¨¡":7182,"äºĨä»ĸä¸Ģçľ¼":7183,"ĠåĪĺæŃ£":7184,"åĸĩåĺĽ":7185,"ä¸Ģè¾ĪåŃĲ":7186,"ĠæĪĳåı¯ä»¥":7187,"èĢģäººå®¶":7188,"ä¼¤å¿ĥ":7189,"çļĩå®«":7190,"Ġåĳĥ":7191,"äºĨåĩłæŃ¥":7192,"åģıåģı":7193,"çļĦåĲĮæĹ¶":7194,"å¾Īå°ĳ":7195,"éĿĴé¾Ļ":7196,"æĭ¿åĩº":7197,"Ġæģ¨":7198,"çĶļæĺ¯":7199,"çĭĲçĭ¸":7200,"çļĦéĹ®é¢ĺ":7201,"ä¸Ģæĭ³":7202,"æľīåħ³":7203,"è·Ħ":7204,"Ġåıªè§īå¾Ĺ":7205,"ç»Ļèĩªå·±":7206,"ç²Ĵ":7207,"åŃĹèĲ¥":7208,"æ··æ··":7209,"ç»§æī¿":7210,"éķĩæ±Ł":7211,"å¯»å¸¸":7212,"Ġæį¢":7213,"æĹº":7214,"åĩºèº«":7215,"Ġä½łçİ°åľ¨":7216,"Ġä»ĸè§īå¾Ĺ":7217,"æĸ¹åľĨ":7218,"æµ¸":7219,"åįģè¶³":7220,"æ·»":7221,"éľĨ":7222,"æķ°åįĥ":7223,"æĭħå¿§":7224,"åı¹æģ¯ä¸Ģå£°":7225,"æ£ĢæŁ¥":7226,"ĠéľĢè¦ģ":7227,"«n":7228,"ä¸Ģå¤Ħ":7229,"åĩºéĹ¨":7230,"éĤ£èĪ¬":7231,"è¾©":7232,"æĹłåı¯":7233,"æīįå¯¹":7234,"åį´åıĪ":7235,"Ġè¿ĺèĥ½":7236,"çİĭçļĦ":7237,"ĠæķĻ":7238,"åĩĿéĩį":7239,"Ġå§ĳ":7240,"ä¾¯çĪ·":7241,"å¾®å¾®çĤ¹å¤´":7242,"ĠåĲĮæł·":7243,"Ġä½İå£°":7244,"Ġé¢Ĩ":7245,"Ġçºªä¸Ģå·Ŀ":7246,"åįģä¹Ŀç«ł":7247,"éĥĳéĩį":7248,"éĺħè¯»":7249,"åĪ°çļĦ":7250,"Ġè¿Ļä¹Ł":7251,"çģ¼":7252,"æŀĹå°ĨåĨĽ":7253,"æŃ»åİ»":7254,"æĢİä¹ĪäºĨ":7255,"ĠçĨ":7256,"ä¸Ńå¿ĥ":7257,"Ġä¸įç¦ģ":7258,"æ°Ķå¾Ĺ":7259,"æĹłæķĮ":7260,"ç¾¡":7261,"ç½¡":7262,"å½¢å®¹":7263,"ä½İä¸ĭ":7264,"ä¸įå¾Ĺä¸į":7265,"Ġåºŀ":7266,"å¾Ĳå°ıå§Ĳ":7267,"çĲ¼åįİæ´¾":7268,"½åŃĲ":7269,"æĺ¯ä»İ":7270,"éĢ¢":7271,"è½¿":7272,"ä¸īçĻ¾":7273,"èĬ³":7274,"Ġè¯´åĪ°è¿ĻéĩĮ":7275,"éĺŁçļĦ":7276,"ĠåĴ¬":7277,"åĶ¯":7278,"åĹ¡":7279,"éĿŀå¸¸çļĦ":7280,"Ġåĳ¨æĺķ":7281,"Ġä¿®":7282,"ç¥ŀçļĦ":7283,"Ġå¤Ļ":7284,"å¾Īä¸į":7285,"ä¸įæĸŃçļĦ":7286,"æŁ³çĽ¸":7287,"æĪĳåĴĮ":7288,"åıªåī©ä¸ĭ":7289,"Ġåį´ä¹Ł":7290,"ä½ķåĨµ":7291,"åĪ¤æĸŃ":7292,"çķıæĥ§":7293,"æĵħéķ¿":7294,"?âĢĿ":7295,"ä¸Ĭå±±":7296,"éĢĿ":7297,"ä¸ºä½ł":7298,"çªį":7299,"è®¸ä¹ħ":7300,"èĥĮå½±":7301,"æī¿åıĹ":7302,"é¢ĦæĸĻ":7303,"ĠåĶ¯æľī":7304,"âĢĻ":7305,"å¤§æĢĴ":7306,"æĥħå½¢":7307,"äºĳæµħéĽª":7308,"å¤ªæĺĬå®«":7309,"çļĦäººç±»":7310,"æį·":7311,"Ġæĥ³èµ·":7312,"ä¸ĢçĽ´åľ¨":7313,"è¿ĺæĥ³":7314,"Ġæ¯Ĵ":7315,"æĬ¥åĳĬ":7316,"ç»Ŀå¯¹ä¸įä¼ļ":7317,"è½°çĦ¶":7318,"ä¼łéŁ³éģĵ":7319,"Ġæ¡ĥ":7320,"éĽģ":7321,"æĳĩæĻĥ":7322,"åĤħæ¸ħæī¬åĴĮ":7323,"ç½Ĺæĸ¯":7324,"ĠåŃĹ":7325,"æ¦ľ":7326,"èĥĨåŃĲ":7327,"ĠçĽ¸åħ¬":7328,"éģĹæĨ¾":7329,"å¾Īæ¸ħæ¥ļ":7330,"å¼ºçĥĪçļĦ":7331,"éª·é«ħ":7332,"åĬłåħ¥":7333,"åħĥèĢģ":7334,"æľĿå»·":7335,"æľªèĲ½":7336,"ĠåŃĶ":7337,"ĠèĬ±æľ¨åħ°":7338,"å¼¥æ¼«":7339,"çļĦä¿®ä¸º":7340,"äººåľ°":7341,"å¤§ä¼ļ":7342,"å¯¨":7343,"æ²¡è§ģè¿ĩ":7344,"Ġä¸įæĸŃ":7345,"Ġæľķ":7346,"æ·Į":7347,"ç½ķ":7348,"éĺ³åħī":7349,"åı¯èĥ½æĺ¯":7350,"ĠæĽ´ä½ķåĨµ":7351,"åĭĩæ°Ķ":7352,"æĽ¼çº½":7353,"æĽ¼çº½å°Ķ":7354,"ä¸įå¼Ģ":7355,"æŃ¹":7356,"èº«æĿ¥":7357,"æ·«":7358,"éŃĶæĻ¶":7359,"éļ¾åıĹ":7360,"æľīä¸ĢäºĽ":7361,"æĭįåįĸ":7362,"Ġè·¯":7363,"åĳĨäºĨ":7364,"èŃ¦æĥķ":7365,"èµµçģµåĦ¿":7366,"çĸ¼çĹĽ":7367,"çºµçĦ¶":7368,"å¤§èĻŀ":7369,"æĪĳåİ»":7370,"ä½ķçŃī":7371,"è£Ļ":7372,"Ġ&":7373,"äºĨåı£":7374,"ĠæĪĳåıĪ":7375,"çĦ¶ä¸Ģç¬ĳ":7376,"è¢ĸåŃĲ":7377,"æīĵçĿĢ":7378,"çģµçıł":7379,"ç®ĢåįķçļĦ":7380,"è¿Ļå°ı":7381,"éĩĮéĿ¢çļĦ":7382,"å£°ä¸Ń":7383,"åĿ¡":7384,"é£ŀåĩº":7385,"åĢĴåľ¨åľ°":7386,"å®īå¾·":7387,"Ġå¨ĩ":7388,"æĤ£":7389,"ä¸Ģæīĭ":7390,"ä¸ĩéĩĮ":7391,"æĥĬéģĵ":7392,"Ġæł¹æį®":7393,"åıĳçĶŁäºĨ":7394,"å¼Ģåı£éģĵ":7395,"ĠæĹģè¾¹çļĦ":7396,"èµ·çłģ":7397,"åı¯è§ģ":7398,"çľ¼æ³ª":7399,"Ġå°±åľ¨è¿Ļ":7400,"ĠåĲ¼":7401,"çĲ´":7402,"ä¹Ŀçģ«":7403,"ç«Ļèµ·èº«æĿ¥":7404,"ĠçľŁæŃ£":7405,"çľ¼åīįçļĦ":7406,"Ġä¸¤ä¸ªäºº":7407,"ä¸Ģè§ģ":7408,"åħľ":7409,"æľīå¤ļå°ĳ":7410,"å°ıå£°":7411,"æĥ³åĪ°äºĨ":7412,"ĠæŀĹéĽ·çļĦ":7413,"æĳĺ":7414,"ä¸ĩå¹´":7415,"çĲ³":7416,"åľºæĻ¯":7417,"æ¡©":7418,"éĢĥè·ĳ":7419,"å§Ĺå§Ĺ":7420,"ĠsÃ¨":7421,"åĪ¹éĤ£":7422,"çī²":7423,"æŃ¦ä¾¯":7424,"è¡¨ç¤º":7425,"æ¡Ĥ":7426,"ä½ĽéĹ¨":7427,"æİłè¿ĩ":7428,"ä¸ĢæĹı":7429,"åıĻ":7430,"åľ¨å±±":7431,"å¤§çīĩ":7432,"ĠæĪĳæīį":7433,"çľĭä»ĸ":7434,"å¼Ģçİ©ç¬ĳ":7435,"æŃ£å¼ı":7436,"å½ĵåľº":7437,"è¿ĺæĺ¯å¾Ī":7438,"èĭ¥åħ°":7439,"Ġéľĩ":7440,"Ġå¤ļè°¢":7441,"Ġå¾·æŀĹæŁ¯æ²ĥçī¹":7442,"åĤħåħĪçĶŁ":7443,"Ġä¸ĢæĿ¡":7444,"ä¸ĩåĪĨ":7445,"Ġæķĳ":7446,"ĠéĢįéģ¥":7447,"éĺ»æŃ¢":7448,"é¾Ļè¡ĢæĪĺå£«":7449,"ĠæĪĳæĿ¥":7450,"è¾ľ":7451,"çĶ¨æĿ¥":7452,"çģµçŁ³":7453,"åĨħåĬĽ":7454,"éĿĻéĿĻ":7455,"ĠåĨ·åĨ·":7456,"Ġè¯Ńæ°Ķ":7457,"è¤":7458,"ķé¦ĸ":7459,"ä½łåİ»":7460,"ä¸ĬéĹ¨":7461,"ä¸Ńæ¸¯":7462,"éĥ½åı¯ä»¥":7463,"å¥½äºĭ":7464,"æĻĭ":7465,"æĥ³åĥı":7466,"è¾¹ä¸Ĭ":7467,"å¸¦é¢Ĩ":7468,"ä¸¤ä¸ªåŃĹ":7469,"å¤ľæĢ»ä¼ļ":7470,"ŃæĦ§":7471,"ä¸Ģå±Ĥ":7472,"æĺ¯ä¸ºäºĨ":7473,"å¤§åĳ¨":7474,"æ²¡èĥ½":7475,"ç§ĥ":7476,"ä¸īå¤©":7477,"èĢĮä¸ĭ":7478,"åĺŁ":7479,"é©³":7480,"åĬŁåĬĽ":7481,"æ·±çļĦ":7482,"å®«å¥³":7483,"Ġè·Ŀ":7484,"èº¬èº«":7485,"Ġè¿Ľ":7486,"çļĦä¸¤":7487,"äºĨéĤ£":7488,"éģ£":7489,"æĹłèĢ»":7490,"çľŁåħĥ":7491,"äºĶåįģ":7492,"åĲĪéĢĤ":7493,"åĲĦä¸ª":7494,"åħħæ»¡":7495,"Ġè½¬çľ¼":7496,"ĠåĲĳçĿĢ":7497,"çļĦéĹ®":7498,"Ġä¸įåı¯":7499,"éĩįåīĳ":7500,"æĪĺé©¬":7501,"Ġè®¤":7502,"Ġå¦ĤæŀľæĪĳ":7503,"æĸ§":7504,"æĹłèģĬ":7505,"æŀĹæľĪå¦Ĥ":7506,"æ±¡":7507,"è¿Ļä¹Īå¤§":7508,"Ġæ¯į":7509,"æ¡ĳ":7510,"åĩŃç©º":7511,"Ġæĳ¸":7512,"çļĦåĲĳ":7513,"å¼Ģåİ»":7514,"æĦıå¿Ĺ":7515,"ĠæĪĳä»¬çļĦ":7516,"èħ»":7517,"Ġçº·":7518,"åĹ¯":7519,"å»ºçŃĳ":7520,"ĠæĮĩçĿĢ":7521,"æİĲ":7522,"è®©èĩªå·±":7523,"æĦŁåıĹ":7524,"é£ŀåİ»":7525,"ä½¿åĬ²":7526,"å¥Īä½ķ":7527,"æģ¼æĢĴ":7528,"ĠçĮĽåľ°":7529,"ä»ŀ":7530,"Ġå°¼":7531,"æ²¡éĶĻ":7532,"æµ´":7533,"çĽ¸å¯¹":7534,"åĢĴéľī":7535,"è¨Ģä¸į":7536,"Ġå¼Ł":7537,"çķªè¯Ŀ":7538,"èĢĲçĥ¦":7539,"æ·±æ·±çļĦ":7540,"åľ¨ä¸ĢæĹģ":7541,"ä¸įæŃ¢":7542,"æĹ±éŃĥ":7543,"ç¥ŀå¢ĵ":7544,"ĠåĪº":7545,"Ġçľĭè§ģ":7546,"è¡ĢèĦī":7547,"ä¸ĥæĺŁæģ¶éŃĶ":7548,"å®Ŀçī©":7549,"æ´ŀåºľ":7550,"æ²ĪéĹ¨":7551,"è¡¥åħħ":7552,"Ġå¨ģåĬĽ":7553,"âĢķ":7554,"æĹ¨":7555,"åľ°åĽ¾":7556,"æĹ¶åĪĨ":7557,"æŃ£è¦ģ":7558,"éĩĳä»Ļ":7559,"ĠèĢģéģĵ":7560,"ĠæīĢæľīçļĦ":7561,"æ¢µ":7562,"æ·¡æ·¡éģĵ":7563,"Ġä½łä»¥ä¸º":7564,"çĻ½äºĨ":7565,"æ¶¡":7566,"å¾Ģå¤ĸ":7567,"ç¡ķ":7568,"æ¡£":7569,"æĲı":7570,"éªĤéģĵ":7571,"æĹłæ¯ĶçļĦ":7572,"ĠçĽĸæĸ¯éĽ·æ£®":7573,"Ķéģĵ":7574,"çļĦåĲį":7575,"è¯´ä¸įå®ļ":7576,"æĽ¹":7577,"çĶ·å¥³":7578,"ä»£ä»·":7579,"ĠæľĢè¿ĳ":7580,"Ġçİīåħ°":7581,"Ġå¤ļå°ĳ":7582,"ç¼ĺæķħ":7583,"Ġå£«åħµä»¬":7584,"Ġé¸":7585,"ä½łèĥ½":7586,"å¤§çĩķ":7587,"èĬ¬":7588,"Ġå¦Ī":7589,"Ġå¤©åľ°":7590,"ä¸ĭæĿ¥äºĨ":7591,"éĥ½ä¸įæķ¢":7592,"æ³ªæ°´":7593,"æĴŀåĩ»":7594,"é¹¤":7595,"åĮ»éĻ¢":7596,"Ġä¾Ŀèİ²":7597,"ĠèµĽæĸ¯åĭĴ":7598,"åı¨":7599,"äººä»¬":7600,"å¤§æŃ¥":7601,"Ġä¸įåı¯èĥ½":7602,"éŃħ":7603,"éķ¿æĹ¶éĹ´":7604,"è¢«æīĵ":7605,"çĶµå½±":7606,"ĠéĹª":7607,"éĩįè¦ģçļĦ":7608,"Ġä»ĻåŃĲ":7609,"ĠåĵİåĳĢ":7610,"å¤§éĩıçļĦ":7611,"Ġå»":7612,"ĠèŃ¦":7613,"éĥ½å¿«":7614,"Ġä»ĸçİ°åľ¨":7615,"å¿ĥç¥ŀ":7616,"ç¥ŀæĹı":7617,"åīįå¾Ģ":7618,"åĩłåįģ":7619,"å·´æİĮ":7620,"èµ°äºĨè¿ĩæĿ¥":7621,"Ġè£¹":7622,"Ġå®ĿåĦ¿":7623,"ä¸Ĭåı¤":7624,"å¤§æīĭ":7625,"çĶŁçĶŁ":7626,"æ²¡æľīä»»ä½ķ":7627,"ä¸»è¦ģ":7628,"è¿Ļä¹Īä¸Ģä¸ª":7629,"ĠåĨ°":7630,"æŃ¦ç¥ŀ":7631,"èĭ¦ç¬ĳéģĵ":7632,"çľ¼çĿĽä¸Ģäº®":7633,"éľĩæĴ¼":7634,"åħģè®¸":7635,"ä¸įä¿¡":7636,"å®ı":7637,"éģĵè·¯":7638,"èį·":7639,"æĥħæĬ¥":7640,"æĦıä¹ī":7641,"å¼łå¼Ģ":7642,"è¿Ļä¸Ģå¹ķ":7643,"æĮĳæĪĺ":7644,"è¢Ńåĩ»":7645,"ĠæĻ¯å¤©éģĵ":7646,"ä¹Łç®Ĺ":7647,"Ġåı¯æĺ¯åį´":7648,"åŃ¦å®«":7649,"å·¨çŁ³":7650,"æ¶Īå¤±äºĨ":7651,"çļĦæŀĹéĽ·":7652,"åĲĮåŃ¦":7653,"éĥ¨æĹı":7654,"åįĬæĻĮ":7655,"éľ²åĩºä¸Ģä¸Ŀ":7656,"ĠéĺŁ":7657,"çİĦéľĦ":7658,"åĪ°åºķæĺ¯":7659,"çĵ¦ä¼¦":7660,"ĠåĮħæĭ¬":7661,"åľ¨ä½ł":7662,"çĿĢå¥¹":7663,"ä¸ĭä»¤":7664,"äºĨä¸Ģçķª":7665,"çĥ«":7666,"Ġå®¹":7667,"Ġå®Ľå¦Ĥ":7668,"ĠæŃ£å¥½":7669,"Ġè®©ä½ł":7670,"èĭ¥æĹł":7671,"Ġå¾Īå¥½":7672,"æ¾ľ":7673,"åĴ¯åĴ¯":7674,"Ġä¹ĭ":7675,"çļĦåħī":7676,"çļĦå¥³åŃĲ":7677,"çļĦæĸ¹åĲĳ":7678,"æĿĸ":7679,"Ġä½łè¯´çļĦ":7680,"ĠæľīäºĨ":7681,"åľºä¸Ĭ":7682,"ç³ķ":7683,"æĢ¥éĢŁ":7684,"æľºåħ³":7685,"çľŁçļĦæĺ¯":7686,"çħ§çīĩ":7687,"Ġè§ģä»ĸ":7688,"æĺ¯ä»Ģä¹Īäºº":7689,"æ´ªçĪ·":7690,"ä¹ĸä¹ĸ":7691,"«èĬ¦":7692,"Ġä¸Ķ":7693,"æĿ¥åİĨ":7694,"Ġåıĸ":7695,"æ°¤æ°²":7696,"Ġä¸įå¾Ĺ":7697,"Ġä¸Ģçīĩ":7698,"Ġä½Ľ":7699,"çĶŁçī©":7700,"ä»Ļå±±":7701,"å¾Ģä¸ĭ":7702,"å½¢æĪĲ":7703,"è¿ľä¸ľåĨĽ":7704,"ĠéŃĶç¥ŀçļĩ":7705,"ç¾ŀæ¶©":7706,"æĬĦ":7707,"Ġä½łåİ»":7708,"æīĭèħķ":7709,"å£°åĵį":7710,"ç¥ŀæ®¿":7711,"åıªå¥½":7712,"ä¸įæĺ¯ä»Ģä¹Ī":7713,"æľ¬å°Ĭ":7714,"åĪĨæĺİ":7715,"åģļæ¢¦":7716,"éĩĳä¸¹":7717,"Ġçľĭä¸Ĭåİ»":7718,"å°ıéĽ·çļĦ":7719,"åĭ¿ä¹ŀçļĦ":7720,"çĳŀ":7721,"èĢģå¤´åŃĲ":7722,"Ġç½ĳåıĭä¸Ĭä¼łç«łèĬĤ":7723,"åĺĢåĴķ":7724,"çļĦæ¶Īæģ¯":7725,"ä¸įæĿ¥":7726,"åĴ±":7727,"å±±è°·":7728,"ĠèĢģå¤´":7729,"ç¿ĺ":7730,"ä¼¤äºĨ":7731,"Ġè·ĳ":7732,"ĠéĽ·æĸ¯æĻ¶":7733,"æ²Ļåıĳ":7734,"çļ±çľīéģĵ":7735,"äºĨå¥½":7736,"çĿĢäºĨ":7737,"ç¬ĳè¯Ŀ":7738,"çŁ¥æĻĵ":7739,"æ³ķéĺµ":7740,"åĽŀå¿Ĩ":7741,"é£ŀæľº":7742,"æĢĴæ°Ķ":7743,"å¨ģä¸¥":7744,"éĨĴæĿ¥":7745,"å¹½åĨ¥":7746,"ĠåĪĺèĢģåħŃ":7747,"Ġè°¢çİīåħ°":7748,"åĸ·åĩº":7749,"å¿ĺè®°äºĨ":7750,"ä¸Ģç¾¤äºº":7751,"Ġå«":7752,"ä¸ĢæĻĥ":7753,"å¥½è±¡":7754,"æĦıè§ģ":7755,"è°ħ":7756,"éĹ¨äºº":7757,"ç»Ļå¥¹":7758,"è¾¹ç¼ĺ":7759,"çĥ¤":7760,"çĮ¾":7761,"ä½ľæĪĺ":7762,"ĠåĶ¯ä¸Ģ":7763,"éĻ·åħ¥":7764,"Ġå·´åħĭ":7765,"èī°éļ¾":7766,"Ġè·Ŀç¦»":7767,"ä¸įéĢļ":7768,"åĲ±":7769,"å°±çŁ¥éģĵ":7770,"æ³¼":7771,"éĻĮ":7772,"åħīäºĨ":7773,"ĠåĪĩ":7774,"åĪ°äºĨæŀģ":7775,"Ġç»Ĩ":7776,"åĮĸä½ľ":7777,"çķĻä¸ĭçļĦ":7778,"è§ĴèĲ½":7779,"éĺ»æĭ¦":7780,"åĩºåı£":7781,"çĽı":7782,"æĭĨ":7783,"å¿ĥæĥĬ":7784,"ä¸ºæĪĳ":7785,"æŀĹå¤§äºº":7786,"æīĵæī°":7787,"æŃ¤äºĭ":7788,"ĠæĸĲå°ĳçĪ·":7789,"ĠåĴ³":7790,"æ£ĭ":7791,"åıįå¯¹":7792,"è¹²":7793,"æĿ¨å¼ĺ":7794,"çĽĳå¯Łåİħ":7795,"Ġç¿»":7796,"éªĦåĤ²":7797,"è¿Ļåľº":7798,"å¤§å°ıçļĦ":7799,"æŀī":7800,"Ġè¿Ļè®©":7801,"ä¸īå¼º":7802,"äºĨä¸ĢæĿ¡":7803,"æĹłæīĢ":7804,"Ġåı¶è´Ŀå®«":7805,"è¿ŀç»Ń":7806,"å¾Ĳæ¸Ń":7807,"å¼¥åĭĴ":7808,"éĤĢè¯·":7809,"ĠæĪĳåı«":7810,"æ¸ħéĽħ":7811,"åĸ§":7812,"Ġå¤§å£°":7813,"å¥ĩå³°":7814,"Ġåģĩ":7815,"Ġæ¯ıå¤©":7816,"åįłæį®":7817,"Ġç¬¬äºĶçĻ¾":7818,"æ§":7819,"åħ¹":7820,"éĥ½æľīäºĽ":7821,"ĠéĤ£éĩĮ":7822,"åĲĳä»ĸ":7823,"é©¶":7824,"æļĹéģĵ":7825,"ĠæĶ»":7826,"ç¢İäºĨ":7827,"æĥħåĨµä¸ĭ":7828,"Ġçº·çº·":7829,"Ġè¿ľå¤Ħ":7830,"ä¸ĢæİĮ":7831,"å¤§äººçļĦ":7832,"èµ¢äºĨ":7833,"ĠæĪĳå°±æĺ¯":7834,"Ġåį«":7835,"ĠèĢ³":7836,"èĢĮè¿ĩ":7837,"çŃīä»ĸ":7838,"é¢Ĩä¸»":7839,"å¡ĳ":7840,"çĹĽå¿«":7841,"ĠæĿ¥åĪ°":7842,"èĻ«åŃĲ":7843,"æĬ¬èµ·å¤´æĿ¥":7844,"æľ½":7845,"ĠèĮ":7846,"èĢ¶":7847,"åĴĮèĩªå·±":7848,"åħ¥åı£":7849,"çİīéĽķ":7850,"é¥¼":7851,"èĥľåĪ©":7852,"éģµ":7853,"åľ¨æĦı":7854,"ä¹Łå°±æĺ¯":7855,"è¯´æĿ¥":7856,"èĥ§":7857,"ä¸ĩäºº":7858,"ĠæĪĳä»¬å°±":7859,"åĲĥçļĦ":7860,"é½Ĳé½Ĳ":7861,"ä¸įæĸŃåľ°":7862,"ĠèĵĿ":7863,"æĦıè¯ĨåĪ°":7864,"Ġè¿ħéĢŁ":7865,"å¤·":7866,"äºĨè¿Ľåİ»":7867,"åĴĮå¥¹":7868,"çł°":7869,"åı«äºĨä¸Ģå£°":7870,"æĽ´æĸ°":7871,"åįİå¤ı":7872,"æĢ»ç®Ĺ":7873,"åŃ¦ä¹ł":7874,"Ġæ´ŀ":7875,"å¨ĥå¨ĥ":7876,"é»ĳçĻ½å²Ľ":7877,"åĲĥäºĨä¸ĢæĥĬ":7878,"ĨåĹ¦":7879,"æīĽ":7880,"çĿĢæĪĳ":7881,"åīĳéĺµ":7882,"åĭĭ":7883,"å²Ń":7884,"Ġæ¸Ĳæ¸Ĳ":7885,"ç«Ļç«ĭ":7886,"è¡£è¡«":7887,"ĠçĽĺ":7888,"Ġèº«å½¢":7889,"æĿ¾äºĨåı£æ°Ķ":7890,"å®Īåį«":7891,"Ġè¯·éĹ®":7892,"æ´ĽèĴĻ":7893,"æ¯ģçģŃ":7894,"ĠéĻ¶èĭ¥é¦Ļ":7895,"éĩĳå±ŀçĶŁåĳ½":7896,"ä¸Ģæĭį":7897,"åĳĪ":7898,"ä¿ĺ":7899,"æ·®":7900,"Ġåį´æ²¡æľī":7901,"æĢĿè®®":7902,"èĩ³å°ĳ":7903,"èĥĮæĻ¯":7904,"å®¢åİħ":7905,"èµ¶åĪ°":7906,"éĺ´æ²ī":7907,"Ġéĺ¿å¥´":7908,"é¡ºåĪ©":7909,"Ġç½ĹæĿ°":7910,"éĢĨå¤©":7911,"æ¯«ä¸įçĬ¹è±«":7912,"æīĢè°ĵçļĦ":7913,"Ġåı¸å¾Ĵ":7914,"Ġä¸¹":7915,"Ġ,âĢĺ":7916,"èĢ¶é²ģ":7917,"å°ıå°ıçļĦ":7918,"æĹłç©·":7919,"æĦıåĳ³":7920,"æĬĬéĤ£":7921,"åĲ¬ä»ĸ":7922,"åīĳæ°Ķ":7923,"åı¶ä¸ľå¹³":7924,"æ¯Ķè¯ķ":7925,"å©¢":7926,"ç§¦å§ĭçļĩ":7927,"ĠæīĭéĩĮ":7928,"Ġæ»ļ":7929,"èī¯ä¹ħ":7930,"ĠåĮĹå±±":7931,"æ»ĭåĳ³":7932,"å¥ĪçļĦ":7933,"å¦ĤèĬ±":7934,"é»Ŀ":7935,"äºĮå°ıå§Ĳ":7936,"æľĢé«ĺ":7937,"åĲĥä¸ĢæĥĬ":7938,"æ¶Īæķ£":7939,"éĴ±çļĦ":7940,"ç»Ĩç»Ĩ":7941,"åĳĨåĳĨ":7942,"Ġæ¸©ä¸įåģļ":7943,"ĠæĢ»ä¹ĭ":7944,"åĪ®":7945,"è¯Ī":7946,"Ġä½łèĥ½":7947,"æĹłéĻĲ":7948,"éĴ§":7949,"é»ĳèī²çļĦ":7950,"æī¾æĪĳ":7951,"ç½Ĺæ²Ļ":7952,"ç§¦éĶ¥":7953,"éĨĴäºĨ":7954,"ĠåīįéĿ¢":7955,"Ġæħķ":7956,"ä¸įä¹Ĳ":7957,"åı®":7958,"åĲŃ":7959,"ç»©":7960,"çĿĢè¿Ļ":7961,"å¯ĩ":7962,"æĮ½":7963,"äºĨä¸ĢæŃ¥":7964,"èĤł":7965,"åıĪæĺ¯ä¸Ģ":7966,"éĴ°":7967,"èĢħçļĦ":7968,"æĸĩåŃĹ":7969,"åıĮçľ¸":7970,"åĤ¨":7971,"è¯´è¯ĿäºĨ":7972,"åįĹå®«çħĮ":7973,"Ġä¸ĭéĿ¢":7974,"Ġåĺ´éĩĮ":7975,"ĠæĢķæĺ¯":7976,"Ġht":7977,"çļĦéĿĴ":7978,"å¯¡":7979,"Ġä»ĸå¿ĥéĩĮ":7980,"éľį":7981,"åīĳæ³ķ":7982,"ç«ĻçĿĢ":7983,"ĠçĽĳ":7984,"Ġå°ĨæĿ¥":7985,"è¿ĺæľīä»Ģä¹Ī":7986,"ĠèĥĸåŃĲ":7987,"ç©ºéĹ´æĪĴæĮĩ":7988,"æ¡Įä¸Ĭ":7989,"éĻįä¸´":7990,"ä¸ĺçİĭ":7991,"ĠèĤĸéĿĴæĹĭ":7992,"ä¸įæĦ¿æĦı":7993,"åĲ¾":7994,"ä»ĸäºĨ":7995,"Ġè¯´èµ·æĿ¥":7996,"è®°è½½":7997,"è´£ä»»":7998,"ĠæŁ¯":7999,"Ġå¸Įå¡ŀ":8000,"é¢ľèī²":8001,"Ġ|":8002,"ĠåĲĵ":8003,"èĶĵ":8004,"ĠåĮĸä¸º":8005,"Ġn":8006,"Ġä¿®çĤ¼":8007,"çļĦä»İ":8008,"ä¸ĢèĦī":8009,"Ġçĵ¦":8010,"åĴĮå°ı":8011,"ä¸īæ¡Ĥ":8012,"ç»Ļä»ĸä»¬":8013,"Ġå¦ĤåĲĮ":8014,"äº¤æµģ":8015,"çŃĶéģĵ":8016,"Ġå¤§å®¶éĥ½":8017,"Ġch":8018,"ä¼łè¯´ä¸ŃçļĦ":8019,"è´«":8020,"éķ¿å®ĺ":8021,"æļĳ":8022,"Ġæ²¡æľīäºº":8023,"ç²¾è¡Ģ":8024,"èº«ä¸Ĭä¸ĭ":8025,"æĭįæĭį":8026,"ç©¿äºĨ":8027,"å¡ŀåĨħäºļ":8028,"åį±æľº":8029,"èļģ":8030,"è®¨è®º":8031,"åıĽåĨĽ":8032,"äºĨçīĩåĪ»":8033,"ä¸ĢæĭĽ":8034,"ä¸įå¿ħ":8035,"å¤©å¤©":8036,"è¦ģå¡ŀ":8037,"å¥½ä¸ľè¥¿":8038,"çľ¼çľĭ":8039,"ä¸¤æĿ¡":8040,"å·²ç»ıåĪ°äºĨ":8041,"æµģè½¬":8042,"èµ¶æĿ¥":8043,"ĠéŃı":8044,"èĤ©å¤´":8045,"æ¯ķç«Łæĺ¯":8046,"Ġ!!!âĢĿ":8047,"èĤ²æīį":8048,"çļĦä¸ī":8049,"Ġä½łåı¯ä»¥":8050,"è´¤":8051,"Ġå¤ı":8052,"Ġåıªå¥½":8053,"å±±çĶ²":8054,"Ġä¹Łä¸įä¼ļ":8055,"èĢĮä¸į":8056,"è®©æĪĳä»¬":8057,"åĲĮä¼´":8058,"è¡Ģè½¯åīĳ":8059,"Ġè´º":8060,"ĠæķĮ":8061,"ä¸¾èµ·":8062,"åĲŀåĻ¬":8063,"âĢ»âĢ»":8064,"Ġl":8065,"ä¹ı":8066,"æĥ®":8067,"ĠéĤ£ä½į":8068,"é¢ł":8069,"ä½ıå¥¹":8070,"å±±å³°":8071,"ĠæŀĹéĽ·åĴĮ":8072,"Ġå°ıå§Ĳ":8073,"è¿ľäºĨ":8074,"æŁ´":8075,"è¥¿æĸ¹":8076,"ä¹Ŀçº§":8077,"æ²īéĩį":8078,"æ²īæĢĿ":8079,"æıĲèµ·":8080,"©åªļ":8081,"ä¼ļè¢«":8082,"ç»Ļä½łä»¬":8083,"çŃīåĪ°":8084,"åįĬçĤ¹":8085,"æıĲé«ĺ":8086,"å±ħä½ı":8087,"ä¾įå¥³":8088,"æľīæīĢæĢĿ":8089,"Ġçī¹åĪ«æĺ¯":8090,"çļĦéĹ®éģĵ":8091,"æĥ«":8092,"ä¹Łå¾Ĺ":8093,"åĮķé¦ĸ":8094,"å¤ªå¤§":8095,"ĠåĤħæ¸ħæī¬åĴĮ":8096,"æļĹä¸Ń":8097,"å¯Ĵåħī":8098,"è¹¦":8099,"åĲŀæµ·":8100,"å¤§äºĨçľ¼çĿĽ":8101,"Ġé²ľè¡Ģ":8102,"Ġä»»ä½ķ":8103,"ä¸¢äºĨ":8104,"æĪĳè¯´":8105,"æł½":8106,"èº«èº¯":8107,"ä»Ģä¹Īäºĭ":8108,"å·²æĺ¯":8109,"Ġåħ´":8110,"Ġåħµ":8111,"æĳĦ":8112,"é£İåĲ¹":8113,"æıŃ":8114,"Ġå½±":8115,"è¿ĻéĩĮçļĦ":8116,"ä¹Ŀé¡¶":8117,"æľĿçļĦ":8118,"å·´é²ģåħĭ":8119,"éķĩå®ļ":8120,"å»·æĸ¯":8121,"ä¸ĢåĪĨ":8122,"åĪ°å¤Ħ":8123,"åĳľ":8124,"å¿ĥçĸ¼":8125,"é«ĺç©º":8126,"çĸĨ":8127,"æĸ¯çī¹":8128,"æ··æ²Į":8129,"æ¸©ä¹Ĳéĺ³çļĦ":8130,"ĠçĤ¼":8131,"å§Ķå±Ī":8132,"çļĦè¡Į":8133,"åľ°å¤§":8134,"åº¸":8135,"æīĭæĮģ":8136,"ç¬ĳå¾Ĺ":8137,"éķ¿éķ¿":8138,"æŃ»äºº":8139,"Ġåı¶èĵī":8140,"çĻ¾ç±³":8141,"Ġæľªå®Į":8142,"Ġå¡Ķ":8143,"çľ¶":8144,"åľ°å°ı":8145,"Ġè¿Ļä»¶äºĭæĥħ":8146,"ä¸Ńæľī":8147,"å¤©ä¸Ĭ":8148,"Ġä»ĸèĻ½çĦ¶":8149,"éĽ·çĶµ":8150,"åĲ¬åĪ°äºĨ":8151,"ĠèĢģçĪ·":8152,"ä¸ĸä¸Ĭ":8153,"æĭ¿èµ·":8154,"çº§åĪ«":8155,"Ġçľ¼ä¸ĭ":8156,"Ġæĭ¥":8157,"çĿĢä¸ĢèĤ¡":8158,"å¾ħç»Ń":8159,"èį¡èį¡":8160,"ĠèĲ§å¤«äºº":8161,"èīºæľ¯":8162,"Ġäºĭå®ŀä¸Ĭ":8163,"åĽĽéĿ¢åħ«æĸ¹":8164,"Ġåĺ»åĺ»":8165,"ä¸įçĶĺ":8166,"ĠæĪĳå¾Ī":8167,"Ġä½łåıĪ":8168,"ä»Ģä¹Īä¸ľè¥¿":8169,"åį´å·²ç»ı":8170,"æ¯Ķä»ĸ":8171,"æħĳ":8172,"çŁ³åŃĲ":8173,"æĢ¥éģĵ":8174,"äº¤æīĭ":8175,"çıĬ":8176,"èĳ«èĬ¦":8177,"ç»´å¥ĩ":8178,"ĠçĽ¸ä¿¡":8179,"èĮ«çĦ¶":8180,"å¿Įæĥ®":8181,"çļĦå®¶ä¼Ļ":8182,"äºĨæĮĩ":8183,"åľ¨è¿Ļä¸ª":8184,"åĬ±":8185,"åĨĽå¸Ī":8186,"åħ³äºİ":8187,"çĹķè¿¹":8188,"Ġèµ¶ç´§":8189,"Ġæľªå®Įå¾ħç»Ń":8190,"å¤§çİĭ":8191,"Ġåı·":8192,"çľĭä¸įåĪ°":8193,"æĪĲå°±":8194,"çĻ½çľ¼":8195,"å°±æĺ¯ä¸Ģä¸ª":8196,"çĽ¸è§Ĩ":8197,"åĨħå¿ĥ":8198,"æ¡¶":8199,"æĲº":8200,"Ġè°ģçŁ¥éģĵ":8201,"Ġç¥ŀæĥħ":8202,"å¾ª":8203,"èµ´":8204,"Ġä½łå¿«":8205,"çĽĶ":8206,"Ġä»ĸè¿ĺ":8207,"ä¹ĭæ³ķ":8208,"æĶĢ":8209,"åį´ä¸į":8210,"åĲ¬è¿ĩ":8211,"éĩĳæĸ¯":8212,"ĠåĴ±":8213,"Ġè®©ä»ĸä»¬":8214,"Ġéķ¿èĢģ":8215,"Ġéľįæł¼":8216,"äºŃ":8217,"Ġèļ":8218,"æ¸ħèĦĨ":8219,"æľĢä¸º":8220,"å¾·éĩĳæĸ¯":8221,"Ġåħ¶å®ŀæĪĳ":8222,"è¹¬":8223,"åĩ¡äºº":8224,"ĠèĻļ":8225,"İåŃĲ":8226,"è¿Ń":8227,"çĿĢèĩªå·±":8228,"éĽ·èĻİ":8229,"å¤ļä¹Ī":8230,"æĿĢæĪĳ":8231,"å¿«ä¹Ĳ":8232,"ä½¿å¾Ĺ":8233,"åĻĹ":8234,"ä¹±çļĦ":8235,"ç»ĵå©ļ":8236,"ç´¢ä½Ĳ":8237,"è°ĥæŁ¥":8238,"Ġèµ°åĪ°":8239,"åı¦å¤ĸä¸Ģä¸ª":8240,"Ġæħ¢æħ¢":8241,"ĠåĽ´":8242,"å¥ı":8243,"æ²¡åĬŀæ³ķ":8244,"å¿ĥæĦı":8245,"Ġä¸įå¿ħ":8246,"éķ¿å¾Ĺ":8247,"æĥĬäººçļĦ":8248,"åĽĽæĸ¹":8249,"æĹ¥éĩĮ":8250,"è¿Ļä¸ĢçĤ¹":8251,"æľīä¸Ģä¸Ŀ":8252,"çĬ¹å¦Ĥ":8253,"ä¸«é¬":8254,"ĠæŀľçĦ¶æĺ¯":8255,"éģŃéģĩ":8256,"Ġåį¡ä¸¹":8257,"Ġç¬¬åħŃçĻ¾":8258,"Ġ8":8259,"ĩæĮĩ":8260,"çĿĢå°ı":8261,"Ġè¿Ļä¸«å¤´":8262,"Ġä½łæľī":8263,"Ġåı¯æĺ¯ä½ł":8264,"çļĩåŃĲ":8265,"æ¢Ń":8266,"Ġè´¾":8267,"ç»´é£İ":8268,"ç¢İè£Ĥ":8269,"ĠçĶļèĩ³äºİ":8270,"å±ħæ°ĳ":8271,"æīŃæĽ²":8272,"èĢģçĪ·åŃĲ":8273,"æĿ¥åľ°":8274,"åĩºåİ»äºĨ":8275,"å¤ļåįĬ":8276,"æīĵæŀ¶":8277,"çªĥ":8278,"éħ¥":8279,"åı¶æŀ«åľ°":8280,"æĹĭè½¬":8281,"Ġåĥıæĺ¯":8282,"çħŀæ°Ķ":8283,"æĨĭ":8284,"ĠæİĮéĹ¨":8285,"Ġhtt":8286,"æ²Ł":8287,"å¿ĥçĲĨ":8288,"Ġä¹Łèĥ½":8289,"Ġæĺ¯åĲĹ":8290,"åħŃä¸ª":8291,"æĬ¥å¤į":8292,"Ġè¿Ļæł·çļĦ":8293,"ç§»åĬ¨":8294,"å´©æºĥ":8295,"æĺ§":8296,"è¿Ļä»¶äºĭ":8297,"åľ¨å¤§":8298,"æĸĲ":8299,"è¡°":8300,"å¥½çľĭ":8301,"æŀĹå®¶":8302,"å¾Īå¤§çļĦ":8303,"èī¾ä¸½æĸ¯":8304,"æīĵä¸ª":8305,"ĠåľŁ":8306,"è¸ī":8307,"æķ£ä¿®":8308,"ĠéĢĥ":8309,"ĠéĹ»":8310,"ĠéĿĴçģ«":8311,"ä¸«é¬Ł":8312,"çļĦä¸Ĭ":8313,"Ġ://":8314,"çĿ¿":8315,"çĿĢæīĭ":8316,"å½ĵæĪĲ":8317,"æį¡":8318,"Ġåħ¶ä»ĸçļĦ":8319,"å»Ĭ":8320,"Ġé»Ľ":8321,"ä½İäºĨ":8322,"åħĭæĸ¯":8323,"ç§¦ä»ĻåĦ¿":8324,"åŀ®":8325,"ĠéĹŃ":8326,"Ġç´«èĲ±":8327,"Ġå¹³æĹ¶":8328,"ĠçĶ±äºİ":8329,"ĠæŁ¯å®ĭ":8330,"Ġhttp":8331,"Ġä»ĸåıĪ":8332,"ĠæŀĹå°ĨåĨĽ":8333,"å¤ļè¯´":8334,"ä¸īå¨ĺ":8335,"åķ§":8336,"æĺİæĺİ":8337,"Ġè¿Ļä¸ªæĹ¶åĢĻ":8338,"åĪ©çĽĬ":8339,"åİīçļĦ":8340,"Ġèº«åĲİ":8341,"é¦Ļæ°´":8342,"ä½ĵåĨħçļĦ":8343,"è´¢å¯Į":8344,"éĵłçĶ²":8345,"Ġæĵ":8346,"äººåľ¨":8347,"Ġè¿Ļæĺ¯ä¸Ģ":8348,"è¿ĺç®Ĺ":8349,"ç¥ŀåĻ¨":8350,"äºĨä¸ĢæĬĬ":8351,"åıĳåĩºäºĨ":8352,"æ»©":8353,"å¤ªåŃĲ":8354,"é¾Ļåĵ¥":8355,"æķ°éĩı":8356,"Ġç»´":8357,"å·´å°Ķåħĭ":8358,"èĳ¬":8359,"Ġç¥Ŀ":8360,"æł¹æľ¬å°±":8361,"é¡ºçĿĢ":8362,"æĬķéĻį":8363,"æ³ªçıł":8364,"ä»°å¤©":8365,"è¿ĶåĽŀ":8366,"ä¸įèĩªç¦ģ":8367,"çļĦå°±":8368,"Ġä¸ĢèĦ¸":8369,"èĬ±è´¹":8370,"è®¤å¾Ĺ":8371,"åĿĲçĿĢ":8372,"Ġæģ¶":8373,"çĥŃæĥħ":8374,"ç¿»æ»ļ":8375,"çĳĿ":8376,"Ġä¹ĥ":8377,"Ġæĺ¨å¤©":8378,"ç¥ŀå¢ĵåľ°":8379,"èĩªèº«":8380,"Ġçľ¨":8381,"ç»ĻæĪĳä»¬":8382,"Ġè¯ļ":8383,"åı«çĿĢ":8384,"åıĮæĸ¹":8385,"çĭ¼çĭ":8386,"ĠåĲ¦åĪĻçļĦè¯Ŀ":8387,"ĠæĳĨ":8388,"è®¢å©ļ":8389,"Ġ~~~âĢĿ":8390,"çļĦåĳ³éģĵ":8391,"åĪ°æĪĳ":8392,"çīĪ":8393,"å¯¹å¥¹":8394,"èĢģå®¶ä¼Ļ":8395,"éļ¶":8396,"èĤº":8397,"èı±":8398,"æ°ĳä¼Ĺ":8399,"éĿ¢åīįçļĦ":8400,"æ¢¦çĳ¶":8401,"åĶĲæ°ıéĽĨåĽ¢":8402,"ä¸įçĽ¸":8403,"å¤§å®¶æĹı":8404,"å¾ĹçŁ¥":8405,"èµ°è¿Ľ":8406,"å¸Īå¦¹":8407,"æľĢå¥½çļĦ":8408,"é¾Ļä¹ĭåĬĽ":8409,"Ġè´«":8410,"Ġèī¾ä¸½æĸ¯":8411,"Ġèĭ¥ä¸įæĺ¯":8412,"çļ±çĿĢ":8413,"çļĦå¿ĥæĢĿ":8414,"Ġç©ºéĹ´":8415,"æł¸å¿ĥ":8416,"Ġåħĭèİ±å¾·":8417,"ç¾¡æħķ":8418,"ä¸ĢåŃĹ":8419,"ä¸Ģéģį":8420,"æĭ§":8421,"ä¸Ģä¸ªæľĪ":8422,"Ġä¸Ģèµ·":8423,"Ġä½į":8424,"Ġåı¯æĺ¯çİ°åľ¨":8425,"ĠåĽ¾":8426,"æŀĹéĽ·ä»ĸä»¬":8427,"æŀģéĻĲ":8428,"Ġéļ¾éģĵæĺ¯":8429,"ä¹Łæ²¡ä»Ģä¹Ī":8430,"åĿļåĨ³":8431,"Ġå¸Ŀéĥ½":8432,"Ġèĳ£åĢ©åĢ©":8433,"ĠæĻļä¸Ĭ":8434,"ĠåĳĬè¯ī":8435,"å¤§æĤŁ":8436,"çĿĢçľ¼çĿĽ":8437,"ĠæĪĳä¸įçŁ¥éģĵ":8438,"åĿ¤":8439,"æĬĬå®ĥ":8440,"ĠæĪĳä»¬æĺ¯":8441,"æ·±æ¸Ĭ":8442,"èĭ¦ä¿®":8443,"Ġé»ĺ":8444,"è°¢è°¢":8445,"è®®è®º":8446,"æ¸¸æĪı":8447,"Ġä½łè¯´ä»Ģä¹Ī":8448,"Ġç¨½éĿŀ":8449,"æĹłè®ºå¦Ĥä½ķ":8450,"ä¸ĢçĶŁ":8451,"ä½łæĿ¥":8452,"ĠæĪĳåħĪ":8453,"æŃ¢äºĨ":8454,"Ġè¿Ļåı¯":8455,"è°±":8456,"éĩĳå±±":8457,"æıį":8458,"çĽ®åīį":8459,"ç»Łå¸ħ":8460,"è¯¦ç»Ĩ":8461,"çļĦåĲįåŃĹ":8462,"çļĦè¯Ńæ°Ķ":8463,"ä¸Ģç«ł":8464,"ä¸ĢæĮĩ":8465,"å¤§åĲĥä¸ĢæĥĬ":8466,"ĠæĪĳè¿ĺæĺ¯":8467,"Ġå°ĨéĤ£":8468,"æŀ¶åĬ¿":8469,"ĠèĤĸå°ıå§Ĳ":8470,"âĢķâĢķ":8471,"åľ°åıĺ":8472,"åĴĮåĤħæ¸ħæī¬":8473,"äºĨä¸Ģèµ·":8474,"Ġå¯Ĩ":8475,"è·Łéļı":8476,"åħ¶ä¸ŃçļĦ":8477,"åĨ²åĬ¨":8478,"è¿ĳä¹İ":8479,"çĶµè§Ĩ":8480,"Ġè¶ģ":8481,"åĩ¶åħ½":8482,"ĠéĿŀå¸¸":8483,"Ġè¿Ľåħ¥":8484,"éģĵåŃĲ":8485,"ä¸ªä¸ª":8486,"Ġ!âĢĶâĢĶ":8487,"ä¹ĭæĥħ":8488,"åĴĮä»ĸä»¬":8489,"æŀĹåĵ¥":8490,"æľ¬ä¹¦":8491,"éĹ®éĹ®":8492,"éļ¾è¿ĩ":8493,"ĠåİĨ":8494,"Ġå°ıéĽ·å¿ĥä¸Ń":8495,"ä¼¸åĩº":8496,"ĠãĢĭ,":8497,"ĠåĲķä¸¹çĳ¶":8498,"Ġè£¹çİ¯":8499,"Ġm":8500,"ä¹Łå¤ª":8501,"å¤©çĶŁ":8502,"ä»İä»ĸ":8503,"æĬĬä»ĸä»¬":8504,"åıĪæľī":8505,"è¥¿åįĹ":8506,"Ġè§Ĥ":8507,"å°Ķå¾·":8508,"åİĭåĪ¶":8509,"ĠæĮ¥":8510,"ä¸¾åĬ¨":8511,"ç»§å®Ĺ":8512,"ĠçĶ¨åĬĽ":8513,"çļĦå¿ĥæĥħ":8514,"åºŀå¤§":8515,"Ġåįķåįķ":8516,"æĭĩæĮĩ":8517,"éķ¿éķ¿çļĦ":8518,"å¿«éĢŁ":8519,"ä¹Łä¸įè¿ĩ":8520,"Ġä»İæĿ¥":8521,"å¸ĥç½Ĺ":8522,"å·¥å¤«":8523,"Ġèĥ¸":8524,"äºīæĸĹ":8525,"æ¯ıä¸Ģä¸ª":8526,"Ġå¸Įå°ĶæĽ¼":8527,"Ġçĸ¯":8528,"Ġäº²":8529,"ä¸ĢæĪĺ":8530,"ä¸Ģæ®µæĹ¶éĹ´":8531,"ä½łè¦ģ":8532,"å¤©éĶ¥":8533,"Ġä»ĸå¯¹":8534,"éĢ»":8535,"æĭĲ":8536,"éľįçĦ¶":8537,"èµ°è¿ĩæĿ¥":8538,"æĳ§":8539,"æ±ª":8540,"ĠèĢģä¸ī":8541,"å¤±åİ»":8542,"éķĩåİĭ":8543,"åĮĹå®«":8544,"ĠçĪ¸":8545,"æľ¦":8546,"è¯´æ³ķ":8547,"æ³Ĭ":8548,"è¯ĿæĿ¥":8549,"åĪĨå¼Ģ":8550,"çĸı":8551,"Ġè¿Ļæĺ¯æĪĳ":8552,"åĨ³å¿ĥ":8553,"Ġåıªè¦ģä½ł":8554,"çļĦå¥³":8555,"è¯ŀ":8556,"è¿ĺå¾Ĺ":8557,"å¤´å¤§":8558,"Ġåħ¥":8559,"Ġåľº":8560,"èµ°æĿ¥":8561,"é£İç³»":8562,"Ġè¿ĺçľŁ":8563,"æĦŁåħ´è¶£":8564,"åįĬç©ºä¸Ń":8565,"éĢģç»Ļ":8566,"éĽĨä¸Ń":8567,"éĢıæĺİ":8568,"ĠçĪ±":8569,"æİ©é¥°":8570,"ĠçĹĽ":8571,"èĢ¿":8572,"æłĭ":8573,"ä¹ĭæľ¯":8574,"åĴĮæĿİ":8575,"ä»Ģä¹Īäºĭæĥħ":8576,"ç¥ŀå¥ĩ":8577,"åĬ¨å¼¹":8578,"åı£éģĵ":8579,"æīĵçļĦ":8580,"åįķåįķ":8581,"é»ĽèĬĻå¦®":8582,"åĳ¨åĽ´çļĦ":8583,"è£¹çİ¯":8584,"èĪĮå¤´":8585,"è°¨æħİ":8586,"ºçī²":8587,"çļĦçľĭäºĨ":8588,"ä¸įæ¸ħæ¥ļ":8589,"ĠæĪĳæ²¡":8590,"è¡·":8591,"æĥ³è¿ĩ":8592,"æĥ³åĬŀæ³ķ":8593,"å¼ĢéĹ¨":8594,"Ġå°±è¿Ļä¹Ī":8595,"æīĵçĶµè¯Ŀ":8596,"éĶ»":8597,"éĩĳèī²":8598,"åŁİä¸Ń":8599,"åºĶä»ĺ":8600,"æį£":8601,"åĶ®":8602,"æĮ¥èĪŀ":8603,"éģĩåĪ°äºĨ":8604,"ä¼¯çĪµ":8605,"ĠåħīèĬĴ":8606,"Ġåįĥä¸ĩ":8607,"ĠåĸĿéģĵ":8608,"Ġé¦Ļ":8609,"Ġè¹":8610,"è¿Ļä»¶äºĭæĥħ":8611,"ä¹Łåıªèĥ½":8612,"Ġè¿Ļå®¶ä¼Ļ":8613,"è§ģå¥¹":8614,"æīĵæī®":8615,"èĦ¸çļ®":8616,"æ°´ä¸Ń":8617,"åı¶èĵī":8618,"Ġå¥½åľ¨":8619,"ĠåĴ»":8620,"Ġå±ĭ":8621,"åĭĩå£«":8622,"Ġå·´é²ģåħĭ":8623,"ç»°":8624,"åľ°æĬĬ":8625,"æĪĳçľĭ":8626,"åĵĩ":8627,"ä¸īå¹´":8628,"Ġåı¶åħĪçĶŁ":8629,"åı¶æĢ»":8630,"Ġå¯»":8631,"é¢Ĩå¯¼":8632,"èĢ³åħī":8633,"å»ºè®®":8634,"ĠåĿļ":8635,"çľĭåĲĳæŀĹéĽ·":8636,"ĠèįĨ":8637,"ä¸įé¡¾":8638,"ç§Ł":8639,"æ¯ħ":8640,"ä¸¤åıª":8641,"åģ¿":8642,"éļĻ":8643,"çĽ¸åħ¬":8644,"å«Ĥ":8645,"ĠçŃīçŃī":8646,"ĠéĤĵèİİ":8647,"ĠchÅ":8648,"åħ¼":8649,"ĠæĪĳéĥ½":8650,"è¿ĺå¥½":8651,"Ġä¸įå¯¹":8652,"éĻĭ":8653,"Ġä½ı":8654,"åĩłå£°":8655,"éª¸":8656,"Ġå½¼æŃ¤":8657,"ä¹Łä¸įæĥ³":8658,"åħĥå¸ħ":8659,"Ġåģľ":8660,"åĪºæ¿Ģ":8661,"è®¨åİĮ":8662,"ĠæŃ¦ç¥ŀ":8663,"è¯¢éĹ®éģĵ":8664,"Ġæĩ":8665,"ä¸Ģå®¶":8666,"ç¬ĳä¸įå¾Ĺ":8667,"ä¸Ģä¸ªå¤§":8668,"æīįçŁ¥éģĵ":8669,"æķ°åŃĹ":8670,"ä¸Ŀä¸Ŀ":8671,"ĠæĢİä¹ĪåĽŀäºĭ":8672,"ĠèĢĮä¸Ķè¿ĺ":8673,"æĸĹæ°Ķ":8674,"æ£®è¯º":8675,"Ġåıĳåĩº":8676,"****************":8677,"çļĦçľŁ":8678,"ĠèĹ":8679,"Ġé½":8680,"ç¬ĳèĦ¸":8681,"ç¥ŀæĿ¥":8682,"åıĳäºĨ":8683,"Ġåı¶ä¸įç¾¤":8684,"æĢİä¹Īåı¯èĥ½":8685,"ĠæĢİä¹Īæł·":8686,"çĮĽçļĦ":8687,"æĩĤå¾Ĺ":8688,"Ġåľ°çĭ±":8689,"Ġé²ģå¸Ŀ":8690,"ä¸ĭåİ»äºĨ":8691,"ä¾Ħ":8692,"Ġä½Ĩåį´":8693,"Ġå¤§å£°éģĵ":8694,"ä¸ĸéĹ´":8695,"å¹²çļĦ":8696,"åºľä¸»":8697,"Ġæĭ¼":8698,"éĢģåĪ°":8699,"ä¾¯åºľ":8700,"èµ°äºĨåĩºæĿ¥":8701,"æĳĨäºĨ":8702,"Ġæ±ī":8703,"çªĹæĪ·":8704,"çļĦå¤ļ":8705,"Ġæ£":8706,"ä¸Ģä¸ĩ":8707,"åħļ":8708,"åľ°å£°éŁ³":8709,"åĪ°è¾¾":8710,"å¤´èĦĳ":8711,"æµģæ·Į":8712,"å¹²åĺĽ":8713,"çľŁçļĦå¾Ī":8714,"è¾¾ä¹ĭè·¯":8715,"å±Ĥå±Ĥ":8716,"æ¸©æļĸ":8717,"Ġç¬¬ä¸Ģåįĥ":8718,"Ġåıĳè¾¾ä¹ĭè·¯":8719,"Ġç¾½":8720,"æ¬£èµı":8721,"Ġè£ħ":8722,"éĻ¶èĭ¥é¦Ļ":8723,"çľ¯çľ¯":8724,"æĬļæĳ¸":8725,"Ġåıĳè¾¾ä¹ĭè·¯åį·":8726,"ä¸¸":8727,"çļĦå£«åħµ":8728,"æĺĮ":8729,"ĠæĪĳä¾¿":8730,"æŀĲ":8731,"è®¥":8732,"æĭ½":8733,"äºĭä»¶":8734,"ç»ıèĦī":8735,"åĩłçĻ¾":8736,"Ġä½ĨæĪĳ":8737,"è½»å£°":8738,"æĢªå¼Ĥ":8739,"å°½äºĨ":8740,"é²ģå¸Ŀ":8741,"ä¼ĻåŃĲ":8742,"è¯ģæį®":8743,"éĽ¾æ°Ķ":8744,"ä»°å¤´":8745,"å°¾å·´":8746,"èĢĹè´¹":8747,"Ġç¨į":8748,"ĠçĥŃ":8749,"åĽĽç¥ŀåħ½å®¶æĹı":8750,"çļĦæĪĺ":8751,"ä¸įè¿ľå¤Ħ":8752,"ç»¸":8753,"çİĽ":8754,"æľĢå¤§":8755,"Ġéķĩ":8756,"Ġæ¯ıæ¬¡":8757,"ä¸įå®¹":8758,"æľīå¦Ĥ":8759,"ä¹Łç®Ĺæĺ¯":8760,"éĤ£åıª":8761,"åĵŁ":8762,"éĽ·éľĨ":8763,"Ġåıªå¾Ĺ":8764,"Ġå®Ī":8765,"éĴ¦":8766,"çĻ¾å¾®":8767,"çľĭçĿĢæŀĹéĽ·":8768,"Ġèĩªå·±çļĦ":8769,"ä¸ºä»Ģä¹Īè¦ģ":8770,"Ġçķ¥":8771,"èĤĮèĤ¤":8772,"ĠyÃ¹":8773,"ä¸Ģé¢¤":8774,"ä¸ªå°ı":8775,"åŃķ":8776,"æĪĳåľ¨":8777,"Ġä¸įåĨį":8778,"ç«ŀ":8779,"æĥ³åİ»":8780,"éĵ¸":8781,"Ġä½Ĩæĺ¯æĪĳ":8782,"æŀģå¤§çļĦ":8783,"å·¨åŀĭ":8784,"è·³äºĨèµ·æĿ¥":8785,"çīĻé½¿":8786,"èĻļåŃĲ":8787,"çľĭè§ģäºĨ":8788,"æģ¨ä¸įå¾Ĺ":8789,"å¹½å¹½":8790,"Ġç´«å·ĿåıĤæĺŁ":8791,"èĦļæŃ¥å£°":8792,"Ġæ³ķæģ©":8793,"æĪĲä¸ĢåĽ¢":8794,"ĠæĽ¾ç»ı":8795,"38":8796,"ä¸Ģä»½":8797,"åľ°åĲĳ":8798,"ĠæĪĳä¸įä¼ļ":8799,"è¯´çļĦæĺ¯":8800,"Ġè¿Ļè¯Ŀ":8801,"å§Ĩ":8802,"ä¸¤æŃ¥":8803,"æĹłå¥ĪçļĦ":8804,"åĽŀæĿ¥çļĦ":8805,"é«ĺéħĭ":8806,"æĿĢçļĦ":8807,"çº¢èī²çļĦ":8808,"ç»ĿæľĽ":8809,"ĠåıĪæľī":8810,"è¡¨éĿ¢":8811,"è®¤çľŁ":8812,"è¶³äºĨ":8813,"èĻ½çĦ¶æĺ¯":8814,"çĬ¶åĨµ":8815,"ĠæĹ©å°±":8816,"Ġç´§æİ¥çĿĢ":8817,"å¬ī":8818,"æ²¸èħ¾":8819,"ä¸įæĺİ":8820,"çĿĢå¤§":8821,"ĠæĪĳèĥ½":8822,"éĤ£å¼ł":8823,"åģļäºĭ":8824,"ç¢ĳ":8825,"Ġå·«":8826,"è§Ĩçº¿":8827,"éº¾":8828,"ĠéĢĢ":8829,"èĥ¡ä¸įå½Ĵ":8830,"è¶ħçº§":8831,"éĩĬæĶ¾":8832,"åŃĻæ¢¦çĳ¶":8833,"Ġå¹¸äºı":8834,"Ġç¡®å®ŀ":8835,"Ġä¿Ŀ":8836,"ĠåĦ":8837,"çļĦåĨĽ":8838,"ä¸įåĸľæ¬¢":8839,"æľīäºĭ":8840,"å¤§åįĬ":8841,"ä¹ŁæĹłæ³ķ":8842,"æ¸Ĺ":8843,"æŀĹä¸Ń":8844,"æĬĬå¥¹":8845,"éĢļå¤©":8846,"å¥ĩçī¹":8847,"æĲħ":8848,"Ġç§¦å§ĭçļĩ":8849,"Ġä½łæĺ¯ä¸įæĺ¯":8850,"å¾ĲèĬ·æĻ´":8851,"Ġå°ĳå¥³":8852,"ĠæĪĲä¸º":8853,"èººåľ¨":8854,"Ġä½¿å¾Ĺ":8855,"åĹĵåŃĲ":8856,"Ġä¸ľ":8857,"ä¼ª":8858,"ä¼º":8859,"åĳĲ":8860,"å¯¹ä¸įèµ·":8861,"å¼Ģè½¦":8862,"åīĳçļĦ":8863,"Ġåľ¨å¥¹":8864,"çª¦":8865,"ç»Ŀä¸ĸ":8866,"è®°å½ķ":8867,"å¨ģèĥ½":8868,"é²ģé»ĺ":8869,"æľĽçĿĢä»ĸ":8870,"éĻĨå±±":8871,"ĠæĹ©å·²":8872,"Ġè¥¿éĹ¨":8873,"è´ºèĢģä¸ī":8874,"ä¸ĢåĪĢ":8875,"ä¸Ģå¤ľ":8876,"å·¾":8877,"ĠâĢľ......":8878,"è¢ģ":8879,"æĦıåľ°":8880,"åŁİåĨħ":8881,"åĪĢéŃĶ":8882,"æĭħä»»":8883,"Ġå½ĵçĦ¶äºĨ":8884,"ĠçĭĤ":8885,"ä¸Īå¤«":8886,"äºĨèĩªå·±":8887,"äºĨåĽŀæĿ¥":8888,"å°¤":8889,"è¿Ļåº§":8890,"Ġä¸įçŃī":8891,"æ²¡æľīäºĨ":8892,"æĪĲçĨŁ":8893,"Ġè¿ĺçľŁæĺ¯":8894,"çĻ¾åĢį":8895,"å¸¦æĿ¥":8896,"èĲ½åĪ°":8897,"ç¿°":8898,"ç»ĿåŃ¦":8899,"ç´§äºĨ":8900,"ĠåĳĨ":8901,"å³¡":8902,"éĽ¨èı²":8903,"ĠåĽŀåĪ°":8904,"çļĨæĺ¯":8905,"Ġåģıåģı":8906,"Ġäº¤":8907,"ä¸įå°Ĭ":8908,"Ġç±":8909,"çĶ¸":8910,"Ġä½łè¿ĺæĺ¯":8911,"Ġä»ĸåĴĮ":8912,"Ġå¤Ħ":8913,"éŃĶå¯¼":8914,"é¾Ļå®Ŀ":8915,"ä¸İæĪĳ":8916,"å®¹è²Į":8917,"åĪĩé½¿":8918,"èĵĦ":8919,"Ġåģ¶":8920,"æĻ¯å¤©":8921,"ä¸°å¯Į":8922,"çĸ²æĥ«":8923,"æľīè¿ĩ":8924,"æĢ¯":8925,"å£³":8926,"Ġä»ĸåį´":8927,"åĴĮæĪĳä»¬":8928,"ä¸¤æ¬¡":8929,"éĥĬ":8930,"æĦŁåı¹":8931,"çĽ¸å¤Ħ":8932,"é»ĳçļĦ":8933,"å°½å¤´":8934,"Ġæ²¡æľīæĥ³åĪ°":8935,"åĩºçİ°äºĨä¸Ģ":8936,"ĠæľĪçīĻåĦ¿":8937,"ĠçĶŁæĢķ":8938,"Ġçºªä¹Ŀçģ«":8939,"èªī":8940,"æĴĩåĺ´":8941,"Ġæ¸©æħ§éģĵ":8942,"Ġå¢¨":8943,"ĠçĽĳå¯Ł":8944,"ä¹Ŀé¡¶å±±":8945,"ä¸įå¦Ļ":8946,"åħĨ":8947,"ĠæĪĳæ²¡æľī":8948,"Ġè¿ĻçĤ¹":8949,"Ġè¿Ļä»¶äºĭ":8950,"èµ°åĪ°äºĨ":8951,"è¡Įäºĭ":8952,"å®īå§Ĳå§Ĳ":8953,"Ġåı¶æŀ«æľīäºĽ":8954,"æ¡Ĳ":8955,"çĨ¬":8956,"ç©¿å±±çĶ²":8957,"åĮħæĭ¬":8958,"çĭĤé£İ":8959,"é¡¾ä¸įå¾Ĺ":8960,"ä¸ľæĸ¹çİī":8961,"è§£éĩĬéģĵ":8962,"å³¨çľī":8963,"ä¸Ģç¿»":8964,"åľ¨ç©ºä¸Ń":8965,"åľ°åºķ":8966,"åĴĻ":8967,"åī¿":8968,"æĦļ":8969,"é¡½":8970,"Ġæīĳ":8971,"Ġå¤§åĳ¨":8972,"é¾ĻçļĦ":8973,"æŃ¦éĻµ":8974,"æŁĶè½¯":8975,"çļĦçº¢":8976,"ä¹Ļ":8977,"åľ¨å¤ĸéĿ¢":8978,"çĿĢä»Ģä¹Ī":8979,"ä¹Łåıªæĺ¯":8980,"è¿ĩåĲİ":8981,"åĴļ":8982,"æłª":8983,"è´±":8984,"ä¸īä¸ªäºº":8985,"å°ĨæĿ¥":8986,"èµ·æĿ¥çļĦ":8987,"å¿«æŃ¥":8988,"è¿Ļä¹Īä¹ħ":8989,"éļ¾çľĭ":8990,"éĿĴå±±":8991,"æŀģå¤§":8992,"è§Ĵåº¦":8993,"Ġè¿İ":8994,"èĤīèº«":8995,"ç¥ĸå¸Ī":8996,"è¯ķæİ¢":8997,"åŃ¤æĺŁ":8998,"åĤ¬åĬ¨":8999,"Ġä¿¡":9000,"Ġæ¿Ģ":9001,"ä¸Ģåı¹":9002,"æĿ¥è¿ĻéĩĮ":9003,"åİĤ":9004,"è¯´ä»ĸ":9005,"ä»Ģä¹Īéĥ½":9006,"ĠæŀĹåħĦå¼Ł":9007,"ĠãĢıãĢİ":9008,"æŃ¥åħµ":9009,"å½±é¼ł":9010,"ä¼ĹäººçļĦ":9011,"è·ĳåİ»":9012,"è¿ľä¸ľçļĦ":9013,"æĻ¶èİ¹":9014,"æĶ¿åºľ":9015,"ĠæĽ¹":9016,"çĶ³":9017,"å¯¹è¿Ļ":9018,"å§¨":9019,"èĢģèĻİ":9020,"çĽ®å½ķ":9021,"ç®¡å®¶":9022,"Ġæĭĵ":9023,"Ġæĸ¹äºĳå¿ĥä¸Ń":9024,"Ġæĺ¾çĦ¶æĺ¯":9025,"è¿¸":9026,"æľīå¿ĥ":9027,"å¥¢":9028,"å¤§èĲ¥":9029,"æīĵä»Ĺ":9030,"ĠæŀĹéĽ·ä¸įçĶ±":9031,"çļĦäººéĥ½":9032,"è½¦ä¸Ĭ":9033,"è¡£è£³":9034,"éĢıäºĨ":9035,"åĵŃç¬ĳä¸įå¾Ĺ":9036,"åĵĪåĵĪä¸Ģç¬ĳ":9037,"Ġå®ĭèĸĩåħ°":9038,"Ġæ´ªçĪ·":9039,"çļĦéĩį":9040,"çļĦé«ĺæīĭ":9041,"å®ª":9042,"ä¹Łåı¯ä»¥":9043,"çľĭè¿ĩ":9044,"Ġä¸ĢäºĽ":9045,"çĶŁåĩº":9046,"å¹´é¾Ħ":9047,"éĹ¨åīį":9048,"éĩĳå°ĳçĤİ":9049,"Ġå¯Ĵ":9050,"å²Ķ":9051,"ä¸ĥçº§":9052,"æĸĩç½ĳ":9053,"ĠæīĢä»¥ä»ĸ":9054,"ĠæĹłæ³ķ":9055,"ĠæĹłå¥Ī":9056,"å¨ĺå¨ĺ":9057,"çĽĺèĨĿ":9058,"Ġéĺ¿ç§Ģ":9059,"Ġç¬¬ä¸Ģåį·":9060,"Ġé½Ĳ":9061,"°åĦ¿":9062,"ĠãĢĤ[":9063,"ä¸Ģåįĥ":9064,"åĬ£":9065,"éĩĮåľ°":9066,"è§ģæĪĳ":9067,"æĪĲåĳĺ":9068,"åıªæĺ¯ä¸Ģ":9069,"Ġä¹Łåıªæľī":9070,"èĻı":9071,"èĲ½åľ°":9072,"æĹ©å·²ç»ı":9073,"æ´»åĬ¨":9074,"å¨ĺäº²":9075,"ĠæĤĦ":9076,"Ġèĥ½ä¸įèĥ½":9077,"æ²Īéĺ³":9078,"æĺ¯æĪĳä»¬":9079,"å¼¦":9080,"åĵĨåĹ¦":9081,"ç¬ĳä¸Ģå£°":9082,"è·ĭ":9083,"åĩłçľ¼":9084,"åħīçļĦ":9085,"æīĢè¯´çļĦ":9086,"Ġåĵĩ":9087,"äºĶåįĥ":9088,"Ġå½ĵçĦ¶æĺ¯":9089,"Ġå¥½å¥½":9090,"æ¯Ĵçī©":9091,"è¸¹":9092,"åº§ä½į":9093,"éĵģçĶ²":9094,"å°ģåĨµ":9095,"Ġè®¸å¤ļ":9096,"ä¸įåı¯æĢĿè®®":9097,"æĹłæķ°çļĦ":9098,"Ġç®Ĺæĺ¯":9099,"ä¸įåģľçļĦ":9100,"Ġb":9101,"ç»ŀ":9102,"å¤§å¦ĸ":9103,"Ġä½łå¥½":9104,"Ġä»ĸè¦ģ":9105,"Ġä¸Ģå¤´":9106,"åĩłæĹ¥":9107,"æ³ķåŃĲ":9108,"å¥³çļĦ":9109,"ä¹Łä¸įçĶ¨":9110,"èĲ½åľ¨äºĨ":9111,"æĢĿç´¢":9112,"æİĮæİ§":9113,"åıĮèĩĤ":9114,"æĶ¶èĹı":9115,"ä¸¹çĶ°":9116,"ç¥ĸå®Ĺ":9117,"æĳ¸æĳ¸":9118,"Ġç¾ŀ":9119,"çļĦåľ°æŃ¥":9120,"Ġä¹Ķæ²»":9121,"æĺ¯çľŁçļĦ":9122,"æĿ¥åĽŀ":9123,"å¤§å¤§":9124,"æ²«":9125,"è¿ĺä¸įæĺ¯":9126,"Ġä¸įè®¸":9127,"å¯¹äºĨ":9128,"å½ĵä½ľ":9129,"Ġè¿ĺæľīä¸Ģ":9130,"è¿ľçļĦ":9131,"æ°´çģµ":9132,"æįŀ":9133,"Ġå¾Īæĺ¾çĦ¶":9134,"ĠæŃ¤äºº":9135,"åģľä¸ĭ":9136,"Ġè¡£":9137,"äº¡çģµ":9138,"é»¯çĦ¶":9139,"Ġ6":9140,"ä¸ĢæĹ¥":9141,"è¯´èµ·":9142,"å¾Ĺä½ı":9143,"ĠéĤ£æĹ¶åĢĻ":9144,"å¯¹è§Ĩ":9145,"æīĵæĸŃ":9146,"åĲĮçļĦ":9147,"æıĲåĩº":9148,"éļĲçŀĴ":9149,"å°½ç®¡":9150,"å¼ķåĬĽ":9151,"ĠåĽĽåĳ¨":9152,"Ġå¹¶ä¸į":9153,"çģŃäºĨ":9154,"ä»ĩæģ¨":9155,"èĤ©èĨĢä¸Ĭ":9156,"æ¢ģå±±":9157,"Ġå°ıå¿ĥç¿¼ç¿¼":9158,"Ġåı³æīĭ":9159,"å¥½ä¼¼":9160,"ä¿ĳ":9161,"çľ¼éķľ":9162,"åįģä½Ļ":9163,"åıĳè´¢":9164,"çŃĴ":9165,"éªĨ":9166,"æīĢèĥ½":9167,"åĽ¢éĺŁ":9168,"Ġåħīå¤´":9169,"åļĵ":9170,"åĩĮç©º":9171,"ĠæĪĪæ°ĳè¾ī":9172,"Ġä¹Ĳç¾Ĭ":9173,"æľīè¿Ļä¹Ī":9174,"æľīä½Ļ":9175,"åįģåĩłä¸ª":9176,"æ¯Ķä½ł":9177,"Ġç«¹":9178,"åħ³æ³¨":9179,"å¦ĸéŃĶ":9180,"æĺ¯ä¸Ģçīĩ":9181,"æ·¡æ¼ł":9182,"æĭ¿åĩºæĿ¥":9183,"çĳ°":9184,"å°ĸéĶĲ":9185,"åĺ»åĺ»ä¸Ģç¬ĳ":9186,"Ġè¦ģä¸įçĦ¶":9187,"æľīä¸¤":9188,"çľł":9189,"åī¥":9190,"æĹ¶æľŁ":9191,"ä¸īåĪĨ":9192,"æŀĹåĨ°":9193,"æĥĬéªĩ":9194,"äº²æīĭ":9195,"æįħ":9196,"çļĦä¸Ģç§į":9197,"çªģåħĢ":9198,"åĮĸè§£":9199,"é¡¶å°ĸ":9200,"å°Ħåĩº":9201,"Ġè¿Ļæł·åĲ§":9202,"çĥĪç»´å¥ĩ":9203,"èİ±éĹ¨":9204,"ĠæĿľä¿®åħĥ":9205,"ĠéĴ±":9206,"©æ¶¡":9207,"çļĦåħīèĬĴ":9208,"å¤Ļ":9209,"äºĨä¹Ī":9210,"æĹ·":9211,"ä»ĸå¦Ī":9212,"Ġåħħ":9213,"Ġæ¯ģ":9214,"æľĪçļĦ":9215,"åĮĸçļĦ":9216,"æ·±åħ¥":9217,"Ġè¿Ļä¸ªäºº":9218,"Ġå¼Ħ":9219,"åı¤èĢģ":9220,"æĺŁæľŁ":9221,"ĠåŃĲ":9222,"ĠèĬ±éĵģæłĳ":9223,"ĠåĲ´çĶ¨":9224,"å¼ĵç®Ń":9225,"åħĥç´łæ³ķåĪĻ":9226,"å¸ĥèİ±æģ©å¸ĿåĽ½":9227,"ĠéĦ":9228,"å¾½":9229,"åĴĮåı¶æŀ«":9230,"Ġå°±åĲ¬è§ģ":9231,"åĽŀåİ»äºĨ":9232,"æŃ»åľ¨":9233,"å¥³äººçļĦ":9234,"çĻ¾åĪĨ":9235,"Ġéĥ½ä¼ļ":9236,"Ġè´µ":9237,"Ġèº²":9238,"è¯·ä½ł":9239,"åİĭæĬĳ":9240,"å±ĭéĩĮ":9241,"èįĨè½²":9242,"çļĦåħ³ç³»":9243,"è¿Ļä¸¤ä¸ª":9244,"Ġä½łè¿Ļä¸ª":9245,"å¯ŀ":9246,"Ġä¸įæĥ³":9247,"ĠéĤ£å¥³åŃĲ":9248,"å¼ĢåĲ¯":9249,"æ¡§":9250,"ĠæĬ¤":9251,"çł´åĿı":9252,"å¯ĨéĽĨ":9253,"å¯Ĩå¯Ĩéº»éº»":9254,"åĴ¬çĿĢ":9255,"èĤ¯å®ļä¼ļ":9256,"æĺ¯æľĢ":9257,"ç¬ĳçļĦ":9258,"ä»¥ä¸Ĭ":9259,"Ġä¸Ģä¼ļåĦ¿":9260,"éķ¿åį¿":9261,"Ġè¯ķ":9262,"Ġå¤§éĩı":9263,"çŃīäºİ":9264,"Ġç»¿":9265,"æĪ¿éĩĮ":9266,"æķ£äºĨ":9267,"åĲĦå¤Ħ":9268,"è§Ĥçľĭ":9269,"åľŁåľ°":9270,"Ġé«ĺå¤§åĵ¥":9271,"Ġè¿Ļä¸ĢåĪ»":9272,"çļĦéĤ£ç§į":9273,"å·¦æīĭ":9274,"äº§ä¸ļ":9275,"äººç±»çļĦ":9276,"éĦ£ä¹Ĳåħ¬ä¸»":9277,"¦çĦ¶":9278,"ãĢĬ":9279,"ä¸įè¯¥":9280,"æľķ":9281,"å°±å¥½åĥı":9282,"Ġä»ĸæīį":9283,"éĤ£å¤©":9284,"éĢĹ":9285,"è¡ħ":9286,"å°ıéķĩ":9287,"åĴĮéĤ£":9288,"åīįéĿ¢çļĦ":9289,"æĹłåħ³":9290,"å¹´äºĨ":9291,"èĢĮä¸Ĭ":9292,"ç§įæĹı":9293,"å¼ºè¡Į":9294,"åįİå¥ķ":9295,"Ġè¦ģè¯´":9296,"è¿Ļä¸ĢæĭĽ":9297,"Ġä¸īåĵ¥":9298,"ä¸Ģèµ·åİ»":9299,"çŁŃçŁŃ":9300,"ä¸ģæ´ª":9301,"æĮĳéĢī":9302,"ĠåķĨ":9303,"ĠèĦļä¸ĭ":9304,"ä¸Ģä¸Ģ":9305,"åľ°çľĭäºĨ":9306,"çľĭä¸įåĩº":9307,"æ¸´":9308,"åıªæľīä¸Ģ":9309,"ĠåĲĽ":9310,"èµ°åĩºäºĨ":9311,"ä¸ĩè±¡":9312,"åĽĽä½į":9313,"ç³ĸ":9314,"ç»Ŀé¡¶":9315,"åĿĲäºĨä¸ĭæĿ¥":9316,"Ġç§ĭ":9317,"å¸¦çĿĢåĩłåĪĨ":9318,"æł¹æľ¬æ²¡":9319,"åıĤä¸İ":9320,"èĤ¯å®ļæĺ¯":9321,"çļĦæŃ»":9322,"ä¸įå°ı":9323,"åħ¢":9324,"çľĭåĩºæĿ¥":9325,"çİ»":9326,"çľ¼è§Ĵ":9327,"çĻ½èĦ¸":9328,"ä¿®çľŁ":9329,"å¿«äºĨ":9330,"é£ŀèµ·":9331,"æī¾ä½ł":9332,"ĠæĬ¥":9333,"éľĩå²³":9334,"æĭĽå¼ı":9335,"æĭĽæĥ¹":9336,"åĩĿåĦ¿":9337,"å¯Ĩå®¤":9338,"Ġä»ĬåĲİ":9339,"ĠæĢ¥æĢ¥":9340,"èķ¾":9341,"ĠåĪĨåĪ«":9342,"Ġé¦ĸåħĪ":9343,"çļĦç²¾":9344,"çļĦæĥ³æ³ķ":9345,"ä¸Ģåħ±":9346,"å°±è¡Į":9347,"ä¸ĭè½½":9348,"Ġä¸įè¯´":9349,"çīºçī²":9350,"å¯¹åĤħæ¸ħæī¬":9351,"ĠåıªåĲ¬å¾Ĺ":9352,"å¿Ļéģĵ":9353,"æĶ¶æķĽ":9354,"æıĲåīį":9355,"ĠæīĢä»¥æĪĳ":9356,"ç¢İçīĩ":9357,"ĠåĩºäºĨ":9358,"åıĳåĩºä¸Ģå£°":9359,"Ġç»Łé¢Ĩ":9360,"Ħä¸ľ":9361,"å¤ļå¤ļ":9362,"ä¾¿è¦ģ":9363,"ĠæĹıéķ¿":9364,"é»ĳé¾Ļ":9365,"å¸¦æĿ¥çļĦ":9366,"å®Įæ¯ķ":9367,"éĺ´è°ĭ":9368,"åĩŃåĢŁ":9369,"Ġä¸Ńå¹´":9370,"è¡Ĺä¸Ĭ":9371,"ç¯ĩ":9372,"æħĪæĤ²å¯º":9373,"Ħä¸ľèµŀ":9374,"Ġå¬":9375,"çļĦåİŁåĽł":9376,"ä¹Ķ":9377,"åı±":9378,"å¤©çª¦":9379,"è¿ĺæľīäºĽ":9380,"æ¯Ļ":9381,"çľ¼äºĨ":9382,"çľ¼èī²":9383,"ä½ĵè¡¨":9384,"æĶ¾å£°":9385,"æĶ¶è´Ń":9386,"Ġæĭ³":9387,"çŃĶæ¡Ī":9388,"ĠçŃīæĪĳ":9389,"èĥ¡è¯´":9390,"åį¡ä¸¹":9391,"ä¸Ŀæ¯«çļĦ":9392,"åĲŁåĲŁ":9393,"Ġåľ£å§ĳ":9394,"Ġå¹²èĦĨ":9395,"è¯±æĥĳ":9396,"çį":9397,"ä¸įè®¤è¯Ĩ":9398,"Ġèŀ":9399,"å··":9400,"äºĨä¸ĢåľĪ":9401,"åĨįæĿ¥":9402,"åı«ä»Ģä¹Ī":9403,"å¹³å±±":9404,"å©¶":9405,"èĨľ":9406,"ĠéĽ·èĻİ":9407,"ĠåĸĦ":9408,"éŁ§":9409,"ĠéĿĴæĹĭ":9410,"æ¾¶":9411,"ĠéĤ£æĪĳå°±":9412,"çļĦæĹ¶ä¾¯":9413,"ä¸įè¿Ń":9414,"å¤§å£°éģĵ":9415,"ĠæĪĳå°±ä¸į":9416,"è¯´åĪ°":9417,"Ġä½łå°±æĺ¯":9418,"è¿ĺä¸įçŁ¥éģĵ":9419,"æĦī":9420,"ĠéĤ£ä»ĸ":9421,"äºĨä¸Ģå±Ĥ":9422,"Ġä¸ĢåıĮ":9423,"åĸĤ":9424,"Ġè¯º":9425,"èĻĲ":9426,"å²Ĺ":9427,"å¿ħå®ļ":9428,"éľ²åĩºä¸Ģ":9429,"é¸¦":9430,"ĠæĹ¢çĦ¶å¦ĤæŃ¤":9431,"ä¾įåį«":9432,"Ġåħ¶ä»ĸäºº":9433,"å²Ĥä¸įæĺ¯":9434,"è¸īè·Ħ":9435,"å³¡è°·":9436,"äºĭå®ŀ":9437,"ä»İæľª":9438,"æĺİäºĨ":9439,"è¡Įèµ°":9440,"æŃ¤åĲĮæĹ¶":9441,"Ġå®Ĺ":9442,"äºĶåħŃ":9443,"ä½ķæĹ¶":9444,"èĬ±èį£":9445,"åħĥæĪĪ":9446,"æĲģ":9447,"æ¸©åĴĮ":9448,"Ġè½»å£°éģĵ":9449,"æĺ¯ä»Ģä¹ĪæĦıæĢĿ":9450,"Ġä¸įç®¡æĺ¯":9451,"é¢ĩæľī":9452,"Ġçİĭå°ıèĻİéģĵ":9453,"çİĳåŃĲ":9454,"Ġå´Ķè´ŀçĪ±":9455,"Ġéĥ½å¸Ĥçģµçŀ³æŃ£æĸĩ":9456,"ä¸ĢåĽŀ":9457,"åľ¨å¤ĸ":9458,"åľ°èĦī":9459,"ä¸Ĭæĸ¹":9460,"ĠæĪĳéĹ®":9461,"è§Ī":9462,"å¸ľ":9463,"å¿ĥèĦı":9464,"éķ¿äºĨ":9465,"å¤ªå¤ļäºĨ":9466,"æĶ¾æĿ¾":9467,"åĶ¬":9468,"åŃ¦ä¼ļ":9469,"çĸĳéĹ®":9470,"ç¿¼èĽĩ":9471,"è½»è½»çļĦ":9472,"èĶ½":9473,"ĠèĻİ":9474,"Ġç®ĹäºĨ":9475,"ĠçĶ·äºº":9476,"åµ":9477,"ĠãĢĤãĢĤ":9478,"ä¸ªå¤§":9479,"å¥İ":9480,"å¿ĥåľ°":9481,"ä¸ºä¸Ģ":9482,"ä¾®":9483,"ä¸īåįĥ":9484,"å·²çĦ¶":9485,"æŃ¤äºº":9486,"çĽ¸å·®":9487,"ĠåĨ³":9488,"å¹¶èĤ©":9489,"æĿİäºĳé£İ":9490,"Ġéļıä¾¿":9491,"éĶĭåĪ©":9492,"éĺ»æĮ¡":9493,"ĠçĮĽçĦ¶":9494,"æ²¿çĿĢ":9495,"ĠchÅ«n":9496,"Ľè¶ħ":9497,"çļĦä¸»":9498,"çļĦåĲĹ":9499,"Ġè©¹å°¼":9500,"ĠæĪĳåĨį":9501,"ĠæĪĳåĢĴ":9502,"æĪĳä¸Ģ":9503,"è¾ħ":9504,"ç½Ĳ":9505,"ĠæĢĿ":9506,"æİ¥è¿ŀ":9507,"ĠæĸŃ":9508,"è¡ĢèĤī":9509,"ĠåĴĶ":9510,"åĽ´æĶ»":9511,"æķ´æķ´":9512,"Ġå¾Ĳéķ¿ä»Ĭ":9513,"åĲĽæŃ¦":9514,"åĵ¼éģĵ":9515,"æī«äºĨä¸Ģçľ¼":9516,"å¾Īå¿«å°±":9517,"çĭ¡çĮ¾":9518,"Ġj":9519,"ä¸įéľĢè¦ģ":9520,"åıĳèĢģèĢħ":9521,"çĻ½è¡£":9522,"å¼ºçĥĪ":9523,"Ġåľ¨ä¸ĭ":9524,"éĩįéĩįçļĦ":9525,"å¸¸äºº":9526,"ĠåĴ¯":9527,"ç«Ļèµ·":9528,"çĶµåĻ¨":9529,"å¯Ĵæ°Ķ":9530,"æļ´éľ²":9531,"åķĨä¼ļ":9532,"æ¤į":9533,"æģįçĦ¶å¤§æĤŁ":9534,"çĻ½èİ²æķĻ":9535,"åĨ²å¤©èĢĮèµ·":9536,"æĳĨäºĨæĳĨæīĭ":9537,"çļĦåĲ§":9538,"ä¸ĢæĮ¥":9539,"Ġç³":9540,"åĩ°":9541,"åĩºçĶŁ":9542,"åİ»åģļ":9543,"Ġä¸įå°ĳ":9544,"æĹłè¡¨æĥħ":9545,"èĦ¸çº¢":9546,"Ġå¿ł":9547,"è¿Ļä¹Īåģļ":9548,"ç¡Ģ":9549,"æ¼©æ¶¡":9550,"ç¼ĵæħ¢":9551,"ç´«æ°Ķ":9552,"ĠåĶĶ":9553,"å±ķå¼Ģ":9554,"Ġé¾Ļéĺ³":9555,"Ġèįī":9556,"åĮ»çĶŁ":9557,"Ġåľ£åŁŁ":9558,"ĠæĬ¬å¤´":9559,"ĠæīĢæľīäººéĥ½":9560,"Ġæ¯įäº²":9561,"æĪĳè¦ģ":9562,"ĠéĤ£å¤©":9563,"æ°Ķæ°Ľ":9564,"åıĳéĿĴå¹´":9565,"é«ĺçº§":9566,"çģ«åħī":9567,"ä¼¤äº¡":9568,"è¶Ĭæĺ¯":9569,"ĠåĪ°å¤Ħ":9570,"ç¤¼çī©":9571,"çģµéŃĤæĶ»åĩ»":9572,"è¿İæİ¥":9573,"ĠèĲ§çİīéľľ":9574,"ĠçĶŁæŃ»":9575,"èĶĳ":9576,"æ±½è½¦":9577,"è·ºèĦļ":9578,"æª":9579,"æĥŃæĦ§":9580,"æĭİ":9581,"Ġå°±çľĭè§ģ":9582,"èī¾":9583,"ç»Ļäºº":9584,"äºĮåĤ»":9585,"æŃ¤æ¬¡":9586,"ç«ĭåľ¨":9587,"å¾Ģå¾Ģ":9588,"å¦ĸåŃ½":9589,"åĪ¶éĢł":9590,"åħĭæĭī":9591,"æĬ±æŃī":9592,"å¥¥ä¹ī":9593,"ç±³çļĦ":9594,"Ġèµ°åĲ§":9595,"ç´«å·Ŀå®¶çļĦ":9596,"Ġå¥¥åı¤æĸ¯å¡Ķ":9597,"æĿŁç¼ļ":9598,"é»İåĲ¯èĩ£":9599,"Ġå¤Ļçĳ¶":9600,"æĺ¯å¤§":9601,"ä¸įç»ı":9602,"æľīæľºä¼ļ":9603,"åľ°åĮº":9604,"å¾Ĺå¤ļ":9605,"å¦©åªļ":9606,"ä¾ı":9607,"åĺī":9608,"å°±æĺ¯ä¸Ģ":9609,"éĩįçĶŁ":9610,"Ġæľīæ²¡æľī":9611,"æİĮå¿ĥ":9612,"è®°ä½ı":9613,"ç½Ĺæĺİæµ·":9614,"ç§ĺä¹¦":9615,"Ġä»ĬæĻļ":9616,"ĠæľĪå±±":9617,"ĠéĶĻ":9618,"æĺıè¿·":9619,"ĠåĤ»":9620,"´åŃĲ":9621,"è¥":9622,"ĸä¸įå°Ĭ":9623,"çļĦå°¸ä½ĵ":9624,"å¼§":9625,"ä¸ºä¹ĭ":9626,"æĦıæĸĻ":9627,"Ġä¹Łä¼ļ":9628,"æ°´çļĦ":9629,"åħ¬å¹³":9630,"ä¼łæĿ¥äºĨ":9631,"çŀħ":9632,"äº¤æĪĺ":9633,"å®ĺåĳĺ":9634,"éħĴåĲ§":9635,"éħĴæĿ¯":9636,"åįķçĭ¬":9637,"éĨĭ":9638,"ĠéĢ¼":9639,"Ġè¢ģ":9640,"Ġå¸ĪåĤħ":9641,"è¸ıåħ¥":9642,"ĠæĹ¶èĢĮ":9643,"ĠåįĬåħ½äºº":9644,"èİ·å¾Ĺ":9645,"Ġçľ¨çľ¼":9646,"ģè¿ŀ":9647,"å°±æŃ¤":9648,"éĤ£åĩłä¸ª":9649,"åīĳåħī":9650,"Ġå®³":9651,"å¾ĢåĲİ":9652,"Ġçİ°åľ¨çļĦ":9653,"èĭ±ä¿Ĭ":9654,"è¿½éĹ®":9655,"Ġå¹¶éĿŀ":9656,"å©Ĩå©Ĩ":9657,"éĹŃä¸ĬäºĨ":9658,"åŃĶå¼©åĦ¿":9659,"ĠæļĤ":9660,"ç«łèĬĤçĽ®å½ķ":9661,"åĨ·ç¬ĳä¸Ģå£°":9662,"çıįè´µ":9663,"çİĭåĽ½çļĦ":9664,"ä¼ºåĢĻ":9665,"Ġç±³":9666,"Ġ7":9667,"äºĨå¤ļå°ĳ":9668,"äºĨä¸įèµ·":9669,"è¿ĻçŃī":9670,"ä½łè¯´çļĦ":9671,"å°ıå¼º":9672,"èĦĤ":9673,"Ġä¸Ģåī¯":9674,"å¨²":9675,"çģµæ´»":9676,"æĢªåħ½":9677,"æµ·æ´ĭ":9678,"å½¢åĬ¿":9679,"æ²īå£°éģĵ":9680,"çķĻä¸ĭäºĨ":9681,"å°Ķé»ĺ":9682,"æĺ¾ç¤º":9683,"è§Ĥä¼Ĺ":9684,"æ¢¦æĿ¥":9685,"Ġæĺİæĺİ":9686,"åĪĴè¿ĩ":9687,"ç¼ĵç¼ĵéģĵ":9688,"æĮĤçĿĢ":9689,"å¿łå¿ĥ":9690,"ĠçĻ»":9691,"Ġæ¯«ä¸į":9692,"å´ĩæĭľ":9693,"æĥ©ç½ļ":9694,"äºĨé¡¿":9695,"ä¼ģ":9696,"åľ°éĩĮ":9697,"Ġä»ĸå¿ĥä¸Ń":9698,"èĩªä»İ":9699,"çľ¼çľ¸":9700,"å¼ºçĽĹ":9701,"Ġæĺ¯åĽłä¸º":9702,"ç®Ĺè®¡":9703,"ä¼łåĩº":9704,"ĠçĶĺ":9705,"Ġåĳľ":9706,"éļıåį³":9707,"ĠåĨįè¯´äºĨ":9708,"æ¬¢è¿İ":9709,"Ġè§£":9710,"ç´«è¡Ģè½¯åīĳ":9711,"ĠæŃ¤æ¬¡":9712,"Ġå±ŀ":9713,"å¾¡åīĳ":9714,"æĻºæħ§":9715,"åħĶåŃĲ":9716,"Ġç¡¬":9717,"ĠåĪĻæĺ¯":9718,"Ġåĩ¡æĺ¯":9719,"çĢĽ":9720,"çĭ¼çĭĪ":9721,"ä¾ıåĦĴ":9722,"Ġçļĩ":9723,"çļĦçĶ·äºº":9724,"ä¸Ģæĥ³":9725,"ä¸įå¤ļäºĨ":9726,"æ³ł":9727,"Ġå°±è¿Ļæł·":9728,"åıĳè§ī":9729,"é»ĳå½±":9730,"åŁİå¤ĸ":9731,"Ġæĥ¨":9732,"åĬŁåĬ³":9733,"æµ·ä¸Ń":9734,"Ġå¿ĥæĥ³":9735,"åı°éĺ¶":9736,"åħĪå¤©çĶŁçģµ":9737,"åĸīåĴĻ":9738,"¸ä¸ĺçİĭ":9739,"Ġ--":9740,"įåĲĪ":9741,"çļĦèĬ±":9742,"ä¸įå°ıå¿ĥ":9743,"å¤§åıĺ":9744,"çľĭæ¸ħ":9745,"å°ıæīĭ":9746,"Ġå¤§å¤ļ":9747,"åıĪéģĵ":9748,"æ»Ķ":9749,"Ġåľ¨éĤ£":9750,"ä¸ĩä»Ļ":9751,"åĨ·åĵ¼ä¸Ģå£°":9752,"æĹ©ä¸Ĭ":9753,"è¿ĺæľīä¸Ģä¸ª":9754,"å¢¨çŁ³":9755,"Ġéķ¿è¢į":9756,"Ġé¾Ļè¡Ģ":9757,"æ¬ºéľľ":9758,"ä¹Įäºĳ":9759,"åº·å®ģ":9760,"çļĦåľ¨":9761,"çļĦä¿¡":9762,"æľīä¸įå°ĳ":9763,"å¤§åĬĽ":9764,"åŃĲéģĵ":9765,"è¯´çļĦè¯Ŀ":9766,"ä¸ĭä½įç¥ŀ":9767,"ä¹ĭéģĵ":9768,"Ġä¸Ģçľĭ":9769,"ç»ıèĲ¥":9770,"Ġå°±è¢«":9771,"èĩªå·±æĺ¯":9772,"çĸļ":9773,"é£ŀå¥Ķ":9774,"ä¸įèĥ½åĨį":9775,"Ġè®©å¥¹":9776,"èĻļå½±":9777,"è¿ĺæ²¡è¯´å®Į":9778,"å±ĭåŃĲ":9779,"éŀĺ":9780,"Ġå¸ĪåħĦ":9781,"çĿģå¼Ģçľ¼çĿĽ":9782,"æľīè¶£":9783,"çĿĢä»ĸçļĦ":9784,"æģ³":9785,"åĲĳæĿ¥":9786,"éĥŃ":9787,"åĨħå®¹":9788,"ĠèĢģæĿ¿":9789,"æĸĩæĺĬ":9790,"åĻ©":9791,"å¸ĥæĸ¯":9792,"éĤ£ä¹Īå®¹æĺĵ":9793,"éŃĶæĹıåħµ":9794,"ä¿®çĤ¼çļĦ":9795,"å°¼åħĭæĸ¯":9796,"çŀªäºĨ":9797,"èĵĿçĽ¾":9798,"Ġèį¯":9799,"çī¢çī¢":9800,"æĳ©æĸ¯":9801,"çļĦç¬¬ä¸Ģ":9802,"åľ°æł·åŃĲ":9803,"ĠæĪĳä¹Łæĺ¯":9804,"ä¹ĭçī©":9805,"å°ıå°ı":9806,"Ġåıªæĺ¯ä¸Ģ":9807,"åıªä¼ļ":9808,"æĥĬæĦķ":9809,"åħ¨æĺ¯":9810,"äº¤æĥħ":9811,"åĳ¨æĺķ":9812,"èµ°äºĨè¿ĽæĿ¥":9813,"éĴŁåĴĮå°ļ":9814,"Ġ300":9815,"å¥ĩæĢªçļĦ":9816,"Ġæİ¥ä¸ĭæĿ¥":9817,"åģĩçļĦ":9818,"éº»çĥ¦äºĨ":9819,"Ġæ¬²":9820,"å¥´éļ¶":9821,"çİ»çĴĥ":9822,"ĠP":9823,"çļĦæĶ»åĩ»":9824,"ä¸ĢåĽ¢":9825,"åĪ°äºĨä¸Ģ":9826,"è¯´è¦ģ":9827,"è¯´åĲ§":9828,"Ġè¿ĻéĩĮçļĦ":9829,"Ġä½łåĴĮ":9830,"æĹłæĦı":9831,"åĮ¿":9832,"åĬ¨çī©":9833,"çİ°èº«":9834,"å¹³æ°ĳ":9835,"ĠæĭĽ":9836,"ĠæľĢå°ĳ":9837,"ĠåŃ©":9838,"èº²éĹª":9839,"çĬ¹è±«äºĨä¸Ģä¸ĭ":9840,"çºµæ¨ª":9841,"ä»ħä»ħæĺ¯":9842,"éŁ©å¥ķ":9843,"Ġé¥¶":9844,"çļĦæľ¬":9845,"çļĦèº«ä¸Ĭ":9846,"äºĨè¿ĽæĿ¥":9847,"èº«ç©¿":9848,"æĥħç»ª":9849,"æ·¬":9850,"æīĵå¼ĢäºĨ":9851,"é£ŀèĪŀ":9852,"åĽ½åĨħ":9853,"è·¯çļĦ":9854,"ä½¿åĩº":9855,"Ġä¸Ģä¸ªäºº":9856,"çľīæ¯Ľ":9857,"æľªæĿ¥":9858,"å¿įä½ı":9859,"æĦıæĢĿæĺ¯":9860,"Ġ100":9861,"ĠéĿ¢èī²":9862,"çŁ¿èĦī":9863,"Ġæ¸ħæī¬":9864,"èĬ¬èİ±":9865,"çļĦå¤ª":9866,"äºĨè¿Ļä¸ª":9867,"ä¸ĭå·´":9868,"å¤©å¢ĥ":9869,"çŁ¥éģĵä»ĸ":9870,"ä»İå®¹":9871,"åĨĽäºĭ":9872,"æŃ£éĿ¢":9873,"ç®Ĺä»Ģä¹Ī":9874,"è¡Ģè¿¹":9875,"å¤ŁäºĨ":9876,"å°ģåį°":9877,"Ġæ¯Ķèµ·":9878,"ç®ŃçŁ¢":9879,"Ġç¬¬äºĮå¤©":9880,"è¯ļçİĭ":9881,"Ġç´«å·Ŀå®¶":9882,"éļ¾ä»¥ç½®ä¿¡":9883,"è¿Ļä»¶":9884,"ä»ĸä¹Ł":9885,"ä¸ºæŃ¢":9886,"å¥½ä¸įå¥½":9887,"è°ľ":9888,"è¢«æĪĳ":9889,"æ°´çģ«":9890,"Ġåı¯æĺ¯å¥¹":9891,"è±ģ":9892,"éļıæīĭ":9893,"ä¹¦ç±į":9894,"å¥¥åı¤æĸ¯å¡Ķ":9895,"æ¯ıæ¬¡":9896,"æ¤Ĵ":9897,"ĠæĹłè®ºå¦Ĥä½ķ":9898,"Ġåĵ¥åĵ¥":9899,"Ġç¨ĭ":9900,"çĶŁæŃ»æ¯Ĵ":9901,"åŃ½éŃĤ":9902,"åĴ§åĺ´":9903,"\\\\":9904,"çļĦéĹ¨":9905,"Ġè¿Ļä¸¤ä¸ª":9906,"å¤©éģĵ":9907,"éĽ·è¯º":9908,"ĠéĤ£è¾¹":9909,"ĠéĤ£åı¯æĺ¯":9910,"ä¸īç«ł":9911,"èĭŁå¿ĥå®¶":9912,"Ġå¯¹ä»ĺ":9913,"Ġç«ł":9914,"æŃ¦æľ¯":9915,"å¦ĸçķĮ":9916,"æĲĲ":9917,"åľ£å§ĳ":9918,"ç«ŁçĦ¶æĺ¯":9919,"èĹıåľ¨":9920,"æŁ¥æİ¢":9921,"ä¼¸åĩºæīĭ":9922,"éŀł":9923,"Ġç¬¬äºĮæĽ´":9924,"èĪįä¸įå¾Ĺ":9925,"å¹»å½±":9926,"ĠåĿĲåľ¨":9927,"Ġè¯ĿéŁ³æľªèĲ½":9928,"Ġä¸»äºº":9929,"Ġä½łåĪ°åºķ":9930,"èĩĢ":9931,"çľĭåľ¨":9932,"ĠåĲŁ":9933,"é«ĺæ·±":9934,"Ġå¥¹æĺ¯":9935,"æĢİä¹Īèĥ½":9936,"é©¬ç»´":9937,"æľĪçīĻåĦ¿":9938,"èĴĻåŁİ":9939,"æĻ¶éĴ»":9940,"ĠéĩĳåĪļ":9941,"å²©çŁ³":9942,"Ġèµ·çłģ":9943,"Ġä¸ªä¸ª":9944,"çĿĢåĳ¢":9945,"åĲĮçĽŁ":9946,"Ġçľĭæł·åŃĲ":9947,"éĵ²":9948,"åºĶéģĵ":9949,"éĶĻè¯¯":9950,"ä¿Ŀå®ī":9951,"å°Ķå°¼":9952,"å³»":9953,"åį«åĨĽ":9954,"éĺ²å¤ĩ":9955,"è£Ĥç¼Ŀ":9956,"è½»è½»ä¸Ģ":9957,"ĠæĦ¤":9958,"Ġç¬¬ä¸ĢæĽ´":9959,"Ġæ¥ļ":9960,"Ġåī©ä¸ĭçļĦ":9961,"å¤§éĥ¨åĪĨ":9962,"åĪ°åĵªéĩĮ":9963,"è¿ĩäºİ":9964,"å¤©åįĹ":9965,"åĲİæŀľ":9966,"èĩªåĬ¨":9967,"ä¿ŀå°ĳåį¿":9968,"çĤ¹çĤ¹":9969,"æŀĹçĪ·çĪ·":9970,"åįģåĢį":9971,"åı£è¢ĭ":9972,"æĺİçıł":9973,"åĨĽèĲ¥":9974,"èĢĮåıĪ":9975,"é£İå£°":9976,"æĥĬæħĮ":9977,"æľĢå¤ļ":9978,"æĹ¥çļĦ":9979,"Ġä»ĸä»¬éĥ½":9980,"æĭīä½ıäºĨ":9981,"æĪ¿ä¸Ń":9982,"ĠéĢı":9983,"Ġè¿Ĳ":9984,"åĿıäºº":9985,"éŁµ":9986,"é¹ħ":9987,"åŃĻåŃĲ":9988,"å¿łè¯ļ":9989,"ĠéĤª":9990,"åħĢæľ¯":9991,"Ġä¹ħ":9992,"äºĨåĩłä¸ª":9993,"è¯Ľ":9994,"ä¼°":9995,"Ġ?âĢľ":9996,"å¤©åºŃ":9997,"ä¹ĭéĻħ":9998,"åį´æĺ¯ä¸Ģ":9999,"ĠæŃ¥":10000,"Ġæ²¿":10001,"æł¹æį®":10002,"Ġè´¹":10003,"å¤«å¦»":10004,"Ġéĺµ":10005,"ç£ĭ":10006,"ç¼ĵç¼ĵçļĦ":10007,"Ġå¤ļåįĬ":10008,"ç¢°æĴŀ":10009,"åķ¸å¤©":10010,"è·ŁæĪĳè¯´":10011,"éĴ°éĩįåīĳ":10012,"çĿĢå®ŀ":10013,"ĠåıĤ":10014,"è¦ģå®³":10015,"æīĭä¸ĬçļĦ":10016,"æ°Ķåīĳ":10017,"æĹłä¸Ģ":10018,"æĬĬåīĳ":10019,"åıĪè¦ģ":10020,"æĢ¥äºĨ":10021,"åĪĢåŃĲ":10022,"æıĲä¾Ľ":10023,"å°½æķ°":10024,"éĹŃä¸Ĭ":10025,"äºĨä¸¤ä¸ĭ":10026,"éĥ¡ä¸»":10027,"å®£å¸ĥ":10028,"å§¿åĬ¿":10029,"ľèķ¾":10030,"çļĦå¼ºèĢħ":10031,"åľ¨ä»ĸä»¬":10032,"å¿ĳ":10033,"å¿ĥäºĨ":10034,"é¢ĳ":10035,"åĩłåı¥è¯Ŀ":10036,"æĻļäºĨ":10037,"é£ŀå¿«çļĦ":10038,"ç§ĢåŃĹèĲ¥":10039,"åħ«éģĵ":10040,"å·¨é¾Ļ":10041,"æĬ±ä½ı":10042,"Ġé©¬ç»´":10043,"æĮĳè¡ħ":10044,"ĠéĿŀéĿŀ":10045,"Ġç¬¬ä¸ĥçĻ¾":10046,"Īä¸īå¨ĺ":10047,"Ĳå¿ĳ":10048,"Ġçı":10049,"éĹº":10050,"Ġä½łè§īå¾Ĺ":10051,"è¿ĺæľª":10052,"éĺİ":10053,"è´©":10054,"Ġåı¯ä¸įæĺ¯":10055,"åı£çļĦ":10056,"çİ°åĩº":10057,"ĠæĺĨ":10058,"å±±æ´ŀ":10059,"èĢĮæĺĵ":10060,"çķľ":10061,"åĪĨæŀĲ":10062,"ç²¹":10063,"ç»ĿæĭĽ":10064,"å¾·æĸ¯é»İ":10065,"Ġæĥ³æĥ³":10066,"ç³»ç»Ł":10067,"è®²ç©¶":10068,"ĠéĶħ":10069,"ç´¯äºĨ":10070,"âĢĶâĢĶâĢĶâĢĶâĢĶâĢĶâĢĶâĢĶâĢĶâĢĶâĢĶâĢĶâĢĶâĢĶâĢĶâĢĶ":10071,"éĻĮçĶŁ":10072,"ä»įçĦ¶":10073,"æĺ¯éĿŀå¸¸":10074,"åĩ³":10075,"æĪĳéĥ½":10076,"å¿ĥä¸Ĭ":10077,"å®¶ä¸»":10078,"å§¥":10079,"ä¸¤éģĵ":10080,"Ġä¸Ģå¼ł":10081,"åģļä¸ª":10082,"å®ĺåħµ":10083,"å¦ĤæŃ¤çļĦ":10084,"ç»Łæ²»":10085,"èĴĻèĴĻ":10086,"å·¦å®¶ä¿Ĭ":10087,"èº²éģ¿":10088,"æ¡ĮåŃĲä¸Ĭ":10089,"éĻªçĿĢ":10090,"èĻ½æĺ¯":10091,"æīĢæľīäººéĥ½":10092,"Ġåģ¶å°Ķ":10093,"ä½łä¸Ģ":10094,"ä¹Łæĥ³":10095,"å°±å¥½äºĨ":10096,"æīĭæīĵ":10097,"è½´":10098,"æŃ»æŃ»":10099,"èĬĿ":10100,"å¸Īå§Ĳ":10101,"ä»ĬæĻļ":10102,"å¹³å®ī":10103,"æ·¡ç¬ĳéģĵ":10104,"çĤ¼ä½ĵ":10105,"åħ´èĩ´":10106,"ĠåĽĽä¸ª":10107,"ĠæĿ¥äºº":10108,"æĬ½æĲĲ":10109,"çĶ°éľĩ":10110,"éļĨéļĨ":10111,"éĥİåĲĽ":10112,"éĹªçĥģçĿĢ":10113,"äºĨåĽŀåİ»":10114,"åıŃ":10115,"Ġçĺ":10116,"åľ¨ä¹İ":10117,"å¯¥":10118,"æĪļ":10119,"æĹłå¸¸":10120,"Ġæĺĵ":10121,"å°Ĩåħ¶":10122,"æĦŁåıĹåĪ°":10123,"åħ¥éĹ¨":10124,"ä»ĸçļĦè¯Ŀ":10125,"å®Ŀåīĳ":10126,"åıĮçĽ®":10127,"Ġç«Łæĺ¯":10128,"æ¥¼ä¸Ĭ":10129,"æ³¢é¡¿":10130,"æĬµè¾¾":10131,"Ġå®ĥä»¬":10132,"ç«¥çİĩ":10133,"çļĦæĥħåĨµä¸ĭ":10134,"å©īçĽĪ":10135,"è¯´ä¸įåĩºçļĦ":10136,"èĲĿåįľ":10137,"æľ¦èĥ§":10138,"Ġå°¸":10139,"æłĪ":10140,"åĴĮå¤§":10141,"ç¥ŀåľ£":10142,"èĢģåħ¬":10143,"Ġåı¯è§ģ":10144,"åĮł":10145,"ĠåĵŃ":10146,"ĠéļĶ":10147,"ĠçĶ»":10148,"Ġä½łä»¬ä¸¤ä¸ª":10149,"Ġçľ¼è§ģ":10150,"ĠæľĢå¥½":10151,"å®ĪæĬ¤":10152,"ä¸ĵä¸ļ":10153,"ĠæŃ»äº¡":10154,"åĩĮåİī":10155,"Ġä¿º":10156,"æ³Ľèµ·":10157,"Ġä¼ĬæĽ¼çº½å°Ķ":10158,"Ġæº":10159,"ä¸įè¯´è¯Ŀ":10160,"æľīå¾Īå¤ļ":10161,"å¤§æłĳ":10162,"æĢł":10163,"åĪ°æŀģ":10164,"Ġä¸įåĪ°":10165,"ä¸¤äººçļĦ":10166,"æĹłè¾ľ":10167,"Ġå°±å·²ç»ı":10168,"æīįåıĳçİ°":10169,"æīĢæľª":10170,"ĠæŀĹæĻļèį£ç¬ĳéģĵ":10171,"å¾Ģä¸Ĭ":10172,"ä½İå£°éģĵ":10173,"æİīçļĦ":10174,"åıªæĺ¯ä¸Ģä¸ª":10175,"Ġåĵªä¸ª":10176,"Ġå¥¥åĬłæĸĩ":10177,"Ġåħ¬ä¸»":10178,"æľ¬æĿ¥å°±":10179,"é£Łçī©":10180,"Ġå¾®èĩ£":10181,"åŁ¹åħ»":10182,"Ġæ¬¢è¿İ":10183,"ä¸įæĹ¶":10184,"åľ¾":10185,"å°±å¾Ĺ":10186,"è¯´äºĨä¸Ģåı¥":10187,"å¾Ĺå¥½":10188,"åĲİæľŁ":10189,"å¤ļå¤§":10190,"èĢģåĽĽ":10191,"çŁ¥éģĵè¿Ļ":10192,"ĠåĲ¸":10193,"Ġåľ¨æĪĳ":10194,"Ġåľ¨è¿Ļä¸ª":10195,"çª¿":10196,"å¸¦çĿĢä¸Ģ":10197,"çŀĦ":10198,"èĲ½çļĦ":10199,"å¡«":10200,"Ġéĺ²":10201,"å±ŀæĢ§":10202,"ĠæĢ»æĺ¯":10203,"æŁĲç§į":10204,"éĥ¡åŁİ":10205,"ĠåŁºæľ¬":10206,"ĥåľ¾":10207,"Ħç½Ĺæĸ¯":10208,"æĺ¯å¥½":10209,"ä¸įçĽ¸ä¿¡":10210,"å¿Ĵ":10211,"å¸½":10212,"Ġä½łçľŁçļĦ":10213,"çİ°ä»£":10214,"çŃīæĪĳ":10215,"Ġå¼Ĺ":10216,"ç®¡çĲĨ":10217,"éģ¥éģ¥":10218,"æľīä¸Ģå¤©":10219,"å½ĴæĿ¥":10220,"èħ¾ç©º":10221,"ĠæĢĢæľĶ":10222,"20":10223,"çļĦåĽŀçŃĶ":10224,"çļĦåĬ¨ä½ľ":10225,"ä¸įèįī":10226,"äººæĿ¥":10227,"Ġé¹":10228,"æľīæķ°":10229,"çľĭä¸į":10230,"åĳ»":10231,"åĲİéĿ¢çļĦ":10232,"ä¸¤åįĥ":10233,"ä¸»æĮģ":10234,"Ġå°ıèĻİ":10235,"çŃīçº§":10236,"å¿«è¦ģ":10237,"Ġå¸ķ":10238,"æŀģå¿«":10239,"è¡¨æ¼Ķ":10240,"åĺ´ä¸Ĭ":10241,"Ġèī¯":10242,"å±ĤçļĦ":10243,"å¤ľéĩĮ":10244,"åĹ·":10245,"åıĬæĹ¶":10246,"å¼Ģå§ĭäºĨ":10247,"çĪ±çļĦ":10248,"è¿½æ±Ĥ":10249,"Ġæīįä¼ļ":10250,"ä¹Łæ²¡æĥ³åĪ°":10251,"ä¸Ŀæ¯«æ²¡æľī":10252,"æĹĹå¸ľ":10253,"Ġç½Ĺæĺİæµ·":10254,"æ±ĩèģļ":10255,"Ġæµ·å»·æĸ¯":10256,"Ġè¾¾åĪ°":10257,"ĠåĹ¤åĹ¤":10258,"ä¾®è¾±":10259,"çļĦæĬĬ":10260,"ä½łè¯´":10261,"å¤§çĪ·":10262,"å¦Ĵ":10263,"ä¹ĭåĬ¿":10264,"æīĭäºĨ":10265,"æīĭèĦļ":10266,"éĿ¢çĽ®":10267,"Ġä½Ĩåľ¨":10268,"å°ĳäºĨ":10269,"è½»åĵį":10270,"Ġçİ¯":10271,"åıĺå¹»":10272,"Ġä¸įè¿ĩæĺ¯":10273,"Ġæ²¡äºº":10274,"æĭīåĩ¯":10275,"çĶµèĦĳ":10276,"Ġåĭīå¼º":10277,"ĠæŃ¤äºĭ":10278,"ãĢĤâĢĿ":10279,"ĠåĹ¡":10280,"ĠåĬŁ":10281,"åŁºç¡Ģ":10282,"åħ¬åı¸çļĦ":10283,"ĠæĦŁè°¢":10284,"ä»ĭæĦı":10285,"çŁĽçĽ¾":10286,"Ġé»ĽèĬĻå¦®":10287,"çļĦåīį":10288,"åĮĻ":10289,"æĺİåįİ":10290,"Ġæ²³":10291,"å¸®ä»ĸ":10292,"çķĻæĥħ":10293,"æĹģçļĦ":10294,"ä¸įæķ¢çĽ¸ä¿¡":10295,"éĻ¢åŃĲ":10296,"ç§°ä¸º":10297,"æ½ĺ":10298,"åĨĴåĩº":10299,"Ġé¢Ŀ":10300,"é¢¤æĬĸçĿĢ":10301,"Ġä¹Łå°±æĺ¯è¯´":10302,"Ġåĸľæ¬¢":10303,"Ġè¯ºè¯º":10304,"å¥İæģ©":10305,"å¤ķ":10306,"ä¸įæľį":10307,"å¤§åĲ¼":10308,"........":10309,"å¤©åĬ«":10310,"å¾Ĺèµ·":10311,"ĠéĤ£å°ı":10312,"è´¸":10313,"ç¥ŀçº§å¼ºèĢħ":10314,"èµ°è¿ĩåİ»":10315,"æ°´éķľ":10316,"åĥıä¸ª":10317,"ç©ºç©º":10318,"æĢ¥æĢ¥":10319,"ç»Ŀä¸įä¼ļ":10320,"éľĩå¾Ĺ":10321,"è¯Ńè¨Ģ":10322,"éĤ£äºĽäºº":10323,"ĠçĻ½åŁİ":10324,"æ¯ıä¸ª":10325,"å°Ĭæķ¬":10326,"çŃĶåºĶäºĨ":10327,"æĪ¿éĹ´éĩĮ":10328,"æĬĢæľ¯":10329,"èı±æĻ¶éĴ»":10330,"çļĦå¨ģåĬĽ":10331,"ä¸Ģæľ¬":10332,"æĺ¯æĪĳçļĦ":10333,"ä½ĳ":10334,"æĿŃ":10335,"çľĭæĪĳ":10336,"ĠéĤ£åı¯":10337,"åıĳèªĵ":10338,"Ġè¯´åĪ°":10339,"èĲ½ä¸ĭæĿ¥":10340,"ĠæĬķ":10341,"å¤§äººæĤ¨":10342,"é¡¶ä¸Ĭ":10343,"Ġç§¦éĶ¥":10344,"åĨĴéĻ©":10345,"Ġèİ½":10346,"æµ©å¤©":10347,"Ġæļ´":10348,"æĤłæĤł":10349,"Ġéľ²åĩº":10350,"æīĵéĩıçĿĢ":10351,"ä¸Ģçŀ¬éĹ´":10352,"ĠæĪĳçľŁçļĦ":10353,"Ġä½łå°ıåŃĲ":10354,"éĤ£å°ı":10355,"è¡¬":10356,"ç¥Ł":10357,"è§ģä½ł":10358,"èĪ±":10359,"æľ¬èĥ½":10360,"Ġå½©":10361,"æĶ¾åĩº":10362,"ä¼¼æĺ¯":10363,"å®īéĻĽä¸ĭ":10364,"æĢ»è£ģ":10365,"ĠèĭŁå¿ĥå®¶":10366,"Ġä¸Ģä¸ªæĺ¯":10367,"èĦīåĬ¨":10368,"ĠæĽ´åĬł":10369,"çĦļ":10370,"ç´«å·Ŀç§ĢçļĦ":10371,"ĠèĬ±åīĳåĨ°":10372,"Ġä¸İæŃ¤åĲĮæĹ¶":10373,"ĠåĲĦç§į":10374,"ç®±åŃĲ":10375,"ä¸įè®©":10376,"ĠéĨ":10377,"åľ¨éĩĮéĿ¢":10378,"å¤§ç¬ĳéģĵ":10379,"Ġä½łèĭ¥":10380,"ĠéĤ£æł·":10381,"å¯¹æĪĳä»¬":10382,"Ġä¸Ģçŀ¬éĹ´":10383,"åįģåŃĹ":10384,"æīįå¥½":10385,"èĤ¿":10386,"Ġä¹Łç®Ĺæĺ¯":10387,"éĶ£":10388,"æ¯Ķä¸įä¸Ĭ":10389,"æĥĬå¥ĩ":10390,"çłļ":10391,"ä¿®ç»ĥ":10392,"åĢĴäºĨ":10393,"ä¼Ĺç¥ŀå¢ĵåľ°":10394,"è½¦åŃĲ":10395,"çł´çĥĤ":10396,"ĠéĽħ":10397,"æł¼åĬª":10398,"åħ¬åŃĲçĲ®":10399,"Ġæ¯ıä¸ª":10400,"ç«ĭåĪ»å°±":10401,"Ġè°¢è°¢ä½ł":10402,"ä¹ĭç±»çļĦ":10403,"æ¤ħåŃĲä¸Ĭ":10404,"Ġæĭĵæĸľ":10405,"æł¼åĬªæĸ¯":10406,"çļĦé¾Ļ":10407,"ä¸ĢæŁĦ":10408,"ä¸Ģæī«":10409,"äººä¹ĭ":10410,"åľ¨ä¸Ĭ":10411,"å¿Ĳå¿ĳ":10412,"æĸ¼":10413,"è¿ĺä»¥ä¸º":10414,"æĥ³èµ·æĿ¥":10415,"éĹ®äºĨ":10416,"äºĶåĵ¥":10417,"åĨ²çªģ":10418,"åĵįèµ·äºĨ":10419,"Ġè°ĥ":10420,"æĶ¶åĽŀ":10421,"æĺŁåŃĲ":10422,"Ġæ¯ıä¸Ģä¸ª":10423,"è°ĪåĪ¤":10424,"Ġæ³°":10425,"ĠçĭĹ":10426,"çĭłçĭłåľ°":10427,"çªŁçª¿":10428,"Ġæ¼«":10429,"ä¸įå¹³":10430,"æī³":10431,"ä»ĸå°±":10432,"ç¬ĳçľ¯çľ¯":10433,"å¯¹èĩªå·±çļĦ":10434,"æĹłè¾¹":10435,"èĥĥ":10436,"å½ĵæĹ¥":10437,"ĠæľīæĹ¶åĢĻ":10438,"Ġè°Ī":10439,"é¦Ļæ¸¯":10440,"æĻ¯è±¡":10441,"Ġå¼Ģåı£":10442,"åħīæĺİçİĭ":10443,"Ġä¼ļä¸įä¼ļ":10444,"Ġ!!!":10445,"ĠæŁĶå£°éģĵ":10446,"æ±¹æ¶Į":10447,"çļĦéĥ½æĺ¯":10448,"äººæĺ¯":10449,"ä¹Łåıªæľī":10450,"èµł":10451,"å¤©éŁ³":10452,"Ġä¸Ģæ¬¡":10453,"æĹłè¸ª":10454,"äºĮç«ł":10455,"å¼ºäºĨ":10456,"Ġä¸įè¿ĩçİ°åľ¨":10457,"æĢ¥çĿĢ":10458,"æĢ¥åĪĩ":10459,"åĸľæĤ¦":10460,"å¤±è¸ª":10461,"æĶ¶èİ·":10462,"ä¸įä½ıçļĦ":10463,"è®¡è¾ĥ":10464,"èĴĻçī¹":10465,"Ġåıªè§ģéĤ£":10466,"çĸ¯åŃĲ":10467,"èİ«è¦ģ":10468,"ç»ķçĿĢ":10469,"Ġéĥ¨":10470,"åĶ¯ä¸ĢçļĦ":10471,"ĠæĲŀ":10472,"Ġæĸ½å±ķ":10473,"Ġä¸´":10474,"ä¸Ģè¯´":10475,"ä¸įç¨³":10476,"åŃ£":10477,"ĠæĪĳå¯¹":10478,"å¥½æĦŁ":10479,"åı¯è¦ģ":10480,"ä¸¤å¤§":10481,"Ġä¸Ģæīĭ":10482,"Ġä¸ĢåŃĹ":10483,"çĶŁåŃĺ":10484,"Ġå°±åı¯ä»¥":10485,"çī¹æĦı":10486,"åĢĴä¹Ł":10487,"ä½ľåĵį":10488,"ä¼¤çļĦ":10489,"å¦ĸå¡Ķ":10490,"åŀĥåľ¾":10491,"çļĦå£°éŁ³åĵįèµ·":10492,"æĿ¿ä¸Ĭ":10493,"éĢıè¿ĩ":10494,"è°Īè¯Ŀ":10495,"ĠæĢ»ç®Ĺ":10496,"å±ĢéĿ¢":10497,"ç»¿èī²":10498,"çĸ¯çĭĤçļĦ":10499,"ä¸Ģåıªæīĭ":10500,"æĦĪåĬł":10501,"æĴķè£Ĥ":10502,"Ġæ°¸è¿ľ":10503,"ªæĢĿ":10504,"çļĦè·¯":10505,"çļĦèĦĳè¢ĭ":10506,"Ġæ¹":10507,"ä½łåľ¨":10508,"å¾Ĺå¤ª":10509,"åİ»çľĭ":10510,"éĽ·é¸£":10511,"è¾Ł":10512,"è´¾":10513,"Ġä¸Ģä¼ļ":10514,"è¢«ä½ł":10515,"åħīä¸ĢéĹª":10516,"æīĢè¯´":10517,"åıĺçļĦ":10518,"è¿Ļä¹Īå¿«":10519,"å¹³å¸¸":10520,"èĮľèķ¾":10521,"æĸ°éĹ»":10522,"å·®è·Ŀ":10523,"åıĳçĶŁäºĨä»Ģä¹Ī":10524,"æ¾¡":10525,"Ġè¶³è¶³":10526,"ç°ĩ":10527,"Ġæ·¡æ·¡éģĵ":10528,"åľ°ä¸ĬçļĦ":10529,"ä¸ºèĩªå·±":10530,"é¾Ļå±±":10531,"åı«ä¸Ģå£°":10532,"ä¼łæĿ¥çļĦ":10533,"éĢļäºĨ":10534,"éļ¾åº¦":10535,"Ġä»ĸä»¬æĺ¯":10536,"ĠèĢģé«ĺ":10537,"ä¸ĥä¸ª":10538,"å©¿":10539,"æ´»äºĨ":10540,"éħĴæ¥¼":10541,"åľ£è¡Ģ":10542,"çĨĻ":10543,"ä¸įå¾ĹäºĨ":10544,"éĢĥçªľ":10545,"çĮĽåľ°ä¸Ģ":10546,"ĠæĶ¹":10547,"æī¿è¯º":10548,"ç´«å·ĿåıĤæĺŁ":10549,"æĢİèĥ½":10550,"Ġ...âĢĿ":10551,"è¾£æ¤Ĵ":10552,"æİıåĩº":10553,"ĠçĬ¹å¦Ĥ":10554,"çļ±çĿĢçľīå¤´":10555,"ĠéĶħéĶħ":10556,"ªæĢĿéĽ¨":10557,"ä¸ĪçļĦ":10558,"ĠæĪĳå½ĵçĦ¶":10559,"Ġè¿Ļä¸ľè¥¿":10560,"å£°éĹ®éģĵ":10561,"åĲİå¤©":10562,"åĢ¦":10563,"æīįæľī":10564,"Ġä½Ĩè¿Ļ":10565,"æĤļ":10566,"äºĶç«ł":10567,"è¿Ļä¹Īä¸ª":10568,"åŃ¦çļĦ":10569,"Ġåħ¶ä½Ļ":10570,"å½¢çļĦ":10571,"Ġå°Ĩä»ĸ":10572,"ĠæľĢå¤ļ":10573,"åĩºä¸Ģéģĵ":10574,"Ġè·³":10575,"ĠåıįåĢĴ":10576,"éĺ¿èĽĭ":10577,"æ²»çĸĹ":10578,"ĠæĹ¢çĦ¶ä½ł":10579,"ä¸ĵå®¶":10580,"å®ĭèĸĩåħ°":10581,"éŃĶåħ½å±±èĦī":10582,"Ġé¡¾å°ıåĨĽ":10583,"å®¢æ°ĶäºĨ":10584,"ä¸ĥåħ«ç³Ł":10585,"Ġé¡ºä¾¿":10586,"Äģ":10587,"åľ¨äºĨä¸Ģèµ·":10588,"Ġä»ĸå¿½çĦ¶":10589,"æīĵåĲ¬":10590,"å°Ĩå¥¹":10591,"ĠæĹ±éŃĥ":10592,"æı£":10593,"äºĶçĻ¾":10594,"Ġåį´è¿ĺæĺ¯":10595,"è®¡ç®Ĺ":10596,"Ġä»Ģä¹ĪæĹ¶åĢĻ":10597,"æł¹æľ¬æĹłæ³ķ":10598,"æģ©æĢ¨":10599,"éĢłæĪĲ":10600,"èģĶåĲĪ":10601,"æĬĺç£¨":10602,"éģŃåĪ°":10603,"Ġå·¨å¤§çļĦ":10604,"Ġé¼»":10605,"èĢ½è¯¯":10606,"Ġèļ©æ¯Ľçºł":10607,"çļĦåĨĽéĺŁ":10608,"åľ¨ä»ĸçļĦ":10609,"åĨ¶":10610,"Ġè¿Ļåº§":10611,"å¾Ĺé¾Ļ":10612,"Ġä»ĸè¿Ļ":10613,"ä¸¤çĻ¾":10614,"Ġæĺ¯ä¸ª":10615,"åĽĽç«ł":10616,"çº¢éľŀ":10617,"Ġå¦Ĥæŀľä»ĸ":10618,"æ·±åĲ¸":10619,"æ¢°":10620,"æ··èĽĭ":10621,"Ġå¹¶ä¸įæĺ¯":10622,"ĠæĿĢæŃ»":10623,"èģĬå¤©":10624,"åĴ¬çīĻåĪĩé½¿":10625,"ĠæľĿçĿĢ":10626,"åĸĩåıŃ":10627,"å¤¸å¼ł":10628,"Ġå¼ŁåŃĲ":10629,"èĶĵå»¶":10630,"¥åĮĻ":10631,"æľīä¸ī":10632,"åĬĽéģĵ":10633,"æĸ¹éĿ¢çļĦ":10634,"Ġå¤§éķ¿èĢģ":10635,"å¿«æįķ":10636,"æŀģåĵģ":10637,"æł¹åŁº":10638,"æĽ¦":10639,"åĬŀäºĭ":10640,"ä¹ħäºĨ":10641,"åĪ¶çļĦ":10642,"è¾¾æ±Ĺ":10643,"Ġèº«ä¸º":10644,"æĬ¥çº¸":10645,"ĠèĦ¸ä¸ĬçļĦ":10646,"Ġä½łè¿Ļæĺ¯":10647,"èŀįåħ¥":10648,"çİĩé¢Ĩ":10649,"åı¦ä¸Ģä¸ª":10650,"å³¨çľīå±±":10651,"ä¸įä»ħ":10652,"å·¢":10653,"åľ°å¯¹":10654,"æĪĳå¤§åįİ":10655,"Ġä»ĸçªģçĦ¶":10656,"å£°åĵįèµ·":10657,"ç¬ĳåĳµåĳµ":10658,"èĢĮçŁ¥":10659,"èĢĮèĩ³":10660,"æŃ£èī²éģĵ":10661,"å½ĵäºĨ":10662,"è¿Ļä¸ªå°ı":10663,"äº²åĪĩ":10664,"ä½ķå¿ħ":10665,"é£ŀåįĩ":10666,"Ġæ²¡éĶĻ":10667,"Ġéļıæīĭ":10668,"Ġäººä»¬":10669,"å£«åħµä»¬":10670,"Ġè¡¨æĥħ":10671,"åģ¶å°Ķ":10672,"è°¦èĻļ":10673,"Ġè¿ĩåİ»":10674,"æĺ¯èĩªå·±":10675,"æĺ¯çľŁ":10676,"ç»·":10677,"å¤§ç©º":10678,"åĩºä»Ģä¹Ī":10679,"éĿ¢å®¹":10680,"Ġä¸Ģçľ¼":10681,"æĹłä¸į":10682,"éķ¿å¤§":10683,"ĠèĢĮè¿Ļ":10684,"åĥ»":10685,"éĩįè§Ĩ":10686,"æ®·":10687,"èĽ¤":10688,"å¤±èī²":10689,"éĽªè§ģ":10690,"åĪ¶æľį":10691,"ĠåĴĮå°ļ":10692,"éĿłçĿĢ":10693,"ĠåºŁ":10694,"å®Įåħ¨åı¯ä»¥":10695,"æĻ®æĭī":10696,"åłĤåłĤ":10697,"Ġè¿ĻéĩĮæĺ¯":10698,"æħķæħķ":10699,"ä¼ĺç§Ģ":10700,"åĸĥåĸĥèĩªè¯Ń":10701,"çº¢è¡£æĹĹæľ¬":10702,"ä¸Ģæ®µ":10703,"ĠçĴ":10704,"ĠæĪĳä¸İ":10705,"å°±å°Ĩ":10706,"å°±è·ĳ":10707,"éĥ½ç»Ļ":10708,"æ°Ķè´¨":10709,"Ġå°±è§ģ":10710,"çŁ¥éģĵèĩªå·±":10711,"çľŁçĽ¸":10712,"Ġä¹Łåıªèĥ½":10713,"ä¸»ä»»":10714,"åĺĺ":10715,"ç¼¸":10716,"åĲįå£°":10717,"åı¶è´Ŀå®«":10718,"Ġä½Ĩæĺ¯åľ¨":10719,"æ»¡è¶³":10720,"éĿŀåĲĮ":10721,"Ġç«¯":10722,"çī©åĵģ":10723,"åıĹä¸įäºĨ":10724,"åī¯ç»Łé¢Ĩ":10725,"ĠåįģäºĮ":10726,"ä¸īåįģåħŃ":10727,"Ġæ´Ľè¿ľ":10728,"Ġè¿Ļä½įæĺ¯":10729,"Ġéª¨":10730,"å¢ŀæı´":10731,"Ġå·´å°Ķåħĭ":10732,"çļĦæĥħå½¢":10733,"Ġåı¹éģĵ":10734,"ä¸įèĢĲçĥ¦":10735,"ä½łåĴĮ":10736,"åľ°å¾Ī":10737,"Ġè¿ĻæĿ¡":10738,"Ġä½łåĨį":10739,"Ġä¸įå°±æĺ¯":10740,"åı¯æ²¡":10741,"ĠæŀĹå¤§åĵ¥":10742,"äºĨä¸ĢæĢĶ":10743,"åĸ»":10744,"è¿ĽæĿ¥çļĦ":10745,"å¤ĸéĿ¢çļĦ":10746,"æ°´æĻ¶":10747,"å¤Ħç½®":10748,"ä¹Łä¸įçŁ¥":10749,"Ġå¥½æ±ī":10750,"Ġéĺ³":10751,"åĪĩç£ĭ":10752,"æĵĤ":10753,"ç»´æĮģ":10754,"éĩİäºº":10755,"ç¤ºæĦı":10756,"ĠåĿı":10757,"Ġè½¬å¤´":10758,"ĠåĪĨæĺİ":10759,"ĠåĨĽå®ĺ":10760,"Ġåı²ç¦ģ":10761,"ä»įæĺ¯":10762,"å·¡éĢ»":10763,"å¬´":10764,"ä½£åħµ":10765,"Ġæ¨ª":10766,"Ġç¤º":10767,"Ġæħķæħķ":10768,"ĠèĢģçĪ·åŃĲ":10769,"çļĦç¬ĳ":10770,"ä¸įåĩ¡":10771,"å®µ":10772,"åľ¨æĥ³":10773,"å¤§åĸĬ":10774,"çĤĴ":10775,"ä»İå¤©":10776,"èĢĮæĪĲ":10777,"èĢĮç«ĭ":10778,"æ±ģ":10779,"åĲ¬çļĦ":10780,"ä½ĵçļĦ":10781,"æĥĬåıĪ":10782,"çļĦä¸Ģçīĩ":10783,"åĮĸå¢ĥ":10784,"æĸĩåĮĸ":10785,"è®°èĢħ":10786,"æıĲè®®":10787,"èĮħ":10788,"æ¯ĴçļĦ":10789,"å¨ģé£İ":10790,"åĪºæĿĢ":10791,"å¤ļå°ĳæľīäºĽ":10792,"æł¹æľ¬ä¸į":10793,"å°±ä¸įçĶ¨":10794,"åĵ¼äºĨå£°":10795,"èº²åľ¨":10796,"è¿·æĥĳ":10797,"ĠéªĨ":10798,"è®¾è®¡":10799,"æĬ¬èµ·å¤´":10800,"çĽĴåŃĲ":10801,"Ġå¿½åľ°":10802,"åĽŀè¿ĩç¥ŀæĿ¥":10803,"èĢĮæĺĵä¸¾":10804,"æ©":10805,"ä¸ĢæĶ¯":10806,"ä½łåĳ¢":10807,"çĭŃ":10808,"ĠåĲĪ":10809,"èĢĮæĿ¥çļĦ":10810,"äºĶäºº":10811,"å¿«çĤ¹":10812,"äº²è¿ĳ":10813,"çº¢æĻķ":10814,"åĲĥäºı":10815,"ç´§æĢ¥":10816,"æ´¾åĩº":10817,"Ġè¿Ł":10818,"æı¡çĿĢ":10819,"Ġæ´Ľæķı":10820,"Ġè¾¹":10821,"Ġä¼¼æĺ¯":10822,"å¤§å¤ļæķ°":10823,"ĠæĶ¾å¿ĥåĲ§":10824,"èĴĤåĨ":10825,"Ġ9":10826,"ä¸įå¿į":10827,"åľ°æīĭ":10828,"ĠæĪĳçŃī":10829,"ĠæĪĳä»Ĭå¤©":10830,"ĠæĪĳä¹Łä¸įçŁ¥éģĵ":10831,"æĪ³":10832,"èĪħ":10833,"åĲ¬åĲ¬":10834,"å¸ĪçļĦ":10835,"æľĢå°ĳ":10836,"é£ŀéŃĦ":10837,"ç¬¬åĽĽ":10838,"åĲĪä¸Ģ":10839,"éĽªéĽģ":10840,"èĮĤ":10841,"å®¢æĪ·":10842,"Ġè¯·ä½ł":10843,"Ġå¿«çĤ¹":10844,"Ġè®¸æĢ»":10845,"ĠåĽŀåİ»":10846,"è½°é¸£":10847,"çģ¯åħī":10848,"èŁĨ":10849,"ĠçĿ¡":10850,"åı¬åĶ¤":10851,"åĩ¤åĩ°":10852,"å®´ä¼ļ":10853,"é¸¿å¾·":10854,"Ġæģ¨ä¸įå¾Ĺ":10855,"an":10856,"ä¸ĢæĮ¥æīĭ":10857,"ä¸įéŁ¦":10858,"Ġä½łä¼ļ":10859,"å¯ħ":10860,"éĥ½æĹłæ³ķ":10861,"ĠéĤ£æĹ¶":10862,"åĨĽäºº":10863,"ĠæīŃ":10864,"é»ĳè¢į":10865,"ĠæŀĹæĻļèį£æĢ¥å¿Ļ":10866,"å¿«æ´»":10867,"ĠéĻ¡çĦ¶":10868,"ĠåĤħæ¸ħæī¬çľĭåĪ°":10869,"Ġéĥ½è¦ģ":10870,"ä¸ĥç«ł":10871,"æĸĩç¥¥":10872,"å¹²äºĨ":10873,"å¤±äºĨ":10874,"æ£ĺ":10875,"ĠæĹłå£°":10876,"éĢĢäºĨ":10877,"Ġåºľ":10878,"æĮ¡ä½ı":10879,"ä¸įçĶ±èĩª":10880,"Ġé¢ĩ":10881,"Ġç¦ı":10882,"ç¾İä¸½çļĦ":10883,"Ġå°ģåĨµ":10884,"ä¿ĺèĻı":10885,"çļĦå¦ĸ":10886,"ĠçĦ":10887,"ä¸Ĭåľ°":10888,"Ġä»ĸè¿ĺæĺ¯":10889,"å±İ":10890,"ç¥ŀåīĳ":10891,"çĶŁçĶŁçļĦ":10892,"èĥĢ":10893,"çĶ¨å¤Ħ":10894,"è®©ä½łä»¬":10895,"ĠèĢĮéĤ£":10896,"çģ«çĥ§":10897,"èĬ±åĽŃ":10898,"çł´ç»½":10899,"éĤ»":10900,"åĮĹæĸ¹":10901,"å»ºç«ĭ":10902,"åī§çĹĽ":10903,"æ¼«å¤©":10904,"ä¼łè¯´ä¸Ń":10905,"ä»ªå¼ı":10906,"é»¯æ·¡":10907,"ĠèĹı":10908,"äºĨä»ĸä»¬":10909,"åĩ¸":10910,"è¿ĺæķ¢":10911,"éĩĮå¥İæģ©":10912,"Ġä¸įæĸĻ":10913,"ä¸īåĳ³":10914,"çĸ¤":10915,"Ġè¯´å®ŀè¯Ŀ":10916,"çļĦä¸ĢçĤ¹":10917,"äº¤æĺĵ":10918,"èĭ¥æľīæīĢæĢĿ":10919,"éļĲèĢħ":10920,"å°ĶèĴĻ":10921,"å¯ĨçļĦ":10922,"Ġä¼´":10923,"ĠäºĮåĤ»":10924,"ĠåĬ¿":10925,"è¿Ĳè½¬":10926,"æ±Ĺæ°´":10927,"ĠæīĭæĮĩ":10928,"åĢŁåı£":10929,"Ġæĺ¾å¾Ĺ":10930,"Ġä¸ĥåħ«":10931,"åĥµç¡¬":10932,"Ġå²Ĥä¸įæĺ¯":10933,"Ġé»ĺé»ĺ":10934,"ä¸ĢèĲ½":10935,"ä¸įèĪį":10936,"åľ¨æľĢ":10937,"ä¸Ĭå¤©":10938,"ĠæĪĳè·Ł":10939,"å°±è¿Ļæł·":10940,"Ġä»ĸåıªæĺ¯":10941,"å½¼":10942,"ä»Ģä¹Īåĳ¢":10943,"ä¸»åĬĽ":10944,"çģ«çļĦ":10945,"æŃ¥èĻļ":10946,"èĬ±æľ¨åħ°":10947,"ĠåĤħæ¸ħæī¬è§īå¾Ĺ":10948,"åħ«çº§":10949,"åĨ²éĶĭ":10950,"ç´«éĩĳ":10951,"åĿĹéĴ±":10952,"åĩºä¸Ģåī¯":10953,"çĥŃçļĦ":10954,"ĠæĦ¿":10955,"ĠæĺİçĻ½":10956,"æŁĶåĴĮ":10957,"Ġæ»´":10958,"å¯Įè±ª":10959,"çº³å¾·":10960,"ä¾įèĢħ":10961,"çļĦå°Ĩ":10962,"ä¸ĢæĹ¶éĹ´":10963,"çľ©":10964,"Ġåı®":10965,"Ġä½łèĩªå·±":10966,"éĽ·æĸ¯æĻ¶":10967,"Ġä¸Ģç¾¤":10968,"çĶŁæľº":10969,"åĿŁ":10970,"è½»ç¬ĳ":10971,"æĿĢæľº":10972,"ĠæĪĳä»¬è¦ģ":10973,"çİĭåħ«":10974,"ĠæĬ¢":10975,"æ¼ĵ":10976,"çľĭçĿĢä»ĸ":10977,"çĶ·åŃ©":10978,"æķĻä¸»":10979,"åĩłä¸ªæľĪ":10980,"åįłäºĨ":10981,"æłĩåĩĨ":10982,"ä¸Ĭåīįåİ»":10983,"Ġç¼ĵç¼ĵéģĵ":10984,"æµģé£İå®¶":10985,"Ġåħīæĺİçİĭ":10986,"éľ¸éģĵ":10987,"è½¬è¿ĩèº«æĿ¥":10988,"çļĦé©¬":10989,"ä¸Ģæ²ī":10990,"ä¸įä¼ĳ":10991,"è¿Ļä¸ľè¥¿":10992,"è¿ĻåĿĹ":10993,"åŃĲå¼¹":10994,"Ġè¿Ļåı¥è¯Ŀ":10995,"æĬ¿":10996,"ç¬ĳåĺ»åĺ»":10997,"èīĺ":10998,"çŀĳ":10999,"éĶĻæĭ³":11000,"çķĮçļĦ":11001,"è¿Ļä¸ĢåĪĩ":11002,"éĿĻçļĦ":11003,"æĺ¾çĦ¶æĺ¯":11004,"è·³èµ·æĿ¥":11005,"èĻļè§Ĥ":11006,"èĸĩèĸĩ":11007,"æĶ¯æĴĳ":11008,"ä¸įåĲĮçļĦ":11009,"æĢĶäºĨä¸ĢæĢĶ":11010,"èļĤ":11011,"èµŀåı¹":11012,"æīŃå¤´":11013,"Ġæı¡":11014,"ç²®é£Ł":11015,"çİ©æĦıåĦ¿":11016,"ç¿ħèĨĢ":11017,"çģ¿çĥĤ":11018,"ä¸įè¿ľ":11019,"ä¸įåĪ©":11020,"ä»ĸèĩªå·±":11021,"éģĵæŃī":11022,"ĠæĪĳçĽ¸ä¿¡":11023,"Ġåħį":11024,"ä¸ľæĪĲ":11025,"å½ĵçľŁ":11026,"éªı":11027,"çĻ¾éĩĮ":11028,"ä¿¡ä»°":11029,"è½¬ç§»":11030,"ä¹Ŀç«ł":11031,"æĺ¯ä¸Ģä»¶":11032,"è¨Ģè¯Ń":11033,"å¤§äººçī©":11034,"éľĩé¢¤":11035,"æ¸©æħ§":11036,"ĠéļıæĹ¶":11037,"æĪĲäºĨä¸Ģä¸ª":11038,"åįĹçĶ°":11039,"çıłåŃĲ":11040,"ĠæĶ¯":11041,"æ¨¡ä¸Ģæł·":11042,"åĿļç¡¬":11043,"çº¦å®ļ":11044,"ç»Ŀå¯¹æĺ¯":11045,"èļĢ":11046,"æĤ²åĵĢ":11047,"ĠæĪĳçŁ¥éģĵä½ł":11048,"æģŃæķ¬æķ¬":11049,"æĪĪæ°ĳè¾ī":11050,"ĠåŁºæģ©":11051,"ĠçĶ°éľĩ":11052,"æııè¿°":11053,"Ġè¯ļçİĭ":11054,"ä¸ĢæĬ¹":11055,"åİĦ":11056,"Ġè¿Ļä¸į":11057,"å¤©å¤§çļĦ":11058,"æ°ĶäºĨ":11059,"è¢«è¿Ļ":11060,"ĠåĪ©":11061,"Ġåľ¨è¿ĻéĩĮ":11062,"çª¥":11063,"Ġå®¢":11064,"ä¼łæİĪ":11065,"æĢªæĪĳ":11066,"ç«Łæĺ¯":11067,"æĺ¯ä¸ĢåĲį":11068,"å¾Īå¤ļäºº":11069,"æŀĹæĻļèį£ä¸Ģçľ¼":11070,"ä»»ä½ķäºº":11071,"åıĽä¹±":11072,"åĲķå¤ªå²©":11073,"Ġå°ıè¯´å¿«æįķ":11074,"Ġå¡Ķç½Ĺæ²Ļ":11075,"åĳ»åĲŁ":11076,"çļĦèĤ©èĨĢ":11077,"ä¹į":11078,"åŃĲäºĨ":11079,"å°±è¶Ĭ":11080,"Ġä¸Ģèº«":11081,"æģį":11082,"åĩłä¸ĭ":11083,"Ġæĺ¯è°ģ":11084,"ĠæĸĹ":11085,"åŁİä¸»":11086,"ä¹Łæĺ¯ä¸ª":11087,"Ġèµ«":11088,"éĹªåĬ¨":11089,"ç½ĹæĿ°":11090,"éĢįéģ¥æ´¾":11091,"æºª":11092,"åı¸ä»¤":11093,"çģµéŃĤéĺ²å¾¡":11094,"çŀªçĿĢ":11095,"æ³°åĴĮ":11096,"çļĦè¯´æ³ķ":11097,"ä¾ĭå¤ĸ":11098,"æ·±æ¸ĬåĪĢéŃĶ":11099,"ĠéģĩåĪ°":11100,"ç»ĺ":11101,"å·į":11102,"ä¸Ĭæľī":11103,"åĨī":11104,"å¯¹éĿ¢çļĦ":11105,"åıªæīĭ":11106,"æīĢçŁ¥":11107,"å®Įæķ´":11108,"åĢĴåľ¨":11109,"æ·¡çĦ¶":11110,"Ġé»ĳèī²":11111,"åı¸å¾Ĵ":11112,"æĦ£ä½ıäºĨ":11113,"ĠçĪ·":11114,"è¹Ļ":11115,"è¯ºè¯º":11116,"æľĢåĲİçļĦ":11117,"Ġèĥ¡å¤§åĵ¥":11118,"====":11119,"Ġä¸¥":11120,"ä¸Ģçŀª":11121,"æĺ¯æĢİä¹ĪåĽŀäºĭ":11122,"æĿ¥åĲ§":11123,"ĠæĪĳèĻ½çĦ¶":11124,"çľĭä¹¦":11125,"æķŀ":11126,"é¡µ":11127,"Ġå°ıéĿĴ":11128,"è¿Ļä¸ªéĹ®é¢ĺ":11129,"ä¿®éģĵ":11130,"æļĩ":11131,"çº¢æĺŁ":11132,"æµģæ°´":11133,"ä¸įä¼ļæľī":11134,"çıĳ":11135,"åįķçº¯":11136,"çº¿ç´¢":11137,"ĠéĻĪå°ıéĿĴ":11138,"èµĦè´¨":11139,"æī«è¿ĩ":11140,"ĠåĲ´ä¸īæ¡Ĥ":11141,"Ġåħ³äºİ":11142,"èĲĿèİī":11143,"Ġåĸĥåĸĥéģĵ":11144,"ĠæĪĳåĪļæīį":11145,"è¦ģæ¯Ķ":11146,"å¿ĥæĿ¥":11147,"èĩªåľ¨":11148,"äºĭåħĪ":11149,"Ġæľº":11150,"Ġæľį":11151,"Ġåıªåī©ä¸ĭ":11152,"çĻ½è¢į":11153,"äºĮä½į":11154,"åĲĳéĤ£":11155,"åħ«ç«ł":11156,"ä¸ĸçļĦ":11157,"è½¦éĩĮ":11158,"ĠæĢİä¹Īèĥ½":11159,"ĠéĽ¨":11160,"Ġç«ŁçĦ¶æĺ¯":11161,"Ġæ´¾":11162,"Ġå§ľ":11163,"æł¹æľ¬æ²¡æľī":11164,"åįĩæµ·":11165,"èħ°éĹ´":11166,"åĨĻçļĦ":11167,"ĠçĮ´åŃĲ":11168,"æľ¬æĿ¥å°±æĺ¯":11169,"è·ĥèµ·":11170,"Ġç©ºæ°Ķ":11171,"ĠåĮĹå®«":11172,"å©´åĦ¿":11173,"ĠçŁŃçŁŃ":11174,"äºĨåĳ¢":11175,"åľ¨æĹģè¾¹":11176,"å¤§æľī":11177,"ĠæĪĳç»Ļä½ł":11178,"ä¸ĭåľ°":11179,"å¸ĸ":11180,"åĴª":11181,"éĥ½ä¸įèĥ½":11182,"çľĭåĩºäºĨ":11183,"ä»Ģä¹Īäºº":11184,"Ġæľ«":11185,"æĤ»":11186,"æŀľçĦ¶æĺ¯":11187,"æĿĢä½ł":11188,"çĽ¸åĬ©":11189,"çĲª":11190,"éĥ¨çļĦ":11191,"èħĳ":11192,"Ġå½ĵçľŁæĺ¯":11193,"ĠèĢģåħ¬":11194,"Ġå¦Ĥæŀľè¯´":11195,"åı¤èĳ£":11196,"ç»Īç©¶":11197,"æİ¨å¼Ģ":11198,"æ¹ĥ":11199,"Ġé»ĳçŁ³":11200,"æĺ¯ä¸įåı¯èĥ½":11201,"Ġæ³¨":11202,"æºľæºľ":11203,"Ġå¹´è½»":11204,"ĠåĮĹå±±çĻ¾å¾®":11205,"ĠPS":11206,"ĸæĺĬ":11207,"ä¸ĢæĿ¯":11208,"Ġç¦ģ":11209,"æĥº":11210,"ä¹ŁæĹł":11211,"å°±ç®Ĺæĺ¯":11212,"Ġè¿ĻåĲį":11213,"Ġä½łçľŁ":11214,"çľĭéĩį":11215,"Ġå°Ķ":11216,"Ġä¸Ģäºº":11217,"å¾Īä¸įéĶĻ":11218,"çŁ¥éģĵæĪĳ":11219,"éĹ¨å¼ŁåŃĲ":11220,"èĥŀ":11221,"è¿Ļä¸ªåĲįåŃĹ":11222,"Ġåı¯æĺ¯éĤ£":11223,"æı½":11224,"æĶ¾å¼Ģ":11225,"åı¹åı£æ°Ķ":11226,"å¹¶æĹł":11227,"å°½éĩı":11228,"ä»½ä¸Ĭ":11229,"Ġé»ĳå¾·æ£®":11230,"çĭ¬èĩª":11231,"çļĦèº«åŃĲ":11232,"éĤªæģ¶":11233,"æĸ©æĿĢ":11234,"Ġå®ĭåħ¬æĺİ":11235,"çĪªåŃĲ":11236,"ä¸°æ»¡":11237,"ä¸Ńå¤®åĨĽ":11238,"è´Ńä¹°":11239,"è¥Ł":11240,"ĸæĺĬå¾·":11241,"çļĦæĹ¥åŃĲ":11242,"æīģ":11243,"å¤§ä¸º":11244,"æ°ĵ":11245,"äºĨä¸Ģç§į":11246,"éĩįåĪĽ":11247,"å¤Ħå¤Ħ":11248,"éĴ¥åĮĻ":11249,"ĠæŀĹæĻļèį£åĵĪåĵĪ":11250,"ä¼łéĢĴ":11251,"è¿ĺæĺ¯è¦ģ":11252,"Ġåĩ¶":11253,"Ġçº§":11254,"å¤«åĲĽ":11255,"å¿ħçĦ¶":11256,"çķĻä¸ĭæĿ¥":11257,"å°Ķç¿°":11258,"çľĭåĪ°åĤħæ¸ħæī¬":11259,"åĳĬè¾ŀ":11260,"åĩºä¸ĢèĤ¡":11261,"çĥŃè¡Ģ":11262,"æ¿ĢçĥĪ":11263,"åıĸåĩº":11264,"ä¹¾åĿ¤":11265,"åĮĸåĬ²æľŁæŃ¦èĢħ":11266,"çļĦç¾İ":11267,"çļĦåŃĺåľ¨":11268,"åľ¨åľº":11269,"æĸĲå°ĳçĪ·":11270,"éĽĩ":11271,"è¿ĩæĪĳ":11272,"Ġä½łåĪļæīį":11273,"åĳ¸":11274,"æĹ¶æľº":11275,"çĤĻ":11276,"å®¶ä¸Ń":11277,"å¾Īæĥ³":11278,"å±±ä¸ĭ":11279,"å®ļçĦ¶":11280,"æĥĬå¤©":11281,"æľĽåĲĳäºĨ":11282,"äºĶåħĦå¼Ł":11283,"åıĺèº«":11284,"Ġå¦Ĥæŀľæ²¡æľī":11285,"Ġå°ıéĽ·åı¹äºĨåı£æ°Ķ":11286,"èº«ä½ĵçļĦ":11287,"æĩµ":11288,"ç§ĺæ³ķ":11289,"Ġæłĳ":11290,"å¢Ļä¸Ĭ":11291,"ĠçĽ¸æ¯Ķ":11292,"æŁĲäºĽ":11293,"é¢Ħå¤ĩ":11294,"ĠåĨĽéĺŁ":11295,"çĪ¸çĪ¸":11296,"çĸĹä¼¤":11297,"ĠèĽĩ":11298,"ĠæģŃåĸľ":11299,"ĠF":11300,"çļĦå¯¹æīĭ":11301,"çļĦæĢģåº¦":11302,"ä¸Ģå¼Ģå§ĭ":11303,"éĤ£æĿ¡":11304,"å°ıèĬ±":11305,"Ġåı¯æĢľ":11306,"è¡Įåİ»":11307,"åĺİ":11308,"ç¼İ":11309,"æĤ¸":11310,"å¤ªçĽĳ":11311,"æĶ¾çĿĢ":11312,"åįĥä»ŀ":11313,"æŃ¦å£«":11314,"çł´ç©º":11315,"åĳ¨èº«":11316,"ĠéĽ·åħĥæĪĪ":11317,"æĻ¯çĶŁ":11318,"ä¸įåľ¨ä¹İ":11319,"èĮ«èĮ«":11320,"é«ĵ":11321,"ĠæĻ®éĢļ":11322,"ç»ĵæĿŁäºĨ":11323,"åĨ¤æŀī":11324,"ä¾ıåĦĴèĢģéģĵ":11325,"æĿ¥äºº":11326,"ĠæĪĳä¸ĢçĽ´":11327,"è¦ģç´§":11328,"ä¹ĭå¤§":11329,"ä»¥å¤ĸ":11330,"ç¥ŀä½įéĿ¢":11331,"è°£":11332,"åĽŀèį¡":11333,"çĻ½éª¨":11334,"æĦŁåı¹éģĵ":11335,"å¸ĪåĽ¢":11336,"åıĺæĢģ":11337,"äºĭæĥħçļĦ":11338,"Ġè®¨":11339,"Ġåĩ»":11340,"æ·±åĪ»":11341,"æ²³ä¸ĺ":11342,"ä¸įçŁ¥éģĵè¯¥":11343,"ä¿Ŀä½ı":11344,"Ġæ°ĳ":11345,"ĠåĽĽäºº":11346,"æĺ¯ä¸ªä»Ģä¹Ī":11347,"éĢłåŀĭ":11348,"ä¼¯çī¹":11349,"Ġæ´Ľå°ıå§Ĳ":11350,"æī§è¡Į":11351,"ĠæĺĨä»ĳ":11352,"å°ĶèĴĻæĸ¯":11353,"Ġr":11354,"Ġä¼¤":11355,"å°±ä¸įæĺ¯":11356,"Ġè¿Ļä»¶":11357,"çľĭä¸įè§ģ":11358,"æĪ¾":11359,"çľ¼çļ®":11360,"åı£å¤§":11361,"çľŁå®ŀ":11362,"æĺİæľĪ":11363,"Ġä¹Łä¸įèĥ½":11364,"å°Ĩä¼ļ":11365,"æīĢè¨Ģ":11366,"Ġä¸įè¿ĩä½ł":11367,"ĠåĨ¥":11368,"Ġå¯¹ä»ĸ":11369,"åĢĴåľ°":11370,"é¢ĨçĿĢ":11371,"æ·±å¤ľ":11372,"èĴ¸":11373,"é½Ĳå£°":11374,"å¸Įå¡ŀ":11375,"è¹Ī":11376,"æĥ¨çĻ½":11377,"Ġæĺİç¾½":11378,"èĭĹäºº":11379,"ĠèĬ±èį£":11380,"åĲĲè¡Ģ":11381,"Ġ20":11382,"è¿ħçĮĽ":11383,"Ġä½łæĢİä¹ĪäºĨ":11384,"è½®åĽŀ":11385,"éľ¸çİĭ":11386,"çĲ³å¨ľ":11387,"ĠäºĨä¸Ģå£°":11388,"çļĦæľĭåıĭ":11389,"åı¼":11390,"Ġè¨Ģ":11391,"åŃĲæ°ĳ":11392,"åĽļ":11393,"å¦ĥ":11394,"æĭĺ":11395,"ç»ıæµİ":11396,"è§ģåĪ°äºĨ":11397,"å¦Ĥæ°´":11398,"åĩłåĲį":11399,"æīĵæĸŃäºĨ":11400,"è®©åĤħæ¸ħæī¬":11401,"éĩĳåĪĢ":11402,"Ġåı¯æĺ¯æŀĹéĽ·":11403,"ç¿©":11404,"ç»Ŀä¸į":11405,"çł´åľŁ":11406,"æ¸ħæ¥ļæ¥ļ":11407,"åĽ¾æ¡Ī":11408,"åĲ¼éģĵ":11409,"ä¸ļåĬ¡":11410,"Ġè¿Ļä¹Īå¤ļ":11411,"Ġå®īå¾·":11412,"æĤĦçĦ¶":11413,"Ġæ®µ":11414,"äº§çĶŁäºĨ":11415,"åĩĽçĦ¶":11416,"è¿ĩç¨ĭä¸Ń":11417,"ĠåĬĽéĩı":11418,"ĠæĪĳåĲ¬":11419,"ä¸ĭåįĪ":11420,"Ġä»ĸä¸į":11421,"é£Ļ":11422,"å¹´ä»£":11423,"æĪĲç¥ŀ":11424,"åĲĳæŀĹéĽ·":11425,"ä»ĻåĿĬ":11426,"é¾Ļé³ŀ":11427,"æĮĩäºĨæĮĩ":11428,"çİīåĪĢ":11429,"æ°ĳæĹı":11430,"çľĭäºĨä»ĸä¸Ģçľ¼":11431,"èĴĻå»·":11432,"ĠçĮª":11433,"æĺ¨æĹ¥":11434,"åįļçī©":11435,"ĠæĹłæķ°çļĦ":11436,"ĠéĢļè¿ĩ":11437,"æ¼Ĩé»ĳ":11438,"å¸ĺåŃĲ":11439,"çĽĺåı¤å¤§éĻĨ":11440,"ĠèįĨè½²":11441,"Ġäºļåº¦å°¼æĸ¯":11442,"ĠæĪĳä¸Ģå®ļ":11443,"æĪĳä¼ļ":11444,"Ġè¿Ļä¸ī":11445,"ä¸¤çľ¼":11446,"éķ¿çŁĽ":11447,"æīĵæĭĽåĳ¼":11448,"é«ĺå¤§":11449,"Ġå¤§åįİ":11450,"Ġåį´è¢«":11451,"çİĭèĢħ":11452,"ç¬¬äºĶ":11453,"æĸĩæŃ¦":11454,"çł´ç¢İ":11455,"äº¤è°Ī":11456,"ĠèĢĮä¸Ķè¿ĺæĺ¯":11457,"èĦĳä¸Ń":11458,"éĢĢåĲİ":11459,"æ¥¼æ¢¯":11460,"èµ·äºĨçľīå¤´":11461,"æ²Ļæ¼ł":11462,"å¸ĮèħĬ":11463,"Ġæ²Īæ¬ºéľľ":11464,"é¹ı":11465,"Ġåı«åģļ":11466,"å¸Ńåį·":11467,"ĠèĤĸéĿĴçĴĩ":11468,"é¾Ļè¡ĢåŁİåł¡":11469,"ĠæķħæĦı":11470,"Ä«":11471,"çļĦå¤´":11472,"ä¸ĢæĬĸ":11473,"ä»ĸå·²ç»ı":11474,"ä½łèĩªå·±":11475,"ä¸ªå±ģ":11476,"ĠæĪĳéĿł":11477,"ĠæĪĳè®°å¾Ĺ":11478,"å¯Ħ":11479,"å£°èī²":11480,"ä¿Ħç½Ĺæĸ¯":11481,"ä¸Ģä¸ªåŃĹ":11482,"ä¸¤è¾¹":11483,"ä¸¤åı¥":11484,"æĥħä¸įèĩªç¦ģ":11485,"éĹ¨ä¸ĭ":11486,"Ġæīİ":11487,"è¿ĽæŃ¥":11488,"ç§įçİĦå¥¥":11489,"åģļä¸įåĪ°":11490,"æ¯ĶåĪĴ":11491,"åıĺèī²":11492,"Ġç¬¬ä¸Ģæ¬¡":11493,"éĵŃ":11494,"éĿŀæĺ¯":11495,"ä¾ĿéĿł":11496,"ä¾¯çĪµ":11497,"å¦ĻçļĦ":11498,"èµ°äºĨè¿ĩåİ»":11499,"èĲ¥åľ°":11500,"æ±Ĺçıł":11501,"åĳĺå·¥":11502,"åļ¼":11503,"æĭľè®¿":11504,"åĪĽéĢł":11505,"Ġæ´ªå¥ĩå³°":11506,"åºĦåĽŃ":11507,"é»ĳçĻ½åŃ¦å®«":11508,"æĭ±æīĭ":11509,"åĹ¯äºĨä¸Ģå£°":11510,"«çĳ°":11511,"Ġt":11512,"İæ¹ĥ":11513,"çļĦä»ĸ":11514,"ä¸Ģæ»´":11515,"ä¸Ģæŀļ":11516,"æľīéĻĲ":11517,"å¤§ä¹ī":11518,"ĠæĪĳåı¯æĺ¯":11519,"ä¸ĭæĦıè¯Ĩ":11520,"å¤©çĭ¼":11521,"çľĭä»ĸä¸Ģçľ¼":11522,"æłı":11523,"æĭĻ":11524,"åĲİäºº":11525,"åĢı":11526,"ä»İåĵªéĩĮ":11527,"ä½ıåľ¨":11528,"å½ĵåľ°":11529,"æŃ¤åľ°":11530,"æĤ¯":11531,"åģļå¥½":11532,"çĲĲ":11533,"é¾ĻèĻİ":11534,"åŁİéĩĮ":11535,"ä¼łç»Ł":11536,"å®īæ¾¶":11537,"åĸľéģĵ":11538,"çº§åĪ«çļĦ":11539,"Ġèī¾":11540,"åĨ°åĨ°":11541,"é¦ĻåĲĽ":11542,"æĬĵçĿĢ":11543,"å°Ħéĥ¡ä¸»":11544,"çº¦èĢĮ":11545,"ĠæŁ´":11546,"èĿ¶":11547,"åĺ±åĴĲ":11548,"Ġéº»çĥ¦":11549,"·åŃĲ":11550,"è¿Ļå®¶ä¼Ļ":11551,"å¤§åŃ¦":11552,"å¤§èĥ¡åŃĲ":11553,"Ġä½łä¸įçĶ¨":11554,"æİ·":11555,"äºĨä¸Ģæł·":11556,"Ġä¸Ģåħ±":11557,"çŁ¥éģĵä½ł":11558,"åĨĽæ³ķ":11559,"çĶ¨æīĭ":11560,"Ġæī¬":11561,"ĠæŀĹéĽ·çľĭçĿĢ":11562,"è½»å£°éģĵ":11563,"çĻ¾äºº":11564,"è¿Ļä¹Īå¤§çļĦ":11565,"éĺµçļĦ":11566,"è¥¿éĹ¨":11567,"æľĪäº®":11568,"éĺŁåĪĹ":11569,"è½¬åĲĳ":11570,"æĸĩè¿ľ":11571,"ç¾İåĽ½":11572,"æ²īæ²ī":11573,"ĠçĽ¯çĿĢ":11574,"åºľçļĦ":11575,"æĮģç»Ń":11576,"åĩĿç»ĵ":11577,"çļĦæīĭèĩĤ":11578,"èŃ¦åĳĬ":11579,"ä¸ľæĸ¹åľ£":11580,"çĸ¯äºĨ":11581,"Ġè½¬è¿ĩ":11582,"ĠçĽ®åīį":11583,"åī§çĥĪ":11584,"ä¸įåıĬå¾ħ":11585,"Ġå°ĳçĪ·":11586,"ĠåħīæĺİæķĻå»·":11587,"ĠèĴĻæ±Ĺ":11588,"é¤Ĳåİħ":11589,"Ġçľīå¤´":11590,"éº¾ä¸ĭ":11591,"å¤§æµ·":11592,"å°±åĪ°äºĨ":11593,"èµ·ä¼ı":11594,"æ¸ł":11595,"å¥¹æĺ¯":11596,"æŃ»åľ°":11597,"Ġå¿ĺ":11598,"æĥĬåı¹":11599,"ç¦½":11600,"æķ°ä¸ĩ":11601,"åįĥéĩĳ":11602,"ç¬¬åħŃ":11603,"æŃ¦è£ħ":11604,"æĶ¶äºĨ":11605,"æĶ¶åħ¥":11606,"éļĲçº¦":11607,"ĠéĽ¾":11608,"ç»ĵå®ŀ":11609,"ĠåĮº":11610,"ĠåĸĬ":11611,"ä»ĺåĩº":11612,"Ġä»ĬåĦ¿":11613,"èħ¾èħ¾":11614,"Ġä½İå¤´":11615,"åºŃéĻ¢":11616,"ĠæĭīçĿĢ":11617,"åĴĴè¯Ń":11618,"Ġä»»åĩŃ":11619,"æĥ¶æģĲ":11620,"æĮªç§»":11621,"ä½İäºĨå£°éŁ³":11622,"ĠæļĤæĹ¶":11623,"Ġç¤ºæĦı":11624,"³å¦ĩ":11625,"éģĤ":11626,"ä¹Łå·²ç»ı":11627,"åİ»çľĭçľĭ":11628,"éĤ£ä¸¤ä¸ª":11629,"å°ıåħĦ":11630,"äºĨä¸Ģéģĵ":11631,"ä¸¤éĵ¶åŃĲ":11632,"åģİ":11633,"åįģå²ģ":11634,"æĪĲä¸ºäºĨ":11635,"åīĳåľ£":11636,"æ°´å¹³":11637,"ĠæĪĳä»¬è¿Ļ":11638,"å®īå¦®":11639,"çİīçŁ³":11640,"åł¤":11641,"åİŁè°ħ":11642,"åıĮèħ¿":11643,"Ġè¿ŀè¿ŀ":11644,"å«ī":11645,"ĠéĢĴ":11646,"åģľä½ıäºĨ":11647,"Ġä¼ĳ":11648,"èĴĻæ±Ĺ":11649,"Ġéķ¿åīĳ":11650,"å¸Ĥåľº":11651,"Ġåįģä¹Ŀ":11652,"è¿ľè¿ľçļĦ":11653,"Ġåģ·åģ·":11654,"Ġåķ§":11655,"Ġå®ģä»ĻåŃĲ":11656,"ç»³ç´¢":11657,"æ¬§æ´²":11658,"è¿Ļä¸ī":11659,"å¤§æĦı":11660,"Ġå°ļ":11661,"å¤´äºĨ":11662,"å¦ĪçļĦ":11663,"å°ıå§ĳå¨ĺ":11664,"ç¬ĳéĿŀ":11665,"çī§":11666,"åĢĶ":11667,"èĢģçĪ¸":11668,"å¾Īç®Ģåįķ":11669,"éķ¿è¢į":11670,"ä¾¿éģĵ":11671,"Ġåı¶å¤Ń":11672,"Ġæĺ¯åĳĢ":11673,"ç¨ļ":11674,"Ġæĸ¹éķĩæ±Ł":11675,"Ġå¹»":11676,"ĠåİĦ":11677,"åı¤åł¡":11678,"è¿Ļä¸ĢåĪ»":11679,"å®ĹæķĻ":11680,"Ġé»ĳé²ģ":11681,"éĢĥèĦ±":11682,"åĪºå®¢":11683,"æ´ŀåı£":11684,"åĮĹå±±":11685,"åĤ»äºĨ":11686,"ĠçĶļèĩ³è¿ŀ":11687,"æ³¨æĦıåĬĽ":11688,"Ġé¢ľ":11689,"ç¨įç¨į":11690,"åı¹æģ¯éģĵ":11691,"åĤ¬ä¿ĥ":11692,"åĥµå°¸":11693,"å§ľåĽ½":11694,"ĠéĦ£ä¹Ĳåħ¬ä¸»":11695,"Ġå¬´":11696,"åľ¨æīĭéĩĮ":11697,"åİ»è§ģ":11698,"èĥ½æľī":11699,"æĸ¹ä½į":11700,"æ¸ħæ¸ħæ¥ļæ¥ļ":11701,"åıĳçĶ·åŃĲ":11702,"ĠèĢĮæŀĹéĽ·":11703,"ä½ĵç§¯":11704,"è¡Ģèī²":11705,"ä¼łäºº":11706,"é£ŀäºĨåĩºåİ»":11707,"æŃ¦éģĵ":11708,"æµģåħī":11709,"å®¹åº·":11710,"Ġå¿ĥæĥħ":11711,"åıįé©³":11712,"æĲĵ":11713,"è¿Ļç§įäºĭæĥħ":11714,"æľīçĤ¹ä¸į":11715,"åģľäºĨä¸ĭæĿ¥":11716,"Ġè§ģè¿ĩ":11717,"èĻļç©ºä¸Ń":11718,"Ġä»Ģä¹Īäºĭ":11719,"åľŁé»Ħ":11720,"ä¸Ģå®ļæĺ¯":11721,"å°ļæľª":11722,"èŃ¦å®ĺ":11723,"ç¬ĳäºĨä¸¤å£°":11724,"èµĦéĩĳ":11725,"å°ĸåı«":11726,"èĢĥéªĮ":11727,"åĤ»åŃĲ":11728,"Ġåīįè¾Ī":11729,"Ġé¢¤":11730,"Ġåį³ä½¿æĺ¯":11731,"è¿Ļä¹Īå¤ļå¹´":11732,"Ġä½ĵåĨħ":11733,"å®ªåħµ":11734,"é£ŀéŃĦæķ£":11735,"çĿ¹":11736,"æĪĳè¿ĺ":11737,"å°±æĥ³":11738,"å°ıäºĶ":11739,"æ·¹":11740,"å°ĳæķ°":11741,"åı¶å¤Ń":11742,"æİ¥åĪ°":11743,"åı«ä½ł":11744,"ä¼łéĢģ":11745,"å®īå¿ĥ":11746,"Ġæ¸¸":11747,"åº¦çļĦ":11748,"åĮĸæĪĲ":11749,"ä¹±ä¸ĥåħ«ç³Ł":11750,"æ²īç¨³":11751,"åĳ¼åĳ¼":11752,"Ġæģ°":11753,"ĠçľŁçļĦæĺ¯":11754,"æľªåħį":11755,"æķĳäºĨ":11756,"èĲ¥å¸Ĳ":11757,"è¿ĲåĬ¨":11758,"æı¡ä½ı":11759,"æ´Ľæ»¨":11760,"çĽĳè§Ĩ":11761,"è¿ŁéĽª":11762,"Ġåħ¬åŃĲçĳĿ":11763,"çļĦç¡®æĺ¯":11764,"ĠåĦ¿":11765,"çļĦæľĢ":11766,"çļĦå¼ŁåŃĲ":11767,"äººå½¢":11768,"å¤§ä¼Ļ":11769,"æ²¡æŃ»":11770,"äºĨä¸Ģå¤§":11771,"å¼Ģæĭĵ":11772,"èĢģé¼ł":11773,"æĥħæĦ¿":11774,"åķ¼":11775,"åıªè§ī":11776,"èĪª":11777,"å°Ĩä»ĸä»¬":11778,"Ġæĺ¯åĲ¦":11779,"éŃĶé¬¼":11780,"Ġ.âĢľ":11781,"çĻ¾åĲį":11782,"å¤ªä¹Ļ":11783,"Ġçľĭå¾Ĺ":11784,"è·ŁæĪĳä»¬":11785,"éĿŀéĿŀ":11786,"åĩ»æĿĢ":11787,"æĢ¥ä¿ĥ":11788,"åħ«ä¸ª":11789,"æµģä¼ł":11790,"åĨ²çĿĢ":11791,"è¿ĻäºĽä¸ľè¥¿":11792,"ç¡®è®¤":11793,"ä¹¦çĶŁ":11794,"åĹħ":11795,"ĠåĹ¨":11796,"éĽ¨æ°´":11797,"å¥¥å¸ĥèİ±æģ©å¸ĿåĽ½":11798,"æłĳæľ¨":11799,"è°Īè®º":11800,"Ġç»Ļä½ł":11801,"åĢŁåĬ©":11802,"ä½įéĿ¢æĪĺåľº":11803,"ç¼łç»ķ":11804,"Ġå¥ĩæĢª":11805,"ĠåĴ¬çīĻ":11806,"è¯ŀçĶŁ":11807,"Ġäºļ":11808,"çļĦè½¦":11809,"ä¸Ĭåĵģ":11810,"Ġ!âĢľ":11811,"åŃĲåĲ¯":11812,"æ¯Ĳ":11813,"å¾Īé«ĺ":11814,"ä»İåīį":11815,"èĥ¤":11816,"å·²ç»ıåľ¨":11817,"è¾¹å¢ĥ":11818,"ĠåĪ·":11819,"ĠæĪĳä»¬çİ°åľ¨":11820,"æľīäºĽå¥ĩæĢª":11821,"æĶ¾äºĨ":11822,"å®Įç¾İ":11823,"é¦¨":11824,"Ġçº¯":11825,"æĹ©æľī":11826,"Ġä¾¿éģĵ":11827,"Ġå§ĵ":11828,"èĻļå¼±":11829,"Ġä¸ĭæ¬¡":11830,"ĠéŃĶåħ½":11831,"Ġè®¸éľĩ":11832,"èŀĤ":11833,"åĩ¶çĭł":11834,"èĢĢçľ¼":11835,"åĺ¿åĺ¿ä¸Ģç¬ĳ":11836,"åŁĭä¼ı":11837,"èĦĸåŃĲä¸Ĭ":11838,"ĠèĲ¨æ´ĽèĴĻ":11839,"æĿŃå·ŀ":11840,"ªæ¯Ĳ":11841,"äººæķ°":11842,"ä¸ĭé©¬":11843,"ä¿º":11844,"å¯¹ä»ĸä»¬":11845,"æīĵè¿ĩ":11846,"åīĳæľ¯":11847,"æĥĬéĨĴ":11848,"ä¼¼åľ°":11849,"åŃĹåı·":11850,"æ¡Ģ":11851,"åĿĲä¸ĭæĿ¥":11852,"ĠåĨįä¹Ł":11853,"æł¼æ¸©":11854,"å®¢åį¿":11855,"åģľæŃ¢":11856,"å¯¼èĩ´":11857,"Ġçŀª":11858,"Ġç¬¬ä¸īæĽ´":11859,"æıĴæīĭ":11860,"æ³¥åľŁ":11861,"Ġç¢§":11862,"ãĢį":11863,"ä¹³":11864,"æĿ¥çĿĢ":11865,"å¤§åĸĿ":11866,"å¤§åĸĿä¸Ģå£°":11867,"å¤©éĻħ":11868,"åĴĶ":11869,"èº«æ³ķ":11870,"æ¸º":11871,"åĴĮæŀĹéĽ·":11872,"æĹłæĥħ":11873,"å¹´å¤ľ":11874,"è°Ĭ":11875,"ĠåĲ¾":11876,"ĠæĿĳ":11877,"çŃīäººçļĦ":11878,"çļĦäººå½±":11879,"åĨ²åİ»":11880,"åĩĨç¡®":11881,"å¿įçĿĢ":11882,"å®¢æłĪ":11883,"Ġé»ĳçĻ½":11884,"Ġéĺ¿æŀĹåĵ¥":11885,"èģĶåĨĽ":11886,"å¾ĹåĪ°çļĦ":11887,"æĤ²ä¼¤":11888,"è¯»ä¹¦":11889,"éĢĴç»Ļ":11890,"ĠæĶ»åĩ»":11891,"èļĤèļģ":11892,"Ġä¹Ĳ":11893,"è¿Ļåĩłä¸ª":11894,"Ġåı°":11895,"æĪĳå·²ç»ı":11896,"èĥ½åľ¨":11897,"å¿ĥäºĭ":11898,"æ¸Ķ":11899,"åĲİæĸ¹":11900,"æĥ³æĿ¥":11901,"Ġ......âĢľ":11902,"åıĳæ³Ħ":11903,"çİ°åľº":11904,"å±±æŀĹ":11905,"ä½ĵåĬĽ":11906,"é¾Ļéĺ³":11907,"é¾Ļèĳµ":11908,"é£ŀæĿ¥":11909,"åĪļèĲ½":11910,"ä¿¡æģ¯":11911,"åĬłèµ·æĿ¥":11912,"åĨ²åĨ²":11913,"ä¹±äºĨ":11914,"èĭ¦ç¬ĳçĿĢ":11915,"çĬ¬":11916,"éļıèº«":11917,"æľīä¸ĢçĤ¹":11918,"çĪ¶åŃĲ":11919,"äº®äºĨ":11920,"å®Ĺä¸»":11921,"åıĸäºĨ":11922,"åĪºèĢ³":11923,"å®Īå¤ĩ":11924,"çļ±èµ·":11925,"Ġéĺ¿å¾·éĩĳæĸ¯":11926,"Ġåįģä¸ī":11927,"çļĦèº«èº¯":11928,"è¿·ç³Ĭ":11929,"åĸĦèī¯":11930,"åĲ¦è®¤":11931,"Ġéĩįæĸ°":11932,"æĶ¿æ²»":11933,"çļĦåľ°ä½į":11934,"ĠæıĴ":11935,"æĹłå£°æĹł":11936,"ç®ĢçĽ´å°±æĺ¯":11937,"Ġåı¸å¾Ĵç©º":11938,"çļĦæľ¬äºĭ":11939,"çļĦç¼ĺæķħ":11940,"ä¸ĬéĿ¢çļĦ":11941,"å¤§çº¦":11942,"çĿĢä½ł":11943,"çĿĢèĩªå·±çļĦ":11944,"ĠæĪĳåĲ¬è¯´":11945,"å°±å¾Ģ":11946,"æ²§":11947,"ä¸Ńåľ°":11948,"éĥ½ä¸įæĺ¯":11949,"å°ıçĻ½":11950,"èº«åľ¨":11951,"ä¸īæĿ°":11952,"éķ¿è¾Ī":11953,"éĩĳçªĿ":11954,"ĠæĪĳä»¬è¿ĺæĺ¯":11955,"å¼ŁåŃĲçļĦ":11956,"Ġè¯´ä¸įåĩº":11957,"å£«åŃĲ":11958,"æ®´":11959,"ç¨İ":11960,"Ġèĭį":11961,"æ¯ĴèĽĩ":11962,"æĶ»åĬ¿":11963,"çĨĦ":11964,"ç©¿è¿ĩ":11965,"éĨĴæĤŁ":11966,"Ġå®īå§Ĳå§Ĳ":11967,"éģ¿åħį":11968,"Ġæ¬§":11969,"å¦ĩäºº":11970,"æĺ¨å¤ľ":11971,"è¿ŀè¿ŀçĤ¹å¤´":11972,"å®īå¾·çĥĪç»´å¥ĩ":11973,"åµĮ":11974,"èĽ¤èŁĨ":11975,"ĠçļĨ":11976,"äºĨåķĬ":11977,"æīĴ":11978,"åľ°ä»İ":11979,"ä¹Łè·ŁçĿĢ":11980,"æŀ¢":11981,"åĩºä¹İ":11982,"Ġä½łä¸įä¼ļ":11983,"è®³":11984,"å¾ĹæĦıçļĦ":11985,"ä¹ĭè¾Ī":11986,"ä¸ºé¦ĸ":11987,"Ġä¸Ģè·¯ä¸Ĭ":11988,"æģķ":11989,"èĢģå¼Ł":11990,"å¾Īåı¯èĥ½":11991,"èĢĮè¡Į":11992,"å½ĵéĵº":11993,"çªĳ":11994,"Ġå¾Ħ":11995,"çĽ¸è²Į":11996,"è¡Ģèħ¥":11997,"ä¹Łä¸įå¥½":11998,"ç²¾æ°Ķ":11999,"åı¹äºĨä¸Ģå£°":12000,"å·®ä¸įå¤ļäºĨ":12001,"éº¦":12002,"åį«åħµ":12003,"éĵģéĿĴ":12004,"Ġè¿ĺæľīä¸Ģä¸ª":12005,"æ³¨è§Ĩ":12006,"Ġé«ĺä¸¹":12007,"åıªæľīä¸Ģä¸ª":12008,"Ġä¹ĸ":12009,"Ġæ¸©åĲŀæµ·":12010,"èĲ§å¤§å°ıå§Ĳ":12011,"ç«Ļåľ¨éĤ£éĩĮ":12012,"Ġä½łè¿Ļäºº":12013,"Ġç´¢æĢ§":12014,"Ġåįİå¥ķ":12015,"æĹħæ¸¸":12016,"åįĳéĦĻ":12017,"åĺŁåĽ":12018,"Ġçİīåħ°å¤§éĻĨ":12019,"åĪ°äºĨæŀģçĤ¹":12020,"Ġåħ´å¥ĭ":12021,"å¸ĥæĸ¯å®¶æĹı":12022,"çļĦåı¯æĢķ":12023,"ĠæĪĳä¸įæĥ³":12024,"å°±è¿ŀ":12025,"Ġä»ĸæĥ³":12026,"æĭ£":12027,"å¥½å¥½çļĦ":12028,"......âĢĿ":12029,"çŁ¥è¯Ĩ":12030,"å±±é¡¶":12031,"åĨįåİ»":12032,"å¤ªå¥½äºĨ":12033,"è¿ĺæĺ¯æľī":12034,"é£ŀäºĨ":12035,"æĸŃè£Ĥ":12036,"æ´»çļĦ":12037,"Ġä»¥ä¸º":12038,"ç»Łä¸Ģ":12039,"èµ¶åİ»":12040,"åĨ³æĪĺ":12041,"äºĮåįģå¤ļ":12042,"çĽĺé¾Ļ":12043,"Ġåĵªæľī":12044,"æĬķåħ¥":12045,"æĿĥåĬ¿":12046,"Ġæ±Ĺ":12047,"å±Ģéķ¿":12048,"ĠåĲĮæĹ¶ä¹Ł":12049,"Ġå¸ĪåıĶ":12050,"çĵ¶åŃĲ":12051,"æ¶Īå¤±åľ¨":12052,"æ¾İæ¹ĥ":12053,"èĻŀå§¬":12054,"åı¹æģ¯ä¸Ģåı£æ°Ķ":12055,"çļĦé»ĳèī²":12056,"ĠâĢĻãĢĤâĢĿ":12057,"ĠæĻ®æĸ¯ç½Ĺ":12058,"ĠèģĶ":12059,"Ġçĸ¯çĭĤ":12060,"Ġèİ½èįĴ":12061,"ä¸Ģä¸¾":12062,"ä¸Ģç¼ķ":12063,"Ġçĳ":12064,"è¿Ļä»½":12065,"ä½łä¸į":12066,"æĿ¥ä¸ª":12067,"ĠæĪĳå®¶":12068,"æĹ¶æĹ¥":12069,"æİĺ":12070,"çľ¼åĬĽ":12071,"Ġä¸Ģåı£":12072,"æĬĬæīĭ":12073,"éĹ®ä»ĸ":12074,"è½»èĢĮæĺĵä¸¾":12075,"éª¼":12076,"Ġå¦®":12077,"å¾®çļĦ":12078,"Ġåį´åıĳçİ°":12079,"ç§Ģå·Ŀ":12080,"åĨ²åĩº":12081,"æ¢§":12082,"ä¹Ŀå¤©":12083,"Ġä¸ºé¦ĸ":12084,"ç±»ä¼¼":12085,"Ġå±ł":12086,"èµ¶ä¸Ĭ":12087,"ä¸»ç¥ŀä½¿èĢħ":12088,"åĸĬçĿĢ":12089,"çļĦæīĭæİĮ":12090,"ç»ĥåĬŁ":12091,"æĿĥåĪ©":12092,"ä¸´æĹ¶":12093,"è¡Ĺéģĵ":12094,"Ġå¾®ç¬ĳéģĵ":12095,"èģĮä¸ļ":12096,"éĶģå¦ĸå¡Ķ":12097,"Ġè¶³ä»¥":12098,"å¥¶å¥¶":12099,"å¹²åĩĢåĩĢ":12100,"Ġæ³¢é¡¿":12101,"ĠåĴ¯åĴ¯":12102,"ä¸ĢåıĮ":12103,"ä¸Ģè¾Ĩ":12104,"ä¸Ģè¡Įäºº":12105,"Ġéŀ":12106,"ä»ĸåĴĮ":12107,"æĥł":12108,"å¾Ĺè¿ĩ":12109,"å¦Ĩ":12110,"å¿ĥæĥ³":12111,"ä»ĸä»¬éĥ½":12112,"ĠèĢĮä¸įæĺ¯":12113,"ĠèĢģå¤«":12114,"å¾Ģäºĭ":12115,"åı¤ä»£":12116,"åİŁæĿ¥çļĦ":12117,"æ²īæµ¸":12118,"æķ´çĲĨ":12119,"çľĭåĪ°çļĦ":12120,"æķĳåĳ½":12121,"æĳĨæĳĨæīĭ":12122,"æī¿æĭħ":12123,"éŁ«":12124,"ĠåĿ¦":12125,"åĩłåĪĨéĴŁ":12126,"é¹¿":12127,"ç¥Ńå±±èĦī":12128,"ĠéĻ¤æŃ¤":12129,"çŀ¥äºĨä¸Ģçľ¼":12130,"çļĦåı¯èĥ½":12131,"æľīåħ´è¶£":12132,"åŃŁ":12133,"è¦ģè¯´":12134,"çĤŃ":12135,"ç¬ĳèµ·æĿ¥":12136,"æ°Ķéģĵ":12137,"èĢģè¿ľ":12138,"é¢ĸ":12139,"å¤ĸåĽ´":12140,"è¿ľæĸ¹":12141,"çªĦ":12142,"åĨįä¸Ģæ¬¡":12143,"è¿Ļä¸ªä¸ĸçķĮ":12144,"çŃīåĢĻ":12145,"é»ĳå¾·æ£®":12146,"é¾ĻåĮĸ":12147,"çļĦäººäºĨ":12148,"éļ¾åħį":12149,"çļĦä¸Ģæł·":12150,"åĢĴæĺ¯ä¸į":12151,"ç¦»äºĨ":12152,"æĸĩä»¶":12153,"æł¹æīĭæĮĩ":12154,"èĸ°åĦ¿":12155,"è¿ĺæľīçĤ¹":12156,"æĮ¥äºĨ":12157,"åĲĽçİĭ":12158,"æ¢¦ä¸Ń":12159,"Ġé£ĺ":12160,"å¸Ĥæĭ³":12161,"Ġåıªè§ģä»ĸ":12162,"é¥ŃåºĹ":12163,"ĠæĢ»éķ¿":12164,"Ġè½¬çŀ¬":12165,"åª³å¦ĩ":12166,"çľĭåĲĳäºĨ":12167,"Ġä¿Ĺ":12168,"ĠæĪĳçŁ¥éģĵäºĨ":12169,"åĨ·åĨ·éģĵ":12170,"æ²Ļåıĳä¸Ĭ":12171,"ĠæķĮäºº":12172,"ĠçĽĳå¯Łåİħ":12173,"ĠçĪ·çĪ·":12174,"åľ°çĤ¹":12175,"åľ°å°Ĩ":12176,"Ġä¸Ģä½į":12177,"èĢĮéĻį":12178,"Ġå¤§ä¼Ļ":12179,"çªĴ":12180,"Ġå®«":12181,"å¤ªå¤§äºĨ":12182,"é¾Ļå°¾":12183,"éŁ³ä¹Ĳ":12184,"Ġç»ĥ":12185,"Ġå¥½åķĬ":12186,"èĬ±èĬ±":12187,"çĲĨè®º":12188,"åħĥå©´":12189,"è®¤çľŁçļĦ":12190,"***":12191,"è¯·æ±Ĥ":12192,"ĠåĬª":12193,"çĳ¾":12194,"ĠåŃŁ":12195,"Ġçī©":12196,"åĽŀåİ»åĲ§":12197,"Ġ),":12198,"Ġçĭ¼":12199,"èĭĹå¯¨":12200,"çĺ©":12201,"Ġè¶ĬæĿ¥è¶Ĭ":12202,"ĠåĲķå¤ªå²©":12203,"åĸĺæģ¯":12204,"ĠèĽ®":12205,"èĭ¥æĹłåħ¶":12206,"Ġèī¯ä¹ħ":12207,"ä¸Ģè·ĥ":12208,"åħĳ":12209,"éģĵéŁ«":12210,"ä¸Ĭä¸ĩ":12211,"å¤§èħ¿":12212,"åĪ°éĤ£":12213,"å¤©åīĳ":12214,"çľĭæ³ķ":12215,"å¾Ĺä¸į":12216,"å°ıåŃ©":12217,"éĽ·æ´ª":12218,"ç¥Ī":12219,"åĴĮå¹³":12220,"ä¾¥":12221,"äºĨä¸Ģæ¬¡":12222,"æĹłèµĸ":12223,"éĻ¨":12224,"è¢«å¥¹":12225,"äºİæ¸ħéĽħ":12226,"çĻ½èī²çļĦ":12227,"è¡Įä¸º":12228,"åĥļ":12229,"å¸ĪéĹ¨":12230,"åħµå£«":12231,"Ġå¥½è±¡":12232,"åĢĴä¸ĭ":12233,"æŃ¦æŀĹ":12234,"è¡£è¢ĸ":12235,"åıĮæİĮ":12236,"èĸª":12237,"è¿Ļç§įäºº":12238,"èįīä¸Ľ":12239,"èĥ¡èĲĿåįľ":12240,"æĬ±ä½ıäºĨ":12241,"ä¹°åįĸ":12242,"å£ģä¸Ĭ":12243,"çº¯æ´ģ":12244,"Ġ**,":12245,"æĺ¨æĻļ":12246,"é©»æīİ":12247,"Ġé»ĳæļĹéĩįçĶŁ":12248,"åį§å®¤":12249,"Ġæ³ªçıł":12250,"çļĦçŁ³":12251,"æľīçĿĢä¸Ģ":12252,"ä¸ªåĦ¿":12253,"Ġ!)":12254,"åĪ°èĩªå·±":12255,"Ġä»ĸæ²¡æľī":12256,"èĩªå®¶":12257,"çİ°å®ŀ":12258,"æĬĬè¿Ļä¸ª":12259,"Ġè¯¡":12260,"èµ°è¿ĽäºĨ":12261,"æ¯ĶæŃ¦":12262,"çģµèĥ½":12263,"åĲĮæĥħ":12264,"Ġçľĭä½ł":12265,"æĹ¥æľ¬":12266,"å¦ĸä»Ļ":12267,"æ¼¾":12268,"æĹ©çĤ¹":12269,"å¸®ä¸»":12270,"Ġåıªæĺ¯ä»ĸ":12271,"åİŁåħĪ":12272,"èĭ¥åįİ":12273,"Ġä»İæŃ¤":12274,"ĠèĦ±":12275,"å¼Ĥæł·":12276,"å°½å¿«":12277,"éĤ£ä¹Īå¤§":12278,"è§Ĵèī²":12279,"ĠåĲ¬çĿĢ":12280,"çļ±èµ·äºĨçľīå¤´":12281,"ĠåıĮçľ¼":12282,"Ġç«ĭåĪ»å°±":12283,"Ġå²ģ":12284,"éĢĶä¸Ń":12285,"ĠéĥŃ":12286,"èĽŁé¾Ļ":12287,"æĴ¤éĢĢ":12288,"ĠçĲĨ":12289,"çļĦèĥ½åĬĽ":12290,"ä¸Ģå¥Ĺ":12291,"æĺ¯äºº":12292,"å¤§éģĵ":12293,"æĥļ":12294,"Ġè¿Ļäºĭæĥħ":12295,"æ²¡çĶ¨":12296,"å°ıåĩ¡":12297,"æīĭä¸ĭçļĦ":12298,"Ġä¸įåģľ":12299,"Ġä¸ĢæŃ¥":12300,"æģĴ":12301,"è¯ĿäºĨ":12302,"Ġåıªåı¯æĥľ":12303,"Ġä½Ĩçİ°åľ¨":12304,"æŃ£éģĵ":12305,"è¿ĽéĹ¨":12306,"åĲĳåĲİ":12307,"è½»åĬŁ":12308,"éª°":12309,"Ġåľ¨ä»ĸä»¬":12310,"æ°´éĩĮ":12311,"çĽ¸è§ģ":12312,"çĸĻ":12313,"ä½ķå¤Ħ":12314,"éĥ¨ä½į":12315,"åĮĸåĬ²":12316,"æµ·äº®":12317,"åħ½çļ®":12318,"åĳ¼éģĵ":12319,"æķĻå¯¼":12320,"Ġé¡¶":12321,"èĥĮåıĽ":12322,"åĩĨäºĨ":12323,"Ġè¿ĻäºĽéĥ½æĺ¯":12324,"åŀĭçļĦ":12325,"é©¬ä¸Ĭå°±":12326,"åĩĮèĻļè§Ĥ":12327,"Ġä½ķå¿ħ":12328,"å·«èĽĬ":12329,"å¦Īå¦Ī":12330,"Ġå®¶éĩĮ":12331,"ç²®èįī":12332,"çĽ¸å½ĵäºİ":12333,"çģ¾éļ¾":12334,"çļĦè¡£æľį":12335,"çļĦåįĬåħ½äºº":12336,"æľīäºĨä¸Ģä¸Ŀ":12337,"åľ¨èº«ä¸Ĭ":12338,"Ġä¸įåĥı":12339,"ĠéĤ£ä¹Łæĺ¯":12340,"åĨĽåĬ¡":12341,"çĶ¨æĦı":12342,"å½ĵå¹´çļĦ":12343,"Ġåľ¨åľº":12344,"Ġæĺ¯ä»¥":12345,"æľĢåĸľæ¬¢":12346,"Ġçľĭä¼¼":12347,"ä¹Łä¸įåı¯èĥ½":12348,"Ġè®²":12349,"åįĬå¹´":12350,"Ġæ²¡çŃī":12351,"å©ª":12352,"åĵįå½»":12353,"ä»¤çīĮ":12354,"Ġçľ¼åīįçļĦ":12355,"Ġè¿Ļæĺ¯ä¸Ģä¸ª":12356,"åİĭæł¹":12357,"ä¸½å¨ľ":12358,"é»ĺæĸ¯":12359,"åıĤè°ĭ":12360,"éĽķåĥı":12361,"çľ¼ä¸ŃéĹªè¿ĩä¸Ģä¸Ŀ":12362,"çĿģçĿģ":12363,"æ·ĭæ¼ĵ":12364,"ĠçĬ¹è±«":12365,"ä½İä¸ĭå¤´åİ»":12366,"æĲºå¸¦":12367,"10":12368,"æĺ¯å¤©":12369,"ä¸įåģĩ":12370,"åĩºä¸ª":12371,"éĽ·éľĩå²³":12372,"Ġä¸įæĹ¶":12373,"åı¯å¨ĩ":12374,"æĥ³éģĵ":12375,"æ¸ħæ°´":12376,"æ²¡æľīä¸Ģä¸Ŀ":12377,"èĤĭ":12378,"å±±éķĩ":12379,"æĪĺåĪĢ":12380,"æ¶ķ":12381,"çŃīä½ł":12382,"Ġæĸ©":12383,"çİĭå°ıèĻİ":12384,"Ġä»ĸä»¬ä¹Ł":12385,"ĠåĤħæ¸ħæī¬çļĦ":12386,"å®«ä¸Ń":12387,"ç´§æİ¥çĿĢ":12388,"Ġå¿ĥåºķ":12389,"éĢįéģ¥åŃĲ":12390,"ç¤¼è²Į":12391,"äºīåıĸ":12392,"éĵ¶è¡Į":12393,"å°ģä¿¡":12394,"çĶ»éĿ¢":12395,"æĿĥåĬĽ":12396,"ĠæŁ³æ¢¦çĴĥ":12397,"Ġæ²īé»ĺ":12398,"æĮĩæĮ¥å®ĺ":12399,"Ġæĺ¥èĭ¥åħ°":12400,"ĠéĻĨå±±":12401,"Ġæ¥¼":12402,"Ġæĭ¥æľī":12403,"èİ±éĹ¨å»·":12404,"Ġæ¯ģçģŃ":12405,"çĻ¾åĪĨä¹ĭ":12406,"ä¸įæĢİä¹Ī":12407,"ĠèĶ":12408,"æľīä½ķ":12409,"Ġä¸Ģé¢Ĺ":12410,"æĪĲä¸¤":12411,"Ġä½Ĩä¹Ł":12412,"è¿Ľéĺ¶":12413,"ä¸ľå°¼":12414,"è¿ŀä¸²":12415,"çļĦäººç¾¤":12416,"éĺµèĲ¥":12417,"å¸¦ä¸Ĭ":12418,"çĹĩ":12419,"æŃ¦åŃ¦":12420,"Ġåıªæĺ¯åĽłä¸º":12421,"éĤ£ä¸ªäºº":12422,"çĶ·äººçļĦ":12423,"æĭįçĿĢ":12424,"ĠéŃĤ":12425,"Ġçİīéľľ":12426,"æĮ¡ä½ıäºĨ":12427,"Ġå¥¥å¤«":12428,"åħ·ä½ĵ":12429,"çģ¯çģ«":12430,"è±ªåįİ":12431,"æĦ§æĺ¯":12432,"ĠæĪĺæĸĹ":12433,"å®¿èĪį":12434,"åįļçī©é¦Ĩ":12435,"çĸĻçĺ©":12436,"çļĦä¸įæĺ¯":12437,"ĠãĢĳ":12438,"å¤§åıĶ":12439,"æĥ´":12440,"å¤©äºĨ":12441,"èº«é«ĺ":12442,"åı¯æ¯Ķ":12443,"æŀĹå§Ĺå§Ĺ":12444,"æĺİäº®":12445,"æĺİè¾ī":12446,"ä½ıå¤Ħ":12447,"åıĪå¦Ĥä½ķ":12448,"éĹ®äºĨä¸Ģåı¥":12449,"ĠåĪĿ":12450,"ĠèĢĮåľ¨":12451,"Ġçľĭä»ĸ":12452,"é»ĳçŁ³":12453,"å¸¦èµ°":12454,"é£ŀå¿«":12455,"åĢĴåľ¨åľ°ä¸Ĭ":12456,"æľĪå±±":12457,"èĽĽ":12458,"åıĹåĪ°äºĨ":12459,"åĸĿçĿĢ":12460,"Ġè®©çĤ¯":12461,"å·¥åħ·":12462,"æ£®æ£®":12463,"æģ©æĸ¯çī¹":12464,"Ġæł¼":12465,"æ±Łå±±":12466,"åĪ°åºķæĺ¯ä»Ģä¹Ī":12467,"èĲ§çİīèĭ¥":12468,"æĹĹåĨĽ":12469,"Ġåĵ¼åĵ¼":12470,"è¢ŃæĿ¥":12471,"æĿĳåŃĲ":12472,"éĹŃåħ³":12473,"çĽĳçĭ±":12474,"è¯¸å¤ļ":12475,"éªĩçĦ¶":12476,"æ±ĩæĬ¥":12477,"ç¦ĢæĬ¥":12478,"ĠåĲīå°Ķé»ĺ":12479,"ä¾¥å¹¸":12480,"çļĦåķĬ":12481,"ä¸Ģå¯¹":12482,"è¿Ļçīĩ":12483,"ĠæĪĳæľįäºĨ":12484,"æĪĳæĥ³":12485,"Ġä»ĸä»İ":12486,"ä¼ļé¦Ĩ":12487,"åı¯çľŁ":12488,"æĥ³è¯´":12489,"Ġåį±":12490,"Ġå°±åĥıæĺ¯":12491,"æĢķæĺ¯":12492,"Ġè¯´æĺ¯":12493,"å¿Ļç¢Į":12494,"è¿Ļæł·çļĦäºº":12495,"å¹²å¹²åĩĢåĩĢ":12496,"å½¢çĬ¶":12497,"æĦŁè§īåĪ°äºĨ":12498,"Ġä¸¤åĲį":12499,"æķ£å¼Ģ":12500,"ĠæĤł":12501,"æķĮäººçļĦ":12502,"é¡¾å¿Į":12503,"å°ıéĽ·ä¸Ģçľ¼":12504,"å¥¥ä¸ģ":12505,"æ¸ħæ¥ļçļĦ":12506,"åĲĽåŃĲ":12507,"äºīå¤º":12508,"Ġä¹°":12509,"çĽĺæĹĭ":12510,"å°ģéĶģ":12511,"ĠçīĽ":12512,"Ġåĩºçİ°":12513,"Ġä½łæĺ¯è¯´":12514,"æŀ¶åŃĲ":12515,"èĵĿèī²":12516,"èİ«æµĭ":12517,"Ġèµµä¾ĥ":12518,"çĶ°å®¶":12519,"æ®ĭéħ·":12520,"åħįè´¹":12521,"ä¿Ĭä¹ī":12522,"Ġæķ°åįģ":12523,"ĠçºµçĦ¶æĺ¯":12524,"åĵĹåķ¦":12525,"ĠæķħèĢĮ":12526,"ĠæĿİå¿Ĩå¦Ĥéģĵ":12527,"æ¢µèĴĤåĨ":12528,"»âĢ»âĢ»":12529,"ĳå¡Ķ":12530,"ä¸ªåŃĲ":12531,"å¤§å°Ĩ":12532,"Ġä½łä¸ºä»Ģä¹Ī":12533,"çİħ":12534,"éĤ£æĹ¶åĢĻ":12535,"è½¨":12536,"å¯¹æĬĹ":12537,"å¼Ģçľ¼":12538,"ĠâĢ»âĢ»âĢ»":12539,"å±±ä¸Ń":12540,"æīĵæŃ»":12541,"Ġä¹Łåı¯ä»¥":12542,"ä¸»æķĻ":12543,"å¸ĪåħĦå¼Ł":12544,"å¤ªå¤ª":12545,"ä»ĸçļĦèº«ä½ĵ":12546,"æŀģé«ĺ":12547,"å¼łåĨ°":12548,"é¢ĨåŁŁ":12549,"è¡¨éĿ¢ä¸Ĭ":12550,"ç²¾åįİ":12551,"è¿Ļä¸Ģåīĳ":12552,"ä¿ĿçķĻ":12553,"çľīå¿ĥ":12554,"çĭĤå¥Ķ":12555,"ä¸½çļĦ":12556,"éĿłåľ¨":12557,"Ġå·²ç»ıæĺ¯":12558,"åĵŃæ³£":12559,"Ġè¶ħ":12560,"éĴ»çŁ³":12561,"Ġåħ¶ä¸Ńä¸Ģä¸ª":12562,"æµĵéĥģ":12563,"Ġå·¦å®¶ä¿Ĭ":12564,"æŁ¯å®ĭ":12565,"ĠæĢĴéģĵ":12566,"Ġä¹ĭé¢Ĩ":12567,"ĠåĴĶåļĵ":12568,"æľīåĬĽ":12569,"Ġä½łæķ¢":12570,"Ġä»ĸèĥ½":12571,"Ġä»ĸåıª":12572,"èµ·ä¹ī":12573,"çĤ½":12574,"ĠæŀĹå§Ĺå§Ĺ":12575,"ä¸īåı£":12576,"å¦ĤçĶµ":12577,"Ġåħ·":12578,"åħĪåīį":12579,"èĲ½äºĨ":12580,"ĠåĤħæ¸ħæī¬å¯¹":12581,"å¿ĻçĿĢ":12582,"Ġè¦ģä¹Ī":12583,"ç²¾åĬĽ":12584,"éļıåı£":12585,"æ¯ĴèĻ«":12586,"ç½Ĺæ±ī":12587,"Ġéļ¾å¾Ĺ":12588,"åĩºä¸Ģéĺµ":12589,"éĺ´åĨ·":12590,"ç£ģ":12591,"Ġåį³ä¾¿æĺ¯":12592,"ç¨³ç¨³":12593,"éĩįè¦ģçļĦæĺ¯":12594,"Ġèĥ¡äºº":12595,"åĽŀçŃĶéģĵ":12596,"åħīæĺİä¸»å®°":12597,"ĠåĲ¬åĪ°åı¶å¤©":12598,"Ġçŀ§":12599,"Ġç¬¬ä¸īåį·":12600,"çĨĬçĨĬ":12601,"èµ¤å²©":12602,"çªĹå¤ĸ":12603,"æĪĺåľºä¸Ĭ":12604,"å¯Ĥå¯ŀ":12605,"Ġæ¶²":12606,"ĠæĬ±æŃī":12607,"ĠæĹ¢çĦ¶æĺ¯":12608,"Ġæį®è¯´":12609,"Ġçİĭèĵ¬çµ®éģĵ":12610,"ĠçĨĬ":12611,"è¨Ģä¸įåıĳ":12612,"ĠåĲĵå¾Ĺ":12613,"Ġ0":12614,"ĠãĢĤâĢĶâĢĶ":12615,"ä¸Ĭåįĥ":12616,"å¤§éķ¿èĢģ":12617,"ä¹ŁæľīçĤ¹":12618,"Ġä½łæĪĳ":12619,"Ġå°ī":12620,"çİ«çĳ°":12621,"ç¥ģè¿ŀ":12622,"ç§ī":12623,"ä»Ģä¹Īåľ°æĸ¹":12624,"äºĨä¸Ģçīĩ":12625,"æĸ¹éķĩæ±Ł":12626,"æ´±":12627,"åķĥ":12628,"ĠæĺĶ":12629,"æĬĬæĪĳä»¬":12630,"çĻ½å¤©":12631,"åıĪæĥĬåıĪ":12632,"æĪĺèĥľ":12633,"Ġåį´ä¸į":12634,"é¾Ļçİĭ":12635,"éĢļå¾Ģ":12636,"çĮ©":12637,"çº¢å£¶":12638,"èĬ±åīĳåĨ°":12639,"ç¿ģ":12640,"çļĩæĹı":12641,"ä¸ĸå®¶":12642,"è®¤åĩº":12643,"åıįåĩ»":12644,"æĺ¾éľ²":12645,"ç©¿æ¢Ń":12646,"Ġåĩłäºº":12647,"åıĸèĥľ":12648,"ä¿®çĤ¼åĪ°":12649,"Ġé©¬è½¦":12650,"Ġåīįæĸ¹":12651,"åĨĽéĺŁçļĦ":12652,"åī©ä¸ĭçļĦ":12653,"åĨ¥çķĮ":12654,"ç¬¬äºĮä¸ª":12655,"éĵľé¼İ":12656,"çĮªå¤´":12657,"ĠéŁ©ä¸īå¼º":12658,"æĲľç´¢":12659,"Ġä¸ľæĸ¹çİī":12660,"Ġä¹Įæ£®è¯º":12661,"å¥½æ±īä»¬":12662,"Ġè¸ı":12663,"ä»²":12664,"å¾Į":12665,"åľ°çĽĺ":12666,"Ġè¿ĻåĽŀ":12667,"Ġè¿ĻåĢĴ":12668,"åĩºåĬ¨":12669,"è¦ģæĿĢ":12670,"ä¹ĭæĪĴ":12671,"ä¸īåĽĽ":12672,"Ġå°±ä»¿ä½Ľ":12673,"å¾Īå¼º":12674,"åĩłåįĥ":12675,"èĩªå·±ä¹Ł":12676,"æ²¡æľīä¸Ŀæ¯«":12677,"åĦ¿çļĦ":12678,"ĠåľĪ":12679,"ĠæŀĹéĽ·å¤§äºº":12680,"éĶµ":12681,"Ġå°ıå¼Ł":12682,"å½ĵçĦ¶æĺ¯":12683,"èį£å¹¸":12684,"Ġè¿ĺå¥½":12685,"åĨįæĹł":12686,"çĽ¸åıį":12687,"åĲĮéĹ¨":12688,"åĵ¥ç±³":12689,"è½¬ä¸ĸ":12690,"åĲĥè¿ĩ":12691,"ä¸ĥæĺŁ":12692,"æµģæ°ĵ":12693,"Ġè¦ģæĥ³":12694,"éĽªé¾Ļå±±":12695,"åľ£éªĳå£«":12696,"ç»ĨçļĦ":12697,"åģľçķĻ":12698,"é¦ĸåħĪ":12699,"è¿½ç©¶":12700,"æĳ¸çĿĢ":12701,"æĥ¨åļİ":12702,"Ġæĺİæĺ¾":12703,"éĩİåħ½":12704,"éĤ£ä¸ĢåĪ»":12705,"åįģåĪĨçļĦ":12706,"æ¯ģæİī":12707,"è¾īçħĮ":12708,"ç¨Ģå¥ĩ":12709,"è¿ħéĢŁçļĦ":12710,"Ġåħ³éĶ®":12711,"è¯¡å¼ĤçļĦ":12712,"Ġåİīéļıé£İ":12713,"Ġèĭıåªļ":12714,"Ġç®¡åħ¬æĺİ":12715,"ĠæĢªä¸įå¾Ĺ":12716,"Ġç¬¬åħ«çĻ¾":12717,"Ġå¨ĺäº²":12718,"çļĦäº²":12719,"äºĨåı¥":12720,"äººå¤´":12721,"åľ¨åĵª":12722,"åľ°äºĨ":12723,"åľ°æľĿ":12724,"ä¸Ĭé£İ":12725,"å¤§å¨ĺ":12726,"å°±åĴĮ":12727,"å°±ä»İ":12728,"ä¸ĭäºº":12729,"è¿ĺåı¯ä»¥":12730,"äºĨä¸Ģåľº":12731,"äºĨä¸Ģä»¶":12732,"èĢģçīĽ":12733,"æŃ»ä¸į":12734,"è¶ĭ":12735,"Ġåį´æ²¡":12736,"æī¾äºº":12737,"å®īçĦ¶":12738,"ĠâĢĻâĢĺ":12739,"å¹³åĴĮ":12740,"å®ģéĿĻ":12741,"å¦ĸå¥³":12742,"Ġå¤©ç©º":12743,"éŃĤé£ŀéŃĦæķ£":12744,"ĠæīĢä»¥æīį":12745,"Ġä¸¤åıª":12746,"Ġå¾Īæĺ¯":12747,"åĹĶ":12748,"å¿įåıĹ":12749,"èµ¶å¿Ļ":12750,"å·¥èµĦ":12751,"åı¸æľº":12752,"Ġæ¸©æŁĶ":12753,"èĲ§å¤«äºº":12754,"Ġé¡¿äºĨé¡¿":12755,"å»ºæĸ°":12756,"Ġè¿Ļä¹Īè¯´":12757,"å¤©åľ°éĹ´":12758,"çĿģå¤§äºĨçľ¼çĿĽ":12759,"åħ¨èº«çļĦ":12760,"æĭĶåĩº":12761,"èĿĩ":12762,"ĠåįĬæĻĮ":12763,"å°Ŀè¯ķ":12764,"ä»Ĩä»İ":12765,"ĠèĻ½è¯´":12766,"Ġèĭ¦ç¬ĳéģĵ":12767,"å¤©èµĭç¥ŀéĢļ":12768,"ç£ķå¤´":12769,"Ġä¼´éļıçĿĢ":12770,"½åĴ½":12771,"çļĦæīĵ":12772,"ä¸Ģä»£":12773,"åľ¨ä¸Ģä¸ª":12774,"ĠæĪĳè§ģ":12775,"ĠæĪĳä¸įèĥ½":12776,"å°±å¼Ģå§ĭ":12777,"åīĮ":12778,"å¿ĥéģĵ":12779,"çľ¼çľ¶":12780,"åıĳæĬĸ":12781,"éķ¿åķ¸":12782,"åĽŀæĬ¥":12783,"ä½ıçļĦ":12784,"åıĪä¸įæĺ¯":12785,"åĲ¬ä¸įæĩĤ":12786,"çĥĻ":12787,"Ġè¿ĺæ²¡æľī":12788,"ä½ĵä¼ļ":12789,"åı¶ä¸įç¾¤":12790,"åĪ«è¯´":12791,"ĠåĨĻ":12792,"ä¿¡çī©":12793,"æĹ¥åĲİ":12794,"çº¢èı±æĻ¶éĴ»":12795,"çļĦä¸Ģå¹ķ":12796,"åĮĸäºĨ":12797,"è¡¨è¾¾":12798,"æļĹåĬ²":12799,"è¶³è¶³æľī":12800,"æĭ¿ä¸ĭ":12801,"å·´åħĭ":12802,"åĲ¸äºĨåı£æ°Ķ":12803,"Ġè°ģä¹Ł":12804,"è¿½åĩ»":12805,"ç¿»èº«":12806,"Ġåħ¬åŃĻæ¢¦çĳ¶":12807,"æŁĲä¸ª":12808,"ç§ģäºº":12809,"è¡ĮçľģçļĦ":12810,"Ġç¢°":12811,"ä¸¹åĬ²æľŁæŃ¦èĢħ":12812,"æĤļçĦ¶":12813,"çļĦèį¯":12814,"ĠæĪĳä¸Ģ":12815,"Ġä½łåºĶè¯¥":12816,"èĩªè¡Į":12817,"èĩªè§ī":12818,"æ°Ķè¡Ģ":12819,"ä¸¤ä¸ĭ":12820,"çĶŁæĢķ":12821,"æ´¥":12822,"å·²ç»ıå¾Ī":12823,"å¨±":12824,"Ġåı¶å°ĳ":12825,"åħ«å¤§å®¶æĹı":12826,"ç¾İéĩĳ":12827,"åĳ¼åĶ¤":12828,"å°½åľ¨":12829,"å°½åħ¨åĬĽ":12830,"éĤ£ä¹Īç®Ģåįķ":12831,"ä¸įå¾Ĺå·²":12832,"ĠçŃīä»ĸ":12833,"ĠåĪ«çľĭ":12834,"æ¥¼ä¸ĭ":12835,"è´¥äºĨ":12836,"çİĦå¦Ļ":12837,"åĿļéŁ§":12838,"æīĳéĿ¢":12839,"Ġå§ļåĲĽæŃ¦":12840,"çŁ¿æ´ŀ":12841,"åįıè®®":12842,"Ġp":12843,"Ġä¿®ä¸º":12844,"ģä¸ĭ":12845,"çļĦå·¨":12846,"æĺ¯çĶ¨":12847,"äººèĥ½":12848,"åįĵ":12849,"æłĹ":12850,"Ġä»ĸåľ°":12851,"Ġä»ĸå½ĵçĦ¶":12852,"éĤ£éĿ¢":12853,"å£°è¯´":12854,"èĦĬ":12855,"æĥ³èĢĮçŁ¥":12856,"å¤ļæĥ³":12857,"Ġä¸Ģåº§":12858,"ĠæľĹ":12859,"å¾Īå¥ĩæĢª":12860,"åıĳä½ľ":12861,"æ³ķçļĦ":12862,"Ġåı¯è¿Ļ":12863,"Ġåıªè§ī":12864,"çľŁé¾Ļ":12865,"å°±æĺ¯ä¸ª":12866,"æ°´æ½Ń":12867,"éĴ©":12868,"ä¸ĩå²ģ":12869,"çģ«æĬĬ":12870,"çģ«çĥŃ":12871,"èĲ½åħ¥":12872,"å¼łåı£":12873,"ĠæŃ£èī²éģĵ":12874,"åħŃç«ł":12875,"å½¢è±¡":12876,"æľīä¸ĢèĤ¡":12877,"è·ĳæĿ¥":12878,"å³Ļ":12879,"å«¡":12880,"å¥¥åĬłæĸĩ":12881,"è¿ĲçĶ¨":12882,"çĪĨè£Ĥ":12883,"ä¸īä¸ªæľĪ":12884,"Ġè·ŁæĪĳ":12885,"ä¼łæĿ¥ä¸Ģéĺµ":12886,"çĽĽä¼ļ":12887,"èµŀåĲĮ":12888,"Ġä¸Ģå®ļä¼ļ":12889,"æīĭä¸ĢæĮ¥":12890,"ĠéŁ©å¥ķ":12891,"ä»Ĩäºº":12892,"æŃĩæģ¯":12893,"è¶ģæľº":12894,"éĹªçĶµèĪ¬":12895,"éŀłèº¬":12896,"åľ¨åīį":12897,"åľ¨ä¸Ģè¾¹":12898,"å¤§ä»Ļ":12899,"Ġè¿Ļä¸ĢçĤ¹":12900,"åĩºå¤´":12901,"è¦ģèµ°":12902,"æ²¡æ³ķ":12903,"å¯¹å¾ħ":12904,"å§»":12905,"Ġä¸Ģå¤©":12906,"æµĬ":12907,"Ġå°±æĬĬ":12908,"Ġåı¯å°±":12909,"å±±çİĭ":12910,"Ġä½ĨéĤ£":12911,"è¿Ľåİ»äºĨ":12912,"Ġè¿ĺä¸įæĺ¯":12913,"é©Ń":12914,"ĠèĩŃ":12915,"è½¬çľ¼":12916,"åİŁçŁ³":12917,"Ġéĩİ":12918,"å°½åĬĽ":12919,"æĿİé¾Ļå®Ŀ":12920,"æĮ¥æĮ¥æīĭ":12921,"Ġå§ĭ":12922,"å±ĢåĬ¿":12923,"å¤§å®¶éĥ½":12924,"çĶ°çıĤåĦ¿":12925,"çĪ¹çĪ¹":12926,"éĢ¼è¿ĳ":12927,"åıĽå¾Ĵ":12928,"åı¤æĢªçļĦ":12929,"çŃ¹çłģ":12930,"ıéķ¿æ¥ļ":12931,"ĠæĪ¿éĹ´":12932,"çĭĦæĸ¯å¡Ķ":12933,"¹æĸ°":12934,"çļĤ":12935,"çļĦåĩłä¸ª":12936,"ä¸įçĲĨ":12937,"è¿Ļä¸«å¤´":12938,"æľīå¤§":12939,"ä¸ĭéĿ¢çļĦ":12940,"Ġè¿Ļåıª":12941,"Ġè¿Ļåľº":12942,"åĩºéĿ¢":12943,"å°ıäºº":12944,"å¿ĥåĬ¨":12945,"éĿ¢ä¸´":12946,"å¯¹è¿Ļä¸ª":12947,"Ġå¤Ł":12948,"æµĴ":12949,"èĢĮåħ¥":12950,"èĲĮ":12951,"åĪĨäºĨ":12952,"éĩįå¤§":12953,"äºĶä¸ĩ":12954,"å¸¦äºĨ":12955,"éĿĴçģ«":12956,"åĵįäºĨèµ·æĿ¥":12957,"åĿĲéķĩ":12958,"åĽ´çĿĢ":12959,"Ġä»İå°ı":12960,"æ¯Ĵèį¯":12961,"åŀ«":12962,"Ġèĥľ":12963,"çļĦæīĭæĮĩ":12964,"åį¡æīİ":12965,"åľĪåŃĲ":12966,"Ġç½Ĺæĸ¯":12967,"åºĵæĸ¯":12968,"Ġç¾İå¥³":12969,"ä¸įèµ·æĿ¥":12970,"ä¸įè®¸":12971,"åľ¨åĨħ":12972,"å¤§å®¶çļĦ":12973,"å¤§åĵŃ":12974,"å¤§æĭĩæĮĩ":12975,"ä¸ŃåįĪ":12976,"å¤´å¸®":12977,"ĠéĤ£åĲį":12978,"çľŁå¿ĥ":12979,"å¥¹åľ°":12980,"åĪĨçļĦ":12981,"æ¯ĶçĿĢ":12982,"çĲī":12983,"ä¿®å¤į":12984,"çİĭåŃĲ":12985,"è¿ĺæĺ¯æľīäºĽ":12986,"åĪļå¥½":12987,"åįĬå¤ľ":12988,"æĢĿæĥ³":12989,"åįİå±±":12990,"æļĹåĻ¨":12991,"çĶ·æľĭåıĭ":12992,"Ġçľ¼çľĭçĿĢ":12993,"ĠåĨįçľĭ":12994,"åİīå£°åĸĿéģĵ":12995,"çĵ£":12996,"æ¹¾":12997,"çº¿ä¸Ĭ":12998,"åı·ç§°":12999,"éĻĪéĽį":13000,"Ġç¬ĳå®¹":13001,"çĺ¾":13002,"å·«æķĻ":13003,"æ¬£æħ°":13004,"æħĮä¹±":13005,"è·ªä¸ĭ":13006,"ĠæĪĸèĢħæĺ¯":13007,"ĠmÃ":13008,"åį¡æīİåĽł":13009,"Çİ":13010,"Ġä¸¢":13011,"çļĦåĬŀæ³ķ":13012,"æĺ¶":13013,"ä¸įèĥľ":13014,"åı½":13015,"è¯µ":13016,"ä½łä¸ª":13017,"ä¸ĭè½¦":13018,"åīª":13019,"éĢŀ":13020,"å°ıäºĭ":13021,"èĩªå¾Ĺ":13022,"æĮ«":13023,"èĢģäºĮ":13024,"åĬ¨åľ°":13025,"èĤĿ":13026,"ĠåĲ±":13027,"ĠçľĭäºĨä¸Ģçľ¼":13028,"æįĨ":13029,"ä¿¡ä¾¯":13030,"ä¸İå¥¹":13031,"èģĤ":13032,"ç¨½éĿŀ":13033,"ç²¾å½©":13034,"Ġå¿ĥå¤´":13035,"å¿ĥä¸Ńä¸ĢåĬ¨":13036,"ĠæĢİä¹ĪåĬŀ":13037,"ç©¿è¶Ĭ":13038,"ĠåĲ¬äºĨ":13039,"ĠéĢī":13040,"Ġåĩłä½į":13041,"è£ħçĶ²":13042,"å¥½åĥıæĺ¯":13043,"ä¸įäºĨå¤ļå°ĳ":13044,"åī§çĥĪçļĦ":13045,"Ġå¤ªåŃĲ":13046,"åı¬éĽĨ":13047,"Ġæĸĩæ²³":13048,"Ġç¬ĳçĿĢéģĵ":13049,"æĻĭåħĥ":13050,"æ·®çĳ¾":13051,"ä¸įåıĺ":13052,"åĲı":13053,"ä»ĸä¸Ģ":13054,"å¤§å°ĨåĨĽ":13055,"Ġè¿Ļåĩłå¤©":13056,"Ġä½łéĤ£":13057,"è¦ģæĬĬ":13058,"ä¹ĭéĹ¨":13059,"ç¥·":13060,"å®¶ä¹¡":13061,"Ġä¸Ģç§į":13062,"èĦ¸çļĦ":13063,"å¸Īå°Ĭ":13064,"éĵ®":13065,"çĮĬ":13066,"çļĦä¸ĢæĿ¡":13067,"å¸¸å¸¸":13068,"ĠèĢģèĥ¡":13069,"åħĥåįİ":13070,"ĠæĿİæ³°":13071,"å¾·æĸ¯":13072,"åĵįå£°":13073,"éļıä¹ĭ":13074,"åĲĦåľ°":13075,"éķĩå®Ī":13076,"å¡ŀå¾·æĸ¯":13077,"åĽłæŃ¤":13078,"å¿įä¸įä½ıçļĦ":13079,"èĵĿåºľ":13080,"å¤©åľ°åħĥæ°Ķ":13081,"åĸĦæĸŃ":13082,"èĿİåŃĲ":13083,"Ġè¡ĮäºĨ":13084,"ĠçĿģ":13085,"æ¹¿æ¶¦":13086,"ç«ĸèµ·":13087,"ĠåºŁè¯Ŀ":13088,"¤éħĴ":13089,"Łéĥ½":13090,"çļĦåĴĮ":13091,"ä¸Ģæ¨¡ä¸Ģæł·":13092,"å°¿":13093,"è¿Ļç¾¤":13094,"æĪĳåķĬ":13095,"å°±æĽ´":13096,"æĬ¢äºĨ":13097,"å±¥":13098,"ĠæŀĹéĢļ":13099,"å¤ļè¾¾":13100,"æĪĲè¿Ļæł·":13101,"éķ¿åıĳ":13102,"çľŁéŃĤ":13103,"æĺİç¡®":13104,"éĩĳçŁ¿":13105,"åħĪæĺ¯":13106,"åħ¨åĨĽ":13107,"ĠæŀĹæĻļèį£åĲ¬å¾Ĺ":13108,"åĭº":13109,"éĿĴèī²":13110,"Ġéĥ½èĥ½":13111,"å®¹ç´«èĭ±":13112,"å®«æ®¿":13113,"æľįçļĦ":13114,"èĭ¦æ¶©":13115,"æķĻä¼ļ":13116,"æ¶ĪçģŃ":13117,"æ¨±":13118,"è°ģéĥ½":13119,"Ġä¸īä½į":13120,"ĠèĻ½çĦ¶ä»ĸ":13121,"ä¾Ŀèİ²":13122,"æİīå¤´":13123,"Ġäººç¾¤":13124,"éģĩä¸Ĭ":13125,"èŃ¦åį«":13126,"Ġç®Ń":13127,"ä¸įéĶĻçļĦ":13128,"ç¬¼éģĵ":13129,"Ġæ°ĶåĬ¿":13130,"Ġç¦Ħä¸ľèµŀ":13131,"èµĮçŁ³":13132,"è´´èº«":13133,"éŁ©ä¸īå¼º":13134,"Ġç®Ģåįķ":13135,"Ġå¾Īå¿«å°±":13136,"ĠåħĦå¼Łä»¬":13137,"ĠæĺŁçĴĩéģĵ":13138,"Ġå®¹åº·":13139,"çĽ¸è§Ĩä¸Ģçľ¼":13140,"ä¸įåħ¥":13141,"äººçļĩ":13142,"ĠæĪĳåĨĽ":13143,"ĠæĪĳæĢķ":13144,"çľĭä½ł":13145,"å¤´éĽķ":13146,"éĿ¢æĹłè¡¨æĥħ":13147,"ç¥ŀç»ı":13148,"æĹłèĥ½":13149,"è¯ĿçļĦ":13150,"å½ĵçļĦ":13151,"åĽĽäºĶ":13152,"ä¿®åĽł":13153,"Ġåį´åĲ¬":13154,"å¼ŁåħĦ":13155,"æŃ¥ä¼Ĳ":13156,"åįĬæĪª":13157,"æ¢¨":13158,"Ġæĸ¹æŀĹ":13159,"Ġè¦ģä¸įè¦ģ":13160,"åŃ¦éĹ®":13161,"è®¸æĢ»":13162,"æ£ī":13163,"æĺŁçŁ³":13164,"èĮ¬":13165,"Ġéļ¾ä»¥":13166,"åĹĴ":13167,"ĠçŃīå¾ħ":13168,"åĬ²é£İ":13169,"é»ĺçĦ¶":13170,"Ġé»ĳè¡£":13171,"çıłå®Ŀ":13172,"ç§ĺæľ¯":13173,"æł¹æľ¬å°±ä¸į":13174,"é»Ħèī²":13175,"å¼Ħå¾Ĺ":13176,"åĳĬè¯īä»ĸ":13177,"èħ¿ä¸Ĭ":13178,"ĠéĿĴéĺ³":13179,"çĭ±å³°":13180,"éķľåŃĲ":13181,"ĠæŃ»äºĨ":13182,"ä»İæĿ¥æ²¡":13183,"åĮĨå¿Ļ":13184,"æĶ¾åľ¨çľ¼éĩĮ":13185,"æĦ§çĸļ":13186,"è¿«ä¸įåıĬå¾ħ":13187,"æĳ©æĵ¦":13188,"æ¼Ĥäº®çļĦ":13189,"éŃħåĬĽ":13190,"Ã²":13191,"éĽ³":13192,"è¿ĩå¤´åİ»":13193,"éĤ£å°ıåŃĲ":13194,"éĿ¢åŃĶ":13195,"ä¸īå°º":13196,"æĹłæīĢè°ĵ":13197,"Ġåįĸ":13198,"é«ĺå±Ĥ":13199,"æī¬èµ·":13200,"ç§įç§į":13201,"Ġè¿ĺä¸įå¦Ĥ":13202,"éĩįå¤į":13203,"åĲįåı«":13204,"éĩĳèī²çļĦ":13205,"å¢Ł":13206,"æİ¥å¾ħ":13207,"ĠæľīçĿĢ":13208,"Ġå¯¼":13209,"ä¼łå¥ĩ":13210,"éļ¾æĢª":13211,"Ġçİ°åľ¨æĪĳ":13212,"Ġéĺ®":13213,"çļĦå¤§éĹ¨":13214,"èµ¶è·¯":13215,"èĦ¸ä¸Ĭéľ²åĩº":13216,"éĢĥèµ°":13217,"ä¸¾çĿĢ":13218,"ĠåĽĽå¤§":13219,"é¡ºæīĭ":13220,"Ġç½¢äºĨ":13221,"å¯Įè´µ":13222,"æĢİä¼ļ":13223,"çĬ¯äºĨ":13224,"æµĵæµĵ":13225,"æĥ¯äºĨ":13226,"Ġè®°å¾Ĺ":13227,"ĠæĪĳçľĭä½ł":13228,"åİĨåı²ä¸Ĭ":13229,"åıīåıī":13230,"ĠçĶ°çıĤåĦ¿":13231,"ĠçķĻä¸ĭ":13232,"æįĤä½ı":13233,"åĲģåĲģ":13234,"ĠæŀĹéĽ·åĴĮè´Ŀè´Ŀ":13235,"Ġi":13236,"çļĦä»Ļ":13237,"å®ħåŃĲ":13238,"æĿ¥è¿ĩ":13239,"åľ¨èº«":13240,"æ²¦":13241,"æķ¦":13242,"æĭŁ":13243,"æĹłäºĭ":13244,"éķ¶":13245,"æĥħæĻ¯":13246,"ĠåĲŀ":13247,"Ġä½Ĩè¿ĺæĺ¯":13248,"Ġä¹Łç®Ĺ":13249,"Ġåľ¨è¿Ļç§į":13250,"æĥĬè¯§":13251,"å®ĮæĪĲäºĨ":13252,"Ġåĩĳ":13253,"ç¬¬ä¸ĥ":13254,"ç²¾éĢļ":13255,"åĪ©äºļ":13256,"æĲĢ":13257,"èĦĳåŃĲéĩĮ":13258,"çĨı":13259,"ĠçĦ¶åĲİå°±":13260,"åģľæŃ¢äºĨ":13261,"ĠæĬĬä»ĸ":13262,"çĽ´æİ¥æľĿ":13263,"èĪĴåīĳ":13264,"æľīä»Ģä¹Īåħ³ç³»":13265,"æĳ¸äºĨ":13266,"ç»§ç»Ńè¯´":13267,"éģįäºĨ":13268,"éĹ·åĵį":13269,"Ġæ®ĭ":13270,"Ġçº¢å£¶":13271,"æģŃæķ¬éģĵ":13272,"Ġçĸ¾":13273,"éģ®æİ©":13274,"ĠæĹ¥åĲİ":13275,"åĸĥåĸĥéģĵ":13276,"æķ£åıĳçĿĢ":13277,"ĠåĽ¾ç´¢ä½Ĳ":13278,"æĢłæħ¢":13279,"Ġk":13280,"åľ¨åīįéĿ¢":13281,"å¤§èĽĩ":13282,"Ġä½łæ²¡":13283,"åīĶ":13284,"åĲİèĥĮ":13285,"èĩªè±ª":13286,"æĶĺ":13287,"Ġåı¯æĪĳ":13288,"èµ°è¿ĩ":13289,"å®ļè¦ģ":13290,"Ġå°ıå§ĳå¨ĺ":13291,"Ġå°ıèļ©æ¯Ľçºł":13292,"ä¸ĩä¸ĩ":13293,"åı«äºº":13294,"Ġå½ĵä»ĸ":13295,"æ·±åİļ":13296,"å¤«å¦ĩ":13297,"çĶµåŃĲ":13298,"ç»ĵå±Ģ":13299,"æĺĵè¡į":13300,"ĠçŃīä½ł":13301,"çĽ´æİ¥è¢«":13302,"çļĦéĤ£æł·":13303,"æļ´éĽ¨":13304,"åĲĵåĶ¬":13305,"ĠåıĮçľ¸":13306,"éĺ¿å¥´":13307,"æľĢåĲİä¸Ģä¸ª":13308,"åĨĻçĿĢ":13309,"èĮ¶æĿ¯":13310,"æĲŃçĲĨ":13311,"ç§Ĵç§į":13312,"çŀ¥äºĨ":13313,"çİ²çıĳ":13314,"éĶ»çĤ¼":13315,"Ġå¥½æ±īä»¬":13316,"ç¬ĳéĿŀç¬ĳ":13317,"Ġd":13318,"Ġ----":13319,"ä¸Ģå¿ĥ":13320,"æľīä¸¤ä¸ª":13321,"åľ¨æĪĳä»¬":13322,"èº«åİ»":13323,"èĦĸ":13324,"å¯¹ä»ĸçļĦ":13325,"æ¸ħå½¦":13326,"èĢģé«ĺ":13327,"å¦ĤéĽ·":13328,"åıĳåĳĨ":13329,"æīįéģĵ":13330,"é«ĺå¼º":13331,"Ġå¤§æŃ¥":13332,"Ġåı¶çĪ·":13333,"åıĺå¼Ĥ":13334,"Ġç¬¬ä¸Ģä¸ª":13335,"Ġä¸įè¿ĩåĤħæ¸ħæī¬":13336,"é©¬åºĵæĸ¯":13337,"è·Łä»ĸä»¬":13338,"æĶ¾ä¸ĭäºĨ":13339,"å®ĮèĽĭ":13340,"Ġä½Ĩæĺ¯çİ°åľ¨":13341,"å¼łæľĽ":13342,"åħ«åįģ":13343,"åĵªä½į":13344,"å½¢æĢģ":13345,"æķĻçļĩ":13346,"åºľä¸Ń":13347,"Ġå°±æĺ¯ä¸ºäºĨ":13348,"ĠæĤ²":13349,"æİ¨æ¼Ķ":13350,"æ¥¼çļĦ":13351,"æłĳä¸Ĭ":13352,"èĩªçĦ¶ä¸įä¼ļ":13353,"ĠæĪĸæĺ¯":13354,"ĠçŁ®":13355,"çĺ«":13356,"æĸ¹äºĳçļĦ":13357,"åĲ«ä¹ī":13358,"æħķçĻ½":13359,"æī§äºĭ":13360,"Ġå°±åľ¨è¿ĻæĹ¶":13361,"æ³°åĴĮä¼ļ":13362,"¹éĽ³":13363,"Ġä¸ĵéĹ¨":13364,"çļĦåĨħ":13365,"æĢ¦":13366,"Ġä½łéļ¾éģĵ":13367,"èĩªæĪĳ":13368,"æĥ³è®©":13369,"Ġå¥´":13370,"èĪĶ":13371,"æŃ»åĲİ":13372,"å°Ĩèĩªå·±":13373,"åŁĥ":13374,"è¡ĮåĨĽ":13375,"åĲ¬æĪĳ":13376,"åīĳå½±":13377,"åĲĳå¤ĸ":13378,"Ġæĺ¯ä»ĸ":13379,"çĽ¸åħ³":13380,"æīĢä¸º":13381,"ä»Ĭå¹´":13382,"Ġå½Ń":13383,"åı«ä»ĸ":13384,"Ġä»ĸä»¬éĥ½æĺ¯":13385,"ĠçĶļ":13386,"èĬ±äºĨ":13387,"å¹²æİī":13388,"åĸĿèĮ¶":13389,"çº§éŃĶæ³ķå¸Ī":13390,"åıįåĢĴ":13391,"åħĦå¼Łä»¬":13392,"èĥ¡ä¹±":13393,"ĠçĻ½è¢į":13394,"çļ±äºĨä¸ĭ":13395,"å²ģæľĪ":13396,"ĠåİŁæĿ¥å¦ĤæŃ¤":13397,"èĢĥæł¸":13398,"èº²å¼Ģ":13399,"å¼Ģåı£äºĨ":13400,"Ġé£İçĭĤ":13401,"è¯¸èĳĽ":13402,"è¿ĺä¸įå¦Ĥ":13403,"Ġä½ķå¤©çª¦":13404,"ĠéªĤ":13405,"èº«æĹģçļĦ":13406,"ç¹ģåįİ":13407,"å±ıå¹ķ":13408,"ç¦ħå¸Ī":13409,"èĢ½æĲģ":13410,"ĠåŃĶå¼©åĦ¿":13411,"å¹½åĨ¥æŀľ":13412,"Ġè´ºèĢģä¸ī":13413,"å«īå¦Ĵ":13414,"è©¹å°¼":13415,"Ġç£":13416,"éģĵéĹ¨":13417,"æľīçĶ¨":13418,"ä¸ªä¸įåģľ":13419,"éĩī":13420,"å¤§æĸ¹":13421,"å¤§ç¬ĳçĿĢ":13422,"æ³³":13423,"ĠæŀĹå¤©åįĹ":13424,"ç®ĵ":13425,"åħīéĹªçĥģ":13426,"ĠæīĪä¸īå¨ĺ":13427,"åıĪè¢«":13428,"å¼ºå£®":13429,"å¤ĸè¡¨":13430,"åģļæ³ķ":13431,"åı¶åħĪçĶŁ":13432,"çĽ¸ä¼¼":13433,"Ġå¥¹è§īå¾Ĺ":13434,"ĠæĪĳä»¬éĥ½":13435,"Ġå½ĵæĹ¥":13436,"å¹³æ·¡":13437,"åįİå®ī":13438,"åĻľ":13439,"Ġè®©æĪĳä»¬":13440,"Ġè¿Ļæĺ¯ä¸ª":13441,"æ¥ļæ¥ļ":13442,"åĲ¸æķĽ":13443,"Ġå§¬":13444,"Ġè°ģæķ¢":13445,"æķĳäºº":13446,"éĻ¢åŃĲéĩĮ":13447,"ĠçĪĨ":13448,"ĠçŁ¥":13449,"ä»ĩäºº":13450,"ä¹Łæ²¡æľīæĥ³åĪ°":13451,"ç¢°åĪ°äºĨ":13452,"ä¸įè§ģå¾Ĺ":13453,"Ġèĥ¡è¯´":13454,"åķ¸å£°":13455,"Ġä¸įçŁ¥ä¸įè§ī":13456,"æĿ¨æĺİåįİ":13457,"èģªæĺİäºº":13458,"åĭ¾ç»ĵ":13459,"å¿½åľ°":13460,"ç´§ç´§çļĦ":13461,"åĸĺåĲģåĲģ":13462,"åĴ§åĴ§":13463,"æīĵäºĨä¸ªå¯Ĵ":13464,"Ġæ¯«æĹł":13465,"ç¥Ŀç»´é£İ":13466,"å½ªæĤį":13467,"ĠéĻ¤æŃ¤ä¹ĭå¤ĸ":13468,"Ġéģ¥":13469,"çļĦä¿®å£«":13470,"äºĨèĩªå·±çļĦ":13471,"æľīåĩł":13472,"è¯´è¿Ļ":13473,"Ġä½łèĭ¥æĺ¯":13474,"éĤ£åī¯":13475,"åºĩ":13476,"ä¹ĭä½Ļ":13477,"è¡Ķ":13478,"å°ıæ³ī":13479,"èĥ½è®©":13480,"åĵī":13481,"ĠæŀĹåĨ²":13482,"åĬ¨äºĨä¸Ģä¸ĭ":13483,"Ġä½Ĩè§ģ":13484,"èµ°è¿ĳ":13485,"å¥³å£«":13486,"Ġå¤§æ®¿":13487,"ç¼´":13488,"å°±æĺ¯æĪĳ":13489,"æĦŁæĤŁ":13490,"æĸ¯åĿ¦":13491,"åºĶå¯¹":13492,"æĶ¾åĪ°":13493,"é¢Ĩåľ°":13494,"åłĥ":13495,"ä¸įèĥ½ä¸į":13496,"çĶµåħī":13497,"Ġå°±æĺ¯æĪĳ":13498,"Ġèº«è¾¹":13499,"èĨı":13500,"å·§çļĦ":13501,"å¿µåı¨":13502,"ä¸¥åİī":13503,"è£Ĥå¼Ģ":13504,"çĶ»åŁİ":13505,"çļĦç¥ŀéĢļ":13506,"å¹¸è¿Ĳ":13507,"åĲ«ç³Ĭ":13508,"åĬ«åĮª":13509,"å¹¿åĳĬ":13510,"æĤĦæĹłå£°":13511,"Ġæ²īå£°éģĵ":13512,"éĶĢéĩĳçªĿ":13513,"Ġçĺ¦":13514,"Ġä¹ĭåĲİ":13515,"Ŀåĵģ":13516,"çļĦåĦ¿åŃĲ":13517,"ä¸įç¦»":13518,"ä¸įæĦ¿":13519,"ä¸įéĢı":13520,"åĩ¹":13521,"Ġ:âĢĺ":13522,"åľ¨è¿ľä¸ľ":13523,"åľ°åľ¨":13524,"åľ°çĽ¯çĿĢ":13525,"ĠåıĽ":13526,"ĠãĢĤâĢĿîĢĦ":13527,"Ġä½łæĿ¥":13528,"åĴĭ":13529,"éĢµ":13530,"å°ıéĺŁ":13531,"å¿ĥçģµ":13532,"çĤ«":13533,"å¯¹æŀĹéĽ·":13534,"ç¥ŀåĤĢåĦ¡":13535,"Ġå¥¶":13536,"åĬ¨çĶ¨":13537,"Ġä¹Łå¥½":13538,"æŃ»æŃ»çļĦ":13539,"å·²ç»ıå®Įåħ¨":13540,"å°Ĩè¿ĳ":13541,"æŃ£ä¸Ń":13542,"åį´æ²¡":13543,"åį´å¾Ī":13544,"åĪĨè¾¨":13545,"çĽ¸è¯Ĩ":13546,"åĳ½äºĨ":13547,"ç¦»çľŁäºº":13548,"ä¸ĸæ°ĳ":13549,"å¾·æŀĹæŁ¯æ²ĥçī¹":13550,"åıĮåīĳ":13551,"ä»¤ä¸ĭ":13552,"å¿ħæŃ»":13553,"Ġåĭĩ":13554,"Ġè¿ŀç»Ń":13555,"å¿įèĢĲ":13556,"ç¦ģåľ°":13557,"åıĸå¾Ĺ":13558,"ĠéĽ·æŀĹ":13559,"ä»¥ä¸ºèĩªå·±":13560,"ĠæĿ¥äºĨ":13561,"çĶ»åį·":13562,"æĬĹè¡¡":13563,"ĠèĲ§å®¶":13564,"æ¦Ĥå¿µ":13565,"ç¬¦æĸĩ":13566,"æĨ¨":13567,"å¿ħé¡»è¦ģ":13568,"Ġå¦ĤæŃ¤ä¸ĢæĿ¥":13569,"æĮ£èĦ±":13570,"åĵĢæ±Ĥ":13571,"çļĦæ°ĶåĬ¿":13572,"æĸ¥åĢĻ":13573,"ä¿ıèĦ¸":13574,"ãĢģâĢľ":13575,"çĭĦèįĴ":13576,"ç§Ĵç§įåĲİ":13577,"Ġçļ®":13578,"çļĦçĶ·åŃĲ":13579,"çļĦæ¯įäº²":13580,"ä¸Ģæī¹":13581,"Ġä½łæĬĬ":13582,"è¿ĺè®°å¾Ĺ":13583,"ä¹ĭä¸º":13584,"ä¹ĭå¢ĥ":13585,"ç¬ĳäºĨä¸Ģå£°":13586,"äºĭåĬ¡":13587,"å¤ļæĹ¶":13588,"å¤ļæľĪ":13589,"ä¸¤ç§į":13590,"Ġæľĭåıĭ":13591,"Ġå¤§çº¦":13592,"åģļè¿ĩ":13593,"åĨįå¤ļ":13594,"åĨįä¹Łæ²¡æľī":13595,"æĿĢæŃ»äºĨ":13596,"åħ¬éĩĮ":13597,"ç²ĺ":13598,"æ®Ĩ":13599,"å¸¦æĿ¥äºĨ":13600,"æī¾ä»ĸ":13601,"æī¾æŃ»":13602,"Ġä½Ĩæĺ¯ä½ł":13603,"åĸľèī²":13604,"çł´è§£":13605,"æķĻä½ł":13606,"ç»ĵåĲĪ":13607,"åİīéĽ·":13608,"å¢ĥåĨħ":13609,"éĤ£ä¹Īå¥½":13610,"åĩºåİ»çļĦ":13611,"æĦ£äºĨ":13612,"Ġéķ¿åį¿":13613,"å°Ĭéĩį":13614,"Ġçģ°":13615,"åħħæĸ¥":13616,"å»ºéĢł":13617,"ç¨³å®ļ":13618,"åıĳçĶŁçļĦäºĭæĥħ":13619,"ä½Ĩæĺ¯":13620,"æ¯ģäºĨ":13621,"è¸ªå½±":13622,"ĠçģµåĦ¿":13623,"ĠåĵİåĵŁ":13624,"Ġå¤´åıĳ":13625,"Ġæľªå¿ħ":13626,"Ġåĳ¨åĽ´çļĦ":13627,"ç©ºæ°Ķä¸Ń":13628,"æ´ĭæ´ĭçļĦ":13629,"ç¥ŀéŃĶçĤ¼ä½ĵ":13630,"éħ¥èĥ¸":13631,"Ġæĵį":13632,"Ġå¦®ä¸Ŀ":13633,"Ġä»ĵ":13634,"æľīåĬŀæ³ķ":13635,"ĠæĪĳåĳĬè¯īä½ł":13636,"Ġä¸Ģä¸ĭ":13637,"æĸ¹èħĬ":13638,"é«ĺæ¹Ľ":13639,"æľ¬åĳ½":13640,"åıĪèĥ½":13641,"ä¸ĩä¸Ģ":13642,"çĽ´äºĨ":13643,"é»ĳéĴ°éĩįåīĳ":13644,"ĠæŀĹæĻļèį£ç¬ĳçĿĢ":13645,"ĠæŀĹæĻļèį£çĤ¹çĤ¹å¤´":13646,"åºĶäºĨä¸Ģå£°":13647,"éħ¬":13648,"åĩ»ä¸Ń":13649,"ĠèĢģåħĶå¦ĸ":13650,"æ¥¹":13651,"ĠåıĪæĺ¯ä¸Ģ":13652,"åŃ¦åĳĺ":13653,"Ġèµ¢":13654,"ĠèµĮ":13655,"Ġé¡»":13656,"éĴ±è´¢":13657,"å·¨äºº":13658,"æķ£åıĳåĩº":13659,"ç©¿çĿĢä¸Ģ":13660,"ç´«èįĨ":13661,"æ¸©ä¸įåģļ":13662,"Ġèĭ¥éĿŀ":13663,"æľŁçĽ¼":13664,"ĠåĽłä¸ºæĪĳ":13665,"å¥¥å¸ĥéĩĮ":13666,"çļĦæīĭä¸ĭ":13667,"èĦ¸èī²ä¸Ģåıĺ":13668,"å°¸çħŀ":13669,"ç»§ç»Ńéģĵ":13670,"Ġéĩįéĩį":13671,"èıľåĪĢ":13672,"çħŀçĻ½":13673,"èĿī":13674,"éļĲéļĲçļĦ":13675,"ä¸Ģä¸ĭåŃĲå°±":13676,"çĪ¬èµ·æĿ¥":13677,"éĴ¢éĵģ":13678,"ĠéĽªè§ģéģĵ":13679,"èĢģå¤ªå¤ª":13680,"Ġä¹Ĳç¾ĬçĶľ":13681,"æµĴä¸īæĿ°":13682,"©åºı":13683,"çļĦè¦ģ":13684,"éģĵè§Ĥ":13685,"åľ°åĨ²":13686,"Ġè¿Ļä¼ļ":13687,"å¤´çĸ¼":13688,"éĺ±":13689,"åīįæīĢæľª":13690,"æĹłå½±":13691,"Ġåįł":13692,"å·²ç»ıå¼Ģå§ĭ":13693,"å¥³åŃĲçļĦ":13694,"è¿ľåı¤":13695,"Ġæĺ¯ä¸Ģä¸ª":13696,"åģļä¸»":13697,"æĿĢäºĨä»ĸ":13698,"æ¶¯":13699,"è£¸":13700,"æĢ¥å¾Ĺ":13701,"çļĩå®¤":13702,"ĠæĿİæŃ¦éĻµ":13703,"è¶Ĭå¤ļ":13704,"åĵªåĦ¿":13705,"ä¹¦æĪ¿":13706,"æĬ±æĢ¨":13707,"ĠéĻĪéĽį":13708,"ä¸ĢçĽ´æ²¡æľī":13709,"åĪļæīįçļĦ":13710,"ĠèĤ²":13711,"çĩķä¸¹":13712,"ĠåĲĦèĩª":13713,"Ġæ¬¡":13714,"Ġå¾ĹåĪ°":13715,"ä¼Łå¤§çļĦ":13716,"ç³Łç³ķ":13717,"æĹłè¯ŃçļĦ":13718,"Ġåı¹æģ¯":13719,"å®¾é¦Ĩ":13720,"åĭĥçĦ¶":13721,"åħĥèĢģä¼ļ":13722,"Ġç¥Ŀç»´é£İ":13723,"ķåıĺ":13724,"ĽåŃĲ":13725,"ä¸Ģè·³":13726,"è¿Ļåī¯":13727,"ä¸Ĭä¸Ģæ¬¡":13728,"å¤§åĲį":13729,"ĠæĪĳåĸľæ¬¢":13730,"ä¹ĭä½į":13731,"å°ıæĹ¶åĢĻ":13732,"èº«å¤Ħ":13733,"è·µ":13734,"Ġä¸Ģåīĳ":13735,"æĪĲä¸Ģä¸ª":13736,"åĿª":13737,"äºİæĪĳ":13738,"èµ°å»Ĭ":13739,"Ġå¤§çİĭ":13740,"é£İçĭĤ":13741,"äºĳå¨ĺ":13742,"åĽĽä¸ªäºº":13743,"æļ®":13744,"éĢļä½ĵ":13745,"éħ¿":13746,"çŁ³çŁ¿èĦī":13747,"å¼łèĦ¸":13748,"æĸĩæĺİ":13749,"è§£å¼Ģ":13750,"ĠæĿİæ¸ħ":13751,"æ£º":13752,"æĭīå¼Ģ":13753,"çĤ¼æ°Ķ":13754,"åĺ´è¾¹":13755,"çľ¼çĿĽéĩĮ":13756,"å°Ķé©¬":13757,"èĳ±":13758,"æ¸©é¦¨":13759,"ĠéĢł":13760,"æĬĵèµ·":13761,"åįĹæĸ¹":13762,"Ġè¿ĺæľīä»Ģä¹Ī":13763,"ĠäºĮåĵ¥":13764,"è£ħä½ľ":13765,"éĵ¶éĴĪ":13766,"è°ĥåĬ¨":13767,"è¹Ń":13768,"çİ¯ç»ķ":13769,"å¥Ķè·ĳ":13770,"åĪĺèĢģåħŃ":13771,"å¤©ä¸ĭç¬¬ä¸Ģ":13772,"Ġæł¹æľ¬å°±":13773,"Ġéª¤":13774,"æ´Ĺæīĭ":13775,"éĻ·åħ¥äºĨ":13776,"å¯ºåºĻ":13777,"éŃĶç¥ŀåł¡":13778,"è¶³å¤ŁçļĦ":13779,"åħīå¤´å¦¹":13780,"åħ®åħ®":13781,"Ġåłª":13782,"çĬĢåĪ©":13783,"åĲŃå£°":13784,"å¨±ä¹Ĳ":13785,"Ã¬":13786,"çļĦçĪ¶äº²":13787,"äººä¹Ł":13788,"äººåķĬ":13789,"ä½łè¿Ļä¸ª":13790,"ä¹Łè§īå¾Ĺ":13791,"èµĿåĵģ":13792,"éĿ©":13793,"å¤´èĽĩ":13794,"åĢļ":13795,"Ġå¤º":13796,"äºĨä¸ĢåįĬ":13797,"äºĨä¸Ģç¤¼":13798,"æģĻ":13799,"åįģç±³":13800,"æĺİçİĭ":13801,"å·²ç»ıä¸į":13802,"å®ŀè´¨":13803,"Ġå°ıä¸«å¤´":13804,"è½»èĶĳ":13805,"åħ¬å¼Ģ":13806,"æİ¥ä¸ĭæĿ¥":13807,"å®ģæĦ¿":13808,"åĵįäº®":13809,"æĢĴäºĨ":13810,"æĿİç»§å®Ĺ":13811,"çļĦå¤§åĨĽ":13812,"ĠçŃĶ":13813,"ĠåĲ¬ä»ĸ":13814,"ç´¢æĢ§":13815,"Ġä¸Ĭä¸Ģæ¬¡":13816,"èĢ³ä¸Ń":13817,"åĮĹåĨ¥":13818,"ĠåħĪæĺ¯":13819,"æ°ıå®¶æĹı":13820,"åĩłä¹İæĺ¯":13821,"è½°åĩ»":13822,"åºĹéĵº":13823,"Ġä½łæĢİä¹ĪçŁ¥éģĵ":13824,"è®¨å¥½":13825,"äºĨåįĬæĻĮ":13826,"æŃ£å¸¸çļĦ":13827,"èĮĥåĽ´åĨħ":13828,"çī¹æ®ĬçļĦ":13829,"Ġä¸ĢåĪĩéĥ½":13830,"ĠåĬ¨ä½ľ":13831,"ĠåİĨåı²":13832,"^^":13833,"ä¸ĢæŃ»":13834,"äººæīį":13835,"åĨ½":13836,"æĪĳåĳ¢":13837,"å¤©éĿĴ":13838,"å¤©æ®¿":13839,"å°ıå¼Ł":13840,"èº«æīĭ":13841,"ç¬ĳäºĨåĩłå£°":13842,"æĥ³äºĨä¸Ģä¸ĭ":13843,"åīįçº¿":13844,"Ġå¥Ī":13845,"Ġåı¯ä»ĸ":13846,"æĪĲä¸Ģçīĩ":13847,"Ġçİ©":13848,"Ġåı¯æĺ¯æ²¡æĥ³åĪ°":13849,"æľĢæľī":13850,"ä¿®ç½Ĺ":13851,"Ġè¯´æĿ¥":13852,"Ġå¥½ä¸įå®¹æĺĵ":13853,"è·¯äºĨ":13854,"ĠèĢģæľ½":13855,"æµģçļĦ":13856,"å¹¶ä¸įçŁ¥éģĵ":13857,"å½¢æĪĲçļĦ":13858,"èĦļçļĦ":13859,"æıĲåĪ°":13860,"èĸĽè¶ħ":13861,"æĶ»åŁİ":13862,"é¡¾å°ıåĨĽ":13863,"éª¨éª¼":13864,"èĹıçĿĢ":13865,"ä»·éĴ±":13866,"ĠæīĭæĮģ":13867,"æŁ¥çľĭ":13868,"åĵŃäºĨ":13869,"ĠåĿĹ":13870,"èļĬ":13871,"æĺ¥èĭ¥åħ°":13872,"çĿģå¼ĢäºĨ":13873,"ĠéĩįéĩįçļĦ":13874,"å·«å¸Ī":13875,"å¼¯åĪĢ":13876,"ç»µç»µ":13877,"ĠåĶ¯çĭ¬":13878,"ĠçĽĸèĮ¨":13879,"é»ĳè¡£äºº":13880,"éŃģæ¢§":13881,"ç¡ķå¤§çļĦ":13882,"å¤§çĩķæľĿ":13883,"Ġå»º":13884,"ä¸ľå°¼é©¬åºĵæĸ¯":13885,"Ġå°īè¿ŁéĽª":13886,"ĩæ´Ĵ":13887,"çļĦéĥ¨éĺŁ":13888,"çļĦåĳ½ä»¤":13889,"æľīæŃ¤":13890,"ĠæĪĳéĹ®ä½ł":13891,"Ġä½łåį´":13892,"éĥ½å¾Ĺ":13893,"å¿ĥæĦ¿":13894,"åĴĮäºº":13895,"è¾ĪçļĦ":13896,"ĠéĤ£é»ĳ":13897,"æĮŁ":13898,"Ġåį·":13899,"Ġåįļ":13900,"åķ¤éħĴ":13901,"åıªå¾Ĺ":13902,"Ġæĺı":13903,"çĻ½åħī":13904,"ä¸įæĺ¯ä½ł":13905,"èµ°ä¸Ĭ":13906,"äºĮäººçļĦ":13907,"å¥³æľĭåıĭ":13908,"æŃ£è§Ħ":13909,"åĲĳä¸ĭ":13910,"Ġè¿ĺåľ¨":13911,"é©¼":13912,"ĠçľĭåĲĳ":13913,"äº²çĥŃ":13914,"æĽ´å¥½":13915,"ä¸ĸåłĥ":13916,"æµģæĺŁ":13917,"æİĮæ³ķ":13918,"ç²¾èĭ±":13919,"å¡ĺ":13920,"éĹªèº²":13921,"ĠèĻ½çĦ¶æĺ¯":13922,"æł¼æĭī":13923,"ĠçľŁåľ°":13924,"ĠæĮĤ":13925,"æ£®æŀĹ":13926,"ç¿»äºĨ":13927,"åĪĿæľŁ":13928,"ä»¥ä¸ºæĺ¯":13929,"çļĦå°ıæīĭ":13930,"æĸ½ä¸»":13931,"ĠåĽĽå¾·":13932,"ĠåĽĽç¥ŀåħ½":13933,"å°ĦèĢĮåĩº":13934,"æĪĸæĺ¯":13935,"ĠæľĽè§ģ":13936,"èµµä¾ĥ":13937,"èµĮåľº":13938,"åĲ´éģĵåŃĲ":13939,"Ġçºªæ°ı":13940,"å¿½çķ¥":13941,"æĴĴè°İ":13942,"ç°Į":13943,"ĠèĪ¹":13944,"åºĨå¹¸":13945,"çĵ·åĻ¨":13946,"Ġçº¨ç»ĶæīįåŃĲéļĲèĢħ":13947,"ĠæŀĹæĻļèį£åĺ¿åĺ¿ä¸Ģç¬ĳ":13948,"çĽĶçĶ²":13949,"ĠæĩĴ":13950,"®ä¸§":13951,"Ġè¿ĩæĿ¥":13952,"çļĦçİī":13953,"æĺ¯åĲ§":13954,"ä¸įçĪ½":13955,"åŃľ":13956,"æĪĳèĩªå·±":13957,"è¯´äºĨä¸Ģéģį":13958,"åĩºä»·":13959,"Ġä»ĸä¸Ģ":13960,"ä¹ĭèº«":13961,"å°ıä¸«å¤´":13962,"çĤģ":13963,"Ġ!âĢĿ......":13964,"ĠéĤ£ä¸ªäºº":13965,"ä¸īåĲį":13966,"å·²è¢«":13967,"å¦Ĥçİī":13968,"åıĳçĻ½":13969,"é«ĺå¤§çļĦ":13970,"Ġå¤§å¸ĪåħĦ":13971,"æŃ£ç¡®":13972,"é©´":13973,"ĠæĿ¾":13974,"æĿĢä¼¤":13975,"åħĪåİ»":13976,"ĠæĸĲ":13977,"Ġæĥ¹":13978,"éĿĴéĵľ":13979,"å¹³åİŁ":13980,"åı¯èĥ½ä¼ļ":13981,"æ²īéĩįçļĦ":13982,"å°½æĺ¯":13983,"ĠäººçĶŁ":13984,"éĽĨç»ĵ":13985,"æľ¨å¤´":13986,"ĠåĪ°çİ°åľ¨":13987,"ä¸ĢçĤ¹éĥ½ä¸į":13988,"ĠåĺŃ":13989,"å³°ä¸»ç¥ŀ":13990,"Ġéĺ¿èĽĭ":13991,"Ġæ¯ıä¸ªäºº":13992,"Ġæ¸©å®¶":13993,"æ¹ĸæ°´":13994,"ä»ĩå¯Į":13995,"å¥ĭåĬĽ":13996,"æĮĤåľ¨":13997,"ĠçĶŁåĳ½":13998,"Ġèĳ£å·§å·§":13999,"æ³ķåĪĻçİĦå¥¥":14000,"Ġåıĺå¾Ĺ":14001,"Ġä¹Ķå®īéĻĽä¸ĭ":14002,"æĦŁåºĶåĪ°":14003,"éĿĴé¾Ļä¸ĢæĹı":14004,"ĠçĻ»æĹ¶":14005,"èĵĿçĽ¾å®¶æĹı":14006,"ĠåŁºæľ¬ä¸Ĭ":14007,"Ġä¸Ŀ":14008,"ä¸Ģç©º":14009,"ä¸ĢæĹ©":14010,"åľ°ç¡®":14011,"ä¸Ĭæł¡":14012,"å¤§éĺŁ":14013,"ĠæĪĳåĢĴæĺ¯":14014,"çľĭæ¸ħæ¥ļ":14015,"çľĭä¸įæ¸ħ":14016,"Ġä»ĸä¹Łæĺ¯":14017,"ä¹ĭä¸ŃçļĦ":14018,"å°ıåŃ©åŃĲ":14019,"å¥½åķĬ":14020,"ç¬ĳåĲŁåĲŁ":14021,"å½¬":14022,"ĠæŀĹçĿ¿":14023,"ç¥ŀåĬŁ":14024,"Ġå¥Ķ":14025,"åĸ½":14026,"å¹´å¤´":14027,"çľŁæľī":14028,"é£İéĽ¨":14029,"æĪĺä¸Ń":14030,"åĲįå°Ĩ":14031,"Ġå®½":14032,"æīĢè§ģ":14033,"Ġåį´ä¸įçŁ¥éģĵ":14034,"è¡Ģæ¶²":14035,"æĢķä½ł":14036,"Ġç»Ħ":14037,"å®īç¢§å¦Ĥ":14038,"æµģè¡Ģ":14039,"ä¹ĿåŃĲ":14040,"å®ĿçŁ³":14041,"ç´«èī²":14042,"çħ§èĢĢ":14043,"ç¬ĳçĿĢè¯´":14044,"è°¢æĸĩæĺĬ":14045,"çİ©çļĦ":14046,"ĠäºĮæĿ¥":14047,"è¿Ľåħ¥åĪ°":14048,"Ġæīĵå¼Ģ":14049,"çĭ¬åŃ¤æĺŁ":14050,"åĩ¶æīĭ":14051,"æ¬ºéªĹ":14052,"ç¬¦åĲĪ":14053,"Ġçł¸":14054,"è¯¸äºº":14055,"ĠæŁĲ":14056,"Ġä¸Ģå®ļæĺ¯":14057,"æħ¢æħ¢çļĦ":14058,"Ġåħīæĺİä¸»å®°":14059,"èĤĸéĿĴçĴĩ":14060,"èĩ³é«ĺç¥ŀåĻ¨":14061,"Ġå§ĳå¨ĺ":14062,"æ¸´æľĽ":14063,"Ġæ²¿çĿĢ":14064,"çļĦåİīå®³":14065,"æľīç¤¼":14066,"æĿ¥åĪ°è¿ĻéĩĮ":14067,"æĿ¥å½¢å®¹":14068,"Ġè¿ĻæŀĹéĽ·":14069,"Ġä½łç»ĻæĪĳ":14070,"éĤ£æĹ¶":14071,"èº«ä¾§":14072,"ä¼ļæĺ¯":14073,"ä¼ļéķ¿":14074,"Ġä¸Ģåıĺ":14075,"Ġå°±åĩŃ":14076,"ĠåĲ¹":14077,"æīĵæĪĳ":14078,"å·²ç»ıæľīäºĨ":14079,"ĠåĪ¶":14080,"å®ŀéĻħ":14081,"Ġå°ıæ²Ļ":14082,"ĠåĨµ":14083,"é£ŀæī¬":14084,"çº¢åħī":14085,"æ»¡æĦıçļĦ":14086,"èĽĻ":14087,"ä½İçĿĢå¤´":14088,"è°ģèĥ½":14089,"å·¨åīĳ":14090,"æĢĢæľĶ":14091,"è¯´è¯ĿçļĦ":14092,"éĽĨåĲĪ":14093,"ä¸½çī¹":14094,"Ġè´Ŀè´ĿäºĮäºº":14095,"çļ±äºĨ":14096,"æĻ®é¡¿":14097,"Ġæĺİè¾ī":14098,"éģ¿å¼Ģ":14099,"ç¯®":14100,"æĵįæİ§":14101,"æ½®æ°´":14102,"ĠèĦļæŃ¥":14103,"ä¹łæĥ¯äºĨ":14104,"Ġåı¦ä¸Ģä¸ª":14105,"Ġç§Ģå·Ŀ":14106,"Ġå©ī":14107,"ç»½æĶ¾":14108,"ĠåĬªåĬĽ":14109,"Ġf":14110,"Ķéĺ³":14111,"ä»ĸèĥ½":14112,"æľīæĪĲ":14113,"æĪĳå®¶":14114,"çĽĲ":14115,"Ġä¸įä¹ħ":14116,"å¥½çĶŁ":14117,"ç«¯çĿĢ":14118,"çľ¼ä¸ŃçļĦ":14119,"æµĶéĺ³":14120,"ĠèĢ¶":14121,"å¨Ł":14122,"æ°´éĿ¢":14123,"ĠæĪĳä»¬ä¹Ł":14124,"Ġè¯´èµ·":14125,"éĺµåľ°":14126,"åı«äºĨèµ·æĿ¥":14127,"Ġåĩ¯":14128,"çĽ®ä¸Ń":14129,"çº¢åı¶":14130,"è·¯ç¨ĭ":14131,"æĮĩæľĽ":14132,"æľĪåħī":14133,"Ġéĥ½æľī":14134,"åĲĪåĬĽ":14135,"é¡¿äº²çİĭ":14136,"ä½İçļĦ":14137,"çķĻçĿĢ":14138,"Ġæĭħ":14139,"éĢģæŃ»":14140,"æĿ¾äºĨä¸Ģåı£æ°Ķ":14141,"è£ħå¤ĩ":14142,"åı³çİĭ":14143,"Ġéķ¿åıĳ":14144,"ĠçĪµ":14145,"Ġæ¯Ķä¹ĭ":14146,"å¥Ķåİ»":14147,"Ġå¥¥å¸ĥéĩĮ":14148,"æ´Ľæķı":14149,"æŁĦåīĳ":14150,"Ġä¸ŃéĹ´":14151,"Ġ***":14152,"ç§¯ç´¯":14153,"èĤļåŃĲéĩĮ":14154,"Ġå¸ĥé²ģé»ĺ":14155,"çļĦèĦ¸é¢Ĭ":14156,"Ġè¿ľä¸ľåĨĽ":14157,"æĭīä½ıå¥¹":14158,"åİĮæģ¶":14159,"é³ŀçīĩ":14160,"ĠçīĩåĪ»ä¹ĭåĲİ":14161,"è®ªè®ª":14162,"Ġè´«åĥ§":14163,"Ġå¥Īä½ķ":14164,"çļĦéĵģ":14165,"çļĦçĶŁæ´»":14166,"çļĦå¿µå¤´":14167,"ä¸ĢåľĪ":14168,"ä¸įå¦¨":14169,"å¿¿":14170,"æĬ¡":14171,"è¦ģåģļ":14172,"çľĭåľ°":14173,"åı¯è°ĵ":14174,"ç¥ŀé¼ł":14175,"çľ¼çĿģçĿģ":14176,"å¥¹äºĨ":14177,"Ġä¹Łåıªæĺ¯":14178,"ç»ĻæĤ¨":14179,"èµ°åĩºæĿ¥":14180,"æŃ¤å¤Ħ":14181,"æĤ´":14182,"éĩĳçĮĬ":14183,"æĪĳä»¬å°±":14184,"çĽ®éĩĳçĮĬ":14185,"Ġå¯¹éĿ¢":14186,"æ»¡æ»¡":14187,"éĿŀåĩ¡":14188,"ä¼¤äºº":14189,"å¥ĩè¿¹":14190,"ä½ĽéĻĢ":14191,"æ·¡çĦ¶éģĵ":14192,"æķĻèĤ²":14193,"å®ĹéĹ¨":14194,"æ¸©ä¸įèįī":14195,"ĠçĦ¶åĲİåıĪ":14196,"ĠåĮ»":14197,"Ġè´Ŀè´Ŀä¹Ł":14198,"ĠæĮ¡":14199,"ĠåĬŀ":14200,"åĽ¾ç´¢ä½Ĳ":14201,"Ġè¿Ļä¸ĢåĪĩ":14202,"Ġç©¶":14203,"æ´Ľå°ıå§Ĳ":14204,"ĠéŃĶæĹıçļĦ":14205,"ĠæŁ³çĽ¸":14206,"ä¿ĿæĬ¤ä½łçļĦ":14207,"Ġä¾ĿçĦ¶":14208,"åĨĽåĽ¢éķ¿":14209,"ç¼ĿéļĻ":14210,"ç¥ŀç§ĺçļĦ":14211,"ĠæŀĹæľĪå¦Ĥéģĵ":14212,"Ġæĳĩå¤´":14213,"å¤§æĥĬå¤±èī²":14214,"çĹĴçĹĴ":14215,"æĮ¥äºĨæĮ¥æīĭ":14216,"įæĻļ":14217,"çļĦäºĶ":14218,"ĠãĢĹ":14219,"ä¸įåºĶè¯¥":14220,"è¿Ļåıª":14221,"æľīåħ³ç³»":14222,"æĪĳåĲ§":14223,"è¿ĩä½ł":14224,"å¾Ĺåĥı":14225,"æĪŁ":14226,"Ġå°ĸ":14227,"Ġä»ĸåı¯æĺ¯":14228,"éĤ£åĿĹ":14229,"éĽ·è¥¿äºļ":14230,"åĴĮä½łä»¬":14231,"ä»¥ä¸ĬçļĦ":14232,"è´¡":14233,"ä¾¦":14234,"ä¸¤å¹´":14235,"Ġä¸ĢçĻ¾":14236,"æĹłåĲį":14237,"æĹłåıĮ":14238,"åĬ¨ä¸įåĬ¨":14239,"ä»İä¸Ń":14240,"é«ĺå£°":14241,"ä¸ľçĢĽ":14242,"æ¯Ķèĩªå·±":14243,"åħ¬åħ¬":14244,"æķ°åįģä¸ĩ":14245,"çļĦä¸Ģåº§":14246,"çļĦä¸Ģåı¥è¯Ŀ":14247,"ç§Ģåıĳ":14248,"èģĺ":14249,"æľºå¯Ĩ":14250,"åħŃäºº":14251,"æµ·æ°´":14252,"æĭ¿äºĨ":14253,"ä¸Ģä¸ĭåĲ§":14254,"åĽ¢åĽ¢":14255,"åĩĿç¥ŀ":14256,"æĩĪ":14257,"æ¯ĽçĹħ":14258,"å¤ļå°ĳéĴ±":14259,"Ġè¢«äºº":14260,"çĥ¦æģ¼":14261,"çĩ¥":14262,"ç»Ŀå¯¹ä¸įæĺ¯":14263,"èĦĨåĵį":14264,"Ġä½łè¦ģæĺ¯":14265,"ç¯Ĩ":14266,"å¤§ç¬ĳèµ·æĿ¥":14267,"åħ´å¥ĭçļĦ":14268,"Ġæĭīä½ı":14269,"ĠæĬ¬èµ·":14270,"çĽ¯ä½ı":14271,"ĠèĦĳè¢ĭ":14272,"ĠåĵĹåķ¦":14273,"å¥ĳçº¦":14274,"ĠéĢįéģ¥åŃĲ":14275,"Ġç¬¬ä¸Ģåįĥä¸ĢçĻ¾":14276,"ĠåĨµä¸Ķ":14277,"Ãł":14278,"ĶæĤ´":14279,"Ġåŀ":14280,"åĪģ":14281,"è¿Ļå¥Ĺ":14282,"äººçĶŁ":14283,"åľ¨æīĭ":14284,"å°±çŁ¥éģĵäºĨ":14285,"ä¸ĭå®ĺ":14286,"Ġä½łæľīä»Ģä¹Ī":14287,"éĤ£èĤ¡":14288,"èĥ½æĬĬ":14289,"ä¼ļåľ¨":14290,"è§ģå¾Ĺ":14291,"å¦ĤéĽ¨":14292,"Ġå°±è®©":14293,"åķ°":14294,"åĬ¨äºº":14295,"èĤĺ":14296,"éķ¿ç©º":14297,"çĻ½çĹ´":14298,"èĬĬ":14299,"è¿ĽæĿ¥äºĨ":14300,"åīĳèĬĴ":14301,"åĲĳä½ł":14302,"Ġå®ĺ":14303,"ä¸ĩæĺ¥":14304,"åŁİä¸ĭ":14305,"è·ŁæŀĹéĽ·":14306,"ä¼łåħ¥":14307,"èĲ½äºĨä¸ĭæĿ¥":14308,"åį³åı¯":14309,"çĹŀ":14310,"æŀģäºĨ":14311,"ç»ĿæĬĢ":14312,"è¶Ĭåıĳ":14313,"æĭ¿æĿ¥":14314,"ä¿Ŀåį«":14315,"åĻ¨ä¹Ł":14316,"é¸Ń":14317,"èĴ²":14318,"Ġåĩłä¸ªäºº":14319,"Ġæ²¡æľīä»Ģä¹Ī":14320,"Ġå¾Ĳéķ¿åį¿":14321,"èĥľè´Ł":14322,"æķ¬çķı":14323,"ĠçİīèĻļåŃĲ":14324,"Ġåįĥä»ŀ":14325,"ĠæŁ¥":14326,"èĸĦçļĦ":14327,"ĠåĲ´éģĵåŃĲ":14328,"Ġè´Ŀé²ģçī¹å¤§äºº":14329,"ä¸Ģä¸ªå°ıå°ıçļĦ":14330,"æĶ¹åıĺäºĨ":14331,"ĠçļĦç¡®æĺ¯":14332,"ĠçĲ¼":14333,"Ġç¦»å¼Ģ":14334,"ĠèľĢå±±":14335,"çļ±äºĨä¸ĭçľīå¤´":14336,"äºĨæĻĥ":14337,"ä¸Ģç¬Ķ":14338,"ä¸įå¦¥":14339,"è¿ĻèĤ¡":14340,"åŃĲéĩĮçļĦ":14341,"æ²®ä¸§":14342,"å¾Ĺä»ĸ":14343,"ĠéĤ£ä¸įæĺ¯":14344,"å®¶åºŃ":14345,"çĶŁéķ¿":14346,"æĪĲéķ¿":14347,"æ·ĺ":14348,"Ġæī¿":14349,"é«ĺæĺİ":14350,"é£İçļĦ":14351,"åģļåĩºäºĨ":14352,"æĥĬå¼Ĥ":14353,"åħ¬åŃĲçļĦ":14354,"åĩºæĿ¥åľ°":14355,"é©¬åĪĢ":14356,"åĪ«æĥ³":14357,"åĽ½å¤ĸ":14358,"çº¢åĨĽ":14359,"ä¸Ģæł·åľ°":14360,
[...]
